unsigned char Handshake_0603_2327_tflite[] = {
  0x1c, 0x00, 0x00, 0x00, 0x54, 0x46, 0x4c, 0x33, 0x14, 0x00, 0x20, 0x00,
  0x1c, 0x00, 0x18, 0x00, 0x14, 0x00, 0x10, 0x00, 0x0c, 0x00, 0x00, 0x00,
  0x08, 0x00, 0x04, 0x00, 0x14, 0x00, 0x00, 0x00, 0x1c, 0x00, 0x00, 0x00,
  0x98, 0x00, 0x00, 0x00, 0xf0, 0x00, 0x00, 0x00, 0x98, 0x16, 0x00, 0x00,
  0xa8, 0x16, 0x00, 0x00, 0xa0, 0x1d, 0x00, 0x00, 0x03, 0x00, 0x00, 0x00,
  0x01, 0x00, 0x00, 0x00, 0x10, 0x00, 0x00, 0x00, 0x00, 0x00, 0x0a, 0x00,
  0x10, 0x00, 0x0c, 0x00, 0x08, 0x00, 0x04, 0x00, 0x0a, 0x00, 0x00, 0x00,
  0x0c, 0x00, 0x00, 0x00, 0x1c, 0x00, 0x00, 0x00, 0x3c, 0x00, 0x00, 0x00,
  0x0f, 0x00, 0x00, 0x00, 0x73, 0x65, 0x72, 0x76, 0x69, 0x6e, 0x67, 0x5f,
  0x64, 0x65, 0x66, 0x61, 0x75, 0x6c, 0x74, 0x00, 0x01, 0x00, 0x00, 0x00,
  0x04, 0x00, 0x00, 0x00, 0x90, 0xff, 0xff, 0xff, 0x0c, 0x00, 0x00, 0x00,
  0x04, 0x00, 0x00, 0x00, 0x08, 0x00, 0x00, 0x00, 0x6f, 0x75, 0x74, 0x70,
  0x75, 0x74, 0x5f, 0x30, 0x00, 0x00, 0x00, 0x00, 0x01, 0x00, 0x00, 0x00,
  0x04, 0x00, 0x00, 0x00, 0x5a, 0xe9, 0xff, 0xff, 0x04, 0x00, 0x00, 0x00,
  0x0c, 0x00, 0x00, 0x00, 0x6b, 0x65, 0x72, 0x61, 0x73, 0x5f, 0x74, 0x65,
  0x6e, 0x73, 0x6f, 0x72, 0x00, 0x00, 0x00, 0x00, 0x02, 0x00, 0x00, 0x00,
  0x34, 0x00, 0x00, 0x00, 0x04, 0x00, 0x00, 0x00, 0xdc, 0xff, 0xff, 0xff,
  0x0f, 0x00, 0x00, 0x00, 0x04, 0x00, 0x00, 0x00, 0x13, 0x00, 0x00, 0x00,
  0x43, 0x4f, 0x4e, 0x56, 0x45, 0x52, 0x53, 0x49, 0x4f, 0x4e, 0x5f, 0x4d,
  0x45, 0x54, 0x41, 0x44, 0x41, 0x54, 0x41, 0x00, 0x08, 0x00, 0x0c, 0x00,
  0x08, 0x00, 0x04, 0x00, 0x08, 0x00, 0x00, 0x00, 0x0e, 0x00, 0x00, 0x00,
  0x04, 0x00, 0x00, 0x00, 0x13, 0x00, 0x00, 0x00, 0x6d, 0x69, 0x6e, 0x5f,
  0x72, 0x75, 0x6e, 0x74, 0x69, 0x6d, 0x65, 0x5f, 0x76, 0x65, 0x72, 0x73,
  0x69, 0x6f, 0x6e, 0x00, 0x10, 0x00, 0x00, 0x00, 0xa4, 0x15, 0x00, 0x00,
  0x9c, 0x15, 0x00, 0x00, 0xd4, 0x09, 0x00, 0x00, 0xf4, 0x06, 0x00, 0x00,
  0xb4, 0x06, 0x00, 0x00, 0xa0, 0x06, 0x00, 0x00, 0x54, 0x06, 0x00, 0x00,
  0x7c, 0x05, 0x00, 0x00, 0xbc, 0x00, 0x00, 0x00, 0xb4, 0x00, 0x00, 0x00,
  0xac, 0x00, 0x00, 0x00, 0xa4, 0x00, 0x00, 0x00, 0x9c, 0x00, 0x00, 0x00,
  0x94, 0x00, 0x00, 0x00, 0x74, 0x00, 0x00, 0x00, 0x04, 0x00, 0x00, 0x00,
  0x16, 0xea, 0xff, 0xff, 0x04, 0x00, 0x00, 0x00, 0x60, 0x00, 0x00, 0x00,
  0x10, 0x00, 0x00, 0x00, 0x00, 0x00, 0x00, 0x00, 0x08, 0x00, 0x0e, 0x00,
  0x08, 0x00, 0x04, 0x00, 0x08, 0x00, 0x00, 0x00, 0x10, 0x00, 0x00, 0x00,
  0x24, 0x00, 0x00, 0x00, 0x00, 0x00, 0x06, 0x00, 0x08, 0x00, 0x04, 0x00,
  0x06, 0x00, 0x00, 0x00, 0x04, 0x00, 0x00, 0x00, 0x00, 0x00, 0x00, 0x00,
  0x0c, 0x00, 0x18, 0x00, 0x14, 0x00, 0x10, 0x00, 0x0c, 0x00, 0x04, 0x00,
  0x0c, 0x00, 0x00, 0x00, 0x06, 0x09, 0xc6, 0x06, 0xfc, 0x03, 0x8a, 0xea,
  0x02, 0x00, 0x00, 0x00, 0x02, 0x00, 0x00, 0x00, 0x04, 0x00, 0x00, 0x00,
  0x06, 0x00, 0x00, 0x00, 0x32, 0x2e, 0x31, 0x39, 0x2e, 0x30, 0x00, 0x00,
  0x82, 0xea, 0xff, 0xff, 0x04, 0x00, 0x00, 0x00, 0x10, 0x00, 0x00, 0x00,
  0x32, 0x2e, 0x30, 0x2e, 0x30, 0x00, 0x00, 0x00, 0x00, 0x00, 0x00, 0x00,
  0x00, 0x00, 0x00, 0x00, 0x4c, 0xe4, 0xff, 0xff, 0x50, 0xe4, 0xff, 0xff,
  0x54, 0xe4, 0xff, 0xff, 0x58, 0xe4, 0xff, 0xff, 0x5c, 0xe4, 0xff, 0xff,
  0xb2, 0xea, 0xff, 0xff, 0x04, 0x00, 0x00, 0x00, 0xb0, 0x04, 0x00, 0x00,
  0xb9, 0xe0, 0xc4, 0x3d, 0xca, 0xa3, 0x52, 0x3f, 0x22, 0x90, 0x72, 0xbf,
  0x71, 0x5d, 0x82, 0xbe, 0x68, 0xbc, 0x38, 0x3e, 0x16, 0x1b, 0x0d, 0xbf,
  0x24, 0x41, 0x90, 0xbf, 0xe3, 0x32, 0x86, 0xbf, 0xf1, 0x0d, 0x78, 0x3f,
  0x7b, 0x7d, 0x35, 0xbd, 0x8c, 0x31, 0x24, 0x3e, 0x62, 0xd1, 0x28, 0xbb,
  0x0c, 0x8a, 0xc6, 0xbf, 0xaf, 0x3e, 0xcd, 0xbf, 0x44, 0x49, 0x0d, 0xc0,
  0xaa, 0x06, 0x99, 0x3e, 0x66, 0x01, 0x27, 0x3d, 0x3d, 0x4a, 0x6b, 0xbd,
  0xa1, 0xf9, 0xfe, 0x3f, 0xc6, 0x36, 0x18, 0xbe, 0x8c, 0x25, 0x16, 0x3f,
  0x95, 0xb5, 0xfa, 0x3c, 0xd9, 0x13, 0x92, 0xbd, 0x2c, 0x7f, 0xc0, 0x3c,
  0x1b, 0x78, 0x2a, 0x3f, 0xba, 0xa3, 0xf7, 0x3d, 0xbe, 0x89, 0xc7, 0x3d,
  0x7c, 0xb7, 0x74, 0x3e, 0x36, 0x66, 0xbd, 0xbe, 0x26, 0x4c, 0xb0, 0xbc,
  0x8e, 0x9f, 0x8f, 0x3e, 0x82, 0x64, 0xb3, 0xbf, 0xb2, 0x1f, 0x9d, 0x3f,
  0xaf, 0x53, 0xd2, 0x3d, 0xb9, 0xf9, 0x01, 0x3e, 0x3f, 0xb9, 0x3d, 0xbd,
  0x10, 0x27, 0x20, 0x40, 0xc1, 0xfa, 0xa0, 0x3e, 0x1c, 0xfc, 0x53, 0xbf,
  0x47, 0x00, 0xb0, 0x3d, 0xc0, 0xa6, 0xc5, 0x3d, 0x12, 0x00, 0xcc, 0x3c,
  0xc8, 0x36, 0xad, 0x3e, 0x78, 0x60, 0x2a, 0xbf, 0xa0, 0xbf, 0x21, 0xc0,
  0x6d, 0xd5, 0x7f, 0x3e, 0xd9, 0x1a, 0x13, 0xbe, 0x39, 0x86, 0x16, 0x3f,
  0x18, 0xe5, 0x6a, 0xbf, 0x2c, 0x3d, 0x80, 0x3f, 0x3f, 0xb9, 0xa5, 0xbf,
  0x7d, 0xfe, 0x7f, 0x3e, 0xfc, 0x92, 0xfd, 0x3e, 0x6c, 0x06, 0x01, 0xbf,
  0xc0, 0x34, 0x14, 0xc0, 0x9d, 0xc8, 0x96, 0x3e, 0x0d, 0xe4, 0x8c, 0x3e,
  0xad, 0xa0, 0x12, 0xbd, 0x6a, 0x26, 0x80, 0x3d, 0x2f, 0x9d, 0x02, 0x3e,
  0x66, 0x60, 0xe8, 0x3f, 0xd6, 0x7e, 0x20, 0xc0, 0x25, 0xfd, 0xca, 0x3d,
  0xd2, 0x6d, 0xe1, 0xbc, 0x25, 0x64, 0xa5, 0x3d, 0xc1, 0x36, 0x17, 0xbd,
  0xa6, 0x0f, 0xb9, 0x3e, 0x92, 0xfb, 0x57, 0xc0, 0x36, 0x20, 0x93, 0x3f,
  0xd3, 0x79, 0x25, 0xbe, 0x03, 0x9b, 0x25, 0xbd, 0xe8, 0x10, 0x76, 0xbe,
  0xe5, 0x92, 0xca, 0xbf, 0x37, 0xe9, 0x3f, 0xbe, 0x81, 0x81, 0x96, 0xbd,
  0x3d, 0xb1, 0xe2, 0xbc, 0xca, 0x23, 0x18, 0xbd, 0xbc, 0xfb, 0x6a, 0x3c,
  0x65, 0x40, 0x7a, 0xbf, 0xef, 0x47, 0xc5, 0xbd, 0xdf, 0x31, 0xff, 0xbf,
  0x55, 0x8e, 0x0f, 0xbe, 0x26, 0x91, 0xaf, 0xbd, 0x03, 0x4a, 0x27, 0xbd,
  0x40, 0x10, 0x22, 0x3f, 0x3f, 0x65, 0xae, 0x3f, 0x76, 0x83, 0x4f, 0x40,
  0x15, 0xe3, 0x75, 0xbe, 0x4f, 0xba, 0x57, 0xbe, 0xc2, 0x37, 0x78, 0x3e,
  0x10, 0xd4, 0x6a, 0x3e, 0x64, 0x1e, 0x95, 0x3d, 0xb1, 0xe2, 0xcf, 0xbf,
  0x12, 0x9b, 0x0a, 0x3b, 0x5c, 0x0a, 0xcf, 0xbd, 0x42, 0x07, 0x22, 0xbf,
  0x4e, 0x9c, 0x95, 0x3f, 0x4d, 0x53, 0x5d, 0xbf, 0xae, 0x2b, 0xd0, 0x3d,
  0xcf, 0x2e, 0xb5, 0xbd, 0xa5, 0x47, 0x04, 0x3c, 0x68, 0xe1, 0xda, 0x3c,
  0x48, 0xfd, 0xd2, 0xbe, 0x01, 0xa5, 0xd7, 0xbf, 0x44, 0x28, 0x47, 0x3f,
  0xdb, 0x7f, 0x17, 0x3e, 0x43, 0xf9, 0x56, 0xbe, 0xbe, 0x5b, 0x58, 0xbc,
  0x00, 0xaf, 0x9a, 0x3f, 0x6c, 0x93, 0xfb, 0x3e, 0x50, 0xe4, 0x24, 0xbe,
  0x14, 0x3f, 0x90, 0x3e, 0xe5, 0xd8, 0x43, 0xbe, 0x96, 0xf7, 0xeb, 0x3d,
  0x43, 0x78, 0x6c, 0xc0, 0x31, 0x2b, 0x8c, 0xbe, 0x3d, 0x5a, 0xd9, 0xbe,
  0xb9, 0xd5, 0x4b, 0x3d, 0xa4, 0x1d, 0x05, 0xbe, 0xd2, 0xb7, 0xb8, 0xbc,
  0xc3, 0xac, 0x27, 0xbe, 0xe1, 0x40, 0x90, 0xbd, 0xff, 0x6c, 0x28, 0xbe,
  0xd8, 0x7c, 0xc8, 0x3e, 0x90, 0xa4, 0xaa, 0xbe, 0x3d, 0x31, 0xa1, 0xbd,
  0xd9, 0xdb, 0x7a, 0xbd, 0xd2, 0xb3, 0xd9, 0xbe, 0xf1, 0x5d, 0xc8, 0xbe,
  0xf6, 0xe1, 0xd2, 0xbd, 0x3d, 0x64, 0x68, 0x3e, 0xff, 0xfe, 0x94, 0xbd,
  0x57, 0x6b, 0xa8, 0xbf, 0x69, 0x7a, 0x44, 0xbf, 0x3b, 0x18, 0xd6, 0xbe,
  0xa0, 0x76, 0x80, 0xbe, 0xe3, 0x51, 0x74, 0xbe, 0x94, 0xbd, 0xe5, 0x3e,
  0x45, 0x10, 0x42, 0x3c, 0x30, 0xac, 0xb9, 0x3e, 0xee, 0x4a, 0x8d, 0x3e,
  0x3e, 0xea, 0x55, 0x3e, 0x27, 0xca, 0x12, 0xbe, 0x90, 0xb9, 0x4a, 0xbe,
  0x90, 0x8e, 0x02, 0xbf, 0x8e, 0x91, 0xe7, 0xbf, 0x84, 0x93, 0x37, 0xbd,
  0xe6, 0x7d, 0x3c, 0x3e, 0x5c, 0x4d, 0x16, 0xbe, 0x8e, 0x2e, 0xd6, 0xbe,
  0x0f, 0xba, 0x81, 0xbf, 0xea, 0x8e, 0xaf, 0xbf, 0xe0, 0x43, 0x7c, 0x3f,
  0x44, 0x52, 0x61, 0x3e, 0x2a, 0xd9, 0x9c, 0xbd, 0xfc, 0x85, 0x0b, 0x3e,
  0x4d, 0x58, 0x05, 0x3f, 0x68, 0x6e, 0xbf, 0xbf, 0x98, 0x56, 0x9b, 0x3f,
  0x7c, 0xc6, 0xa1, 0xbd, 0x97, 0x72, 0x62, 0x3d, 0x63, 0x15, 0x66, 0x3d,
  0x00, 0xd2, 0x2c, 0x3d, 0xbc, 0x3a, 0x22, 0xc0, 0x81, 0x2a, 0x4d, 0x3f,
  0xfb, 0x0f, 0x4d, 0xbd, 0xe3, 0xac, 0x95, 0x3e, 0xb9, 0xf9, 0xa5, 0x3d,
  0xfd, 0x12, 0x82, 0x3e, 0x94, 0x23, 0x70, 0xbf, 0x4c, 0x3e, 0x9d, 0x3e,
  0xc7, 0x79, 0x99, 0x3e, 0x04, 0xa4, 0x2b, 0x3c, 0xf1, 0xe4, 0x29, 0x3e,
  0x79, 0x4e, 0x86, 0xbe, 0xaf, 0xc3, 0x5b, 0x3e, 0x0b, 0x15, 0x1e, 0x40,
  0xb6, 0x0a, 0x2f, 0xbe, 0xd4, 0x07, 0xd7, 0xbe, 0xef, 0x47, 0x82, 0xbe,
  0x86, 0xe5, 0x46, 0xbe, 0x80, 0x66, 0xe4, 0xbf, 0x19, 0xd4, 0x78, 0x3f,
  0xa2, 0x7f, 0x18, 0x3d, 0x24, 0xe2, 0x18, 0x3e, 0x12, 0x42, 0x0b, 0xbb,
  0x46, 0x2c, 0xa1, 0x3e, 0x25, 0xea, 0x2f, 0x3f, 0xd6, 0xdf, 0x09, 0xc0,
  0x3f, 0xcf, 0x80, 0xbe, 0xcb, 0x30, 0xd3, 0x3d, 0x4f, 0x93, 0x86, 0xbd,
  0x12, 0xad, 0x34, 0xbf, 0x89, 0xfe, 0x97, 0x3e, 0x3e, 0x5a, 0x36, 0x3f,
  0xfc, 0x49, 0x34, 0x3e, 0xa0, 0x56, 0x9e, 0x3e, 0x68, 0x5f, 0xb0, 0x3e,
  0xf9, 0x32, 0x56, 0xbd, 0xf5, 0xc4, 0x17, 0xbe, 0x7c, 0xf2, 0x9b, 0x3e,
  0xe1, 0xb0, 0x17, 0x3d, 0x6e, 0x05, 0xa5, 0xbe, 0x6d, 0xff, 0xf9, 0x3d,
  0xe9, 0x73, 0x06, 0x3d, 0x2d, 0xe1, 0x63, 0x3f, 0x0b, 0x3f, 0x91, 0xbf,
  0x8d, 0x13, 0xb6, 0xbe, 0xa0, 0xc9, 0xcb, 0x3e, 0x3f, 0x94, 0xe4, 0x3e,
  0xdf, 0x11, 0x42, 0x3f, 0xe7, 0xa5, 0xa6, 0xbf, 0xb6, 0xd0, 0x89, 0xbf,
  0x1f, 0x7d, 0xa1, 0xbc, 0x3d, 0x11, 0xee, 0x3c, 0xbd, 0xac, 0x0d, 0x3e,
  0x08, 0x52, 0xc8, 0x3f, 0x4c, 0xff, 0x6a, 0xbf, 0x85, 0x04, 0x36, 0xbf,
  0xc6, 0xeb, 0x13, 0x3f, 0xe8, 0x5b, 0x7f, 0x3e, 0x82, 0xbe, 0x79, 0x3e,
  0xa0, 0x73, 0xa7, 0x3f, 0xb3, 0xea, 0xb7, 0xbe, 0xfb, 0xe7, 0x3c, 0x40,
  0x9c, 0x3d, 0x2a, 0xbe, 0x91, 0xed, 0x2c, 0xbc, 0x06, 0x9c, 0x9a, 0xbe,
  0xff, 0x6b, 0xf2, 0xbd, 0x38, 0xe8, 0xab, 0x3f, 0x71, 0x5e, 0xce, 0x3f,
  0x2d, 0x34, 0xa0, 0xbe, 0x99, 0x3b, 0x6a, 0x3d, 0x6e, 0xde, 0x0e, 0xbe,
  0x27, 0x44, 0x79, 0x3f, 0xd3, 0xe1, 0x69, 0x40, 0x7b, 0x54, 0x2d, 0xbf,
  0xb3, 0xc0, 0x7c, 0x3e, 0xa1, 0xc4, 0xc3, 0x3d, 0x78, 0x53, 0x6b, 0xbd,
  0xae, 0xbb, 0x25, 0xbf, 0x0c, 0x76, 0xdd, 0x3f, 0x22, 0x5c, 0xd3, 0xbf,
  0xc8, 0x98, 0xaa, 0x3e, 0x6a, 0x44, 0x5e, 0x3c, 0xbf, 0x69, 0x9f, 0x3e,
  0xff, 0x9d, 0xc4, 0xbe, 0x79, 0x61, 0xb7, 0x3f, 0xbc, 0xb8, 0xec, 0x3f,
  0x05, 0x18, 0x53, 0xbd, 0x32, 0xdf, 0xa2, 0x3d, 0x89, 0x9a, 0xba, 0x3d,
  0xf5, 0xb9, 0xd7, 0x3f, 0xd8, 0x7b, 0xc9, 0xbf, 0x62, 0x25, 0x23, 0xc0,
  0x74, 0xe0, 0x32, 0x3e, 0x78, 0x4e, 0x04, 0xbe, 0x42, 0xe7, 0xac, 0xbd,
  0xcd, 0x1f, 0x1e, 0x3e, 0xe2, 0xa8, 0xa4, 0xbf, 0xb3, 0xbe, 0x85, 0xbf,
  0x9f, 0xe3, 0x29, 0x3e, 0xc5, 0x2b, 0x02, 0x3e, 0x1d, 0x09, 0xb6, 0x3d,
  0xd0, 0xea, 0x7b, 0x3e, 0x8f, 0xcd, 0x1f, 0xbf, 0xc9, 0x87, 0x3d, 0xbf,
  0x40, 0x0b, 0xe8, 0xbd, 0x2b, 0xb0, 0x41, 0xbe, 0x2b, 0xa6, 0x27, 0xbd,
  0xaf, 0xe6, 0xd9, 0xbd, 0x49, 0x11, 0x83, 0xc0, 0x95, 0xfa, 0xa3, 0xbf,
  0xe1, 0xdf, 0xe8, 0xbc, 0x61, 0x5f, 0x4e, 0x3d, 0x4a, 0xef, 0xd9, 0x3c,
  0x3b, 0xc2, 0x0e, 0xc0, 0x75, 0x3d, 0x29, 0x3f, 0x96, 0x8d, 0xb4, 0xbe,
  0xca, 0x7c, 0x8a, 0xbd, 0xc3, 0xf8, 0x2a, 0x3d, 0x1c, 0x1c, 0x2d, 0xbe,
  0xae, 0xee, 0x04, 0xc0, 0x55, 0xe4, 0x48, 0xbf, 0xf4, 0x38, 0x8c, 0x3f,
  0xad, 0xf8, 0xde, 0xbe, 0x04, 0x54, 0x02, 0xbe, 0x4d, 0x88, 0x9e, 0xbd,
  0xdc, 0xe4, 0x01, 0x3e, 0x58, 0xd1, 0x11, 0xbf, 0x25, 0xbc, 0x03, 0xbe,
  0xbf, 0xca, 0x03, 0xbe, 0x0c, 0x89, 0xb2, 0xbd, 0xe2, 0xfa, 0x93, 0x3c,
  0xf8, 0x1c, 0x56, 0xbf, 0xf4, 0x3f, 0xc5, 0x3e, 0x6f, 0x7e, 0xa5, 0x3e,
  0xb6, 0x74, 0x4c, 0xbd, 0x0e, 0x3d, 0x1b, 0x3f, 0x40, 0x70, 0x5b, 0x3e,
  0x6e, 0xef, 0xff, 0xff, 0x04, 0x00, 0x00, 0x00, 0xc8, 0x00, 0x00, 0x00,
  0x15, 0x1a, 0xac, 0xbe, 0xb4, 0xef, 0x0a, 0xbf, 0x88, 0xa6, 0x98, 0x3f,
  0xe9, 0x0f, 0x80, 0xbf, 0x73, 0x35, 0xbb, 0xbe, 0xeb, 0xcc, 0xb0, 0x3f,
  0x13, 0xc7, 0xf7, 0x3f, 0xae, 0xcd, 0x75, 0x3f, 0x7f, 0x56, 0x9d, 0xbf,
  0xbc, 0x22, 0x29, 0x40, 0xd8, 0x5b, 0xd7, 0x3f, 0xfc, 0xd7, 0xb7, 0x3f,
  0x94, 0xd5, 0x1c, 0x40, 0xdf, 0x20, 0x6b, 0xbf, 0xdd, 0xd5, 0x2a, 0xbe,
  0x5b, 0x5b, 0xc3, 0x3e, 0xd5, 0xd7, 0x3f, 0xc0, 0x5c, 0x3a, 0x73, 0xbe,
  0xfc, 0x65, 0x9b, 0xbf, 0x9b, 0x3f, 0xc5, 0x3e, 0xda, 0xa2, 0xc5, 0xbf,
  0xad, 0xa0, 0x8a, 0x40, 0x74, 0x82, 0x90, 0x3f, 0x91, 0x81, 0x33, 0x3f,
  0x02, 0x01, 0xcd, 0x3c, 0x84, 0xeb, 0xfe, 0x3e, 0x55, 0xfb, 0xd0, 0xbe,
  0xea, 0x0e, 0xe0, 0xbd, 0x24, 0xc5, 0x9f, 0x3f, 0x23, 0x15, 0xb3, 0xbe,
  0xfc, 0x34, 0x2c, 0xc0, 0x94, 0xd7, 0x49, 0xbf, 0xf0, 0xb6, 0x73, 0x3f,
  0xa3, 0x71, 0xc8, 0xbe, 0xf0, 0xac, 0xc9, 0x3d, 0xfc, 0x18, 0x2d, 0x3e,
  0x6a, 0xe0, 0x12, 0xbf, 0x51, 0xb2, 0x46, 0xbf, 0xbf, 0xf5, 0xc7, 0x3e,
  0xb1, 0xa9, 0x94, 0xbe, 0x16, 0x4f, 0x5e, 0xc0, 0x5c, 0x10, 0xa5, 0xbe,
  0xfe, 0x63, 0x3c, 0x40, 0xc8, 0x9c, 0x32, 0xc0, 0xdd, 0x42, 0x84, 0x3f,
  0xcb, 0xb1, 0x11, 0xbe, 0x06, 0xc6, 0x10, 0x3f, 0xbe, 0x59, 0x6c, 0x3f,
  0x5d, 0xf3, 0x0a, 0x3f, 0x41, 0xb6, 0x3f, 0x3c, 0x42, 0xf0, 0xff, 0xff,
  0x04, 0x00, 0x00, 0x00, 0x3c, 0x00, 0x00, 0x00, 0xc9, 0x44, 0x36, 0x3e,
  0xed, 0x48, 0x11, 0x40, 0x4d, 0x9f, 0xd7, 0x3e, 0x42, 0x18, 0xee, 0xbf,
  0xd0, 0x8d, 0xbe, 0xbc, 0x9a, 0x34, 0xba, 0xbe, 0xb0, 0xe7, 0xbd, 0x3f,
  0xab, 0xc0, 0x1d, 0xbf, 0x66, 0x57, 0x40, 0xbf, 0x28, 0x1f, 0x60, 0x3e,
  0x1f, 0x94, 0x9d, 0x3f, 0xeb, 0xd5, 0x76, 0x3f, 0x45, 0x61, 0x83, 0x3f,
  0x33, 0xcc, 0xf1, 0x3f, 0x8a, 0x70, 0xc5, 0x3f, 0x8a, 0xf0, 0xff, 0xff,
  0x04, 0x00, 0x00, 0x00, 0x04, 0x00, 0x00, 0x00, 0x01, 0x00, 0x00, 0x00,
  0x9a, 0xf0, 0xff, 0xff, 0x04, 0x00, 0x00, 0x00, 0x30, 0x00, 0x00, 0x00,
  0x8a, 0xc3, 0x8e, 0xbe, 0x69, 0xdc, 0x61, 0xbf, 0x71, 0xae, 0x18, 0x40,
  0x9a, 0xdf, 0x2a, 0xc0, 0x6a, 0xa8, 0x7f, 0xbf, 0x63, 0xb6, 0x22, 0xbe,
  0x96, 0x2b, 0x30, 0x3f, 0xd6, 0x5c, 0xaf, 0xbe, 0xcb, 0x89, 0x05, 0x40,
  0xfa, 0x2b, 0xd6, 0x3d, 0x18, 0xbc, 0x8c, 0x3f, 0x5c, 0x3f, 0xcb, 0xbf,
  0xd6, 0xf0, 0xff, 0xff, 0x04, 0x00, 0x00, 0x00, 0xd0, 0x02, 0x00, 0x00,
  0xd3, 0x0b, 0xb2, 0x3e, 0xb5, 0x59, 0x3f, 0x3e, 0xfb, 0xc8, 0xf2, 0xbe,
  0xe2, 0xa7, 0xed, 0x3d, 0xa5, 0x42, 0x15, 0xbf, 0xc0, 0x45, 0xa9, 0xbe,
  0x8d, 0x75, 0x86, 0xbd, 0x45, 0x18, 0x88, 0x3e, 0xc6, 0x24, 0x14, 0xbe,
  0x3c, 0x09, 0xbb, 0xbe, 0x86, 0x34, 0x13, 0x3e, 0x3f, 0xf2, 0xcb, 0x3c,
  0x32, 0x00, 0xf7, 0xbd, 0x02, 0x28, 0xa0, 0xbe, 0x1b, 0xf8, 0xb6, 0xbe,
  0x95, 0xf5, 0x76, 0x3f, 0x61, 0xcb, 0x7e, 0x3f, 0xc1, 0xcc, 0x4c, 0x3f,
  0xd0, 0xa4, 0x95, 0x3f, 0x8c, 0x59, 0x5a, 0x3f, 0xac, 0x4a, 0x21, 0x3f,
  0x55, 0xae, 0x64, 0x3f, 0x74, 0xab, 0x81, 0x3f, 0x99, 0x0f, 0xff, 0x3e,
  0xc2, 0xcc, 0x2c, 0x3e, 0x2e, 0xa2, 0x2a, 0x3f, 0x55, 0xc1, 0x3c, 0x3f,
  0xe6, 0x5f, 0x2b, 0x3f, 0xcb, 0x68, 0x6a, 0xbd, 0xef, 0xa2, 0x42, 0x3f,
  0xe1, 0xec, 0xea, 0xbf, 0xb9, 0x31, 0x29, 0x3f, 0xe2, 0x13, 0x2f, 0xbf,
  0x40, 0xe4, 0x02, 0x3f, 0xde, 0xc9, 0x63, 0x3f, 0x59, 0x03, 0x86, 0x3f,
  0x10, 0xbb, 0x8e, 0x3f, 0x18, 0xca, 0x72, 0x3f, 0x25, 0xab, 0xaa, 0x3e,
  0xf0, 0xa5, 0xa8, 0x3f, 0xeb, 0xa2, 0x0d, 0x3e, 0xa5, 0xc7, 0x45, 0x3c,
  0x98, 0x4b, 0x3f, 0xc0, 0x2b, 0xc6, 0x65, 0x3d, 0xad, 0x05, 0xab, 0x3f,
  0x9b, 0x1a, 0x59, 0x3f, 0x99, 0xa9, 0xdd, 0x3e, 0xca, 0xe8, 0xfd, 0x3e,
  0xae, 0xe9, 0x93, 0x3f, 0x65, 0x91, 0x51, 0x3f, 0xfc, 0xcf, 0x3c, 0x3f,
  0xf5, 0xf1, 0x72, 0x3f, 0x18, 0xf5, 0x91, 0x3f, 0x69, 0x41, 0xbe, 0x3e,
  0x13, 0xe0, 0x4c, 0x3e, 0x06, 0x06, 0x3a, 0x3f, 0x81, 0x5c, 0xf9, 0x3e,
  0x71, 0x63, 0x8b, 0x3f, 0x5b, 0xdc, 0xc6, 0x3e, 0xbb, 0x0b, 0x2f, 0x3f,
  0xfb, 0x6c, 0x1a, 0x3f, 0xca, 0xc8, 0x8f, 0xbd, 0x67, 0x95, 0x88, 0x3f,
  0x3c, 0xe3, 0xff, 0x3e, 0x2f, 0xcc, 0x96, 0x3e, 0xb1, 0xcc, 0x8c, 0x3f,
  0xb7, 0x87, 0x05, 0xc0, 0x22, 0xf5, 0x4f, 0xbd, 0x43, 0x91, 0xfc, 0x3f,
  0x75, 0x2c, 0xe6, 0xbe, 0x23, 0xba, 0x0b, 0x3f, 0x67, 0x50, 0x15, 0x40,
  0x42, 0x6d, 0x11, 0x40, 0xcf, 0x55, 0xc4, 0xbf, 0xe0, 0xdf, 0xea, 0x3f,
  0x62, 0x09, 0x98, 0x3e, 0xfb, 0xc2, 0xd6, 0xbc, 0xed, 0xee, 0x2e, 0x3f,
  0xd5, 0x51, 0x5f, 0xbf, 0x89, 0x5c, 0x46, 0xbf, 0x5b, 0x77, 0x10, 0xbf,
  0xeb, 0xdc, 0xd8, 0xbe, 0xb1, 0xfb, 0x41, 0x3f, 0x80, 0xcc, 0x09, 0xbd,
  0xba, 0x9b, 0xad, 0x3f, 0xaa, 0x82, 0x96, 0xbf, 0x9a, 0x32, 0xaf, 0xbd,
  0x4f, 0x06, 0xda, 0x3e, 0x4d, 0x96, 0x9e, 0xbd, 0x16, 0x53, 0xfd, 0x3f,
  0x36, 0x5e, 0x0e, 0x40, 0x9b, 0x30, 0x2d, 0x3f, 0x71, 0xb6, 0xc1, 0x3f,
  0xad, 0x28, 0x2f, 0x3f, 0x57, 0xe2, 0xcc, 0x3f, 0x65, 0x06, 0x26, 0x3f,
  0x6c, 0x87, 0x6f, 0x3f, 0xde, 0x81, 0x15, 0x3f, 0xff, 0x77, 0xca, 0x3f,
  0x6a, 0x91, 0xf2, 0xbe, 0x96, 0x61, 0x48, 0x3f, 0x0b, 0xca, 0x8b, 0xbf,
  0xb1, 0xfd, 0x15, 0xbe, 0x2c, 0x54, 0x80, 0x3f, 0x0e, 0x8e, 0x07, 0x3f,
  0xe0, 0xcf, 0x47, 0xbe, 0x9e, 0xa7, 0x00, 0x3f, 0x46, 0xd4, 0x3a, 0x3e,
  0xa9, 0xf4, 0xbc, 0xbd, 0x31, 0x0f, 0xd5, 0xbe, 0x73, 0xa2, 0x8d, 0xbe,
  0x8c, 0xcb, 0x24, 0xbe, 0x85, 0x6f, 0x36, 0x3e, 0x9c, 0xaa, 0xc5, 0xbe,
  0x41, 0x10, 0x20, 0xbe, 0x7c, 0xf7, 0xa5, 0xbe, 0xb3, 0x81, 0xb1, 0x3d,
  0xed, 0x11, 0x66, 0x3d, 0x4f, 0x64, 0x5b, 0x3e, 0x66, 0x57, 0xb5, 0x3e,
  0x57, 0xd5, 0x23, 0xbe, 0x91, 0x8f, 0x4a, 0x40, 0x37, 0xea, 0x23, 0x40,
  0xf6, 0x12, 0x6e, 0xc0, 0x78, 0xe7, 0xfa, 0x3d, 0x7e, 0xc2, 0x34, 0xc0,
  0x16, 0xeb, 0x9e, 0xbd, 0xd6, 0xc6, 0x27, 0x40, 0x01, 0x46, 0xd9, 0xbf,
  0xe7, 0x88, 0x66, 0xbf, 0x13, 0xb5, 0xb5, 0x3f, 0x72, 0xcb, 0x4f, 0x3e,
  0x74, 0xaf, 0x6d, 0x3e, 0xce, 0x15, 0x06, 0x40, 0x09, 0x0a, 0x08, 0x3e,
  0x8c, 0x10, 0x13, 0xc0, 0xa3, 0x0d, 0xc0, 0xbd, 0xd1, 0xd6, 0xb3, 0x3e,
  0x15, 0x9e, 0x72, 0x3f, 0x85, 0x8d, 0x0b, 0x3f, 0xa4, 0xfb, 0x6e, 0x3f,
  0x2f, 0x58, 0x91, 0x3f, 0xea, 0xf9, 0x9a, 0x3f, 0xfe, 0xb5, 0xc1, 0x3e,
  0xb7, 0x04, 0x7c, 0x3e, 0x82, 0x79, 0x5e, 0x3f, 0x0f, 0x32, 0xc9, 0xbd,
  0xe9, 0x65, 0x99, 0x3f, 0x24, 0xea, 0x5b, 0x3f, 0xd1, 0xfa, 0x1c, 0x3f,
  0x99, 0xbd, 0x0e, 0xbf, 0x12, 0x7a, 0x8d, 0xbf, 0xd0, 0xc9, 0x82, 0x3f,
  0x4f, 0xe0, 0xaa, 0x3e, 0x01, 0xaa, 0xca, 0xbd, 0xfd, 0x47, 0xb7, 0xbe,
  0x47, 0xa1, 0x00, 0xc0, 0x14, 0x38, 0x9e, 0x3e, 0x4c, 0xc7, 0x0f, 0xc0,
  0xd5, 0x99, 0xc3, 0x3f, 0x64, 0xa0, 0x0c, 0x40, 0x69, 0x83, 0x68, 0xc0,
  0x04, 0xbf, 0x52, 0xbf, 0x58, 0xdf, 0x35, 0xbf, 0x99, 0xbc, 0xc8, 0x3f,
  0x02, 0xb5, 0x10, 0x3f, 0x12, 0xad, 0xbb, 0x3e, 0x89, 0xba, 0x85, 0x3e,
  0x91, 0x8a, 0x99, 0x3f, 0xe2, 0xd5, 0x5d, 0x3f, 0x5b, 0xcd, 0x2c, 0x3f,
  0x0b, 0xf8, 0x68, 0x3f, 0x59, 0x40, 0x91, 0x3f, 0x1a, 0x20, 0xbb, 0x3e,
  0x16, 0xc1, 0x7b, 0x3e, 0x49, 0xc5, 0x17, 0x3f, 0x3d, 0xe3, 0x23, 0x3f,
  0x7b, 0xc0, 0x27, 0xbe, 0xf7, 0x3d, 0x41, 0x3f, 0x6e, 0x0f, 0x44, 0x3f,
  0xb2, 0xf3, 0xff, 0xff, 0x04, 0x00, 0x00, 0x00, 0xb8, 0x0b, 0x00, 0x00,
  0x83, 0x74, 0xa7, 0xbe, 0xfc, 0xb6, 0xa0, 0x3e, 0x91, 0x6e, 0x37, 0xbe,
  0xf9, 0xe2, 0xc9, 0x3e, 0x83, 0xb2, 0x8c, 0x3e, 0x08, 0x44, 0xcf, 0xbd,
  0x2a, 0xa6, 0x0b, 0xbf, 0xcf, 0xfa, 0x75, 0xbf, 0x51, 0x21, 0xbf, 0x3e,
  0x2e, 0x3e, 0xba, 0x3e, 0x67, 0x16, 0x9d, 0x3e, 0xee, 0x1b, 0x15, 0xbf,
  0x36, 0x23, 0x0e, 0xbf, 0x29, 0xe2, 0x53, 0xbf, 0x81, 0xb6, 0xf1, 0x3c,
  0x57, 0xe0, 0x84, 0xbf, 0xcd, 0x37, 0x2d, 0xbf, 0xd0, 0x09, 0xc9, 0x3e,
  0xea, 0x56, 0xe0, 0xbe, 0x1e, 0x95, 0x30, 0x3d, 0x4a, 0x8e, 0xcb, 0xbe,
  0x31, 0x39, 0x9e, 0x3f, 0x34, 0x2c, 0x37, 0xbe, 0xa6, 0xd9, 0xad, 0x3e,
  0x4b, 0xc0, 0x67, 0xbf, 0xb0, 0x5a, 0x24, 0x3b, 0xa4, 0xd6, 0x4e, 0xbe,
  0x91, 0xc0, 0x52, 0xbf, 0xd7, 0x12, 0x22, 0xbf, 0x46, 0x37, 0xc3, 0x3e,
  0x76, 0xce, 0xa8, 0xbf, 0x30, 0xcf, 0x4c, 0xbf, 0xc4, 0xb5, 0x48, 0xbd,
  0x85, 0x65, 0xe1, 0x3e, 0xa5, 0xf2, 0x0b, 0xbf, 0xfb, 0xdc, 0xb9, 0xbe,
  0x48, 0x78, 0xba, 0x3d, 0xec, 0xf8, 0x8c, 0x3e, 0x47, 0xcc, 0x54, 0xbc,
  0x36, 0xcc, 0x8d, 0xbf, 0xe7, 0x0e, 0xf8, 0x3e, 0x7a, 0x48, 0x50, 0x3f,
  0x7a, 0x2b, 0x1e, 0x3d, 0xd9, 0x12, 0x6e, 0x3e, 0xa2, 0x95, 0x9b, 0x3c,
  0x4e, 0x00, 0x5c, 0xbf, 0x27, 0x2b, 0xa2, 0xbe, 0xb0, 0x24, 0x07, 0xbe,
  0x3b, 0x53, 0xf9, 0x3e, 0x91, 0x83, 0xb6, 0x3e, 0x57, 0xc7, 0x03, 0xbe,
  0x14, 0x92, 0xf6, 0xbe, 0xa3, 0x51, 0x98, 0x3e, 0x55, 0xf2, 0x76, 0xbf,
  0x86, 0x43, 0x78, 0x3e, 0xc1, 0xb4, 0xc6, 0x3e, 0x1d, 0x34, 0x47, 0xbe,
  0x70, 0xd2, 0x88, 0x3e, 0x20, 0xe3, 0x99, 0x3b, 0x97, 0xd7, 0xc3, 0xbf,
  0xac, 0xa2, 0xbb, 0xbe, 0xa4, 0xb0, 0x09, 0x3f, 0x07, 0xbd, 0x85, 0x3f,
  0x74, 0xda, 0x89, 0xbf, 0xe1, 0x16, 0x2b, 0xbf, 0xcd, 0x45, 0xf3, 0xbe,
  0xfb, 0x17, 0xdf, 0x3e, 0xb4, 0x4f, 0xba, 0x3e, 0xb2, 0x83, 0x04, 0xbe,
  0xf0, 0x93, 0xbc, 0x3d, 0x45, 0x01, 0xb5, 0xbd, 0x7e, 0xa9, 0x93, 0xbe,
  0x3a, 0x37, 0x08, 0x3e, 0xfc, 0x23, 0x58, 0x3e, 0xb1, 0xfe, 0x8e, 0x3e,
  0x58, 0x2f, 0x9b, 0x3e, 0xc8, 0x3e, 0x2f, 0xbe, 0xf3, 0x22, 0xdd, 0xbd,
  0x7a, 0x89, 0x18, 0x3e, 0x5d, 0x28, 0x36, 0xbe, 0x2c, 0x7d, 0xc6, 0xbb,
  0xbc, 0x29, 0x67, 0xbe, 0x6b, 0x53, 0x06, 0x3f, 0xdf, 0x0d, 0x9c, 0xbe,
  0x5b, 0x9c, 0x4c, 0x3e, 0x84, 0xda, 0x59, 0xbe, 0x23, 0x36, 0x8d, 0xbe,
  0xed, 0xbc, 0x11, 0xbe, 0xf0, 0x62, 0x43, 0xbf, 0x11, 0xe8, 0x96, 0xbe,
  0x7c, 0xcc, 0x52, 0xbf, 0xd4, 0x4a, 0x54, 0xbf, 0x9c, 0x67, 0x8a, 0x3e,
  0xc1, 0xfd, 0x3e, 0x3e, 0xdf, 0xdf, 0x16, 0xbf, 0xeb, 0xf1, 0x34, 0xc0,
  0xde, 0xd6, 0xd4, 0x3d, 0x97, 0xe4, 0xaa, 0x3e, 0xd3, 0x61, 0x93, 0x3f,
  0xab, 0xe2, 0x28, 0x3f, 0x00, 0x34, 0x81, 0xbb, 0x91, 0xe6, 0x78, 0x3e,
  0x11, 0x63, 0x0e, 0x3d, 0x18, 0x81, 0x95, 0xbe, 0xbc, 0x6d, 0x77, 0xbd,
  0xcf, 0x61, 0xfe, 0xbe, 0xde, 0xed, 0x82, 0x3e, 0xe0, 0xf9, 0x24, 0xbf,
  0xc7, 0xa2, 0x67, 0xbd, 0x6b, 0xdc, 0x76, 0xbe, 0x0a, 0x69, 0x79, 0xbf,
  0x84, 0xe6, 0x2d, 0x3f, 0x68, 0xf5, 0x96, 0xbf, 0xe5, 0xc7, 0xe2, 0xbd,
  0xad, 0xd4, 0x9b, 0x3c, 0x29, 0x54, 0x0b, 0x3f, 0x15, 0x69, 0x51, 0xbf,
  0x8f, 0x43, 0xea, 0xbe, 0xdc, 0x88, 0x4e, 0x3f, 0xb9, 0xee, 0xab, 0xbf,
  0xac, 0x3a, 0x03, 0xbf, 0xb3, 0x8f, 0x92, 0x3e, 0xb2, 0x19, 0xd7, 0xbc,
  0x58, 0xc6, 0x7d, 0xbe, 0x0c, 0xf9, 0xa3, 0xbc, 0x6f, 0x9d, 0xe1, 0x3e,
  0xcd, 0xd0, 0x3e, 0xbd, 0x1d, 0xbc, 0x81, 0x3e, 0xfb, 0x34, 0xc0, 0x3e,
  0x93, 0x39, 0xd8, 0xbd, 0xf9, 0xcd, 0x81, 0xbe, 0x9b, 0xe6, 0xa6, 0x3e,
  0x47, 0x32, 0x18, 0x3e, 0x4d, 0xb7, 0x30, 0xbe, 0x29, 0x87, 0xc7, 0x3e,
  0xca, 0x3f, 0xb0, 0x3e, 0x87, 0x6d, 0x28, 0x3e, 0x7a, 0x1e, 0x4c, 0xbf,
  0x6d, 0x65, 0xfe, 0xbe, 0x00, 0x1c, 0x44, 0xbe, 0xf9, 0x6f, 0xb1, 0xbe,
  0x58, 0x96, 0x41, 0x3e, 0x8c, 0x38, 0xdc, 0x3e, 0x3a, 0xc2, 0xe7, 0xbc,
  0x37, 0x14, 0x24, 0xbf, 0x61, 0x9f, 0xa2, 0x3e, 0x4e, 0xd4, 0x41, 0xbd,
  0x75, 0x53, 0x84, 0x3e, 0x20, 0xf3, 0x23, 0xbf, 0xde, 0x41, 0x47, 0x3e,
  0x69, 0x45, 0x0b, 0xbf, 0x8f, 0xa6, 0x8f, 0xbd, 0x3a, 0xd9, 0x29, 0x3e,
  0xf8, 0xdf, 0x2a, 0xbf, 0x0a, 0xdc, 0x92, 0xbd, 0x80, 0xe6, 0x62, 0x3e,
  0xfd, 0x3e, 0xae, 0xbd, 0x7b, 0xc7, 0xb0, 0x3c, 0xcc, 0xf4, 0x27, 0x3e,
  0x63, 0xbf, 0x9f, 0x3e, 0x7c, 0xd0, 0x06, 0xbf, 0x01, 0xca, 0x92, 0xbe,
  0xda, 0x84, 0x86, 0xbe, 0xb1, 0xea, 0xa4, 0x3e, 0x28, 0x43, 0x76, 0x3e,
  0xa5, 0x8d, 0x0c, 0x3f, 0x5c, 0x3b, 0x13, 0x3c, 0xa1, 0x25, 0xd2, 0xbd,
  0xb9, 0x90, 0x2c, 0x3e, 0x9a, 0x1a, 0xa3, 0x3e, 0x8a, 0x89, 0x8a, 0x3e,
  0x2d, 0x37, 0x9c, 0xbd, 0x9c, 0x1b, 0xdd, 0x3c, 0x0b, 0x86, 0x0b, 0xbf,
  0xa3, 0x57, 0x75, 0xbe, 0x7f, 0x13, 0x43, 0xbe, 0xce, 0x1e, 0x9b, 0xbe,
  0x31, 0x87, 0x5d, 0x3e, 0x7f, 0x8a, 0x26, 0x3e, 0xbf, 0x98, 0x06, 0x3e,
  0xc5, 0x06, 0x0d, 0x3f, 0xbf, 0xb1, 0x00, 0x3f, 0x73, 0x12, 0x68, 0xbe,
  0x77, 0x98, 0xa5, 0xbe, 0x1b, 0xa8, 0xd3, 0xbe, 0x1d, 0x84, 0xc0, 0x3e,
  0x03, 0xda, 0x83, 0x3d, 0x97, 0x5b, 0x8c, 0x3e, 0x12, 0x74, 0xe3, 0x3e,
  0xf3, 0x3d, 0xb9, 0x3e, 0xd0, 0x4c, 0xf1, 0x3e, 0x5f, 0x31, 0x9e, 0xbe,
  0xae, 0xef, 0x3b, 0x3d, 0xfe, 0x4e, 0xd9, 0xbe, 0x51, 0xe3, 0x04, 0xbe,
  0x93, 0xf8, 0x81, 0x3f, 0x52, 0x1c, 0x16, 0xbf, 0xae, 0xa4, 0x48, 0x3e,
  0x12, 0xd3, 0x29, 0x3e, 0x50, 0xad, 0xc1, 0x3e, 0x3b, 0x43, 0xaf, 0xbc,
  0xce, 0x69, 0x20, 0x3f, 0x8f, 0xbc, 0xb9, 0xbe, 0x9b, 0x62, 0xfb, 0x3e,
  0xa7, 0x32, 0x08, 0xbe, 0xcf, 0xb5, 0x88, 0x3e, 0x44, 0xd3, 0x3d, 0x3e,
  0xe7, 0x65, 0x9b, 0x3d, 0x93, 0xfa, 0x3b, 0x3d, 0x1c, 0xf0, 0x65, 0xbe,
  0xdb, 0xc3, 0xd5, 0xbe, 0x9d, 0x23, 0x05, 0x3f, 0x59, 0x50, 0xda, 0x3e,
  0x3f, 0x32, 0xcf, 0x3d, 0x78, 0x0e, 0x60, 0xbe, 0xba, 0x4c, 0xb7, 0x3d,
  0xae, 0xc4, 0xf9, 0x3e, 0x87, 0xad, 0x41, 0xbe, 0xeb, 0xeb, 0x73, 0xbd,
  0xf8, 0xd7, 0x52, 0x3e, 0x6e, 0xd5, 0x46, 0xbd, 0x34, 0x95, 0xa3, 0xbf,
  0x88, 0x43, 0x4e, 0xbe, 0x2c, 0xca, 0xcc, 0x3e, 0x25, 0xab, 0xe8, 0xbe,
  0x98, 0x59, 0x3f, 0xb9, 0x5c, 0x17, 0xf2, 0x3e, 0x8e, 0x2d, 0x7c, 0xbf,
  0x8d, 0xbf, 0xc5, 0xbe, 0xce, 0x20, 0x82, 0xbe, 0x05, 0xfb, 0x4c, 0x3f,
  0xda, 0xf8, 0xc6, 0x3e, 0xad, 0xd2, 0x83, 0x3e, 0xae, 0xcf, 0xcf, 0x3e,
  0x86, 0xf2, 0x7d, 0x3d, 0x77, 0x71, 0x49, 0x3e, 0x9d, 0xda, 0x93, 0xbd,
  0xe2, 0xb7, 0x44, 0xbf, 0x29, 0xf0, 0xaf, 0x3e, 0xf2, 0xda, 0x0b, 0x3f,
  0x85, 0x90, 0x40, 0x3e, 0x55, 0x4a, 0x3d, 0x3d, 0x68, 0x3c, 0xad, 0x3e,
  0xa2, 0x41, 0xda, 0x3e, 0x66, 0x7b, 0xf7, 0x3e, 0x24, 0xd3, 0x8c, 0x3f,
  0xe8, 0x86, 0x44, 0x3e, 0x53, 0x29, 0xf4, 0xbc, 0xc8, 0x12, 0x4e, 0x3e,
  0x81, 0x0a, 0x24, 0xba, 0xaf, 0x34, 0xc8, 0x3e, 0x1d, 0xb7, 0x59, 0xbe,
  0x41, 0x48, 0x26, 0x3f, 0x51, 0x4c, 0xf7, 0xbe, 0x0d, 0x5a, 0x25, 0xbe,
  0xd5, 0x30, 0x0e, 0x3f, 0x44, 0x96, 0xb8, 0x3e, 0xd9, 0xe2, 0x48, 0xbe,
  0x93, 0x19, 0x03, 0xbf, 0x88, 0x7b, 0x91, 0x3e, 0xcd, 0xa7, 0x8c, 0x3e,
  0xac, 0x82, 0x76, 0xbf, 0x4f, 0x7b, 0x9f, 0x3e, 0xa4, 0xd6, 0xf1, 0x3b,
  0x7c, 0xfc, 0x2d, 0xbd, 0x25, 0x42, 0xaf, 0xbc, 0x92, 0x45, 0x0d, 0x3f,
  0xca, 0xd1, 0x73, 0xbd, 0x17, 0x5d, 0xc5, 0xbe, 0x48, 0x1a, 0xf2, 0x3e,
  0xa7, 0xde, 0x39, 0xbe, 0xb8, 0xf7, 0x09, 0x3e, 0xc5, 0xb3, 0x60, 0xbe,
  0xcf, 0x98, 0xcf, 0x3e, 0xb2, 0x48, 0x80, 0x3e, 0x33, 0xd2, 0x23, 0xbd,
  0xe5, 0xcc, 0x10, 0x3e, 0x34, 0x36, 0x00, 0x3f, 0xe9, 0x54, 0x5d, 0x3e,
  0x41, 0x4b, 0x63, 0x3e, 0xa7, 0x38, 0xe3, 0x3e, 0x34, 0xfe, 0x27, 0xbe,
  0xe6, 0x7f, 0xbb, 0xbd, 0x00, 0xe6, 0x1a, 0x3e, 0x90, 0x42, 0xde, 0x3d,
  0xd2, 0x7a, 0x84, 0x3e, 0x35, 0x8d, 0x31, 0x3e, 0xf2, 0x40, 0x72, 0xbe,
  0xa6, 0xfd, 0x1a, 0x3e, 0x03, 0x5c, 0x3f, 0x3e, 0x6e, 0xa4, 0x22, 0x3f,
  0x74, 0xd4, 0xb2, 0x3e, 0xe0, 0x6f, 0xd2, 0xbe, 0x35, 0xd7, 0x10, 0x3f,
  0xcc, 0xf7, 0x45, 0x3e, 0x5a, 0x10, 0x1c, 0xbe, 0xa1, 0x7a, 0x1b, 0xbf,
  0x6c, 0x0b, 0x8e, 0xbc, 0xc5, 0x74, 0x98, 0x3c, 0x52, 0x93, 0x13, 0xbc,
  0xaf, 0x51, 0x70, 0xbe, 0x05, 0x51, 0x92, 0x3e, 0x50, 0xeb, 0x94, 0xbe,
  0x1b, 0x8b, 0xcb, 0x3c, 0x7e, 0x37, 0xcb, 0x3e, 0x53, 0x4f, 0x1f, 0x3e,
  0xf9, 0x1b, 0x9a, 0xbf, 0x27, 0x4d, 0xcb, 0xbe, 0xc1, 0x2c, 0xa6, 0xbe,
  0x1c, 0x9a, 0x5e, 0x3d, 0x3c, 0x94, 0x09, 0x3e, 0x2a, 0xa1, 0x1a, 0x3f,
  0xa9, 0x63, 0x28, 0x3f, 0x59, 0x8b, 0x1e, 0x3e, 0x1b, 0x3e, 0x3c, 0xbe,
  0x60, 0xb7, 0x2e, 0x3e, 0x0a, 0xe5, 0x69, 0xbf, 0xac, 0x04, 0xc2, 0x3e,
  0xc0, 0x85, 0x3b, 0x3e, 0x62, 0x93, 0x9b, 0xbf, 0xd8, 0xd0, 0x81, 0xbf,
  0x6f, 0x6f, 0xad, 0x3e, 0x57, 0x44, 0x3e, 0x3e, 0x08, 0xb9, 0xc4, 0x3d,
  0xae, 0xfe, 0x62, 0xbb, 0xb3, 0xd5, 0x8a, 0x3e, 0xd0, 0x33, 0x24, 0xbe,
  0x5c, 0xe4, 0x7d, 0xbf, 0x7e, 0x9c, 0x56, 0x3d, 0x12, 0x40, 0x0b, 0x3f,
  0xf2, 0xce, 0x91, 0xbf, 0x11, 0xf9, 0xc4, 0xbc, 0x27, 0xf9, 0x71, 0xbc,
  0x59, 0x6f, 0x33, 0xbe, 0x97, 0x63, 0x9e, 0x3e, 0x8a, 0x53, 0x1c, 0xbe,
  0x46, 0x31, 0xaa, 0xbf, 0x90, 0x04, 0x5b, 0xbe, 0x9d, 0x8c, 0x75, 0xbe,
  0x3a, 0x78, 0xb3, 0x3f, 0xc0, 0xb2, 0x63, 0x3e, 0xe2, 0x4f, 0x0a, 0x3e,
  0x54, 0xfa, 0xd8, 0xbf, 0xa9, 0x5c, 0xb5, 0x3e, 0xd9, 0xb1, 0xab, 0x3e,
  0x3a, 0xa1, 0x60, 0x3e, 0x57, 0x42, 0x2f, 0x3e, 0x2f, 0x13, 0x0a, 0x3e,
  0x55, 0x9d, 0x94, 0x3e, 0xaf, 0xf2, 0xdb, 0xbe, 0x12, 0xfa, 0xbd, 0x3e,
  0xa1, 0xc2, 0xd6, 0x3e, 0xb5, 0x6a, 0x82, 0xbf, 0x01, 0xff, 0xcb, 0x3d,
  0x53, 0xb7, 0x76, 0xbe, 0xd4, 0xd5, 0xc1, 0xbf, 0xe0, 0xc6, 0x5c, 0xbf,
  0x65, 0xa7, 0x88, 0x3e, 0x9d, 0x43, 0x6e, 0x3c, 0x2d, 0x27, 0x70, 0x3d,
  0xe7, 0x4c, 0x11, 0xbb, 0x39, 0x17, 0x06, 0xbf, 0x8c, 0xb6, 0x30, 0xbf,
  0xce, 0xd5, 0xd5, 0x3e, 0x8e, 0x28, 0xd2, 0xbe, 0x27, 0x90, 0x5d, 0xbe,
  0xf3, 0x27, 0xc6, 0x3e, 0x03, 0xc6, 0x88, 0xbf, 0xe9, 0x9a, 0x10, 0x3f,
  0xda, 0x22, 0xd1, 0x3e, 0xa0, 0x15, 0xd2, 0x3e, 0x65, 0xe6, 0x4b, 0x3e,
  0x56, 0x1d, 0x4b, 0xbe, 0x8d, 0xcf, 0x95, 0x3e, 0xd4, 0xa9, 0xd3, 0x3e,
  0x8b, 0xb9, 0xfb, 0x3e, 0xc1, 0x41, 0x30, 0xbc, 0xf5, 0x8f, 0x03, 0x3e,
  0xe6, 0x0e, 0xc6, 0x3d, 0x4d, 0x1d, 0x0a, 0x3e, 0xd6, 0x47, 0x00, 0xba,
  0xf3, 0xce, 0xce, 0x3d, 0x14, 0x37, 0x84, 0xbd, 0xb5, 0x74, 0xcd, 0xbe,
  0x02, 0x8e, 0xf5, 0x3e, 0xf1, 0x22, 0xa8, 0x3e, 0xce, 0x0c, 0xc5, 0xbf,
  0x87, 0x23, 0xd4, 0x3d, 0x2d, 0x76, 0xdf, 0xbe, 0xa5, 0x65, 0x0e, 0xc0,
  0x0e, 0x9f, 0x45, 0xbe, 0x59, 0x61, 0x80, 0xbe, 0x33, 0xeb, 0x70, 0xbe,
  0x9d, 0x61, 0x38, 0xbd, 0x2e, 0xa4, 0x90, 0xbe, 0xca, 0x12, 0x85, 0xbd,
  0x7f, 0xaf, 0x02, 0x3e, 0x72, 0xa2, 0xd6, 0x3d, 0xad, 0x02, 0x71, 0xbe,
  0x9c, 0xf0, 0x60, 0x3e, 0x32, 0xdb, 0x67, 0xbe, 0xe5, 0xed, 0x64, 0x3e,
  0xfe, 0x12, 0xc4, 0x3e, 0xab, 0x42, 0x30, 0xbf, 0x9b, 0x6d, 0xf2, 0xbd,
  0x7a, 0x1b, 0x19, 0x3e, 0x1d, 0x57, 0xdf, 0xbf, 0xc3, 0x50, 0x4f, 0xbf,
  0xfb, 0xf5, 0x9b, 0xbe, 0x52, 0x98, 0xae, 0xbe, 0x89, 0x42, 0x9a, 0x3e,
  0x86, 0xfd, 0x5d, 0x3e, 0xbf, 0x68, 0x5b, 0xbe, 0xe3, 0x85, 0x8e, 0x3e,
  0x8c, 0xf1, 0x9c, 0xbe, 0xc3, 0x3d, 0xcb, 0x3d, 0x5f, 0xaa, 0x57, 0x3f,
  0x2b, 0x15, 0xa2, 0xbf, 0xac, 0x66, 0x78, 0xbe, 0xf8, 0xe9, 0x13, 0xbf,
  0x73, 0x09, 0xe8, 0xbd, 0x8c, 0xaa, 0x9f, 0xbe, 0x7e, 0xbd, 0x60, 0x3e,
  0xf7, 0x79, 0xc2, 0x3e, 0x2c, 0x6a, 0x0d, 0x3f, 0x63, 0xe2, 0x88, 0x3e,
  0xc8, 0xfe, 0x5c, 0x3f, 0x9b, 0x54, 0x4e, 0x3e, 0xd0, 0xb5, 0x07, 0x3f,
  0x41, 0xb3, 0xb9, 0xbc, 0x21, 0x85, 0x6d, 0x3e, 0x51, 0x75, 0x68, 0xbe,
  0x9d, 0x09, 0x9e, 0xbe, 0x0a, 0xaa, 0x38, 0xbf, 0xbf, 0x5f, 0x3c, 0xbe,
  0x31, 0x35, 0xb1, 0x3f, 0x30, 0x13, 0xf0, 0x3e, 0xcb, 0x6a, 0xa4, 0x3e,
  0x30, 0x21, 0xd9, 0x3d, 0xac, 0xfd, 0x3b, 0xbe, 0xcf, 0x9a, 0xed, 0xbf,
  0x78, 0xa7, 0x0f, 0xbf, 0x0d, 0xa9, 0x4d, 0xbe, 0x27, 0x75, 0xba, 0x3f,
  0x83, 0x9e, 0xd9, 0x3d, 0x85, 0x02, 0x31, 0xbf, 0x56, 0x35, 0x71, 0xbe,
  0x4f, 0xd5, 0x00, 0x3e, 0x61, 0xa7, 0xa4, 0x3e, 0xaa, 0x12, 0x25, 0xbe,
  0xe7, 0x1a, 0xb9, 0xbe, 0xdc, 0x0c, 0x30, 0xbd, 0xfe, 0x9b, 0x63, 0x3e,
  0xbf, 0xbc, 0x73, 0x3e, 0xbf, 0x17, 0xe2, 0xbf, 0x8a, 0x39, 0xda, 0x3e,
  0x65, 0x8f, 0xe9, 0xbd, 0x36, 0x3c, 0xfa, 0xbe, 0xf4, 0x93, 0x46, 0xbe,
  0x35, 0x5c, 0x15, 0x3e, 0x75, 0x2c, 0x82, 0x3e, 0x8a, 0x96, 0xa0, 0x3e,
  0x84, 0x83, 0xc3, 0xbe, 0x65, 0xca, 0xe0, 0x3e, 0x8a, 0xb2, 0x42, 0xbf,
  0x65, 0x42, 0xf0, 0x3d, 0x2e, 0x41, 0x06, 0xbf, 0xd8, 0x3e, 0x61, 0x3e,
  0xe5, 0xbd, 0x3f, 0x3f, 0x74, 0x01, 0x97, 0xbf, 0x61, 0x5c, 0x2f, 0xbe,
  0x0e, 0x31, 0x30, 0x3e, 0xa1, 0x41, 0x30, 0x3f, 0x21, 0x60, 0xd5, 0x3e,
  0x51, 0x3e, 0xaf, 0x3e, 0x00, 0x6a, 0x2b, 0xbf, 0xa7, 0xcb, 0x69, 0x3d,
  0x9b, 0xc2, 0xd5, 0x3d, 0x72, 0x9f, 0x30, 0x3d, 0xcb, 0x7b, 0x69, 0x3e,
  0x65, 0x03, 0x01, 0x3f, 0x99, 0x14, 0x4b, 0x3e, 0x26, 0x31, 0x43, 0x3e,
  0xf4, 0x40, 0x61, 0x3f, 0xad, 0xe5, 0xe5, 0xbd, 0x22, 0x72, 0xdf, 0x3e,
  0x05, 0x91, 0x36, 0x3e, 0xfa, 0x20, 0x2b, 0x3e, 0x90, 0x1a, 0xba, 0x3e,
  0x78, 0xf3, 0xc7, 0xbe, 0x4a, 0xba, 0x93, 0xbd, 0xaf, 0x0d, 0x96, 0xbc,
  0xdb, 0x01, 0x4d, 0x3e, 0x29, 0xd0, 0x82, 0x3e, 0x29, 0x43, 0xa5, 0x3f,
  0x42, 0x23, 0x84, 0x3d, 0x74, 0x38, 0x8c, 0xbe, 0x91, 0xe9, 0xa1, 0xbf,
  0x0b, 0xe9, 0x1e, 0x3e, 0x12, 0x5a, 0xa6, 0x3e, 0x1b, 0x51, 0x3f, 0x3c,
  0x6e, 0x3e, 0x30, 0xbf, 0x80, 0xa6, 0x3c, 0xbe, 0x4e, 0xd4, 0xcf, 0x3d,
  0xe6, 0x62, 0x58, 0xbe, 0xd9, 0xfd, 0xa2, 0x3e, 0x70, 0x52, 0x0a, 0x3f,
  0x94, 0x4f, 0x57, 0xbd, 0x3f, 0x0f, 0xdf, 0xbe, 0xf7, 0xc2, 0x79, 0xbe,
  0xba, 0xf8, 0x57, 0x3f, 0xb4, 0x13, 0xc5, 0xbe, 0xfb, 0xce, 0x33, 0xbe,
  0x02, 0x55, 0xeb, 0x3d, 0xc1, 0x8c, 0x8f, 0xbe, 0x23, 0x25, 0x37, 0x3e,
  0x32, 0x90, 0x5c, 0xbf, 0x13, 0x50, 0x80, 0xbe, 0xc4, 0x78, 0xc7, 0xbc,
  0xfc, 0x56, 0x02, 0x3f, 0x5d, 0x85, 0xe2, 0x3e, 0x97, 0xe7, 0x45, 0x3e,
  0xba, 0xe7, 0xae, 0x3e, 0x41, 0x4a, 0x70, 0x3e, 0xe0, 0xb7, 0x81, 0xbe,
  0x77, 0x11, 0x0d, 0x3e, 0x1f, 0x63, 0xcb, 0x3d, 0xd7, 0xf8, 0xd7, 0x3d,
  0x7e, 0xb2, 0x30, 0xbe, 0xe8, 0xe3, 0xd9, 0xbe, 0x44, 0x15, 0xaf, 0x3e,
  0x9c, 0xfc, 0x38, 0x3e, 0x21, 0x2c, 0x99, 0x3e, 0xf7, 0x99, 0xe0, 0xbd,
  0xfb, 0xea, 0x46, 0x3e, 0xc7, 0xa9, 0x07, 0x3e, 0x3b, 0xf4, 0x83, 0xbc,
  0xaa, 0xff, 0xe0, 0x3e, 0x9b, 0xe8, 0x8f, 0xbe, 0x60, 0x20, 0xd2, 0x3e,
  0xad, 0x18, 0x56, 0xbe, 0xda, 0xa9, 0x7a, 0xbd, 0xce, 0xa6, 0x61, 0x3f,
  0xf1, 0x30, 0x09, 0xc0, 0x00, 0xa7, 0x0a, 0x3e, 0x76, 0xd0, 0xde, 0x3f,
  0xc3, 0x57, 0x1e, 0x3d, 0xd1, 0x34, 0x57, 0x3e, 0x73, 0x1c, 0x8f, 0x3c,
  0x76, 0x72, 0xf8, 0xbe, 0x5f, 0x74, 0xfb, 0xbd, 0xd0, 0x66, 0x94, 0xbd,
  0x7c, 0x22, 0xb2, 0xbf, 0x32, 0xac, 0x61, 0xbe, 0x1e, 0xb8, 0x02, 0x3f,
  0x97, 0xc4, 0x03, 0xbf, 0x13, 0x41, 0x8e, 0x3f, 0x40, 0x4e, 0x64, 0xbf,
  0x85, 0x0d, 0xcc, 0xbd, 0x5b, 0xbc, 0x1f, 0x3f, 0xea, 0x05, 0xe4, 0x3e,
  0x70, 0xbf, 0x96, 0xbd, 0x37, 0xf9, 0xff, 0xbe, 0x17, 0xed, 0x1c, 0x3c,
  0xed, 0xe5, 0x3a, 0x3f, 0x9f, 0x01, 0x2f, 0x3f, 0x62, 0x03, 0xd6, 0x3e,
  0xe5, 0x85, 0x8e, 0x3f, 0x97, 0x1b, 0xd8, 0xbf, 0x95, 0x09, 0x9a, 0x3e,
  0x8e, 0x8d, 0x45, 0xbf, 0xe7, 0xad, 0x7d, 0x3e, 0xeb, 0x82, 0x02, 0xbe,
  0xe2, 0x83, 0xb7, 0xbe, 0xd4, 0x38, 0xd5, 0xbe, 0x66, 0xa7, 0xa7, 0xbe,
  0xdf, 0x0a, 0xbb, 0xbe, 0x69, 0x6d, 0x83, 0x3e, 0x40, 0x15, 0x54, 0x3f,
  0xd1, 0x45, 0x7e, 0xbf, 0xde, 0x5d, 0x02, 0xbe, 0x08, 0x09, 0xb8, 0x3d,
  0xf0, 0xce, 0x5d, 0xbd, 0xe9, 0xe7, 0xa9, 0xbe, 0x71, 0x91, 0x0f, 0x3e,
  0x81, 0x99, 0x3f, 0xbf, 0xf0, 0x75, 0x2c, 0x3e, 0x5d, 0x79, 0x70, 0xbd,
  0x6e, 0x3c, 0xa5, 0xbf, 0x25, 0xa1, 0x1a, 0xbe, 0x0e, 0x7f, 0x8e, 0x3f,
  0x36, 0x6e, 0x30, 0xbf, 0x4b, 0x9a, 0x6c, 0x3f, 0xf5, 0x82, 0x62, 0xbe,
  0xfa, 0x5e, 0x93, 0x3e, 0xf6, 0xa7, 0xc8, 0xbe, 0x94, 0x8a, 0xf2, 0x3e,
  0xec, 0x1e, 0x15, 0x3f, 0xed, 0xb6, 0x1c, 0xbf, 0xfd, 0x84, 0x6c, 0xbe,
  0xb7, 0x9c, 0x05, 0x3d, 0x60, 0x67, 0x84, 0xbe, 0x27, 0x37, 0xbf, 0x3c,
  0x88, 0x3e, 0x52, 0xbe, 0x9f, 0x1f, 0x3c, 0x3e, 0x56, 0x7d, 0x6d, 0x3f,
  0xa7, 0x3c, 0x8b, 0xbf, 0xec, 0x13, 0xaa, 0x3e, 0x89, 0x41, 0xc2, 0xbc,
  0xfc, 0xc9, 0xff, 0xbd, 0x6e, 0x64, 0x96, 0xbf, 0x86, 0x59, 0x07, 0x3e,
  0xa5, 0x04, 0xe6, 0x3e, 0x49, 0x4b, 0xcc, 0xbd, 0x14, 0x84, 0x8b, 0x3e,
  0x9c, 0x85, 0x37, 0xbe, 0x0b, 0xc1, 0x95, 0xbe, 0x2a, 0xd7, 0xe2, 0x3d,
  0x85, 0x2b, 0xc4, 0xbd, 0x4b, 0x64, 0x37, 0xbd, 0x82, 0x38, 0x99, 0xbe,
  0x3c, 0xf4, 0xb9, 0xbc, 0x6c, 0x45, 0x7e, 0xbe, 0x6a, 0xdd, 0x99, 0x3e,
  0xf4, 0x79, 0x9e, 0x3d, 0x8f, 0x50, 0x2b, 0x3e, 0xce, 0xe9, 0xc1, 0x3e,
  0x5a, 0xc8, 0xdb, 0x3e, 0xc0, 0x2d, 0x6f, 0x3f, 0x78, 0x36, 0xa1, 0xbe,
  0xe2, 0x29, 0x3d, 0xc0, 0xdb, 0x8b, 0x28, 0xbf, 0x82, 0x18, 0x0b, 0xbe,
  0x27, 0xa9, 0x99, 0xbe, 0x9f, 0x47, 0xb7, 0x3c, 0xb5, 0x15, 0x3e, 0x3f,
  0x49, 0x0b, 0x3f, 0x3e, 0x61, 0xcc, 0x3b, 0x3f, 0xbe, 0xc1, 0xa9, 0xbd,
  0x3a, 0x91, 0x65, 0xbf, 0x50, 0xfd, 0xa3, 0xbf, 0xf4, 0x83, 0xd3, 0xbd,
  0xd7, 0x6e, 0xf8, 0xbe, 0xec, 0xa4, 0xcd, 0xbe, 0xae, 0x30, 0xe8, 0xbe,
  0xed, 0x48, 0x8f, 0xbe, 0xd4, 0x3b, 0x31, 0x3e, 0x56, 0xb2, 0xd1, 0x3b,
  0x86, 0x9e, 0xb8, 0x3e, 0x98, 0x4f, 0xa3, 0xbd, 0xa9, 0x5c, 0x89, 0xbe,
  0xdd, 0x26, 0x11, 0xbf, 0xfa, 0x70, 0x58, 0x3b, 0x10, 0x07, 0xfb, 0x3e,
  0xf1, 0xb3, 0x1d, 0xbf, 0x54, 0xa6, 0xa9, 0xbe, 0xc6, 0x13, 0x16, 0x3d,
  0x48, 0xa9, 0xba, 0xbd, 0x70, 0x82, 0xa4, 0x3e, 0x6e, 0x88, 0x3d, 0x3f,
  0x21, 0xac, 0x8f, 0x3e, 0xff, 0xbd, 0x03, 0x3f, 0xca, 0xef, 0xef, 0xbd,
  0x75, 0x8e, 0x07, 0xbf, 0xc2, 0x85, 0x61, 0xbf, 0x2f, 0x65, 0x94, 0x3e,
  0x37, 0xb5, 0x45, 0xbe, 0xeb, 0xcf, 0x93, 0xbd, 0x87, 0xdf, 0x6c, 0x3f,
  0xe3, 0xc6, 0x14, 0xc0, 0x41, 0x11, 0x28, 0xbf, 0x04, 0xed, 0x8f, 0x3e,
  0x57, 0xfe, 0x8b, 0x3e, 0x6a, 0x85, 0x9b, 0xbe, 0xe8, 0x1d, 0xce, 0xbd,
  0xae, 0x7c, 0x46, 0x3f, 0xb6, 0x32, 0x88, 0xbf, 0x6e, 0x60, 0x28, 0xbe,
  0x6e, 0x0e, 0xa3, 0x3e, 0x7e, 0xe3, 0xd2, 0xbe, 0x3a, 0x59, 0x65, 0xbe,
  0x18, 0x33, 0x94, 0x3c, 0xd2, 0x28, 0x3b, 0x3e, 0x0b, 0xad, 0xb0, 0xbe,
  0x9e, 0x82, 0xe8, 0x3c, 0xa5, 0xec, 0x86, 0xbe, 0xa4, 0x85, 0xdc, 0x3c,
  0xb1, 0x28, 0x08, 0xbf, 0x0d, 0x51, 0xcc, 0x3d, 0xa2, 0xa0, 0x57, 0xbe,
  0xfb, 0x6b, 0xf2, 0xbe, 0x53, 0x90, 0x87, 0xbe, 0x95, 0x24, 0xcc, 0x3e,
  0xd6, 0x84, 0xfe, 0xbe, 0x0a, 0x36, 0x89, 0x3e, 0xcc, 0x10, 0x5c, 0xbf,
  0x44, 0xa6, 0x49, 0xbe, 0x4e, 0xa7, 0x1f, 0x3f, 0x7f, 0x4d, 0xb5, 0x3e,
  0x73, 0x0c, 0x99, 0x3e, 0xf0, 0xaf, 0x90, 0x3e, 0x99, 0xcc, 0xd4, 0x3e,
  0xcf, 0x46, 0xce, 0x3f, 0x5d, 0x6b, 0xc3, 0x3d, 0x32, 0xe3, 0x8e, 0xbc,
  0xc0, 0x1e, 0x25, 0xbe, 0x20, 0xc1, 0x5a, 0x3f, 0x25, 0x0a, 0x0f, 0xbe,
  0x3c, 0xa3, 0x11, 0xbf, 0x92, 0x93, 0x0d, 0x3f, 0xe8, 0x58, 0x60, 0x3e,
  0x8b, 0x98, 0xe1, 0xbe, 0xd1, 0x93, 0xed, 0x3e, 0x67, 0x53, 0xea, 0xbe,
  0x68, 0x43, 0x5b, 0x3c, 0x91, 0x31, 0x0d, 0xbe, 0xfa, 0xa5, 0xb2, 0x3e,
  0xd6, 0x96, 0x0f, 0x3e, 0x68, 0x08, 0x85, 0xbe, 0xdf, 0xf9, 0xb5, 0x3e,
  0x1c, 0x98, 0xab, 0xbd, 0xc4, 0xff, 0x3e, 0x3e, 0xe5, 0x69, 0x15, 0x3e,
  0xc6, 0xbc, 0xbd, 0x3e, 0xbb, 0x42, 0x3d, 0xbe, 0x37, 0xc4, 0xf6, 0x3e,
  0xf5, 0xeb, 0xfb, 0x3e, 0x26, 0xcc, 0x99, 0x3e, 0x63, 0x36, 0xf4, 0x3e,
  0x88, 0xb8, 0x85, 0xbe, 0x0a, 0x5e, 0x79, 0xbf, 0x57, 0x87, 0xe5, 0xbe,
  0x36, 0x4a, 0x0f, 0x3e, 0xdb, 0x1e, 0x00, 0x3e, 0x6f, 0xad, 0x80, 0xbe,
  0xad, 0xba, 0x88, 0x3d, 0x34, 0x19, 0x98, 0xbf, 0xec, 0x5d, 0xe6, 0x3e,
  0xaa, 0x72, 0x92, 0xbd, 0x21, 0x53, 0xfe, 0xbf, 0x77, 0x6d, 0x0e, 0xbf,
  0x7b, 0xb4, 0xd2, 0x3d, 0xc2, 0xc7, 0x9d, 0xbe, 0xbd, 0xad, 0xe8, 0xbd,
  0x47, 0x87, 0xad, 0x3c, 0xf1, 0x01, 0x6f, 0xbf, 0x5e, 0xa4, 0x70, 0x3f,
  0xfc, 0x17, 0x0f, 0x3e, 0xe1, 0x78, 0x4e, 0x3e, 0xfa, 0xce, 0x1b, 0x3f,
  0x24, 0xf9, 0xff, 0xff, 0x28, 0xf9, 0xff, 0xff, 0x0f, 0x00, 0x00, 0x00,
  0x4d, 0x4c, 0x49, 0x52, 0x20, 0x43, 0x6f, 0x6e, 0x76, 0x65, 0x72, 0x74,
  0x65, 0x64, 0x2e, 0x00, 0x01, 0x00, 0x00, 0x00, 0x14, 0x00, 0x00, 0x00,
  0x00, 0x00, 0x0e, 0x00, 0x18, 0x00, 0x14, 0x00, 0x10, 0x00, 0x0c, 0x00,
  0x08, 0x00, 0x04, 0x00, 0x0e, 0x00, 0x00, 0x00, 0x14, 0x00, 0x00, 0x00,
  0x1c, 0x00, 0x00, 0x00, 0x5c, 0x01, 0x00, 0x00, 0x60, 0x01, 0x00, 0x00,
  0x64, 0x01, 0x00, 0x00, 0x04, 0x00, 0x00, 0x00, 0x6d, 0x61, 0x69, 0x6e,
  0x00, 0x00, 0x00, 0x00, 0x05, 0x00, 0x00, 0x00, 0x00, 0x01, 0x00, 0x00,
  0xb8, 0x00, 0x00, 0x00, 0x84, 0x00, 0x00, 0x00, 0x40, 0x00, 0x00, 0x00,
  0x04, 0x00, 0x00, 0x00, 0x96, 0xff, 0xff, 0xff, 0x1c, 0x00, 0x00, 0x00,
  0x00, 0x00, 0x00, 0x09, 0x1c, 0x00, 0x00, 0x00, 0x20, 0x00, 0x00, 0x00,
  0x02, 0x00, 0x00, 0x00, 0x00, 0x00, 0x06, 0x00, 0x08, 0x00, 0x04, 0x00,
  0x06, 0x00, 0x00, 0x00, 0x00, 0x00, 0x80, 0x3f, 0x01, 0x00, 0x00, 0x00,
  0x0c, 0x00, 0x00, 0x00, 0x01, 0x00, 0x00, 0x00, 0x0b, 0x00, 0x00, 0x00,
  0x5a, 0xff, 0xff, 0xff, 0x10, 0x00, 0x00, 0x00, 0x00, 0x00, 0x00, 0x08,
  0x0c, 0x00, 0x00, 0x00, 0x10, 0x00, 0x00, 0x00, 0xe0, 0xf9, 0xff, 0xff,
  0x01, 0x00, 0x00, 0x00, 0x0b, 0x00, 0x00, 0x00, 0x03, 0x00, 0x00, 0x00,
  0x0a, 0x00, 0x00, 0x00, 0x02, 0x00, 0x00, 0x00, 0x03, 0x00, 0x00, 0x00,
  0x00, 0x00, 0x0e, 0x00, 0x18, 0x00, 0x14, 0x00, 0x10, 0x00, 0x0c, 0x00,
  0x0b, 0x00, 0x04, 0x00, 0x0e, 0x00, 0x00, 0x00, 0x14, 0x00, 0x00, 0x00,
  0x00, 0x00, 0x00, 0x1b, 0x10, 0x00, 0x00, 0x00, 0x14, 0x00, 0x00, 0x00,
  0x01, 0x00, 0x00, 0x00, 0x24, 0xfa, 0xff, 0xff, 0x01, 0x00, 0x00, 0x00,
  0x0a, 0x00, 0x00, 0x00, 0x02, 0x00, 0x00, 0x00, 0x09, 0x00, 0x00, 0x00,
  0x04, 0x00, 0x00, 0x00, 0xca, 0xff, 0xff, 0xff, 0x10, 0x00, 0x00, 0x00,
  0x00, 0x00, 0x00, 0x08, 0x10, 0x00, 0x00, 0x00, 0x14, 0x00, 0x00, 0x00,
  0xba, 0xff, 0xff, 0xff, 0x00, 0x00, 0x01, 0x01, 0x01, 0x00, 0x00, 0x00,
  0x09, 0x00, 0x00, 0x00, 0x03, 0x00, 0x00, 0x00, 0x08, 0x00, 0x00, 0x00,
  0x01, 0x00, 0x00, 0x00, 0x05, 0x00, 0x00, 0x00, 0x00, 0x00, 0x0e, 0x00,
  0x16, 0x00, 0x00, 0x00, 0x10, 0x00, 0x0c, 0x00, 0x0b, 0x00, 0x04, 0x00,
  0x0e, 0x00, 0x00, 0x00, 0x1c, 0x00, 0x00, 0x00, 0x00, 0x00, 0x00, 0x08,
  0x1c, 0x00, 0x00, 0x00, 0x20, 0x00, 0x00, 0x00, 0x00, 0x00, 0x0a, 0x00,
  0x08, 0x00, 0x07, 0x00, 0x00, 0x00, 0x06, 0x00, 0x0a, 0x00, 0x00, 0x00,
  0x00, 0x00, 0x01, 0x01, 0x01, 0x00, 0x00, 0x00, 0x08, 0x00, 0x00, 0x00,
  0x03, 0x00, 0x00, 0x00, 0x00, 0x00, 0x00, 0x00, 0x07, 0x00, 0x00, 0x00,
  0x06, 0x00, 0x00, 0x00, 0x01, 0x00, 0x00, 0x00, 0x0c, 0x00, 0x00, 0x00,
  0x01, 0x00, 0x00, 0x00, 0x00, 0x00, 0x00, 0x00, 0x0d, 0x00, 0x00, 0x00,
  0x00, 0x05, 0x00, 0x00, 0xa8, 0x04, 0x00, 0x00, 0x50, 0x04, 0x00, 0x00,
  0x14, 0x04, 0x00, 0x00, 0xa8, 0x03, 0x00, 0x00, 0x34, 0x03, 0x00, 0x00,
  0xdc, 0x02, 0x00, 0x00, 0x90, 0x02, 0x00, 0x00, 0xf4, 0x01, 0x00, 0x00,
  0x50, 0x01, 0x00, 0x00, 0xe0, 0x00, 0x00, 0x00, 0x60, 0x00, 0x00, 0x00,
  0x04, 0x00, 0x00, 0x00, 0x4a, 0xfb, 0xff, 0xff, 0x00, 0x00, 0x00, 0x01,
  0x14, 0x00, 0x00, 0x00, 0x1c, 0x00, 0x00, 0x00, 0x1c, 0x00, 0x00, 0x00,
  0x0d, 0x00, 0x00, 0x00, 0x34, 0x00, 0x00, 0x00, 0x02, 0x00, 0x00, 0x00,
  0xff, 0xff, 0xff, 0xff, 0x0c, 0x00, 0x00, 0x00, 0x30, 0xfb, 0xff, 0xff,
  0x1b, 0x00, 0x00, 0x00, 0x53, 0x74, 0x61, 0x74, 0x65, 0x66, 0x75, 0x6c,
  0x50, 0x61, 0x72, 0x74, 0x69, 0x74, 0x69, 0x6f, 0x6e, 0x65, 0x64, 0x43,
  0x61, 0x6c, 0x6c, 0x5f, 0x31, 0x3a, 0x30, 0x00, 0x02, 0x00, 0x00, 0x00,
  0x01, 0x00, 0x00, 0x00, 0x0c, 0x00, 0x00, 0x00, 0xa2, 0xfb, 0xff, 0xff,
  0x00, 0x00, 0x00, 0x01, 0x14, 0x00, 0x00, 0x00, 0x1c, 0x00, 0x00, 0x00,
  0x1c, 0x00, 0x00, 0x00, 0x0c, 0x00, 0x00, 0x00, 0x58, 0x00, 0x00, 0x00,
  0x02, 0x00, 0x00, 0x00, 0xff, 0xff, 0xff, 0xff, 0x0c, 0x00, 0x00, 0x00,
  0x88, 0xfb, 0xff, 0xff, 0x3c, 0x00, 0x00, 0x00, 0x73, 0x65, 0x71, 0x75,
  0x65, 0x6e, 0x74, 0x69, 0x61, 0x6c, 0x5f, 0x31, 0x2f, 0x64, 0x65, 0x6e,
  0x73, 0x65, 0x5f, 0x32, 0x5f, 0x31, 0x2f, 0x4d, 0x61, 0x74, 0x4d, 0x75,
  0x6c, 0x3b, 0x73, 0x65, 0x71, 0x75, 0x65, 0x6e, 0x74, 0x69, 0x61, 0x6c,
  0x5f, 0x31, 0x2f, 0x64, 0x65, 0x6e, 0x73, 0x65, 0x5f, 0x32, 0x5f, 0x31,
  0x2f, 0x42, 0x69, 0x61, 0x73, 0x41, 0x64, 0x64, 0x00, 0x00, 0x00, 0x00,
  0x02, 0x00, 0x00, 0x00, 0x01, 0x00, 0x00, 0x00, 0x0c, 0x00, 0x00, 0x00,
  0x1e, 0xfc, 0xff, 0xff, 0x00, 0x00, 0x00, 0x01, 0x14, 0x00, 0x00, 0x00,
  0x1c, 0x00, 0x00, 0x00, 0x1c, 0x00, 0x00, 0x00, 0x0b, 0x00, 0x00, 0x00,
  0x48, 0x00, 0x00, 0x00, 0x02, 0x00, 0x00, 0x00, 0xff, 0xff, 0xff, 0xff,
  0x0f, 0x00, 0x00, 0x00, 0x04, 0xfc, 0xff, 0xff, 0x2c, 0x00, 0x00, 0x00,
  0x73, 0x65, 0x71, 0x75, 0x65, 0x6e, 0x74, 0x69, 0x61, 0x6c, 0x5f, 0x31,
  0x2f, 0x67, 0x6c, 0x6f, 0x62, 0x61, 0x6c, 0x5f, 0x61, 0x76, 0x65, 0x72,
  0x61, 0x67, 0x65, 0x5f, 0x70, 0x6f, 0x6f, 0x6c, 0x69, 0x6e, 0x67, 0x31,
  0x64, 0x5f, 0x31, 0x2f, 0x4d, 0x65, 0x61, 0x6e, 0x00, 0x00, 0x00, 0x00,
  0x02, 0x00, 0x00, 0x00, 0x01, 0x00, 0x00, 0x00, 0x0f, 0x00, 0x00, 0x00,
  0x8a, 0xfc, 0xff, 0xff, 0x00, 0x00, 0x00, 0x01, 0x14, 0x00, 0x00, 0x00,
  0x20, 0x00, 0x00, 0x00, 0x20, 0x00, 0x00, 0x00, 0x0a, 0x00, 0x00, 0x00,
  0x78, 0x00, 0x00, 0x00, 0x03, 0x00, 0x00, 0x00, 0xff, 0xff, 0xff, 0xff,
  0x7d, 0x00, 0x00, 0x00, 0x0f, 0x00, 0x00, 0x00, 0x74, 0xfc, 0xff, 0xff,
  0x58, 0x00, 0x00, 0x00, 0x73, 0x65, 0x71, 0x75, 0x65, 0x6e, 0x74, 0x69,
  0x61, 0x6c, 0x5f, 0x31, 0x2f, 0x64, 0x65, 0x6e, 0x73, 0x65, 0x5f, 0x31,
  0x5f, 0x32, 0x2f, 0x4d, 0x61, 0x74, 0x4d, 0x75, 0x6c, 0x3b, 0x73, 0x65,
  0x71, 0x75, 0x65, 0x6e, 0x74, 0x69, 0x61, 0x6c, 0x5f, 0x31, 0x2f, 0x64,
  0x65, 0x6e, 0x73, 0x65, 0x5f, 0x31, 0x5f, 0x32, 0x2f, 0x52, 0x65, 0x6c,
  0x75, 0x3b, 0x73, 0x65, 0x71, 0x75, 0x65, 0x6e, 0x74, 0x69, 0x61, 0x6c,
  0x5f, 0x31, 0x2f, 0x64, 0x65, 0x6e, 0x73, 0x65, 0x5f, 0x31, 0x5f, 0x32,
  0x2f, 0x42, 0x69, 0x61, 0x73, 0x41, 0x64, 0x64, 0x00, 0x00, 0x00, 0x00,
  0x03, 0x00, 0x00, 0x00, 0x01, 0x00, 0x00, 0x00, 0x7d, 0x00, 0x00, 0x00,
  0x0f, 0x00, 0x00, 0x00, 0x2a, 0xfd, 0xff, 0xff, 0x00, 0x00, 0x00, 0x01,
  0x14, 0x00, 0x00, 0x00, 0x20, 0x00, 0x00, 0x00, 0x20, 0x00, 0x00, 0x00,
  0x09, 0x00, 0x00, 0x00, 0x70, 0x00, 0x00, 0x00, 0x03, 0x00, 0x00, 0x00,
  0xff, 0xff, 0xff, 0xff, 0x7d, 0x00, 0x00, 0x00, 0x32, 0x00, 0x00, 0x00,
  0x14, 0xfd, 0xff, 0xff, 0x52, 0x00, 0x00, 0x00, 0x73, 0x65, 0x71, 0x75,
  0x65, 0x6e, 0x74, 0x69, 0x61, 0x6c, 0x5f, 0x31, 0x2f, 0x64, 0x65, 0x6e,
  0x73, 0x65, 0x5f, 0x31, 0x2f, 0x4d, 0x61, 0x74, 0x4d, 0x75, 0x6c, 0x3b,
  0x73, 0x65, 0x71, 0x75, 0x65, 0x6e, 0x74, 0x69, 0x61, 0x6c, 0x5f, 0x31,
  0x2f, 0x64, 0x65, 0x6e, 0x73, 0x65, 0x5f, 0x31, 0x2f, 0x52, 0x65, 0x6c,
  0x75, 0x3b, 0x73, 0x65, 0x71, 0x75, 0x65, 0x6e, 0x74, 0x69, 0x61, 0x6c,
  0x5f, 0x31, 0x2f, 0x64, 0x65, 0x6e, 0x73, 0x65, 0x5f, 0x31, 0x2f, 0x42,
  0x69, 0x61, 0x73, 0x41, 0x64, 0x64, 0x00, 0x00, 0x03, 0x00, 0x00, 0x00,
  0x01, 0x00, 0x00, 0x00, 0x7d, 0x00, 0x00, 0x00, 0x32, 0x00, 0x00, 0x00,
  0x16, 0xfe, 0xff, 0xff, 0x00, 0x00, 0x00, 0x01, 0x10, 0x00, 0x00, 0x00,
  0x10, 0x00, 0x00, 0x00, 0x08, 0x00, 0x00, 0x00, 0x28, 0x00, 0x00, 0x00,
  0x98, 0xfd, 0xff, 0xff, 0x1b, 0x00, 0x00, 0x00, 0x73, 0x65, 0x71, 0x75,
  0x65, 0x6e, 0x74, 0x69, 0x61, 0x6c, 0x5f, 0x31, 0x2f, 0x64, 0x65, 0x6e,
  0x73, 0x65, 0x5f, 0x31, 0x2f, 0x4d, 0x61, 0x74, 0x4d, 0x75, 0x6c, 0x00,
  0x02, 0x00, 0x00, 0x00, 0x32, 0x00, 0x00, 0x00, 0x06, 0x00, 0x00, 0x00,
  0x5e, 0xfe, 0xff, 0xff, 0x00, 0x00, 0x00, 0x01, 0x10, 0x00, 0x00, 0x00,
  0x10, 0x00, 0x00, 0x00, 0x07, 0x00, 0x00, 0x00, 0x38, 0x00, 0x00, 0x00,
  0xe0, 0xfd, 0xff, 0xff, 0x2b, 0x00, 0x00, 0x00, 0x73, 0x65, 0x71, 0x75,
  0x65, 0x6e, 0x74, 0x69, 0x61, 0x6c, 0x5f, 0x31, 0x2f, 0x64, 0x65, 0x6e,
  0x73, 0x65, 0x5f, 0x31, 0x2f, 0x42, 0x69, 0x61, 0x73, 0x41, 0x64, 0x64,
  0x2f, 0x52, 0x65, 0x61, 0x64, 0x56, 0x61, 0x72, 0x69, 0x61, 0x62, 0x6c,
  0x65, 0x4f, 0x70, 0x00, 0x01, 0x00, 0x00, 0x00, 0x32, 0x00, 0x00, 0x00,
  0xb2, 0xfe, 0xff, 0xff, 0x00, 0x00, 0x00, 0x01, 0x10, 0x00, 0x00, 0x00,
  0x10, 0x00, 0x00, 0x00, 0x06, 0x00, 0x00, 0x00, 0x3c, 0x00, 0x00, 0x00,
  0x34, 0xfe, 0xff, 0xff, 0x2d, 0x00, 0x00, 0x00, 0x73, 0x65, 0x71, 0x75,
  0x65, 0x6e, 0x74, 0x69, 0x61, 0x6c, 0x5f, 0x31, 0x2f, 0x64, 0x65, 0x6e,
  0x73, 0x65, 0x5f, 0x31, 0x5f, 0x32, 0x2f, 0x42, 0x69, 0x61, 0x73, 0x41,
  0x64, 0x64, 0x2f, 0x52, 0x65, 0x61, 0x64, 0x56, 0x61, 0x72, 0x69, 0x61,
  0x62, 0x6c, 0x65, 0x4f, 0x70, 0x00, 0x00, 0x00, 0x01, 0x00, 0x00, 0x00,
  0x0f, 0x00, 0x00, 0x00, 0x00, 0x00, 0x16, 0x00, 0x1c, 0x00, 0x18, 0x00,
  0x17, 0x00, 0x10, 0x00, 0x0c, 0x00, 0x08, 0x00, 0x00, 0x00, 0x00, 0x00,
  0x00, 0x00, 0x07, 0x00, 0x16, 0x00, 0x00, 0x00, 0x00, 0x00, 0x00, 0x01,
  0x14, 0x00, 0x00, 0x00, 0x14, 0x00, 0x00, 0x00, 0x05, 0x00, 0x00, 0x00,
  0x00, 0x00, 0x00, 0x02, 0x4c, 0x00, 0x00, 0x00, 0xa8, 0xfe, 0xff, 0xff,
  0x3e, 0x00, 0x00, 0x00, 0x73, 0x65, 0x71, 0x75, 0x65, 0x6e, 0x74, 0x69,
  0x61, 0x6c, 0x5f, 0x31, 0x2f, 0x67, 0x6c, 0x6f, 0x62, 0x61, 0x6c, 0x5f,
  0x61, 0x76, 0x65, 0x72, 0x61, 0x67, 0x65, 0x5f, 0x70, 0x6f, 0x6f, 0x6c,
  0x69, 0x6e, 0x67, 0x31, 0x64, 0x5f, 0x31, 0x2f, 0x4d, 0x65, 0x61, 0x6e,
  0x2f, 0x72, 0x65, 0x64, 0x75, 0x63, 0x74, 0x69, 0x6f, 0x6e, 0x5f, 0x69,
  0x6e, 0x64, 0x69, 0x63, 0x65, 0x73, 0x00, 0x00, 0x00, 0x00, 0x00, 0x00,
  0x8a, 0xff, 0xff, 0xff, 0x00, 0x00, 0x00, 0x01, 0x10, 0x00, 0x00, 0x00,
  0x10, 0x00, 0x00, 0x00, 0x04, 0x00, 0x00, 0x00, 0x1c, 0x00, 0x00, 0x00,
  0x0c, 0xff, 0xff, 0xff, 0x0f, 0x00, 0x00, 0x00, 0x61, 0x72, 0x69, 0x74,
  0x68, 0x2e, 0x63, 0x6f, 0x6e, 0x73, 0x74, 0x61, 0x6e, 0x74, 0x32, 0x00,
  0x01, 0x00, 0x00, 0x00, 0x0c, 0x00, 0x00, 0x00, 0xc2, 0xff, 0xff, 0xff,
  0x00, 0x00, 0x00, 0x01, 0x10, 0x00, 0x00, 0x00, 0x10, 0x00, 0x00, 0x00,
  0x03, 0x00, 0x00, 0x00, 0x1c, 0x00, 0x00, 0x00, 0x44, 0xff, 0xff, 0xff,
  0x0f, 0x00, 0x00, 0x00, 0x61, 0x72, 0x69, 0x74, 0x68, 0x2e, 0x63, 0x6f,
  0x6e, 0x73, 0x74, 0x61, 0x6e, 0x74, 0x31, 0x00, 0x02, 0x00, 0x00, 0x00,
  0x0c, 0x00, 0x00, 0x00, 0x0f, 0x00, 0x00, 0x00, 0x00, 0x00, 0x16, 0x00,
  0x18, 0x00, 0x14, 0x00, 0x00, 0x00, 0x10, 0x00, 0x0c, 0x00, 0x08, 0x00,
  0x00, 0x00, 0x00, 0x00, 0x00, 0x00, 0x07, 0x00, 0x16, 0x00, 0x00, 0x00,
  0x00, 0x00, 0x00, 0x01, 0x10, 0x00, 0x00, 0x00, 0x10, 0x00, 0x00, 0x00,
  0x02, 0x00, 0x00, 0x00, 0x1c, 0x00, 0x00, 0x00, 0x98, 0xff, 0xff, 0xff,
  0x0e, 0x00, 0x00, 0x00, 0x61, 0x72, 0x69, 0x74, 0x68, 0x2e, 0x63, 0x6f,
  0x6e, 0x73, 0x74, 0x61, 0x6e, 0x74, 0x00, 0x00, 0x02, 0x00, 0x00, 0x00,
  0x0f, 0x00, 0x00, 0x00, 0x32, 0x00, 0x00, 0x00, 0x00, 0x00, 0x16, 0x00,
  0x1c, 0x00, 0x18, 0x00, 0x00, 0x00, 0x14, 0x00, 0x10, 0x00, 0x0c, 0x00,
  0x00, 0x00, 0x00, 0x00, 0x08, 0x00, 0x07, 0x00, 0x16, 0x00, 0x00, 0x00,
  0x00, 0x00, 0x00, 0x01, 0x14, 0x00, 0x00, 0x00, 0x24, 0x00, 0x00, 0x00,
  0x24, 0x00, 0x00, 0x00, 0x01, 0x00, 0x00, 0x00, 0x40, 0x00, 0x00, 0x00,
  0x03, 0x00, 0x00, 0x00, 0xff, 0xff, 0xff, 0xff, 0x7d, 0x00, 0x00, 0x00,
  0x06, 0x00, 0x00, 0x00, 0x04, 0x00, 0x04, 0x00, 0x04, 0x00, 0x00, 0x00,
  0x1e, 0x00, 0x00, 0x00, 0x73, 0x65, 0x72, 0x76, 0x69, 0x6e, 0x67, 0x5f,
  0x64, 0x65, 0x66, 0x61, 0x75, 0x6c, 0x74, 0x5f, 0x6b, 0x65, 0x72, 0x61,
  0x73, 0x5f, 0x74, 0x65, 0x6e, 0x73, 0x6f, 0x72, 0x3a, 0x30, 0x00, 0x00,
  0x03, 0x00, 0x00, 0x00, 0x01, 0x00, 0x00, 0x00, 0x7d, 0x00, 0x00, 0x00,
  0x06, 0x00, 0x00, 0x00, 0x03, 0x00, 0x00, 0x00, 0x3c, 0x00, 0x00, 0x00,
  0x20, 0x00, 0x00, 0x00, 0x04, 0x00, 0x00, 0x00, 0xf4, 0xff, 0xff, 0xff,
  0x19, 0x00, 0x00, 0x00, 0x00, 0x00, 0x00, 0x19, 0x0c, 0x00, 0x0c, 0x00,
  0x0b, 0x00, 0x00, 0x00, 0x00, 0x00, 0x04, 0x00, 0x0c, 0x00, 0x00, 0x00,
  0x28, 0x00, 0x00, 0x00, 0x00, 0x00, 0x00, 0x28, 0x0c, 0x00, 0x10, 0x00,
  0x0f, 0x00, 0x00, 0x00, 0x08, 0x00, 0x04, 0x00, 0x0c, 0x00, 0x00, 0x00,
  0x09, 0x00, 0x00, 0x00, 0x05, 0x00, 0x00, 0x00, 0x00, 0x00, 0x00, 0x09
};
unsigned int Handshake_0603_2327_tflite_len = 7716;
