unsigned char Handshake_0604_1025_tflite[] = {
  0x1c, 0x00, 0x00, 0x00, 0x54, 0x46, 0x4c, 0x33, 0x14, 0x00, 0x20, 0x00,
  0x1c, 0x00, 0x18, 0x00, 0x14, 0x00, 0x10, 0x00, 0x0c, 0x00, 0x00, 0x00,
  0x08, 0x00, 0x04, 0x00, 0x14, 0x00, 0x00, 0x00, 0x1c, 0x00, 0x00, 0x00,
  0x98, 0x00, 0x00, 0x00, 0xf0, 0x00, 0x00, 0x00, 0x44, 0x39, 0x00, 0x00,
  0x54, 0x39, 0x00, 0x00, 0xa4, 0x41, 0x00, 0x00, 0x03, 0x00, 0x00, 0x00,
  0x01, 0x00, 0x00, 0x00, 0x10, 0x00, 0x00, 0x00, 0x00, 0x00, 0x0a, 0x00,
  0x10, 0x00, 0x0c, 0x00, 0x08, 0x00, 0x04, 0x00, 0x0a, 0x00, 0x00, 0x00,
  0x0c, 0x00, 0x00, 0x00, 0x1c, 0x00, 0x00, 0x00, 0x3c, 0x00, 0x00, 0x00,
  0x0f, 0x00, 0x00, 0x00, 0x73, 0x65, 0x72, 0x76, 0x69, 0x6e, 0x67, 0x5f,
  0x64, 0x65, 0x66, 0x61, 0x75, 0x6c, 0x74, 0x00, 0x01, 0x00, 0x00, 0x00,
  0x04, 0x00, 0x00, 0x00, 0x90, 0xff, 0xff, 0xff, 0x0f, 0x00, 0x00, 0x00,
  0x04, 0x00, 0x00, 0x00, 0x08, 0x00, 0x00, 0x00, 0x6f, 0x75, 0x74, 0x70,
  0x75, 0x74, 0x5f, 0x30, 0x00, 0x00, 0x00, 0x00, 0x01, 0x00, 0x00, 0x00,
  0x04, 0x00, 0x00, 0x00, 0xaa, 0xc6, 0xff, 0xff, 0x04, 0x00, 0x00, 0x00,
  0x0c, 0x00, 0x00, 0x00, 0x6b, 0x65, 0x72, 0x61, 0x73, 0x5f, 0x74, 0x65,
  0x6e, 0x73, 0x6f, 0x72, 0x00, 0x00, 0x00, 0x00, 0x02, 0x00, 0x00, 0x00,
  0x34, 0x00, 0x00, 0x00, 0x04, 0x00, 0x00, 0x00, 0xdc, 0xff, 0xff, 0xff,
  0x12, 0x00, 0x00, 0x00, 0x04, 0x00, 0x00, 0x00, 0x13, 0x00, 0x00, 0x00,
  0x43, 0x4f, 0x4e, 0x56, 0x45, 0x52, 0x53, 0x49, 0x4f, 0x4e, 0x5f, 0x4d,
  0x45, 0x54, 0x41, 0x44, 0x41, 0x54, 0x41, 0x00, 0x08, 0x00, 0x0c, 0x00,
  0x08, 0x00, 0x04, 0x00, 0x08, 0x00, 0x00, 0x00, 0x11, 0x00, 0x00, 0x00,
  0x04, 0x00, 0x00, 0x00, 0x13, 0x00, 0x00, 0x00, 0x6d, 0x69, 0x6e, 0x5f,
  0x72, 0x75, 0x6e, 0x74, 0x69, 0x6d, 0x65, 0x5f, 0x76, 0x65, 0x72, 0x73,
  0x69, 0x6f, 0x6e, 0x00, 0x13, 0x00, 0x00, 0x00, 0x50, 0x38, 0x00, 0x00,
  0x48, 0x38, 0x00, 0x00, 0x38, 0x30, 0x00, 0x00, 0x28, 0x10, 0x00, 0x00,
  0x18, 0x0d, 0x00, 0x00, 0xd8, 0x0c, 0x00, 0x00, 0x88, 0x0c, 0x00, 0x00,
  0x74, 0x0c, 0x00, 0x00, 0xe4, 0x0b, 0x00, 0x00, 0xd4, 0x0a, 0x00, 0x00,
  0xc4, 0x00, 0x00, 0x00, 0xbc, 0x00, 0x00, 0x00, 0xb4, 0x00, 0x00, 0x00,
  0xac, 0x00, 0x00, 0x00, 0xa4, 0x00, 0x00, 0x00, 0x9c, 0x00, 0x00, 0x00,
  0x94, 0x00, 0x00, 0x00, 0x74, 0x00, 0x00, 0x00, 0x04, 0x00, 0x00, 0x00,
  0x72, 0xc7, 0xff, 0xff, 0x04, 0x00, 0x00, 0x00, 0x60, 0x00, 0x00, 0x00,
  0x10, 0x00, 0x00, 0x00, 0x00, 0x00, 0x00, 0x00, 0x08, 0x00, 0x0e, 0x00,
  0x08, 0x00, 0x04, 0x00, 0x08, 0x00, 0x00, 0x00, 0x10, 0x00, 0x00, 0x00,
  0x24, 0x00, 0x00, 0x00, 0x00, 0x00, 0x06, 0x00, 0x08, 0x00, 0x04, 0x00,
  0x06, 0x00, 0x00, 0x00, 0x04, 0x00, 0x00, 0x00, 0x00, 0x00, 0x00, 0x00,
  0x0c, 0x00, 0x18, 0x00, 0x14, 0x00, 0x10, 0x00, 0x0c, 0x00, 0x04, 0x00,
  0x0c, 0x00, 0x00, 0x00, 0x91, 0x4f, 0xaf, 0xa8, 0x96, 0xef, 0xa6, 0xd7,
  0x02, 0x00, 0x00, 0x00, 0x02, 0x00, 0x00, 0x00, 0x04, 0x00, 0x00, 0x00,
  0x06, 0x00, 0x00, 0x00, 0x32, 0x2e, 0x31, 0x39, 0x2e, 0x30, 0x00, 0x00,
  0xde, 0xc7, 0xff, 0xff, 0x04, 0x00, 0x00, 0x00, 0x10, 0x00, 0x00, 0x00,
  0x32, 0x2e, 0x30, 0x2e, 0x30, 0x00, 0x00, 0x00, 0x00, 0x00, 0x00, 0x00,
  0x00, 0x00, 0x00, 0x00, 0x54, 0xc0, 0xff, 0xff, 0x58, 0xc0, 0xff, 0xff,
  0x5c, 0xc0, 0xff, 0xff, 0x60, 0xc0, 0xff, 0xff, 0x64, 0xc0, 0xff, 0xff,
  0x68, 0xc0, 0xff, 0xff, 0x12, 0xc8, 0xff, 0xff, 0x04, 0x00, 0x00, 0x00,
  0x00, 0x0a, 0x00, 0x00, 0x79, 0x75, 0x38, 0xbd, 0x92, 0xcf, 0xa9, 0xbd,
  0xfb, 0x65, 0xde, 0x3d, 0xb2, 0x23, 0xc7, 0x3e, 0xb6, 0x1e, 0xd8, 0xbe,
  0x09, 0xf4, 0x7a, 0xbe, 0xea, 0xbc, 0x04, 0xbf, 0xec, 0x67, 0x8d, 0x3e,
  0x75, 0x96, 0xc2, 0xbd, 0x7e, 0x6d, 0xfd, 0xbd, 0x2a, 0x6d, 0xd8, 0xbe,
  0xaf, 0xfc, 0x9d, 0xbd, 0x52, 0x2c, 0x62, 0xbd, 0xde, 0x43, 0xa5, 0x3d,
  0x3f, 0xc4, 0x24, 0x3c, 0xf9, 0x60, 0x85, 0x3d, 0xf1, 0xb8, 0x88, 0x3e,
  0x69, 0x4d, 0xa2, 0x3d, 0xca, 0xe4, 0x18, 0x3e, 0xd4, 0x5e, 0x2f, 0xbf,
  0x94, 0xb4, 0xc5, 0xbf, 0x71, 0xd6, 0x1b, 0x3f, 0x9b, 0x0f, 0x33, 0x3f,
  0xcb, 0x6b, 0x87, 0x3e, 0x7b, 0xad, 0x06, 0xbe, 0x2e, 0x63, 0xa2, 0x3d,
  0x2c, 0xec, 0x78, 0x3e, 0xcb, 0x49, 0x4e, 0xbf, 0x33, 0x6f, 0xa7, 0xbe,
  0x09, 0x23, 0x86, 0x3f, 0xf3, 0x6b, 0x4c, 0x3e, 0x92, 0xc5, 0x90, 0xbf,
  0x55, 0x05, 0x74, 0x3f, 0xc8, 0x15, 0x9a, 0x3e, 0x02, 0x50, 0x82, 0x3c,
  0x88, 0x03, 0x4d, 0x3e, 0x97, 0x99, 0xf4, 0xbd, 0xbd, 0x0f, 0xa7, 0xbe,
  0x0e, 0x58, 0x44, 0x3e, 0xac, 0x6f, 0xbe, 0x3e, 0xfa, 0x88, 0x9b, 0xbf,
  0x53, 0x50, 0x85, 0x3f, 0x14, 0xc4, 0x9b, 0xbd, 0xb7, 0xf1, 0x81, 0x3e,
  0xe6, 0xc6, 0x4c, 0x3e, 0x52, 0x0b, 0x82, 0x3d, 0x7c, 0x13, 0x01, 0xbf,
  0x43, 0xe9, 0x09, 0xbe, 0x82, 0x21, 0x6e, 0x3f, 0x25, 0xc7, 0xa2, 0x3d,
  0x3e, 0x93, 0x9f, 0xbf, 0x36, 0xb7, 0x12, 0xbf, 0x65, 0x90, 0x07, 0x3f,
  0x4f, 0x90, 0x9d, 0xbe, 0xcd, 0x11, 0x15, 0x3d, 0x8f, 0x19, 0xd4, 0xbe,
  0xe4, 0x0d, 0x86, 0xbf, 0x5e, 0x11, 0xe6, 0xbe, 0x96, 0xa2, 0xdc, 0x3e,
  0x2c, 0xdd, 0x6f, 0x3e, 0x31, 0x9d, 0x40, 0xbe, 0x77, 0x79, 0x58, 0x3f,
  0x95, 0xd8, 0xb5, 0xbf, 0xde, 0xef, 0x44, 0xbe, 0x85, 0xdb, 0x05, 0x3e,
  0x1b, 0x8e, 0xc5, 0x3c, 0x9d, 0xa5, 0xdc, 0xbe, 0x4d, 0x4e, 0x91, 0x3f,
  0x75, 0x87, 0x72, 0x3f, 0x42, 0xec, 0x47, 0xbe, 0x89, 0x3e, 0x01, 0x40,
  0xcd, 0x4c, 0x67, 0x3f, 0xea, 0x84, 0x85, 0xbb, 0xa5, 0xbf, 0xba, 0xbd,
  0x6d, 0xe8, 0xef, 0x3d, 0x9c, 0x3c, 0x87, 0xbd, 0x93, 0x89, 0xa7, 0x3f,
  0x66, 0x17, 0x52, 0x3f, 0x7b, 0x79, 0x29, 0x3f, 0x71, 0xae, 0x5b, 0x3d,
  0x80, 0x3c, 0x4f, 0x3f, 0x56, 0xdd, 0xd6, 0xbe, 0xf0, 0x47, 0x8f, 0xbf,
  0x29, 0x0b, 0x8c, 0xbe, 0x1b, 0x2f, 0x0b, 0xbe, 0x03, 0x7a, 0xa8, 0x3d,
  0xd1, 0x90, 0x19, 0xbe, 0x73, 0x54, 0xa0, 0x3f, 0x69, 0x1f, 0x38, 0xbe,
  0x59, 0x81, 0x13, 0x3f, 0xdc, 0x04, 0x38, 0xbf, 0xdf, 0x7e, 0x37, 0x3f,
  0xf2, 0x0f, 0x48, 0xbe, 0xc7, 0xf5, 0x3d, 0xbe, 0x0a, 0xd5, 0x53, 0xbd,
  0xd0, 0xa2, 0x92, 0xbe, 0xa3, 0x65, 0xa3, 0xbe, 0x17, 0xc9, 0x05, 0xbe,
  0x2e, 0x38, 0x2c, 0xbe, 0x80, 0x23, 0xf9, 0x3e, 0xd7, 0x06, 0xc8, 0x3d,
  0xac, 0x97, 0xc6, 0xbe, 0x65, 0x06, 0x54, 0x3f, 0xaf, 0x05, 0xe1, 0x3d,
  0x12, 0x76, 0xe7, 0x3d, 0xbb, 0x58, 0x90, 0x3e, 0x14, 0xa9, 0x39, 0x3f,
  0x82, 0x04, 0x44, 0x3f, 0x92, 0xe1, 0x02, 0xbf, 0x2f, 0x46, 0x68, 0xbe,
  0xa6, 0x92, 0xd6, 0xbf, 0x4a, 0x8c, 0x16, 0xbf, 0xa7, 0x26, 0x98, 0xbf,
  0x83, 0xae, 0xd4, 0x3d, 0x86, 0x8f, 0x32, 0x3d, 0xb4, 0x5c, 0xa6, 0x3d,
  0x8a, 0x3e, 0x82, 0x3e, 0xad, 0x1e, 0xd5, 0xbf, 0x48, 0xf1, 0x71, 0xbf,
  0xec, 0xb4, 0x46, 0x3f, 0x0e, 0xbf, 0xa1, 0x3d, 0x8d, 0x32, 0x32, 0xbf,
  0xd1, 0x8a, 0xab, 0x3e, 0xf7, 0x9e, 0x86, 0xbd, 0x95, 0xcf, 0x95, 0xbd,
  0xc8, 0xed, 0xf7, 0x3d, 0x43, 0x17, 0x06, 0x3f, 0x8c, 0x46, 0x35, 0xbf,
  0xc3, 0xfd, 0xc9, 0xbd, 0xd4, 0x89, 0x27, 0xbf, 0xf2, 0x6b, 0x69, 0x3e,
  0xf6, 0x23, 0x9f, 0x3b, 0x82, 0xda, 0xdc, 0x3e, 0x0b, 0x0e, 0xb2, 0x3e,
  0xa2, 0x42, 0x09, 0x3e, 0x86, 0xf9, 0xaf, 0xbe, 0x0b, 0x8f, 0x64, 0xbe,
  0xd2, 0x65, 0x7a, 0x3e, 0xfd, 0x2d, 0xdf, 0xbe, 0xeb, 0x08, 0x8d, 0xbd,
  0x6d, 0x9b, 0xe5, 0x3f, 0xcb, 0x86, 0xe5, 0xbe, 0xc3, 0xc0, 0xe6, 0x3f,
  0xbf, 0x6d, 0x4e, 0xbe, 0xe8, 0x07, 0x26, 0x3e, 0xce, 0x2c, 0x96, 0xbc,
  0xd2, 0x85, 0x86, 0x3f, 0xe1, 0x25, 0x6f, 0xbe, 0x08, 0x55, 0x73, 0xbf,
  0xb5, 0xb9, 0x58, 0xbe, 0x15, 0x04, 0xb7, 0x3e, 0x7f, 0xab, 0x21, 0x3f,
  0xcd, 0x50, 0x83, 0x3e, 0xdf, 0xad, 0xb2, 0x3e, 0x5c, 0x29, 0x89, 0x3e,
  0xf9, 0xf4, 0x34, 0xbe, 0x11, 0xf1, 0x2c, 0x3c, 0xa7, 0x00, 0x81, 0xbe,
  0x92, 0x8f, 0x80, 0xbf, 0x88, 0xef, 0xca, 0x3e, 0xd8, 0x8c, 0xd1, 0xbe,
  0xff, 0x82, 0x60, 0xbf, 0xdf, 0xb0, 0x87, 0xbe, 0xf3, 0x8b, 0x28, 0xbd,
  0x2b, 0x70, 0x70, 0xbd, 0x46, 0xa6, 0x36, 0xbb, 0x8d, 0xae, 0x11, 0x3f,
  0xa0, 0xc4, 0xe4, 0x3e, 0xc9, 0xf3, 0xc8, 0x3e, 0x59, 0x56, 0x32, 0x3f,
  0x87, 0x79, 0xc9, 0xbe, 0x60, 0xff, 0x1d, 0x3d, 0xb1, 0x5e, 0x98, 0xbf,
  0xa3, 0x5d, 0x0c, 0xbe, 0xf8, 0x19, 0xd9, 0x3c, 0xd9, 0x12, 0xd5, 0xbd,
  0xdc, 0x6c, 0x80, 0x3e, 0xd7, 0xe2, 0x1c, 0x3f, 0x68, 0x36, 0x97, 0xbf,
  0x4e, 0xc6, 0x42, 0xbf, 0x2f, 0x0e, 0xda, 0xbf, 0x16, 0xa7, 0xe7, 0x3f,
  0x4a, 0x56, 0xe2, 0xbf, 0x99, 0x94, 0x25, 0x3e, 0x49, 0xbc, 0x9d, 0x3d,
  0xe6, 0x4d, 0x41, 0x3e, 0x51, 0xb9, 0x7e, 0xbd, 0x3e, 0x23, 0x04, 0xbf,
  0x36, 0x8b, 0x46, 0x3f, 0xc6, 0x80, 0x16, 0xbf, 0x0f, 0x06, 0x1f, 0x3e,
  0x47, 0x17, 0x94, 0xbe, 0x09, 0x97, 0x89, 0xbf, 0x03, 0xa9, 0x42, 0x3e,
  0x3b, 0x3e, 0xf5, 0xbb, 0x6f, 0x7f, 0x5c, 0xbe, 0x25, 0x21, 0xe3, 0xbe,
  0x9b, 0x71, 0x99, 0xbe, 0x1f, 0xb1, 0x11, 0xbf, 0xc8, 0xc8, 0x59, 0xbe,
  0x8c, 0xc1, 0x29, 0x3e, 0xb6, 0x83, 0x86, 0x3e, 0x77, 0x3f, 0xfd, 0x3e,
  0x28, 0x21, 0x1b, 0xbe, 0xbb, 0x3e, 0xb7, 0xbe, 0x7c, 0xd3, 0xb8, 0x3d,
  0xc7, 0x8c, 0xbe, 0xbe, 0x53, 0x2f, 0x82, 0xbf, 0x1d, 0xeb, 0x8b, 0xbe,
  0xb8, 0x16, 0x91, 0x3f, 0x95, 0x13, 0xc7, 0xbe, 0x90, 0xb2, 0xb7, 0xbf,
  0x4f, 0xbe, 0xb9, 0xbf, 0x83, 0x6b, 0x90, 0x3e, 0x3c, 0xe8, 0x22, 0x3e,
  0xe2, 0x65, 0xd8, 0x3d, 0x8c, 0x7e, 0x67, 0xbe, 0xab, 0x8e, 0x9d, 0xbe,
  0xc0, 0x1e, 0x95, 0x3f, 0x61, 0x22, 0x1f, 0xbf, 0x70, 0x93, 0xa8, 0x3e,
  0x53, 0x5a, 0x77, 0xbd, 0x70, 0x8d, 0xbb, 0x3e, 0xef, 0xe9, 0x77, 0x3e,
  0x22, 0x42, 0x7b, 0xbe, 0x99, 0xf4, 0x28, 0x3e, 0xb8, 0xf4, 0xbd, 0xbd,
  0x63, 0x3f, 0x09, 0xbe, 0x9d, 0xef, 0x3e, 0xbe, 0xb6, 0x2d, 0x2b, 0xbf,
  0x30, 0x0d, 0x06, 0xbf, 0x90, 0x0b, 0x6b, 0x3e, 0xf4, 0xec, 0xe1, 0xbe,
  0x29, 0x85, 0xa4, 0x3d, 0xa3, 0x75, 0x6f, 0xba, 0x37, 0x2a, 0xef, 0x3d,
  0x6b, 0x00, 0x03, 0x3f, 0xd4, 0x8f, 0xa9, 0xbe, 0x60, 0x4f, 0xf1, 0xbe,
  0x64, 0x5d, 0x10, 0x3f, 0xde, 0xcf, 0x9c, 0x3e, 0x6c, 0x55, 0x30, 0x3f,
  0x3c, 0x1d, 0x09, 0xbe, 0xf8, 0x79, 0x49, 0x3e, 0xb3, 0x50, 0x55, 0x3b,
  0xd1, 0xb7, 0x36, 0x3d, 0xef, 0xc8, 0xe2, 0x3b, 0x04, 0xa9, 0xb2, 0x3e,
  0xd6, 0x76, 0x13, 0xbf, 0xbf, 0x36, 0xa4, 0xbd, 0xe3, 0x7b, 0x40, 0x3e,
  0x57, 0xf2, 0x3a, 0x3f, 0x08, 0x25, 0x5e, 0xbf, 0x2c, 0xd9, 0x8a, 0xbd,
  0x8a, 0x7f, 0x9c, 0xbc, 0xeb, 0xdb, 0xa7, 0xba, 0x76, 0x6b, 0x20, 0xbf,
  0xaf, 0x60, 0x41, 0x3e, 0x20, 0x03, 0x0d, 0xbe, 0x77, 0x87, 0xba, 0x3d,
  0x24, 0x49, 0xe5, 0xbd, 0x3f, 0xc2, 0xa8, 0x3e, 0x72, 0x69, 0xbe, 0x3f,
  0x5e, 0xc9, 0x05, 0xbf, 0x14, 0xd4, 0x01, 0x3f, 0xfc, 0x41, 0x07, 0x3f,
  0xdc, 0x6b, 0x6f, 0x3d, 0x96, 0xe9, 0xcc, 0xbe, 0xca, 0x00, 0xdd, 0x3b,
  0x76, 0x93, 0x40, 0xbe, 0x6e, 0x54, 0x8a, 0xbf, 0xb8, 0xb4, 0x21, 0xbf,
  0x8e, 0xce, 0x2b, 0xbf, 0x2e, 0xb1, 0x3c, 0x3d, 0x40, 0x78, 0x4b, 0xbc,
  0x85, 0x06, 0x8e, 0x3d, 0x7f, 0x21, 0xbc, 0xbe, 0xba, 0x9c, 0x24, 0x3f,
  0xcc, 0xad, 0x8e, 0xbd, 0xdd, 0x3a, 0xbe, 0x3c, 0x13, 0xbd, 0xae, 0xbe,
  0x7d, 0x11, 0xc5, 0x3d, 0xee, 0xfb, 0x03, 0x3f, 0xda, 0xb2, 0x8c, 0x3d,
  0x2c, 0xbf, 0x0f, 0xbb, 0x03, 0x5f, 0x56, 0xbd, 0xfc, 0xe7, 0x81, 0x3f,
  0xba, 0x0f, 0x96, 0x3e, 0x50, 0xab, 0x82, 0x3e, 0xd4, 0x95, 0xa0, 0x3f,
  0x2c, 0x58, 0xb4, 0x3f, 0x48, 0x53, 0xa7, 0x3f, 0x28, 0xa2, 0xf9, 0xbe,
  0x27, 0xc6, 0x57, 0xbe, 0x33, 0xa9, 0xa6, 0x3e, 0xbc, 0xe7, 0xcb, 0xbe,
  0x9f, 0xbf, 0xbe, 0xbe, 0xd3, 0xeb, 0xd8, 0xbe, 0xda, 0x2e, 0x24, 0x3f,
  0x5e, 0x50, 0xe8, 0xbe, 0x64, 0x93, 0xc7, 0xbe, 0x62, 0xcd, 0x2a, 0x3c,
  0xd5, 0x5d, 0x3a, 0xbf, 0x90, 0x55, 0x3f, 0xbe, 0xb9, 0xbd, 0x86, 0x3d,
  0x40, 0x34, 0xdf, 0xbd, 0x08, 0x9d, 0xa8, 0xbf, 0x58, 0x9a, 0x53, 0x3f,
  0xd3, 0x08, 0xed, 0xbe, 0x52, 0xfe, 0x6a, 0x3f, 0x68, 0x80, 0x46, 0xbf,
  0xe2, 0x71, 0xb1, 0xbe, 0x17, 0xe3, 0x3c, 0x3f, 0x46, 0xce, 0xb0, 0x3c,
  0x4b, 0x15, 0x8f, 0xbd, 0xaa, 0xab, 0x66, 0x3e, 0x6f, 0xdd, 0xf5, 0x3e,
  0xa8, 0xdd, 0x8f, 0xbe, 0x10, 0xb6, 0x24, 0x3f, 0xcb, 0xde, 0x6e, 0xbf,
  0x3f, 0xd3, 0x86, 0x3e, 0x99, 0xfa, 0x1a, 0xbe, 0x92, 0x28, 0xbf, 0x3f,
  0x29, 0x4f, 0xd2, 0x3e, 0x0e, 0x5d, 0x3e, 0x3d, 0x69, 0xc1, 0x86, 0x3e,
  0xe4, 0x5a, 0xe8, 0x3d, 0x78, 0xea, 0x8b, 0xbe, 0x39, 0x8c, 0xfb, 0xbd,
  0xe8, 0x1e, 0x93, 0x3e, 0xe8, 0xbb, 0x5e, 0x3e, 0x63, 0x7e, 0x05, 0xc0,
  0x80, 0x79, 0x53, 0x3f, 0xf5, 0xa5, 0x79, 0x3e, 0x25, 0xa7, 0x16, 0x3e,
  0xea, 0x8f, 0x2e, 0xbd, 0xff, 0x0d, 0xcc, 0x3f, 0xb2, 0x10, 0x1a, 0x3f,
  0x99, 0x19, 0x54, 0x3f, 0x65, 0x7e, 0xb7, 0x3e, 0xfa, 0x43, 0x7f, 0x3e,
  0x62, 0xc0, 0x59, 0xbf, 0x7f, 0x42, 0x02, 0xbe, 0x8e, 0x7a, 0xc6, 0xbc,
  0xd1, 0x00, 0xf9, 0xbc, 0x04, 0x00, 0xae, 0xbc, 0x4f, 0x3b, 0x6b, 0x3f,
  0xf6, 0xeb, 0x23, 0x3f, 0xcc, 0x95, 0x9d, 0x3e, 0x24, 0xd3, 0x28, 0x3f,
  0xa8, 0x40, 0xad, 0x3e, 0x67, 0x54, 0x97, 0x3f, 0xef, 0x27, 0xba, 0x3d,
  0x8b, 0x32, 0x25, 0xbe, 0xd6, 0xf5, 0xb5, 0xbd, 0x32, 0xcd, 0x93, 0xbe,
  0x7e, 0xbe, 0x9c, 0xbe, 0x86, 0x66, 0x0c, 0xbe, 0xbe, 0x7e, 0x44, 0x3f,
  0xc9, 0xa8, 0x10, 0xbf, 0x7e, 0xf1, 0x4a, 0xbf, 0xe4, 0xfc, 0xad, 0x3f,
  0xca, 0x8d, 0x8b, 0xbf, 0xe3, 0x73, 0x88, 0xbc, 0x9d, 0x88, 0x98, 0xbd,
  0x38, 0x04, 0xdc, 0x3b, 0x6f, 0x83, 0x84, 0xbe, 0xdf, 0xa4, 0x9e, 0xbf,
  0x15, 0x83, 0x84, 0x3b, 0x34, 0x0a, 0x5d, 0x3d, 0x58, 0x4b, 0xb4, 0x3f,
  0xc8, 0xb0, 0xec, 0xbd, 0x05, 0xe2, 0x27, 0x3f, 0x3b, 0xad, 0xd1, 0xbc,
  0x04, 0x17, 0x48, 0xbc, 0x1b, 0x81, 0x96, 0x3c, 0xf6, 0xd7, 0x5f, 0x3e,
  0x5d, 0xd6, 0x00, 0x3f, 0x75, 0x18, 0x5a, 0xbf, 0x5f, 0x0d, 0x3d, 0xbf,
  0xb3, 0x6f, 0x58, 0xbf, 0xff, 0x0d, 0x1e, 0xbf, 0x94, 0x32, 0x8a, 0x3b,
  0xe8, 0xb9, 0x7c, 0xbd, 0xd4, 0x71, 0x82, 0x3e, 0x01, 0x88, 0x1a, 0x3e,
  0xde, 0x06, 0x22, 0x3f, 0xdc, 0xfc, 0xbd, 0x3f, 0xb7, 0xe3, 0x86, 0xbf,
  0x84, 0x71, 0x3c, 0xbe, 0x83, 0x83, 0x3f, 0x3f, 0xdf, 0xcd, 0xc8, 0xbf,
  0xc8, 0x2c, 0x34, 0xbf, 0x37, 0x5a, 0x35, 0xbd, 0x4e, 0x08, 0xd3, 0x3e,
  0x52, 0xe3, 0x34, 0xbe, 0xcc, 0x11, 0x8d, 0xbf, 0x3c, 0x4f, 0xde, 0xbd,
  0x80, 0xe2, 0x6b, 0x3f, 0x58, 0x50, 0x44, 0xbf, 0xa5, 0x25, 0xe8, 0xbf,
  0xa5, 0xd0, 0xf3, 0x3e, 0x29, 0x1f, 0x64, 0xbf, 0xbf, 0x30, 0xa7, 0xbd,
  0x95, 0x92, 0xc6, 0x3e, 0x65, 0xf3, 0x28, 0xbe, 0x9a, 0x79, 0xa0, 0xbf,
  0x8f, 0x96, 0x7e, 0xbc, 0xaa, 0x2e, 0xdb, 0xbe, 0x6c, 0xde, 0x40, 0x3f,
  0x2c, 0xf5, 0x05, 0x3f, 0xc5, 0xa8, 0x9c, 0x3e, 0x3b, 0xd2, 0x55, 0xbf,
  0x31, 0x6a, 0xba, 0x3e, 0x5b, 0x96, 0x33, 0xbd, 0x8b, 0xf6, 0xbb, 0x3d,
  0xd3, 0xc2, 0xed, 0xbe, 0x35, 0x85, 0xe4, 0x3e, 0xa9, 0xaa, 0xf8, 0xbd,
  0x51, 0x3f, 0x07, 0xbf, 0x0f, 0xba, 0x6a, 0x3f, 0x33, 0x73, 0xcd, 0xbd,
  0x2a, 0xe4, 0x37, 0x3e, 0x2e, 0x2b, 0x5d, 0xbd, 0xd5, 0xc8, 0xb8, 0xbd,
  0xce, 0x45, 0x9a, 0xbd, 0xaf, 0xc8, 0x00, 0xbe, 0xeb, 0x98, 0x3d, 0xbf,
  0xc9, 0xf1, 0x02, 0x3f, 0x22, 0x2b, 0x45, 0x3e, 0x5a, 0x0a, 0xb5, 0x3e,
  0x72, 0xcd, 0xb1, 0xbf, 0x44, 0x2c, 0x32, 0xbe, 0x21, 0xdd, 0xca, 0x3d,
  0xc5, 0x82, 0x6c, 0xbe, 0xf8, 0x0d, 0x16, 0xbe, 0x4b, 0xc7, 0xde, 0x3e,
  0x41, 0xdb, 0x6b, 0xbd, 0xf4, 0x38, 0x33, 0x3f, 0x90, 0x09, 0x59, 0xbf,
  0xbd, 0xf6, 0xbd, 0xbe, 0x7a, 0xab, 0x33, 0xbf, 0x54, 0xb4, 0xab, 0xbe,
  0x47, 0xa1, 0x14, 0x3e, 0xea, 0xc6, 0x51, 0xbe, 0xdf, 0xdc, 0x42, 0xbe,
  0x36, 0x7e, 0x93, 0xbe, 0xa0, 0x48, 0x91, 0xbc, 0xa0, 0xc3, 0x62, 0x3f,
  0xe6, 0x81, 0x9f, 0x3d, 0xf9, 0xe5, 0x26, 0x3f, 0xcd, 0x04, 0xad, 0xbc,
  0x76, 0xef, 0x25, 0x3f, 0xd6, 0x23, 0x22, 0xbd, 0x3f, 0x62, 0x86, 0x3d,
  0x07, 0x9a, 0xae, 0xbc, 0x43, 0xc5, 0x10, 0xbf, 0x78, 0x15, 0x98, 0x3e,
  0xe3, 0x88, 0x28, 0xbd, 0xa5, 0xf3, 0xdf, 0x3e, 0xd3, 0x44, 0x55, 0xbf,
  0x28, 0x8a, 0x4c, 0x3f, 0xdc, 0x6f, 0xc7, 0xbe, 0xd0, 0xcd, 0x71, 0xbc,
  0x94, 0x21, 0x9b, 0x3e, 0x89, 0x0e, 0x8c, 0xbe, 0xbf, 0x12, 0xeb, 0x3f,
  0xd8, 0x24, 0x41, 0x3f, 0xe7, 0x31, 0x81, 0xbf, 0x71, 0x69, 0x57, 0x3f,
  0x25, 0x25, 0x1c, 0x3e, 0x4e, 0xc4, 0x2b, 0xbf, 0x0f, 0xb7, 0xf6, 0xbe,
  0x25, 0x73, 0x8b, 0x3e, 0xc1, 0x8f, 0x2b, 0x3d, 0x06, 0x57, 0xf8, 0x3d,
  0xd4, 0x5a, 0x9e, 0xbe, 0x2e, 0xaa, 0x2d, 0x3f, 0xe9, 0x07, 0x5a, 0x3f,
  0x4e, 0xb0, 0xe9, 0xbe, 0xc2, 0xb6, 0xa6, 0xbf, 0x6d, 0x1c, 0xb7, 0x3c,
  0xc5, 0x9b, 0x09, 0x3f, 0xef, 0xe7, 0xa7, 0xbe, 0x13, 0xa2, 0xa0, 0xbe,
  0xe6, 0x4c, 0xad, 0x3d, 0xea, 0x5b, 0xc8, 0x3d, 0x0a, 0xe1, 0x33, 0xbe,
  0xc5, 0xac, 0x36, 0x3e, 0x2a, 0x7b, 0x21, 0xbf, 0xcf, 0x4f, 0xcc, 0xba,
  0x2b, 0x89, 0x70, 0x3e, 0xca, 0x2c, 0x13, 0x3f, 0x58, 0x2e, 0x0b, 0xbe,
  0xfd, 0x38, 0xa0, 0x3c, 0xd3, 0x68, 0x41, 0xbd, 0xa1, 0x5d, 0x99, 0xbe,
  0x33, 0x28, 0xf0, 0xbe, 0x96, 0x06, 0x6e, 0x3f, 0xf7, 0x29, 0x77, 0xbe,
  0x20, 0x8d, 0x3f, 0xbf, 0xe8, 0x34, 0x69, 0x3f, 0x4d, 0xb1, 0x73, 0xbd,
  0x03, 0x9c, 0x62, 0xbe, 0xfc, 0xd2, 0x6d, 0x3d, 0xab, 0x80, 0xe5, 0x3d,
  0x0c, 0x67, 0x86, 0xbe, 0x7b, 0x0c, 0xfa, 0xbe, 0x74, 0x51, 0xa8, 0x3e,
  0xf3, 0x27, 0x7d, 0x3f, 0x2b, 0xad, 0x05, 0xc0, 0xdf, 0xe1, 0x2e, 0x3d,
  0x61, 0x97, 0xb4, 0x3f, 0x34, 0xf7, 0x39, 0xbe, 0xd8, 0xc2, 0xc0, 0xbd,
  0x96, 0xd9, 0x82, 0xbd, 0x81, 0x2d, 0x95, 0xbe, 0xbf, 0xa3, 0x77, 0x3c,
  0x31, 0x6d, 0xeb, 0x3e, 0xdd, 0x90, 0x79, 0x3f, 0x6b, 0xec, 0x5b, 0xbc,
  0x0b, 0xd9, 0xc1, 0xbf, 0x26, 0x61, 0x97, 0xbf, 0xbf, 0x52, 0x1f, 0xbc,
  0x8a, 0xa3, 0xe4, 0xbd, 0x69, 0x2c, 0x0e, 0xbe, 0x21, 0x10, 0x40, 0x3e,
  0xc9, 0xc1, 0xb5, 0xbe, 0xff, 0xfa, 0xa1, 0xbe, 0x5b, 0x12, 0x0a, 0xbf,
  0x52, 0x3f, 0xb6, 0x3f, 0xbd, 0x01, 0xa6, 0x3e, 0x2f, 0x5e, 0x90, 0xbf,
  0xb8, 0x32, 0x9a, 0xbd, 0x40, 0x38, 0x52, 0xbe, 0xbe, 0x27, 0x81, 0xbd,
  0x8c, 0x58, 0x48, 0x3f, 0x90, 0x32, 0x82, 0x3f, 0x5d, 0xa7, 0xa7, 0xbe,
  0x35, 0xa2, 0x00, 0x3f, 0x6b, 0x1c, 0x79, 0x3e, 0xd3, 0x84, 0xec, 0x3f,
  0x57, 0x12, 0xaa, 0x3f, 0x3a, 0x8b, 0x83, 0xbd, 0xf6, 0x2c, 0x20, 0xbd,
  0x99, 0x2e, 0x66, 0xbe, 0x4d, 0x6c, 0xd2, 0x3f, 0xb9, 0xc4, 0x73, 0x3f,
  0xba, 0x37, 0x29, 0xbf, 0x33, 0xce, 0x73, 0xbe, 0xd4, 0xb3, 0x76, 0x3f,
  0x34, 0xa2, 0x11, 0x3f, 0x9b, 0x10, 0x81, 0xbf, 0x4d, 0xa7, 0x79, 0x3e,
  0xe2, 0xcd, 0x2c, 0xbd, 0x12, 0xc4, 0x89, 0x3d, 0xba, 0xde, 0x11, 0xbd,
  0xbe, 0x22, 0x0c, 0x3f, 0x07, 0xb2, 0x9e, 0x3e, 0x5b, 0x5d, 0x30, 0xbf,
  0xba, 0xf4, 0xac, 0x3f, 0xbd, 0x9f, 0x75, 0x3f, 0xc2, 0x3b, 0x0a, 0xbe,
  0x9b, 0x0b, 0xee, 0x3d, 0x82, 0x16, 0xcd, 0xbd, 0x8e, 0x7c, 0xde, 0x3c,
  0x1c, 0xc9, 0x83, 0x3e, 0xc1, 0xb0, 0x24, 0x3f, 0xa4, 0x6d, 0x80, 0x3e,
  0xea, 0x01, 0x1e, 0x3d, 0x52, 0xf2, 0xec, 0x3f, 0x4e, 0x35, 0x1b, 0xc0,
  0xb8, 0x7a, 0x79, 0x3f, 0xf5, 0x8f, 0xb9, 0x3d, 0x86, 0xde, 0x76, 0x3e,
  0x53, 0x85, 0x1f, 0xbd, 0x7e, 0x2d, 0xe3, 0xbe, 0x37, 0xd1, 0x0e, 0xbf,
  0xa0, 0x40, 0xbf, 0x3e, 0x9e, 0xe4, 0x25, 0xbe, 0x36, 0x2f, 0xb5, 0x3d,
  0xe6, 0x42, 0xc5, 0x3e, 0xc8, 0x12, 0x30, 0xbd, 0x55, 0x8f, 0xd3, 0xbe,
  0xfa, 0x3b, 0x17, 0xbe, 0xe8, 0xb3, 0xab, 0xbb, 0x09, 0x15, 0x97, 0x3d,
  0xaf, 0xce, 0x50, 0xbc, 0xaf, 0xd4, 0x6e, 0x3e, 0x90, 0x29, 0x88, 0xbe,
  0x18, 0x4a, 0x2a, 0x3f, 0x75, 0x02, 0xe6, 0x3f, 0x42, 0x1f, 0x8d, 0xbf,
  0x0a, 0xd8, 0x72, 0x3e, 0x63, 0x46, 0xf5, 0x3d, 0x80, 0xaa, 0x39, 0xbe,
  0xb8, 0x5a, 0xe4, 0x3d, 0x88, 0xf6, 0xef, 0xbd, 0xae, 0x9c, 0x11, 0xbf,
  0x45, 0x73, 0xd3, 0xbd, 0x70, 0x79, 0x8f, 0x3f, 0x97, 0x73, 0x19, 0x3f,
  0x0d, 0xd8, 0x98, 0x3d, 0x57, 0x5e, 0x86, 0x3d, 0xd8, 0xa4, 0x90, 0x3e,
  0xdb, 0x4d, 0x06, 0x3d, 0x93, 0x94, 0xf9, 0xbd, 0x84, 0x71, 0xbc, 0xbe,
  0x80, 0x34, 0x37, 0x3f, 0xe5, 0xf3, 0x5a, 0xbe, 0x0b, 0x9a, 0x10, 0x3e,
  0x33, 0xa0, 0xde, 0xbe, 0x1e, 0x22, 0x7f, 0xbe, 0xeb, 0x66, 0xb4, 0x3d,
  0x19, 0xb4, 0x68, 0x3e, 0x60, 0xf7, 0xdf, 0xbd, 0x52, 0x1b, 0xcb, 0xbd,
  0x86, 0xcf, 0xc0, 0xbe, 0x0e, 0x64, 0x15, 0x3f, 0xd7, 0xc0, 0xef, 0xbd,
  0x13, 0xe7, 0x36, 0xbf, 0x1f, 0x67, 0x1e, 0x3f, 0x15, 0x22, 0xaf, 0x3e,
  0x21, 0xfd, 0x51, 0x3e, 0x13, 0xa9, 0x46, 0xbd, 0xa8, 0xb2, 0x91, 0xba,
  0x03, 0x78, 0x75, 0xbf, 0x20, 0xe9, 0xa7, 0x3e, 0x46, 0xf4, 0xb9, 0x3e,
  0x6a, 0xdf, 0x93, 0xbf, 0xf5, 0x81, 0x94, 0xbf, 0xa8, 0x96, 0x52, 0x3f,
  0x60, 0xb5, 0xed, 0xbe, 0x88, 0xb7, 0x43, 0x3e, 0x4c, 0xdc, 0x4f, 0x3f,
  0x78, 0x67, 0xcb, 0x3e, 0x63, 0xf3, 0xa8, 0x3d, 0x6b, 0xad, 0x0d, 0xbf,
  0xe4, 0x0a, 0x96, 0xbe, 0xbb, 0x4e, 0xca, 0x3e, 0x1e, 0xd2, 0xff, 0xff,
  0x04, 0x00, 0x00, 0x00, 0x00, 0x01, 0x00, 0x00, 0x92, 0xf3, 0x7c, 0xbe,
  0x87, 0xc3, 0x80, 0xbd, 0xd5, 0x92, 0xcd, 0xbe, 0xdc, 0x84, 0xca, 0xbe,
  0xbb, 0x86, 0x4c, 0x3f, 0x3d, 0x2a, 0x23, 0x3e, 0x56, 0x36, 0x6a, 0x3f,
  0xe3, 0x3d, 0x03, 0x3f, 0xd2, 0xea, 0x13, 0x3f, 0xdc, 0xe4, 0x5c, 0xbe,
  0xd0, 0xd7, 0xc6, 0x3e, 0x6d, 0x09, 0x5e, 0xbf, 0x59, 0x8c, 0x47, 0xbe,
  0xcf, 0x23, 0xd0, 0xbe, 0xf6, 0x93, 0x8a, 0xbd, 0xf0, 0x5a, 0x1f, 0xbf,
  0x79, 0x10, 0xed, 0x3e, 0xbd, 0x92, 0xa0, 0x3f, 0x2a, 0x42, 0x66, 0x3e,
  0xea, 0x8f, 0x29, 0xbf, 0x99, 0xe6, 0xdd, 0xbe, 0xce, 0xb7, 0xdb, 0xbe,
  0x26, 0x41, 0x4d, 0xbe, 0xa0, 0x65, 0x1f, 0xbf, 0xc6, 0x80, 0x55, 0x3c,
  0x8f, 0xa9, 0xe1, 0xbe, 0x33, 0x58, 0xfa, 0xbe, 0xcb, 0xdb, 0xb0, 0x3e,
  0xb2, 0x98, 0x2f, 0x3f, 0xb6, 0x6b, 0x21, 0xbf, 0xae, 0x59, 0xd3, 0x3e,
  0x09, 0x5b, 0xdd, 0x3d, 0x33, 0xcd, 0x1e, 0xbd, 0x84, 0x1b, 0xf8, 0x3f,
  0x50, 0xc6, 0x9f, 0x3f, 0x5a, 0x0c, 0xdf, 0xbe, 0xc5, 0x8f, 0x96, 0xbe,
  0x3c, 0xbd, 0x06, 0x3f, 0xed, 0x68, 0xb5, 0x3f, 0x73, 0xcd, 0x16, 0x3e,
  0xc9, 0x1a, 0xb1, 0xbe, 0x9c, 0x39, 0x39, 0xbf, 0x35, 0xab, 0x03, 0xbf,
  0xe9, 0xad, 0x73, 0x3e, 0xf8, 0x06, 0xaf, 0x3c, 0x78, 0xbd, 0x9f, 0xbe,
  0xc7, 0xc3, 0xca, 0x3f, 0xba, 0x21, 0x85, 0xbc, 0x07, 0x28, 0x9f, 0x3e,
  0xc9, 0x42, 0x37, 0xbf, 0x32, 0xfa, 0x3e, 0xbe, 0x7e, 0x44, 0xe3, 0xbe,
  0x16, 0xfd, 0x34, 0x3e, 0x55, 0xd5, 0x6b, 0x3f, 0x03, 0xc7, 0x35, 0x3f,
  0x98, 0xc5, 0x07, 0xbf, 0xa1, 0x13, 0xd5, 0x3e, 0x56, 0x4f, 0xce, 0xbe,
  0x7b, 0xd0, 0x43, 0xbf, 0xe5, 0xba, 0xa8, 0xbe, 0xfc, 0x66, 0x07, 0xbe,
  0x93, 0xa8, 0xf3, 0xbe, 0x97, 0x58, 0x6c, 0xbe, 0x20, 0x4a, 0xeb, 0xbd,
  0x2a, 0xd3, 0xff, 0xff, 0x04, 0x00, 0x00, 0x00, 0x80, 0x00, 0x00, 0x00,
  0xa0, 0x19, 0x41, 0xbe, 0xad, 0xf4, 0x0f, 0x3f, 0x11, 0xce, 0x65, 0xbf,
  0xf6, 0x2e, 0x19, 0xbe, 0x97, 0xa8, 0xd1, 0xbd, 0xcc, 0xd1, 0xf1, 0x3d,
  0x41, 0x51, 0x27, 0xbf, 0xf2, 0x2d, 0xca, 0x3e, 0x85, 0xb5, 0x08, 0x3f,
  0xed, 0x99, 0x50, 0x3d, 0x11, 0x00, 0xee, 0xbe, 0xba, 0xe8, 0x8a, 0x3f,
  0x52, 0xac, 0x63, 0xbf, 0xc4, 0x7f, 0xb0, 0xbf, 0x25, 0x79, 0x55, 0xbf,
  0x49, 0x21, 0xfb, 0x3b, 0x89, 0x7a, 0x3c, 0x3f, 0xf3, 0xfd, 0x50, 0x3e,
  0xb6, 0x49, 0x1d, 0x3f, 0x8a, 0x0a, 0xcd, 0xba, 0x3e, 0x88, 0x04, 0x3f,
  0x83, 0xb4, 0xdd, 0x3f, 0x88, 0x96, 0xd3, 0x3e, 0x3b, 0x05, 0x65, 0x3e,
  0x61, 0x00, 0xde, 0xbe, 0x00, 0x82, 0x0f, 0xbe, 0x33, 0xbb, 0xfe, 0x3e,
  0x17, 0x92, 0x56, 0x3e, 0x41, 0x2a, 0xa1, 0xbe, 0x4c, 0xad, 0x41, 0x3f,
  0xe4, 0x90, 0x95, 0x3e, 0xfb, 0x71, 0x5f, 0xbe, 0xb6, 0xd3, 0xff, 0xff,
  0x04, 0x00, 0x00, 0x00, 0x04, 0x00, 0x00, 0x00, 0x01, 0x00, 0x00, 0x00,
  0xc6, 0xd3, 0xff, 0xff, 0x04, 0x00, 0x00, 0x00, 0x40, 0x00, 0x00, 0x00,
  0x77, 0xd2, 0xd8, 0xbe, 0x38, 0x9d, 0xd3, 0x3f, 0xd6, 0x0e, 0xa8, 0xbf,
  0x86, 0x23, 0x47, 0x3f, 0x2f, 0x91, 0x91, 0xbf, 0x7c, 0x1c, 0xc6, 0xbe,
  0x24, 0x50, 0x9f, 0x3e, 0xc4, 0xb4, 0x6c, 0x3f, 0x84, 0x92, 0x4e, 0x3f,
  0x4e, 0xe4, 0x0c, 0x3e, 0x71, 0x9b, 0xed, 0xbd, 0x2b, 0x46, 0x44, 0x3e,
  0xa4, 0x25, 0xfa, 0xbf, 0x86, 0x8e, 0x8e, 0x3e, 0x49, 0x7c, 0xa7, 0xbe,
  0x22, 0xc3, 0xcc, 0xbe, 0x12, 0xd4, 0xff, 0xff, 0x04, 0x00, 0x00, 0x00,
  0x30, 0x00, 0x00, 0x00, 0xe6, 0x5c, 0x29, 0xc0, 0xe7, 0x14, 0x99, 0x3e,
  0x53, 0x5d, 0xf6, 0x3f, 0x03, 0x82, 0xf9, 0xbe, 0x66, 0x80, 0x1d, 0xbf,
  0xd7, 0x35, 0xd8, 0x3e, 0xd4, 0x8a, 0x87, 0x3f, 0x76, 0xa3, 0x88, 0xbf,
  0xbf, 0x6b, 0xc5, 0x3e, 0xa2, 0xb7, 0x02, 0x3f, 0x0c, 0x42, 0x69, 0x3f,
  0x39, 0xd8, 0x01, 0xbf, 0x4e, 0xd4, 0xff, 0xff, 0x04, 0x00, 0x00, 0x00,
  0x00, 0x03, 0x00, 0x00, 0xd5, 0x1d, 0x32, 0x3f, 0x6c, 0x17, 0xf0, 0xbe,
  0x8a, 0x0f, 0xa9, 0x3e, 0x28, 0xb8, 0xa0, 0xbe, 0x68, 0xb8, 0xd2, 0x3d,
  0xd3, 0x59, 0xe8, 0x3e, 0xe8, 0xd5, 0x5a, 0x3d, 0x60, 0xa5, 0x31, 0xbf,
  0xe7, 0x43, 0x93, 0xbd, 0x1d, 0xfd, 0x20, 0xbd, 0x28, 0x11, 0xb0, 0x3e,
  0xe2, 0x6c, 0xbe, 0xbe, 0x57, 0xa7, 0xf3, 0x3e, 0x67, 0xc7, 0x15, 0x3f,
  0x54, 0x5a, 0x6b, 0x3f, 0x47, 0x8c, 0xb4, 0x3e, 0x6f, 0x3c, 0x39, 0x3f,
  0xce, 0x85, 0x50, 0x3f, 0x50, 0x09, 0x3d, 0xbf, 0x1a, 0x9f, 0x12, 0x3f,
  0xff, 0x36, 0xad, 0xbe, 0xb0, 0xbc, 0x3f, 0x3f, 0x43, 0x03, 0x5b, 0x3f,
  0xb2, 0xaa, 0x22, 0xbf, 0x57, 0x6b, 0x0e, 0xbf, 0x18, 0x1a, 0xdd, 0x3e,
  0xe9, 0xfa, 0x3d, 0x3e, 0xab, 0xd2, 0x3d, 0xbf, 0x0f, 0x71, 0xe8, 0x3e,
  0x95, 0x8c, 0x7f, 0x3e, 0xca, 0x07, 0xe2, 0x3e, 0xc6, 0x25, 0xea, 0x3e,
  0x40, 0x76, 0x74, 0x3e, 0x37, 0x62, 0x02, 0x3f, 0x60, 0x1f, 0x99, 0xbe,
  0xf1, 0x4b, 0x33, 0x3f, 0x9d, 0x0b, 0x28, 0x3f, 0xbc, 0xb3, 0x97, 0x3f,
  0x9e, 0x3f, 0x93, 0xbe, 0x5f, 0x5e, 0xf2, 0x3e, 0x2a, 0x4f, 0x00, 0x3f,
  0x4f, 0x7b, 0x52, 0xbe, 0xa4, 0xff, 0xf2, 0xbd, 0xfa, 0x9b, 0x5b, 0x3f,
  0x9a, 0x45, 0x1d, 0x3e, 0x7f, 0x95, 0x03, 0x3e, 0xb9, 0x3a, 0x35, 0xbd,
  0x46, 0x05, 0xb9, 0xbf, 0x1b, 0xe1, 0xb2, 0x3e, 0x2c, 0x5f, 0x2c, 0xbe,
  0x76, 0x1d, 0xa7, 0xbe, 0xf2, 0x87, 0xc9, 0x3d, 0x17, 0x15, 0x73, 0xbe,
  0x56, 0x99, 0x39, 0xbf, 0x63, 0xf6, 0x88, 0xbe, 0x6e, 0x9f, 0xf7, 0xbc,
  0x56, 0x5b, 0x74, 0xbf, 0xa5, 0xc5, 0xe7, 0x3d, 0x1d, 0x27, 0x3e, 0x3f,
  0x51, 0x0e, 0x39, 0xbf, 0x34, 0xad, 0x10, 0x3f, 0x01, 0x9e, 0x1c, 0x3e,
  0xbd, 0x48, 0x46, 0x3f, 0xb6, 0x5e, 0x84, 0xbe, 0x64, 0x22, 0x09, 0xbf,
  0xf2, 0x25, 0x46, 0xbe, 0xfd, 0xd5, 0x47, 0x3f, 0xe6, 0x6d, 0x39, 0x3f,
  0xaf, 0xbf, 0xd4, 0x3e, 0x67, 0x76, 0x0e, 0x3e, 0xcb, 0x2f, 0xf8, 0x3c,
  0xf6, 0x99, 0x9d, 0x3e, 0x72, 0x04, 0x50, 0x3d, 0x50, 0xe7, 0x85, 0x3f,
  0x0b, 0x4c, 0x22, 0xbf, 0x54, 0x4e, 0x06, 0x3f, 0x58, 0xfc, 0x14, 0x3f,
  0xe7, 0xdb, 0x44, 0x3f, 0x58, 0x3e, 0xe1, 0xbf, 0x77, 0xff, 0x28, 0x3f,
  0x02, 0x1d, 0xd3, 0x3e, 0xdb, 0xa1, 0xb1, 0xbe, 0x55, 0xd3, 0xa5, 0xbf,
  0x80, 0x22, 0x93, 0x3e, 0xfe, 0xcf, 0x7b, 0x3f, 0xa6, 0x12, 0x09, 0xbe,
  0x67, 0x8b, 0xd2, 0xbe, 0x9f, 0xaa, 0x51, 0x3f, 0x54, 0xcf, 0xf3, 0xbe,
  0x63, 0x00, 0x43, 0xbe, 0x0b, 0x0c, 0xe7, 0x3e, 0x78, 0x51, 0xf9, 0x3e,
  0x29, 0x80, 0xe3, 0x3d, 0x0c, 0xe2, 0x21, 0x3f, 0x28, 0xee, 0x92, 0x3e,
  0x7d, 0xd5, 0xa3, 0xbf, 0x8a, 0xa7, 0x2e, 0x3f, 0x66, 0xf0, 0x4f, 0x3f,
  0x5c, 0xb2, 0x5a, 0xbe, 0x9d, 0xe0, 0xc2, 0xbf, 0xc2, 0xb3, 0x19, 0x3e,
  0x11, 0x49, 0xc5, 0xbe, 0x4b, 0x18, 0x61, 0x3f, 0x60, 0x5e, 0x25, 0x3f,
  0x29, 0xcf, 0x80, 0x3e, 0xc2, 0x7c, 0x0c, 0xbf, 0xcd, 0xed, 0xa4, 0x3d,
  0x33, 0x99, 0xf6, 0xbd, 0x60, 0xa6, 0xec, 0xbd, 0xf4, 0x3c, 0x6a, 0x3f,
  0x51, 0x25, 0x10, 0x3f, 0xbb, 0x38, 0x1b, 0xbf, 0xc6, 0x77, 0x33, 0x3f,
  0x8a, 0xbd, 0x95, 0xbe, 0xc0, 0xd5, 0x46, 0xbf, 0xb0, 0x69, 0x88, 0xbe,
  0x38, 0x45, 0x08, 0x3f, 0x32, 0xd9, 0x3d, 0xbe, 0xbf, 0x1b, 0xb5, 0xbe,
  0x0c, 0xdf, 0x04, 0x3e, 0x2c, 0x8b, 0x04, 0xbf, 0xab, 0x8b, 0x8a, 0xbd,
  0xfc, 0xac, 0x1c, 0x3f, 0x25, 0xc4, 0xd0, 0x3e, 0xfe, 0xa7, 0x2e, 0x3f,
  0x19, 0xea, 0x60, 0x3d, 0xcb, 0xbf, 0x07, 0xbf, 0x3e, 0x5d, 0x74, 0x3e,
  0x49, 0x08, 0xf3, 0x3d, 0x22, 0x14, 0xfb, 0x3d, 0x71, 0xd0, 0xfe, 0x3d,
  0x5e, 0x11, 0x23, 0x3f, 0xd9, 0x3f, 0x5a, 0xbf, 0x84, 0x91, 0x7c, 0xbf,
  0x29, 0xbe, 0xcb, 0xbf, 0x68, 0x5e, 0xc2, 0x3f, 0x34, 0x1b, 0xb6, 0xbf,
  0x8b, 0x4f, 0x39, 0x3f, 0xde, 0x1f, 0xb6, 0xbf, 0x95, 0xe8, 0x09, 0xbf,
  0x5a, 0xd2, 0x30, 0xbf, 0xce, 0x6b, 0xa0, 0xbf, 0x56, 0x36, 0x32, 0x3f,
  0x0b, 0x73, 0xc3, 0xbe, 0x21, 0x9d, 0x1a, 0xbc, 0xcb, 0x15, 0x8c, 0x3d,
  0x5b, 0xbf, 0x89, 0x3f, 0x03, 0xbe, 0xfa, 0x3e, 0x75, 0x64, 0x0d, 0xbe,
  0x0b, 0xaa, 0x5b, 0x3f, 0xe2, 0x3e, 0x04, 0x3e, 0x58, 0x60, 0x5e, 0xbf,
  0xc5, 0x3e, 0x2a, 0x3f, 0x57, 0x9d, 0xad, 0xbe, 0x0b, 0x59, 0xde, 0x3e,
  0xb7, 0x56, 0x2e, 0x3f, 0x14, 0xae, 0xc5, 0xbf, 0x7a, 0x76, 0x8f, 0x3f,
  0xb0, 0x89, 0x93, 0x3d, 0xf5, 0xe6, 0x64, 0x3f, 0x90, 0x95, 0x01, 0xc0,
  0xa5, 0xe3, 0x90, 0x3e, 0xc5, 0x83, 0xa2, 0xbe, 0x3e, 0x6a, 0x83, 0xbf,
  0x3a, 0xcb, 0x9c, 0xbf, 0xd3, 0xa3, 0x88, 0x3d, 0x71, 0x73, 0x8f, 0xbf,
  0x81, 0x9c, 0x52, 0x3f, 0x26, 0x4e, 0x61, 0x3f, 0x4b, 0xb2, 0x4a, 0x3f,
  0xb4, 0xf4, 0x06, 0x3f, 0x02, 0x9b, 0x18, 0xbf, 0x05, 0x1c, 0xac, 0x3d,
  0x59, 0x66, 0xb8, 0xbe, 0xb8, 0x20, 0xd2, 0x3e, 0x5e, 0x88, 0x6a, 0x3f,
  0x95, 0x6f, 0xf1, 0xbe, 0x74, 0x2b, 0x96, 0xbe, 0x43, 0xea, 0x83, 0x3f,
  0xba, 0x5d, 0x81, 0x3f, 0x64, 0xc6, 0x71, 0x3f, 0x90, 0x1d, 0xae, 0xbe,
  0xec, 0xc6, 0x97, 0x3e, 0x44, 0x74, 0x0e, 0xbe, 0x9d, 0x63, 0x5f, 0xbf,
  0x26, 0xfb, 0xa4, 0xbf, 0xe8, 0x50, 0x46, 0x3f, 0xb5, 0x87, 0xb0, 0x3c,
  0xcd, 0x12, 0xd4, 0x3e, 0x7f, 0xc4, 0x56, 0xbf, 0x60, 0x9f, 0xf5, 0x3e,
  0x12, 0x35, 0x02, 0x3f, 0x5a, 0xd7, 0xff, 0xff, 0x04, 0x00, 0x00, 0x00,
  0x00, 0x20, 0x00, 0x00, 0x7a, 0x52, 0x13, 0x3e, 0x61, 0x0a, 0x33, 0xbc,
  0xaf, 0x34, 0xd3, 0xbe, 0xda, 0x1a, 0x0c, 0x3d, 0x56, 0xcd, 0xa6, 0xbe,
  0xa7, 0x45, 0x8c, 0xbd, 0xc7, 0x3e, 0xe2, 0x3c, 0x73, 0x11, 0x3e, 0xbd,
  0x10, 0x4d, 0x75, 0xbe, 0xd4, 0xc2, 0x85, 0xbc, 0x1a, 0xf7, 0x4d, 0x3e,
  0x96, 0x4a, 0xf2, 0xbc, 0x73, 0xca, 0x98, 0xbd, 0x59, 0x08, 0xd9, 0xbd,
  0x5b, 0x2f, 0x62, 0xbe, 0x35, 0xf1, 0xf5, 0x3c, 0xe7, 0x0e, 0xbe, 0xbd,
  0x0c, 0x0d, 0x29, 0x3e, 0x0b, 0xaa, 0x32, 0x3e, 0x50, 0xe3, 0x95, 0x3e,
  0x8d, 0xd0, 0x75, 0xbe, 0xda, 0x24, 0xab, 0xbe, 0x05, 0x3f, 0x66, 0xbe,
  0xad, 0x5d, 0x99, 0x3d, 0x97, 0x29, 0xe8, 0xbe, 0x7b, 0x8e, 0xe5, 0xbd,
  0x75, 0xb7, 0x35, 0xbe, 0x41, 0xd8, 0x86, 0xbe, 0xef, 0x55, 0x46, 0x3e,
  0xec, 0x26, 0xcc, 0x3e, 0xa4, 0xf4, 0xd2, 0x3d, 0xfa, 0x26, 0xa8, 0x3c,
  0xcd, 0x86, 0x50, 0x3e, 0xd5, 0xe7, 0x92, 0xbc, 0xb0, 0x92, 0xe2, 0xbd,
  0xbb, 0x2c, 0x43, 0x3e, 0xca, 0xb1, 0xba, 0xbc, 0x47, 0x6c, 0x9e, 0xbd,
  0xe4, 0xc4, 0x04, 0xbe, 0xf0, 0x69, 0xc0, 0xbe, 0x3c, 0xf3, 0x28, 0xbe,
  0x51, 0x97, 0x9a, 0xbe, 0xe1, 0x3f, 0x9b, 0x3d, 0x5c, 0xaf, 0x96, 0x3e,
  0x61, 0x43, 0xf0, 0x3d, 0x5d, 0x0e, 0x75, 0xbe, 0xaf, 0xe8, 0x99, 0xbc,
  0x64, 0x22, 0xab, 0xbd, 0xef, 0x17, 0x8d, 0xbe, 0xdb, 0x3a, 0xaf, 0x3e,
  0x2c, 0xd5, 0xf1, 0xbd, 0x14, 0xd8, 0x95, 0xbe, 0x7d, 0xdd, 0x84, 0x3e,
  0x6e, 0x8d, 0x10, 0xbf, 0x55, 0x84, 0x16, 0x3e, 0xd5, 0x3b, 0x7d, 0xbe,
  0x98, 0xc0, 0x06, 0xbe, 0xad, 0x5a, 0x2c, 0xbe, 0x06, 0x09, 0xc9, 0x3a,
  0x89, 0x25, 0x56, 0x3e, 0xcc, 0xf6, 0x90, 0xbe, 0xa7, 0xf9, 0x2f, 0xbd,
  0x0d, 0xa2, 0xb2, 0xbd, 0x85, 0x86, 0x96, 0xbe, 0x12, 0xca, 0x24, 0x3e,
  0xb6, 0xe9, 0x2e, 0x3e, 0x18, 0x0e, 0x15, 0x3d, 0x96, 0xca, 0x92, 0x3e,
  0x7a, 0xb3, 0x39, 0x3d, 0x9a, 0xfb, 0x47, 0x3e, 0xa5, 0x17, 0x2a, 0xbf,
  0xbf, 0xad, 0x3d, 0xbf, 0xe2, 0x98, 0xaa, 0x3d, 0x64, 0xe7, 0x4f, 0x3e,
  0xf2, 0x29, 0x5e, 0x3e, 0xc5, 0xa6, 0xdc, 0x3d, 0x9b, 0xfd, 0x89, 0x3b,
  0xd4, 0xe4, 0xad, 0x3c, 0x83, 0x86, 0x2c, 0xbe, 0xd0, 0x61, 0xf8, 0xbd,
  0x6e, 0x30, 0x9d, 0x3e, 0x8e, 0x4f, 0xf7, 0xbc, 0x82, 0x9d, 0xc4, 0xbe,
  0x91, 0x4f, 0x00, 0xbc, 0x8c, 0x9b, 0x85, 0x3e, 0x2d, 0xe5, 0x3b, 0x3d,
  0xdc, 0x0c, 0x23, 0x3c, 0x67, 0xc0, 0x3b, 0x3e, 0x88, 0x3b, 0xf8, 0x3b,
  0x37, 0x20, 0x2f, 0xbe, 0xdc, 0xcd, 0x21, 0xbe, 0x3f, 0x9d, 0xa4, 0x3d,
  0x14, 0x76, 0xab, 0x3e, 0x5c, 0x4d, 0xda, 0xbe, 0xef, 0x40, 0x09, 0xbd,
  0x8f, 0x5e, 0x05, 0xbe, 0x3a, 0x79, 0x09, 0x3f, 0x45, 0x05, 0x17, 0x3f,
  0x24, 0x3b, 0x09, 0x3f, 0x5e, 0xce, 0x60, 0xbe, 0xbe, 0x20, 0x1d, 0x3e,
  0xd9, 0x70, 0xc2, 0xbe, 0x6f, 0xc6, 0xc8, 0x3d, 0xcd, 0xea, 0x30, 0x3b,
  0xd8, 0x3e, 0xf0, 0x3e, 0x54, 0x46, 0xae, 0xbe, 0x83, 0xda, 0xd7, 0x3e,
  0x1c, 0xe0, 0x24, 0x3e, 0x71, 0x26, 0x5a, 0x3e, 0xc5, 0xc9, 0x95, 0xbe,
  0x92, 0xb6, 0x9a, 0x3e, 0xac, 0xbb, 0xa5, 0x3d, 0xa1, 0x22, 0x3d, 0xbf,
  0xaa, 0xcd, 0x09, 0x3d, 0x5a, 0x8d, 0xdf, 0xbe, 0x17, 0x4f, 0x83, 0xbe,
  0xc2, 0x16, 0x0a, 0x3f, 0x21, 0xe2, 0x27, 0xbd, 0x53, 0x46, 0x8a, 0x3e,
  0xe9, 0x24, 0x24, 0xbe, 0x5f, 0x90, 0x5c, 0xbe, 0x78, 0xd4, 0x95, 0x3e,
  0xbe, 0x9d, 0x02, 0xbf, 0x5d, 0x0e, 0xa0, 0xbe, 0x52, 0x9d, 0x31, 0xbe,
  0x82, 0xb9, 0x86, 0x3e, 0xbb, 0x9e, 0x4b, 0xbe, 0x33, 0x53, 0xb7, 0x3d,
  0xf3, 0x2d, 0x60, 0xbf, 0x38, 0x60, 0x55, 0xbe, 0xb5, 0xb1, 0x56, 0xbf,
  0x1b, 0x35, 0x66, 0x3e, 0x1c, 0xeb, 0x88, 0x3e, 0xd1, 0x04, 0x49, 0xbd,
  0xe7, 0x0d, 0xb9, 0xbd, 0x89, 0xe7, 0xb2, 0xbd, 0xa4, 0x04, 0x8d, 0x3e,
  0x0a, 0x31, 0x02, 0xbe, 0xdd, 0xa7, 0xf4, 0xbd, 0x70, 0x88, 0xc1, 0x3d,
  0xb8, 0x59, 0x6c, 0x3e, 0xd5, 0x7c, 0xf9, 0x3e, 0x7b, 0x13, 0x89, 0x3d,
  0x47, 0x72, 0xc3, 0x3e, 0x4b, 0x73, 0xef, 0x3e, 0xe9, 0x3a, 0x44, 0x3e,
  0x94, 0xdf, 0x24, 0xbf, 0xfa, 0x32, 0x0d, 0x3e, 0x35, 0x44, 0xf0, 0xbc,
  0x1a, 0x52, 0x08, 0x3d, 0xda, 0x31, 0xe5, 0xbe, 0x4a, 0x61, 0x79, 0xbe,
  0xc9, 0xbd, 0xd6, 0x3c, 0xb2, 0xd6, 0xdb, 0xbd, 0xe2, 0xe0, 0xf2, 0xbe,
  0x57, 0x43, 0x95, 0x3d, 0x38, 0x83, 0x32, 0xbe, 0x14, 0x25, 0xab, 0x3d,
  0x6c, 0xdd, 0xb2, 0xbd, 0xd3, 0xcd, 0x82, 0x3d, 0x43, 0x99, 0xdc, 0x3e,
  0x62, 0x18, 0xb7, 0xbe, 0x4a, 0x2e, 0xa5, 0xbd, 0x0b, 0x3b, 0x9e, 0xbd,
  0x9d, 0xf9, 0x89, 0xbe, 0xf5, 0x02, 0x4b, 0x3e, 0x5f, 0x5e, 0xf9, 0xbe,
  0x17, 0x73, 0xad, 0xbe, 0x45, 0x54, 0x10, 0x3e, 0x14, 0x83, 0xdf, 0x3d,
  0x5a, 0xf1, 0x65, 0x3e, 0x3c, 0x9c, 0xaa, 0xbe, 0xc4, 0xfa, 0x26, 0xbe,
  0x2a, 0xc9, 0xbb, 0xbc, 0x2e, 0x4e, 0x39, 0x3e, 0x2e, 0x9f, 0xe5, 0xbd,
  0x84, 0xc6, 0x96, 0x3e, 0x5f, 0x07, 0xda, 0xbb, 0x07, 0x3f, 0xae, 0x3d,
  0x61, 0x56, 0xb4, 0xbd, 0x30, 0x1e, 0x53, 0xbe, 0x33, 0x0c, 0xf4, 0x3d,
  0x1a, 0x74, 0xab, 0xbe, 0xd4, 0x7f, 0x73, 0x3e, 0x4a, 0x69, 0x32, 0xbd,
  0xf1, 0xdd, 0xe2, 0xba, 0x95, 0x30, 0xb4, 0x3e, 0x3e, 0x70, 0x68, 0x3e,
  0x93, 0x83, 0x56, 0x3e, 0xc6, 0xa4, 0x46, 0xbe, 0xd6, 0xbd, 0x1d, 0xbf,
  0x6f, 0x1f, 0x28, 0x3d, 0xa7, 0x60, 0xd6, 0x3e, 0x35, 0x05, 0x28, 0xbe,
  0x2c, 0x12, 0x49, 0xbd, 0x20, 0x03, 0x0b, 0x3d, 0x98, 0x67, 0x31, 0x3e,
  0xbc, 0x81, 0x8f, 0xbe, 0xe7, 0x8d, 0x06, 0x3f, 0xcd, 0xf7, 0x6a, 0x3e,
  0xe1, 0xaf, 0xe7, 0x3e, 0xf5, 0x78, 0x93, 0xbe, 0x80, 0xbf, 0x43, 0x3d,
  0x19, 0xa3, 0x45, 0xbf, 0x26, 0xab, 0xed, 0xbe, 0xec, 0x72, 0x24, 0x3e,
  0xff, 0xc7, 0xa3, 0xbe, 0xf2, 0x59, 0xab, 0xbd, 0x09, 0xdb, 0x49, 0xbe,
  0x69, 0x0b, 0x0d, 0xbe, 0x92, 0x46, 0xf4, 0xbd, 0x10, 0xf9, 0x76, 0x3e,
  0xa5, 0x1f, 0x42, 0xbf, 0xdc, 0xb7, 0xe8, 0x3d, 0x92, 0x6c, 0x28, 0xbe,
  0x91, 0x03, 0xd6, 0xbe, 0xc6, 0x1d, 0xb9, 0x3e, 0x2c, 0x19, 0x87, 0xbe,
  0x94, 0xc7, 0x98, 0x3e, 0xa4, 0x3a, 0xa6, 0x3e, 0x67, 0x34, 0xde, 0xbd,
  0xf5, 0x95, 0x9f, 0x3d, 0x1b, 0x2b, 0xd3, 0x3e, 0xee, 0x11, 0xbe, 0xbe,
  0x96, 0x1a, 0x42, 0x3d, 0xd3, 0x1e, 0xb7, 0xbd, 0x95, 0x49, 0x76, 0xbd,
  0x3a, 0xa7, 0xf7, 0xbd, 0x2f, 0x5e, 0x92, 0xbf, 0x37, 0x27, 0x91, 0xbd,
  0xb0, 0x32, 0xb8, 0x3e, 0xa4, 0x13, 0xbe, 0x3e, 0xce, 0xd0, 0xfd, 0x3e,
  0x60, 0xfc, 0x23, 0x3e, 0xa3, 0x21, 0xeb, 0xbe, 0x70, 0xd6, 0x9a, 0x3d,
  0xec, 0x3d, 0xd2, 0x3e, 0x52, 0x6b, 0xfb, 0x3d, 0x10, 0x76, 0x40, 0xbe,
  0x19, 0x2a, 0xc3, 0x3e, 0xa3, 0x7a, 0x93, 0xbd, 0x6b, 0xa1, 0xe0, 0x3a,
  0x43, 0x4b, 0xa4, 0x3d, 0x45, 0x14, 0x6d, 0xbe, 0x17, 0x73, 0xad, 0x3e,
  0xf3, 0x4e, 0xf4, 0xbe, 0x37, 0x84, 0xfe, 0xbe, 0xa6, 0xd1, 0x77, 0x3e,
  0xa6, 0xb7, 0xb1, 0xbe, 0x3e, 0x1f, 0xf7, 0xbe, 0xa5, 0xbb, 0xa3, 0x3e,
  0xd7, 0xa2, 0x72, 0x3e, 0xf8, 0xd1, 0xb3, 0x3e, 0x61, 0x90, 0x1a, 0x3e,
  0x2f, 0x50, 0x05, 0x3e, 0xc4, 0xbf, 0x11, 0x3e, 0x85, 0xce, 0x0d, 0xbf,
  0x54, 0x3d, 0xd0, 0xbe, 0x81, 0x41, 0x8c, 0x3e, 0x59, 0x4d, 0x98, 0x3e,
  0xda, 0xb1, 0xdf, 0xbe, 0x6c, 0xd4, 0x0c, 0xbe, 0xf8, 0xa3, 0x7a, 0xbd,
  0xa3, 0x07, 0xad, 0xbe, 0x37, 0x49, 0xab, 0x3e, 0x5e, 0xd9, 0x2b, 0x3e,
  0xed, 0x65, 0xe2, 0xbd, 0x3b, 0x3d, 0x04, 0xbf, 0x24, 0x5f, 0x2d, 0x3e,
  0x4f, 0xb0, 0x80, 0xbe, 0x5c, 0x8a, 0x52, 0xbe, 0x18, 0x80, 0x93, 0xbe,
  0x3d, 0xf6, 0xbe, 0x3e, 0x20, 0x46, 0xb7, 0x3e, 0x20, 0xdf, 0x18, 0xbf,
  0x4a, 0xd9, 0x13, 0xbe, 0x53, 0xa5, 0x16, 0x3e, 0x54, 0xb3, 0x09, 0x3d,
  0xfa, 0xea, 0x6a, 0x3e, 0x20, 0x29, 0x4e, 0xbd, 0x47, 0xde, 0x04, 0xbc,
  0xcd, 0x57, 0xc5, 0x3e, 0x46, 0x07, 0x58, 0xbe, 0xc5, 0x30, 0xe3, 0x3e,
  0x4e, 0x6b, 0xe4, 0x3d, 0x86, 0x13, 0x26, 0x3e, 0x03, 0x77, 0xb9, 0x3d,
  0x4d, 0x7f, 0xba, 0x3e, 0x94, 0xdf, 0xfb, 0xbd, 0x01, 0x6f, 0x3b, 0xbe,
  0xb9, 0xee, 0x22, 0xbf, 0xc0, 0x56, 0x89, 0xbe, 0xc8, 0x5d, 0x3f, 0x3e,
  0x50, 0x7e, 0xc5, 0x3e, 0x71, 0xf5, 0x8a, 0xbd, 0xce, 0x3b, 0xde, 0x3e,
  0x05, 0x1b, 0x77, 0x3e, 0x56, 0x41, 0x51, 0x3d, 0x88, 0x34, 0x30, 0x3d,
  0xec, 0x94, 0x1d, 0xbf, 0x0f, 0xea, 0x6a, 0xbf, 0x19, 0x75, 0xd6, 0xbc,
  0xe4, 0x58, 0xa6, 0x3e, 0x61, 0xdd, 0x48, 0xbe, 0xb0, 0x8d, 0xaf, 0x3e,
  0x0b, 0x4e, 0x5e, 0xbe, 0xa1, 0x82, 0x9b, 0x3e, 0x6b, 0x90, 0x9e, 0x3e,
  0x1e, 0xa1, 0x85, 0xbe, 0x7f, 0x95, 0x72, 0x3e, 0x13, 0x5f, 0x06, 0xbd,
  0xdd, 0x35, 0x17, 0xbe, 0xf7, 0x5c, 0x8a, 0x3e, 0x7d, 0xfd, 0xd0, 0xbe,
  0xdf, 0xef, 0xe7, 0x3e, 0xbd, 0x83, 0xb3, 0xbe, 0x88, 0xfb, 0x7d, 0xbe,
  0x1d, 0xdd, 0xed, 0xbd, 0x3c, 0x81, 0x61, 0xbe, 0x1f, 0xa0, 0xea, 0xbe,
  0x7d, 0x80, 0xc7, 0x3e, 0x14, 0xd8, 0x6d, 0xbe, 0xf7, 0xf9, 0x17, 0xbe,
  0x7f, 0x1e, 0x84, 0xbe, 0x6b, 0xc7, 0x47, 0xbd, 0x81, 0x05, 0x56, 0xbf,
  0xe4, 0x6f, 0x9e, 0xbe, 0x60, 0xba, 0xa0, 0x3e, 0xb3, 0xb2, 0xd3, 0x3e,
  0x64, 0xb4, 0x2b, 0xbf, 0xa9, 0xf2, 0xdd, 0x3e, 0x8a, 0xc1, 0x0e, 0xbf,
  0x4d, 0xc3, 0x47, 0x3d, 0x16, 0x5c, 0x25, 0x3e, 0x7a, 0x46, 0x27, 0x3f,
  0xb1, 0x0a, 0x6e, 0x3e, 0x8d, 0xaa, 0xa2, 0x3c, 0xce, 0x0f, 0x4f, 0x3e,
  0xfb, 0xfe, 0x7c, 0xbf, 0x21, 0x80, 0x36, 0xbe, 0x4c, 0x2f, 0x7d, 0xbe,
  0xfa, 0xa0, 0x6e, 0xbe, 0x6c, 0x42, 0xb3, 0xbd, 0xe0, 0xbb, 0x63, 0xbe,
  0xfc, 0x76, 0x18, 0x3d, 0xb9, 0x22, 0x09, 0x3e, 0xbf, 0x82, 0xae, 0x3e,
  0x0b, 0x42, 0x59, 0xbf, 0x1a, 0x65, 0x2e, 0x3f, 0x36, 0x91, 0x96, 0xbe,
  0x96, 0x94, 0x6e, 0x3e, 0xe7, 0x6c, 0x1d, 0xbf, 0x1e, 0x60, 0x4e, 0x3d,
  0x51, 0x2d, 0x0e, 0x3f, 0x1f, 0x84, 0x24, 0xbe, 0xae, 0x2e, 0x9a, 0xbf,
  0x7f, 0x41, 0x03, 0x3e, 0xef, 0xa2, 0xbc, 0x3d, 0x89, 0x49, 0xc8, 0x3e,
  0x89, 0x1d, 0xd9, 0xbe, 0x41, 0x6c, 0xfc, 0x3c, 0x46, 0x39, 0xe5, 0xbd,
  0xbf, 0x4e, 0xec, 0x3d, 0xed, 0xaa, 0xae, 0xbd, 0x4a, 0x7c, 0x23, 0x3e,
  0xd7, 0x87, 0x27, 0x3e, 0xb0, 0x74, 0x9b, 0x3e, 0x02, 0xd2, 0x22, 0xbf,
  0xe4, 0xee, 0xce, 0xbe, 0x14, 0x8a, 0x20, 0xbe, 0x23, 0xcf, 0x45, 0xbe,
  0x44, 0xc4, 0x81, 0xbe, 0x01, 0x74, 0xca, 0xbe, 0x6c, 0x6f, 0x51, 0xbe,
  0xe6, 0x46, 0xe1, 0x3e, 0x1e, 0x8a, 0x8e, 0xbe, 0xd1, 0x24, 0x98, 0x3e,
  0x88, 0x50, 0x39, 0x3e, 0x26, 0x34, 0xb3, 0xbd, 0x71, 0x5d, 0xd2, 0xbe,
  0x6e, 0xbd, 0x55, 0xbd, 0x2b, 0xb9, 0x3a, 0xbd, 0xe8, 0x76, 0x99, 0x3d,
  0x9f, 0x7c, 0x4c, 0x3c, 0x6e, 0xef, 0xe9, 0xbd, 0x93, 0x42, 0xa2, 0x3e,
  0xf5, 0x2a, 0x4a, 0x3e, 0xee, 0x5d, 0x59, 0xbe, 0x4f, 0xb3, 0x18, 0x3d,
  0xed, 0x07, 0x0a, 0xbe, 0xa9, 0x6a, 0x90, 0x3e, 0x0f, 0x4b, 0xfd, 0xbd,
  0xe6, 0xa8, 0xb3, 0x3e, 0x92, 0x62, 0x3d, 0x3e, 0x24, 0x5a, 0x0a, 0xbd,
  0x6a, 0x42, 0xab, 0x3e, 0x66, 0x7e, 0xb4, 0x3e, 0x31, 0x2a, 0x4f, 0x3e,
  0xf3, 0xaa, 0xd5, 0x3d, 0x42, 0x40, 0xb3, 0x3e, 0x85, 0x31, 0xa9, 0xbe,
  0x48, 0x53, 0x5b, 0x3d, 0x3b, 0x0d, 0x43, 0x3e, 0x62, 0x60, 0x8c, 0x3e,
  0x33, 0xe4, 0xcb, 0xbe, 0x21, 0xc1, 0x13, 0x3d, 0x8e, 0xd4, 0xb8, 0xbe,
  0x9d, 0x7d, 0xc8, 0x3c, 0x8d, 0x12, 0x8e, 0x3e, 0x22, 0x47, 0xc7, 0x3e,
  0xc1, 0x7e, 0x71, 0xbe, 0xf8, 0xee, 0xbe, 0x3d, 0x78, 0xb9, 0x17, 0x3e,
  0xd7, 0x0b, 0x70, 0xbe, 0x51, 0x0d, 0x24, 0xbe, 0xda, 0x77, 0x24, 0xbf,
  0x5f, 0x13, 0x9e, 0xbc, 0xba, 0x9b, 0x07, 0xbf, 0xe9, 0x8c, 0x85, 0xbe,
  0x76, 0x60, 0x0b, 0x3e, 0x78, 0x80, 0x2c, 0x3f, 0x09, 0x9e, 0xb7, 0x3d,
  0xab, 0x2a, 0xc6, 0xbd, 0x40, 0x44, 0x17, 0xbf, 0x6f, 0xce, 0xa0, 0xbd,
  0x4c, 0xd1, 0x9d, 0x3e, 0x8a, 0x47, 0x5e, 0xbe, 0xbc, 0x8c, 0x89, 0xbe,
  0x7d, 0xe8, 0x04, 0xbe, 0xa1, 0xee, 0x8d, 0xbe, 0x29, 0xe7, 0xbf, 0x3e,
  0xd8, 0xf4, 0x90, 0x3e, 0x7c, 0x59, 0x16, 0xbf, 0xb4, 0x96, 0xa0, 0xbc,
  0x12, 0x52, 0x02, 0xbf, 0x16, 0xac, 0x0a, 0xbf, 0x05, 0x07, 0x6b, 0xbe,
  0x53, 0x23, 0x36, 0x3e, 0x60, 0x8d, 0x57, 0x3e, 0x70, 0x89, 0xc6, 0x3e,
  0x64, 0x0f, 0x81, 0x3d, 0x28, 0xe0, 0x69, 0xbf, 0xac, 0xb7, 0xb6, 0x3e,
  0xfd, 0xb6, 0x01, 0x3f, 0xa9, 0x5f, 0x29, 0xbe, 0xde, 0xd7, 0x02, 0x3e,
  0x50, 0x1e, 0x0b, 0xbe, 0x33, 0xc3, 0x2b, 0xbe, 0xa7, 0xef, 0x89, 0x3d,
  0xeb, 0xb4, 0x19, 0x3d, 0xc3, 0xbc, 0xce, 0xbe, 0x2c, 0x3d, 0x92, 0xbe,
  0x55, 0xcd, 0x84, 0xbe, 0x33, 0x5e, 0x62, 0xbd, 0x0c, 0xcd, 0x9b, 0x3e,
  0xeb, 0x9d, 0x4b, 0x3f, 0x8e, 0xce, 0x5f, 0x3c, 0x6d, 0x53, 0x88, 0x3e,
  0x6d, 0xe9, 0x0d, 0x3e, 0x3e, 0x59, 0x56, 0xbf, 0x2b, 0xa6, 0x36, 0x3e,
  0x90, 0xed, 0xb2, 0xbe, 0x1d, 0x00, 0x32, 0xbe, 0xd0, 0xe0, 0xc4, 0xbe,
  0x2b, 0xa0, 0x4a, 0x3e, 0x65, 0xcb, 0x0e, 0xbf, 0x79, 0xbb, 0x4d, 0xbe,
  0x67, 0x16, 0x6a, 0xbf, 0x02, 0x54, 0xc0, 0xbe, 0xeb, 0x33, 0x8d, 0xbe,
  0x9c, 0x7a, 0x58, 0x3d, 0x34, 0x64, 0x8f, 0x3e, 0xe5, 0x43, 0x92, 0x3e,
  0x58, 0x4d, 0xa1, 0x3d, 0x05, 0xa9, 0xad, 0xbe, 0xd0, 0x5b, 0x87, 0x3e,
  0x39, 0x0a, 0xe3, 0x3e, 0xcc, 0x65, 0x92, 0xbd, 0xae, 0x78, 0x9e, 0x3e,
  0x37, 0x97, 0x80, 0x3e, 0xda, 0x4c, 0xfc, 0x3c, 0x78, 0xbe, 0x0f, 0x3f,
  0xcc, 0xdd, 0xfc, 0x3e, 0xbb, 0x65, 0xb4, 0x3e, 0xc9, 0xa7, 0x7c, 0xbe,
  0x12, 0xdf, 0x22, 0xbd, 0x48, 0x94, 0x1a, 0x3f, 0xe3, 0xb9, 0x44, 0xbe,
  0xd8, 0xd5, 0xfc, 0xbe, 0x88, 0x09, 0x81, 0x3e, 0x9a, 0xe0, 0x8f, 0x3d,
  0x90, 0x3d, 0xf6, 0x3e, 0xf9, 0x26, 0xdc, 0xbd, 0x61, 0x08, 0x48, 0xbd,
  0x80, 0x17, 0x5a, 0x3e, 0x7d, 0xdc, 0x87, 0x3e, 0x09, 0x87, 0xbe, 0xbe,
  0x37, 0x98, 0xdc, 0xbe, 0xdd, 0x82, 0x09, 0xbe, 0x8c, 0xdf, 0x12, 0xbd,
  0x4c, 0x54, 0x70, 0xbc, 0x7d, 0x82, 0x9f, 0x3e, 0x45, 0x47, 0x67, 0x3f,
  0xda, 0x69, 0xcb, 0x3e, 0x20, 0x77, 0x2d, 0x3f, 0x52, 0x64, 0xa9, 0xbe,
  0x44, 0x64, 0x39, 0x3e, 0x61, 0x69, 0xc6, 0xbe, 0x93, 0x54, 0xfc, 0xbd,
  0x45, 0x2f, 0x87, 0x3e, 0x63, 0xa9, 0xb4, 0xbd, 0x2e, 0xad, 0x66, 0x3e,
  0xb2, 0xe7, 0x9c, 0xbe, 0x16, 0xd6, 0x2e, 0xbe, 0xb7, 0x38, 0x08, 0xbe,
  0x01, 0x65, 0x0e, 0xbe, 0x34, 0xa1, 0xd0, 0x3e, 0x1e, 0x07, 0x37, 0x3d,
  0x2c, 0xdc, 0xe8, 0x3d, 0xf5, 0x1d, 0x35, 0xbc, 0x2e, 0xdc, 0x9c, 0xbe,
  0x1d, 0x29, 0x41, 0xbe, 0x77, 0x45, 0xec, 0xbe, 0x3a, 0x1e, 0x9e, 0xbe,
  0xa7, 0x69, 0xbe, 0xbe, 0x15, 0x35, 0x35, 0x3e, 0x72, 0x6b, 0xa0, 0x3e,
  0x2e, 0x6a, 0xda, 0xbd, 0x9f, 0x82, 0x05, 0x3f, 0xd2, 0xe5, 0x3e, 0x3e,
  0xde, 0x8e, 0x62, 0xbf, 0xf4, 0xd7, 0x1e, 0x3d, 0x37, 0x23, 0x31, 0xbd,
  0xc3, 0x35, 0x01, 0xbf, 0x90, 0x40, 0xd0, 0xbd, 0x71, 0x61, 0x08, 0xbe,
  0xa7, 0xce, 0x89, 0x3e, 0x4c, 0x38, 0x1b, 0x3d, 0x4b, 0x4f, 0x37, 0x3e,
  0x33, 0xe3, 0xa1, 0xbc, 0x36, 0x4b, 0x5b, 0xbe, 0xbc, 0xb7, 0x66, 0x3e,
  0x27, 0x61, 0x68, 0x3e, 0x10, 0xfc, 0x1c, 0xbe, 0x24, 0x53, 0x67, 0xbe,
  0x49, 0xf7, 0xe4, 0x3d, 0x2a, 0xc4, 0xd1, 0xbd, 0x8d, 0x65, 0x40, 0x3c,
  0x02, 0x81, 0x93, 0x3d, 0xf9, 0xfd, 0xc3, 0x3e, 0xa3, 0xfe, 0xa8, 0x3e,
  0x4e, 0x10, 0x0e, 0x3f, 0x6f, 0xb0, 0x13, 0x3e, 0x6a, 0x91, 0x6d, 0x3e,
  0xb0, 0x47, 0xa4, 0x3e, 0x2e, 0x13, 0xc7, 0xbe, 0xdb, 0xa9, 0x2c, 0xbd,
  0xe4, 0x59, 0xe1, 0xbd, 0xe3, 0xc2, 0xb9, 0xbe, 0x64, 0xc4, 0x51, 0xbe,
  0xeb, 0x36, 0x92, 0x3c, 0x15, 0x44, 0x1d, 0xbe, 0xc7, 0xd3, 0xf7, 0xbe,
  0xc9, 0x0f, 0xf6, 0xbe, 0x09, 0x28, 0xf5, 0x3d, 0xb5, 0xfe, 0xcc, 0x3d,
  0xd8, 0xe2, 0xde, 0x3c, 0xcf, 0x8e, 0x6a, 0xbe, 0x65, 0x29, 0x04, 0xbf,
  0x92, 0x0c, 0xab, 0x3d, 0x9c, 0xc4, 0xbf, 0xbe, 0x9a, 0x5d, 0x70, 0xbe,
  0x5d, 0x0a, 0x78, 0x3c, 0xd0, 0x05, 0x62, 0xbe, 0x08, 0x90, 0x2a, 0xbe,
  0xe1, 0x3e, 0xf9, 0x3d, 0x59, 0x87, 0x89, 0xbe, 0x57, 0x2a, 0xc6, 0x3e,
  0x7a, 0xc5, 0xc1, 0xbe, 0xfc, 0x9d, 0x20, 0x3e, 0xe1, 0x88, 0xf6, 0x3d,
  0x4e, 0xc5, 0x0e, 0x3e, 0x4b, 0x10, 0xd9, 0x3d, 0xf0, 0x6d, 0xf3, 0xbe,
  0xae, 0x4b, 0xee, 0x3e, 0x75, 0x4e, 0xe9, 0x3c, 0x0d, 0xbd, 0xfd, 0x3e,
  0x0b, 0x29, 0x05, 0xbe, 0x1c, 0x91, 0xcb, 0x3e, 0xe0, 0x26, 0x11, 0xbe,
  0xe3, 0x92, 0x8c, 0xbd, 0xf5, 0xf8, 0x83, 0xbe, 0x5c, 0xe9, 0x8f, 0x3e,
  0x7c, 0x87, 0xb4, 0x3d, 0x0a, 0xc6, 0x42, 0x3e, 0xb2, 0x10, 0x85, 0xbd,
  0xf3, 0xc6, 0xda, 0x3d, 0xd9, 0x81, 0xcf, 0x3e, 0x5d, 0xf2, 0xfd, 0x3e,
  0x6f, 0xc0, 0x98, 0x3e, 0x73, 0xfe, 0x80, 0xbc, 0xd5, 0x72, 0x71, 0x3e,
  0xed, 0x8a, 0x98, 0xbe, 0xc1, 0x18, 0x0d, 0x3f, 0x42, 0x1d, 0xc9, 0xbd,
  0x42, 0xce, 0x31, 0x3e, 0xa5, 0xd5, 0x59, 0x3d, 0x17, 0xfa, 0xb3, 0x3e,
  0xb4, 0x65, 0x3a, 0x3e, 0x56, 0x92, 0x13, 0x3f, 0xb7, 0x24, 0x12, 0xbd,
  0x29, 0x5d, 0x18, 0x3d, 0x64, 0x95, 0x84, 0x3d, 0x4d, 0x86, 0x67, 0xbe,
  0x58, 0xb0, 0x9f, 0x3e, 0xdd, 0xdc, 0xb1, 0x3e, 0xc1, 0x8a, 0x3f, 0xbe,
  0x07, 0x9c, 0x88, 0x3e, 0xd8, 0x9e, 0x1b, 0xbe, 0x85, 0x63, 0xb8, 0x3d,
  0xfa, 0x2b, 0x9e, 0xbd, 0x10, 0x7a, 0xcf, 0xbd, 0xc7, 0xeb, 0x0a, 0xbe,
  0x5f, 0x25, 0xfd, 0x3e, 0xc2, 0x60, 0x02, 0x3d, 0x86, 0xc5, 0x90, 0x3e,
  0x24, 0x4f, 0x6e, 0xbe, 0x63, 0x6c, 0x33, 0x3d, 0xbc, 0x5c, 0x67, 0xbd,
  0xfd, 0x89, 0xb3, 0xbd, 0xf8, 0x08, 0xed, 0xbe, 0xaa, 0x8d, 0x93, 0x3d,
  0xee, 0xce, 0x90, 0xbe, 0x5e, 0x32, 0x90, 0xbd, 0x95, 0xc8, 0x15, 0xbe,
  0xa8, 0x03, 0x4d, 0xbe, 0x1a, 0xa6, 0x22, 0xbe, 0x9c, 0xb9, 0x59, 0x3e,
  0xab, 0x41, 0xfd, 0xba, 0x2b, 0x39, 0xb1, 0xbe, 0x0d, 0xab, 0x53, 0x3e,
  0x16, 0xf2, 0x3b, 0xbe, 0xb6, 0xfa, 0x36, 0x3f, 0xf4, 0x01, 0x63, 0x3e,
  0x72, 0xcd, 0xb0, 0xbd, 0xff, 0x67, 0x8c, 0xbd, 0x23, 0x21, 0x6a, 0xbe,
  0x87, 0x3b, 0x90, 0x3e, 0x00, 0x32, 0x3a, 0xbd, 0xde, 0x66, 0xbe, 0x3d,
  0x88, 0x77, 0xae, 0x3d, 0x3a, 0x15, 0x3e, 0xbe, 0x5f, 0x0d, 0x3d, 0xbe,
  0xd3, 0xb8, 0x2b, 0xbe, 0x87, 0xf3, 0x38, 0x3f, 0x18, 0x85, 0x18, 0xbe,
  0xe0, 0x39, 0x1d, 0x3e, 0xde, 0x98, 0x11, 0xbe, 0xbd, 0x20, 0x43, 0xbf,
  0xb9, 0xe4, 0xe9, 0x3e, 0x63, 0x35, 0x3d, 0x3e, 0x5a, 0xce, 0xe0, 0x3e,
  0x28, 0xf5, 0x07, 0xbd, 0xb1, 0xc8, 0x15, 0xbe, 0x78, 0x1a, 0x96, 0xbe,
  0x77, 0x84, 0x43, 0xbd, 0x72, 0x5c, 0xc6, 0x3d, 0x2c, 0x45, 0xac, 0x3e,
  0xd1, 0xc0, 0xf4, 0x3e, 0x29, 0x81, 0xc4, 0x3e, 0x10, 0xcd, 0xf3, 0x3c,
  0xed, 0x14, 0x81, 0xbc, 0x6f, 0xfd, 0x78, 0x3e, 0x79, 0xc8, 0x1d, 0x3e,
  0xc0, 0xf7, 0x83, 0xbe, 0xaf, 0xfc, 0x2a, 0xbe, 0x5a, 0x92, 0xac, 0xbd,
  0x60, 0xdc, 0x4a, 0xbe, 0x88, 0x9d, 0x2a, 0x3e, 0xd8, 0x2d, 0xfb, 0xbd,
  0xd3, 0x68, 0x15, 0x3d, 0x5d, 0x34, 0x24, 0xbe, 0x59, 0x9d, 0xa2, 0xbe,
  0xe0, 0xc3, 0x9b, 0xbd, 0x92, 0x26, 0xae, 0x3e, 0xd2, 0x9a, 0x1a, 0x3f,
  0xf7, 0xea, 0xd9, 0xbe, 0xd5, 0xc3, 0x30, 0x3e, 0x3d, 0xef, 0x92, 0x3d,
  0xe2, 0x69, 0x9b, 0x3d, 0x36, 0x80, 0xfa, 0x3d, 0x02, 0x9c, 0x01, 0x3f,
  0xd4, 0x6b, 0x59, 0xbe, 0xb2, 0x55, 0x32, 0xbe, 0x64, 0x1f, 0x10, 0xbf,
  0xde, 0xe0, 0xd3, 0xbe, 0x88, 0xbc, 0x83, 0xbe, 0x58, 0xf4, 0x31, 0xbe,
  0x3c, 0x88, 0x8e, 0xbd, 0x6d, 0x75, 0x12, 0xbf, 0xdc, 0x8e, 0x0a, 0xbe,
  0x5d, 0xf0, 0x8e, 0xbe, 0xda, 0x1e, 0x78, 0x3e, 0xb9, 0x03, 0x59, 0x3e,
  0x2d, 0xb9, 0x81, 0xbe, 0xd7, 0xcb, 0x95, 0x3d, 0xb5, 0x39, 0x43, 0x3d,
  0x2c, 0xc7, 0x0a, 0xbf, 0xdc, 0xa1, 0xb1, 0xbe, 0xaa, 0xac, 0xc2, 0xbd,
  0x4d, 0xb3, 0x0a, 0x3e, 0xc2, 0x56, 0x4b, 0x3f, 0x26, 0x1b, 0xe6, 0x3b,
  0x21, 0x74, 0xce, 0x3c, 0xf8, 0xd1, 0x97, 0x3d, 0x4d, 0x3e, 0xa3, 0xbe,
  0xc9, 0xb5, 0x99, 0x3d, 0xc8, 0xa5, 0xeb, 0xbe, 0x93, 0x0d, 0x74, 0x3b,
  0x99, 0xd9, 0x4d, 0xbe, 0x05, 0x35, 0x5d, 0xbd, 0x4c, 0xa8, 0x5f, 0x3e,
  0x14, 0xbc, 0x0c, 0x3f, 0x28, 0xdd, 0x17, 0xbc, 0x1e, 0x6e, 0x19, 0xbd,
  0x69, 0xa2, 0xca, 0xbe, 0x54, 0x4b, 0x6b, 0x3e, 0x27, 0x71, 0x51, 0xbd,
  0xa4, 0x02, 0xd5, 0xbd, 0x14, 0x40, 0x85, 0x3e, 0xd5, 0xc1, 0x59, 0xbe,
  0x43, 0x48, 0xab, 0x3e, 0x0e, 0xe3, 0xe1, 0xbd, 0xe3, 0x0a, 0xbc, 0x3e,
  0x4f, 0x37, 0xb1, 0xbe, 0x77, 0x57, 0x4d, 0x3d, 0x4d, 0xd8, 0xbd, 0x3c,
  0xfb, 0xf0, 0x44, 0x3e, 0x58, 0x14, 0x6c, 0x3e, 0x5d, 0x4f, 0x0d, 0x3e,
  0x46, 0xc3, 0xed, 0x3d, 0x51, 0x23, 0x4e, 0x3e, 0x99, 0x14, 0xcc, 0xbc,
  0x8a, 0x14, 0xee, 0xbd, 0xc1, 0xe5, 0x02, 0xbf, 0xa7, 0x7b, 0xff, 0xbe,
  0xc4, 0x03, 0xee, 0x3d, 0x4f, 0xcf, 0x39, 0x3e, 0xb8, 0xaa, 0x9c, 0xbe,
  0x33, 0x46, 0x0a, 0x3e, 0x9f, 0xee, 0x9f, 0xbc, 0xc2, 0xb6, 0x15, 0xbd,
  0x56, 0x46, 0xab, 0x3e, 0x6b, 0x4a, 0x56, 0xbe, 0x9f, 0x43, 0x9a, 0xbd,
  0x97, 0xc8, 0xc8, 0xbe, 0x75, 0x75, 0x07, 0x3f, 0x82, 0x0b, 0x2a, 0x3e,
  0x05, 0xb6, 0xd8, 0x3e, 0x38, 0x5a, 0x79, 0x3d, 0x57, 0x77, 0x64, 0x3e,
  0x60, 0xae, 0xef, 0xbe, 0x6f, 0xc6, 0xef, 0x3d, 0x01, 0xd9, 0xf7, 0x3e,
  0x80, 0x1c, 0xf2, 0x3e, 0x8a, 0x0f, 0x4a, 0xbe, 0xc2, 0x66, 0x98, 0xbe,
  0x7d, 0x84, 0x55, 0xbd, 0x99, 0xc1, 0xaa, 0x3d, 0x1d, 0x46, 0x8f, 0xbc,
  0xe2, 0xaa, 0x4c, 0xbf, 0x4b, 0x67, 0x81, 0x3d, 0x0f, 0xde, 0x12, 0xbf,
  0x4d, 0x2a, 0xcd, 0xbe, 0xc0, 0x3a, 0x16, 0x3e, 0x6e, 0xa8, 0xa9, 0x3e,
  0x8d, 0x18, 0x50, 0xbe, 0x73, 0x36, 0x2a, 0xbe, 0x24, 0x68, 0x75, 0x3e,
  0xe4, 0xbb, 0x8b, 0x3e, 0x33, 0xc1, 0x19, 0x3e, 0xc7, 0x62, 0xa2, 0x3e,
  0xf9, 0xdf, 0x04, 0x3f, 0x9e, 0x15, 0xe5, 0x3d, 0xb3, 0x9b, 0x13, 0xbf,
  0xf1, 0x36, 0xba, 0xbe, 0x57, 0x55, 0x92, 0x3e, 0x30, 0x8e, 0x7b, 0x3e,
  0xc5, 0x6b, 0x85, 0x3b, 0xe3, 0x9d, 0xe3, 0x3e, 0x0c, 0xad, 0xcd, 0x3e,
  0xc2, 0x52, 0x52, 0x3d, 0x92, 0x6a, 0x8a, 0xbe, 0x60, 0x19, 0xec, 0xbd,
  0x9f, 0x3e, 0xb7, 0x3e, 0x30, 0x25, 0x14, 0x3d, 0xb7, 0x37, 0x4e, 0xbe,
  0x9c, 0xec, 0xbe, 0x3e, 0x03, 0xa4, 0x97, 0xbe, 0x78, 0xbc, 0x8a, 0xbe,
  0x5e, 0x65, 0x07, 0xbe, 0xe7, 0x8b, 0x62, 0x3e, 0x1f, 0xee, 0x38, 0xbd,
  0xa2, 0x11, 0x4c, 0x3d, 0x25, 0x64, 0x1f, 0xbf, 0x91, 0x95, 0x93, 0x3e,
  0xf2, 0x6e, 0xcf, 0xbc, 0xfe, 0xe8, 0x0f, 0x3e, 0x80, 0x5f, 0xd8, 0x3d,
  0xfd, 0x1c, 0x83, 0x3e, 0xff, 0x87, 0x2e, 0x3e, 0x56, 0xd0, 0x8d, 0x3e,
  0x85, 0x9c, 0xaa, 0xbd, 0xda, 0xd3, 0x8a, 0x3d, 0xef, 0x9b, 0xb9, 0xbe,
  0xdb, 0x9e, 0x39, 0xbe, 0xf4, 0xc6, 0xb1, 0xbe, 0xd0, 0x28, 0x59, 0x3e,
  0xd6, 0xe9, 0x87, 0xbd, 0xc5, 0xf5, 0xc6, 0xbe, 0xca, 0x80, 0x8a, 0x3c,
  0xd3, 0xde, 0x92, 0x3e, 0x0c, 0xba, 0x4d, 0x3e, 0x9c, 0x4d, 0x77, 0x3e,
  0x6f, 0xdb, 0x81, 0x3d, 0xb1, 0xac, 0xf7, 0x3e, 0xec, 0x34, 0x68, 0xbe,
  0xca, 0x1e, 0x30, 0x3e, 0x4e, 0xba, 0xae, 0x3e, 0xb0, 0x3a, 0x0f, 0x3e,
  0x73, 0x2d, 0xe2, 0xbe, 0x67, 0x40, 0x7d, 0x3d, 0xcd, 0x09, 0xa7, 0xb9,
  0x1a, 0xa1, 0x39, 0x3e, 0xa9, 0x54, 0xfd, 0xbd, 0x6f, 0x68, 0x1a, 0xbe,
  0xc6, 0x09, 0x97, 0x3e, 0xaa, 0x07, 0x88, 0x3e, 0xc2, 0x1f, 0x61, 0x3e,
  0xa8, 0x87, 0xe2, 0xbd, 0x32, 0x94, 0xdb, 0x3d, 0xa3, 0x38, 0x87, 0x3e,
  0x61, 0x4d, 0x5e, 0xbe, 0x69, 0x33, 0x92, 0x3e, 0x01, 0x83, 0xaf, 0x3e,
  0x57, 0xb0, 0x0b, 0x3a, 0x42, 0x2a, 0xd5, 0xbe, 0x05, 0xae, 0x0d, 0x3d,
  0x24, 0xb0, 0x4d, 0x3d, 0x30, 0x3f, 0x74, 0xbc, 0xa8, 0x44, 0x2d, 0x3f,
  0x42, 0x05, 0x00, 0xbe, 0xf8, 0xba, 0x0b, 0x3e, 0xbb, 0x53, 0x96, 0x3e,
  0x36, 0x61, 0x29, 0xbe, 0x33, 0x43, 0x8d, 0x3e, 0xff, 0x19, 0x0a, 0xbe,
  0x44, 0xa7, 0xea, 0x3e, 0xdc, 0x77, 0xd5, 0xbe, 0x41, 0x97, 0x59, 0x3c,
  0x7c, 0x94, 0x65, 0x3d, 0xcb, 0xd7, 0xd0, 0x3e, 0x4f, 0xc0, 0x45, 0x3e,
  0xfd, 0x62, 0xb1, 0x3e, 0xea, 0xf5, 0x5c, 0xbe, 0x31, 0x2b, 0x48, 0xbf,
  0x21, 0x7c, 0xab, 0xbe, 0x14, 0xa4, 0xd1, 0x3e, 0x2c, 0x87, 0x19, 0x3f,
  0x4a, 0x23, 0x14, 0xbd, 0x66, 0xe6, 0x03, 0xbf, 0xb0, 0x91, 0x0a, 0xbe,
  0x4d, 0xca, 0x66, 0x3e, 0x4f, 0xfd, 0x8a, 0x3e, 0x68, 0x20, 0xbe, 0x3e,
  0x19, 0x24, 0x4c, 0xbe, 0xe3, 0xa8, 0x71, 0xbe, 0xb2, 0xc1, 0xd4, 0xbd,
  0x93, 0x31, 0x6f, 0xbd, 0xa9, 0x2b, 0x6f, 0x3d, 0x29, 0xe2, 0x2d, 0x3e,
  0xd7, 0xe8, 0xc6, 0x3e, 0xfb, 0x62, 0xb3, 0xbd, 0xbd, 0x7b, 0xce, 0x3e,
  0x45, 0xad, 0x98, 0xbe, 0xec, 0xc1, 0xf0, 0xbe, 0xe1, 0x1d, 0xd7, 0x3d,
  0xef, 0x53, 0xa3, 0x3e, 0x65, 0xf6, 0x31, 0x3e, 0x60, 0xe7, 0x8e, 0xbe,
  0xa1, 0xb5, 0x18, 0x3f, 0xca, 0x64, 0x76, 0x3e, 0x1f, 0x50, 0x78, 0x3e,
  0xfc, 0xbd, 0x5e, 0x3e, 0x49, 0x6f, 0x20, 0x3e, 0x4f, 0x99, 0x0f, 0x3d,
  0xac, 0x95, 0xf3, 0x3e, 0x1d, 0xb5, 0x32, 0x3e, 0xf6, 0xa5, 0x39, 0x3e,
  0x76, 0x93, 0x45, 0x3e, 0x3f, 0xd5, 0x2d, 0xbc, 0x9b, 0x04, 0x74, 0xbc,
  0x66, 0x23, 0x57, 0xbe, 0x2c, 0x71, 0xb1, 0x3e, 0xe8, 0x81, 0x3f, 0xbe,
  0x34, 0x4a, 0x85, 0xbe, 0x9d, 0x6b, 0x62, 0xbe, 0x58, 0x49, 0x08, 0x3f,
  0x8e, 0xf0, 0x88, 0x3e, 0x76, 0x4a, 0x30, 0x3d, 0xc3, 0xbc, 0x0f, 0x3f,
  0x94, 0xb5, 0x9d, 0x3e, 0xad, 0xdd, 0x65, 0x3e, 0xdd, 0x94, 0xf7, 0x3d,
  0xe8, 0xfd, 0x88, 0x3e, 0x13, 0x94, 0x08, 0x3e, 0xd7, 0x46, 0x0e, 0xba,
  0xb1, 0xe2, 0x94, 0x3e, 0x8e, 0x54, 0xbd, 0xbc, 0xfe, 0x85, 0x5b, 0x3d,
  0x07, 0xde, 0x9e, 0x3e, 0x8e, 0xc6, 0xc2, 0xbd, 0x9a, 0xcb, 0xca, 0x3e,
  0x8c, 0x1a, 0x28, 0x3d, 0x68, 0x2d, 0xc6, 0xbe, 0xaa, 0xfa, 0x71, 0x3e,
  0x1a, 0x51, 0x9c, 0xbe, 0xca, 0xb4, 0x24, 0xbd, 0x34, 0x57, 0x54, 0x3e,
  0xdf, 0xcf, 0xcc, 0xbe, 0x64, 0xc2, 0xe7, 0xbd, 0x52, 0x91, 0x32, 0xbe,
  0xe0, 0x91, 0x56, 0xbd, 0x8c, 0x10, 0x39, 0x3e, 0x66, 0x6f, 0x85, 0xbc,
  0x1f, 0xf9, 0x16, 0x3e, 0x27, 0xd5, 0xc7, 0xbe, 0xc3, 0xd9, 0xaf, 0x3e,
  0x9a, 0xb6, 0x79, 0x3e, 0xd3, 0x0d, 0x15, 0x3e, 0x96, 0x70, 0xca, 0xbd,
  0x8d, 0xff, 0x2c, 0x3e, 0x85, 0x86, 0xfb, 0xbe, 0xdf, 0x2d, 0x8a, 0x3d,
  0x7f, 0xb5, 0x75, 0xbd, 0xf3, 0xbd, 0x4d, 0x3e, 0xab, 0x27, 0xc1, 0xbd,
  0xc2, 0xf2, 0x98, 0xbd, 0x88, 0xe0, 0x90, 0x3e, 0xeb, 0x44, 0x70, 0x3e,
  0xee, 0x60, 0x0f, 0x3e, 0xd7, 0x6b, 0x9c, 0x3e, 0xe7, 0x51, 0x4c, 0xbd,
  0xd3, 0x46, 0x4b, 0x3f, 0xb4, 0x1b, 0xb6, 0xbc, 0xc0, 0x97, 0x37, 0xbe,
  0x5d, 0x35, 0xf9, 0x3d, 0x55, 0xa6, 0xff, 0x3d, 0x8c, 0x2f, 0xc2, 0x3e,
  0x6f, 0xc9, 0xa1, 0xbe, 0x7a, 0xca, 0x2e, 0xbe, 0xe2, 0x45, 0x00, 0xbe,
  0xcb, 0xc5, 0xff, 0x3d, 0x1a, 0xed, 0x1e, 0xbd, 0x8e, 0x57, 0x88, 0xbd,
  0xdc, 0xe7, 0xda, 0xbd, 0xcb, 0xe1, 0xa8, 0x3d, 0x97, 0x83, 0xd7, 0xbd,
  0x0b, 0xeb, 0x30, 0xbd, 0x48, 0x0b, 0x45, 0xbe, 0x94, 0xb1, 0x55, 0xbd,
  0x5b, 0x3f, 0x2a, 0xbe, 0xc7, 0x13, 0x10, 0xbe, 0xda, 0x69, 0x12, 0x3e,
  0x49, 0x9a, 0x19, 0xbd, 0xe5, 0x90, 0x61, 0xbe, 0x09, 0x47, 0x79, 0xbe,
  0x79, 0x4e, 0x4c, 0xbd, 0x63, 0x95, 0xa6, 0xbe, 0x6b, 0xa9, 0xb5, 0xbc,
  0x30, 0x87, 0x17, 0xbe, 0x46, 0x38, 0xc8, 0xbd, 0xf2, 0x12, 0x9e, 0xbe,
  0x0b, 0x87, 0x00, 0x3e, 0x1b, 0x59, 0x8b, 0x3d, 0x1c, 0x5c, 0x3e, 0xbd,
  0xe1, 0x58, 0x59, 0x3e, 0x89, 0x18, 0x87, 0x3c, 0x29, 0x33, 0x34, 0x3e,
  0xd4, 0x68, 0x1d, 0xbd, 0x1b, 0x68, 0x3e, 0xbe, 0x5e, 0x12, 0x78, 0x3e,
  0xe5, 0xa0, 0x5f, 0xbd, 0xc1, 0x71, 0xc6, 0xbd, 0x35, 0xd7, 0x44, 0xbe,
  0x31, 0xc9, 0x32, 0x3d, 0xab, 0x0a, 0x82, 0x3e, 0xcf, 0x41, 0x39, 0x3e,
  0xdc, 0x4d, 0x6c, 0xbe, 0x09, 0x87, 0xfc, 0xbd, 0xb4, 0x93, 0x68, 0xbd,
  0xe1, 0xa9, 0x24, 0xbd, 0x06, 0x5e, 0x9a, 0x3d, 0xe0, 0xe9, 0x43, 0xbe,
  0xfb, 0x07, 0xb4, 0xbd, 0x2c, 0x0b, 0x94, 0x3e, 0xc3, 0x17, 0x14, 0x3d,
  0x8c, 0xb3, 0x78, 0xbd, 0x1f, 0x94, 0xd5, 0x3d, 0xed, 0x1b, 0xc6, 0xbd,
  0x49, 0x15, 0xee, 0xbd, 0x50, 0xd0, 0xf1, 0x3d, 0x66, 0x02, 0x8f, 0x3d,
  0xa2, 0x57, 0x43, 0xbe, 0x95, 0x39, 0x3f, 0x3e, 0xf4, 0x7e, 0x14, 0x3e,
  0x9c, 0x52, 0xcd, 0x3d, 0x1a, 0x51, 0xf1, 0xbd, 0xb5, 0xb7, 0xd2, 0x3d,
  0x9a, 0xef, 0x69, 0x3d, 0xf3, 0xc6, 0x6e, 0xbe, 0x40, 0x21, 0x13, 0x3e,
  0xc2, 0x50, 0x4f, 0xbe, 0x0c, 0x1c, 0xfa, 0xbd, 0xb8, 0xc2, 0x91, 0xbd,
  0x36, 0xd8, 0xa0, 0xbd, 0x09, 0x33, 0x44, 0x3e, 0x52, 0x44, 0xb2, 0xbe,
  0x53, 0x1f, 0x8a, 0x3e, 0xb2, 0xeb, 0x82, 0x3e, 0xff, 0xa7, 0x16, 0x3e,
  0x29, 0xd0, 0x2d, 0xbf, 0x41, 0xd5, 0xd3, 0xbe, 0xb9, 0x6f, 0xd6, 0x3e,
  0xd0, 0xa2, 0xa5, 0xbe, 0x89, 0xa8, 0x83, 0x3f, 0x73, 0x74, 0x8a, 0xbe,
  0x1d, 0x11, 0x0b, 0x3e, 0x31, 0xbb, 0x98, 0xbe, 0x33, 0xb2, 0xbb, 0xbe,
  0x02, 0xce, 0x7e, 0xbe, 0xd9, 0xaa, 0x88, 0x3e, 0x4e, 0xd3, 0x3a, 0x3f,
  0xd3, 0x0b, 0x00, 0x3e, 0x89, 0x2f, 0x90, 0x3d, 0xa9, 0x6f, 0x58, 0x3e,
  0x90, 0xe2, 0x1c, 0xbe, 0x17, 0x44, 0xba, 0x3e, 0xb4, 0x9c, 0x9b, 0x3e,
  0xd6, 0x83, 0xdf, 0x3d, 0xf8, 0x77, 0xfc, 0x3d, 0x34, 0x57, 0x4f, 0x3d,
  0xc9, 0xff, 0x32, 0x3d, 0x1f, 0x92, 0xbd, 0xbd, 0xb5, 0xe8, 0x6f, 0xbd,
  0xb7, 0x69, 0x08, 0xbe, 0x11, 0x0b, 0x18, 0xbf, 0x4c, 0x7e, 0x05, 0x3f,
  0xf0, 0x70, 0x9e, 0x3b, 0x33, 0x87, 0x96, 0x3e, 0x60, 0xd8, 0x52, 0x3f,
  0x3d, 0x8f, 0x00, 0xbf, 0x3c, 0x88, 0x54, 0x3e, 0x34, 0xaf, 0x61, 0xbe,
  0x29, 0xd1, 0x1e, 0xbd, 0x0b, 0xc8, 0x9f, 0x3e, 0xea, 0xac, 0x90, 0xbe,
  0xb2, 0x46, 0x03, 0xbd, 0xc0, 0x8b, 0xb9, 0x3d, 0xf2, 0xdf, 0x59, 0x3d,
  0x73, 0x65, 0x1b, 0x3e, 0x31, 0x85, 0x08, 0xbf, 0x64, 0xb3, 0x0c, 0x3e,
  0x8b, 0xca, 0x49, 0xbd, 0xc3, 0x16, 0x8c, 0x3e, 0x84, 0xfb, 0xb7, 0x3e,
  0x91, 0x35, 0x34, 0x3e, 0xef, 0x08, 0x13, 0xbc, 0x82, 0x7c, 0xcd, 0x3d,
  0x90, 0x4d, 0x21, 0xbe, 0x67, 0x29, 0xbf, 0xbe, 0x5c, 0x3b, 0xde, 0xbe,
  0x96, 0xcc, 0x99, 0xbd, 0x8e, 0x65, 0x49, 0xbe, 0x9d, 0x0c, 0xdb, 0xbd,
  0x8e, 0xe9, 0x31, 0xbe, 0xfb, 0xfa, 0xcb, 0xbe, 0x57, 0xda, 0xe5, 0x3e,
  0x5d, 0xf3, 0x67, 0xbe, 0xc0, 0xd8, 0x9f, 0x3b, 0xf1, 0xfc, 0xc3, 0xbd,
  0xa9, 0xf8, 0x58, 0xbe, 0xbf, 0x40, 0x1b, 0xbe, 0xb5, 0xd9, 0x24, 0x3e,
  0xf6, 0x75, 0x50, 0x3d, 0xca, 0x03, 0xf2, 0xbd, 0x57, 0x44, 0x7d, 0x3e,
  0x9a, 0xc2, 0x77, 0x3e, 0x98, 0x74, 0x65, 0xbe, 0x86, 0xee, 0xac, 0xbd,
  0x38, 0xcc, 0x23, 0xbd, 0xa5, 0x56, 0x88, 0x3e, 0x9e, 0x82, 0x7c, 0x3b,
  0xc6, 0x68, 0xe4, 0x3d, 0x09, 0xfb, 0x2d, 0x3e, 0x79, 0x4b, 0x3a, 0xbe,
  0x13, 0xd3, 0xc0, 0xbe, 0xd7, 0x76, 0x25, 0x3e, 0xad, 0x6b, 0x94, 0x3e,
  0x13, 0xd4, 0x13, 0xbf, 0x2f, 0xee, 0xde, 0xbe, 0x74, 0x86, 0x7d, 0xbd,
  0x3d, 0xfb, 0xf4, 0xbd, 0xd6, 0x87, 0x1a, 0xbe, 0x41, 0x20, 0x39, 0xbe,
  0x37, 0xd4, 0xf0, 0xbd, 0x3b, 0x2d, 0x86, 0x3b, 0xda, 0x08, 0xa2, 0x3d,
  0xc8, 0xbe, 0xac, 0x3c, 0xa6, 0x0a, 0x35, 0x3e, 0x9e, 0x5f, 0xc4, 0xbe,
  0x99, 0x44, 0x87, 0x3d, 0x30, 0x94, 0x5e, 0xbe, 0x94, 0xc7, 0xca, 0x3d,
  0xcb, 0xa2, 0x9e, 0xbc, 0x40, 0xe6, 0x31, 0xbe, 0xcc, 0x41, 0xe3, 0xbd,
  0x77, 0x32, 0x3b, 0x3d, 0xc8, 0xe8, 0x9e, 0x3d, 0xd1, 0x44, 0xde, 0xbe,
  0x79, 0x8f, 0x03, 0x3e, 0xb5, 0x10, 0xf2, 0xbe, 0x84, 0x43, 0x21, 0xbe,
  0x85, 0xca, 0x37, 0x3d, 0x32, 0x42, 0x4d, 0x3e, 0x7d, 0x26, 0x10, 0xbf,
  0x4c, 0xb4, 0xd8, 0x3d, 0x09, 0x4a, 0x03, 0xbe, 0xab, 0x3f, 0x87, 0xbe,
  0x43, 0x83, 0x0c, 0xbe, 0x53, 0x4b, 0x21, 0xbe, 0xd0, 0xf2, 0x63, 0x3e,
  0x4d, 0x8c, 0x3c, 0x3d, 0xc3, 0xc5, 0x11, 0xbf, 0x14, 0xc6, 0x42, 0xbe,
  0x47, 0xa4, 0x25, 0x3f, 0xe9, 0x22, 0xb2, 0xbe, 0x44, 0xa0, 0xfb, 0xbd,
  0x5a, 0xc5, 0xe8, 0x3e, 0xb2, 0x95, 0xaf, 0x3c, 0xc2, 0xcd, 0x00, 0xbf,
  0x91, 0xb8, 0x9e, 0xbe, 0xcc, 0x7c, 0xfa, 0xbd, 0x5b, 0x49, 0x05, 0xbe,
  0xcd, 0x65, 0xe2, 0x3d, 0x1e, 0xad, 0x99, 0x3e, 0x13, 0xfa, 0x0f, 0xbe,
  0x22, 0x00, 0x11, 0xbe, 0x7b, 0x73, 0x22, 0xbe, 0xa9, 0x0f, 0x15, 0x3f,
  0xab, 0xde, 0xd1, 0x3e, 0xd0, 0xad, 0x3d, 0xbe, 0xc6, 0x7b, 0x3a, 0x3e,
  0x09, 0x8d, 0x88, 0xbe, 0xf7, 0xb0, 0xe3, 0x3d, 0x89, 0x55, 0x49, 0x3b,
  0xd2, 0x11, 0x05, 0x3f, 0x76, 0xa0, 0xd9, 0x3d, 0x0a, 0x81, 0x52, 0x3c,
  0x82, 0x37, 0xaf, 0x3e, 0xf1, 0xc6, 0xc5, 0xbd, 0xb6, 0xb3, 0x14, 0xbe,
  0x11, 0x5b, 0x4d, 0xbe, 0x20, 0x82, 0xb7, 0xbe, 0x02, 0x01, 0x5f, 0x3e,
  0x45, 0x5f, 0xac, 0x3e, 0x4a, 0xc7, 0x8a, 0x3e, 0xbf, 0xae, 0x68, 0xbd,
  0x91, 0x32, 0xd7, 0x3d, 0xbd, 0x81, 0x8c, 0xbe, 0xc5, 0x43, 0xbe, 0x3e,
  0xbc, 0x6f, 0xc2, 0x3c, 0xa4, 0x21, 0xe6, 0x3d, 0x74, 0xad, 0xc6, 0xbe,
  0xe9, 0x40, 0xdc, 0x3d, 0xad, 0x6d, 0x59, 0xbe, 0xbf, 0xed, 0x84, 0x3e,
  0x5f, 0x20, 0xc6, 0xbc, 0x0b, 0x43, 0xcf, 0xbe, 0xc3, 0x1b, 0x40, 0x3f,
  0x26, 0xa4, 0x1d, 0x3e, 0x6e, 0xd0, 0xea, 0xbe, 0x15, 0x86, 0xc7, 0xbe,
  0x9c, 0xa7, 0x5d, 0x3e, 0x1c, 0x19, 0xa4, 0xbe, 0x43, 0xbf, 0x2f, 0xbf,
  0x44, 0x19, 0x05, 0xbf, 0xe4, 0x9d, 0xa0, 0x3e, 0x53, 0xac, 0x26, 0x3f,
  0x7a, 0x69, 0x98, 0x3b, 0x33, 0x97, 0x5b, 0xbe, 0x08, 0x76, 0xf4, 0x3d,
  0xeb, 0x1e, 0x62, 0xbe, 0x0b, 0x12, 0x39, 0xbf, 0xe9, 0xd2, 0xbc, 0xbe,
  0xcb, 0x82, 0x7d, 0x3e, 0x6c, 0xda, 0x71, 0x3f, 0xc5, 0xef, 0xac, 0x3e,
  0x7f, 0x9c, 0xf7, 0x3e, 0xfa, 0x1b, 0x48, 0xbd, 0x1c, 0x84, 0xe8, 0xbe,
  0x4e, 0xce, 0x0f, 0x3f, 0x1a, 0x3a, 0x1c, 0xbe, 0x37, 0x01, 0x60, 0xbe,
  0xad, 0x90, 0x83, 0xbc, 0x38, 0x20, 0x76, 0xbe, 0x94, 0x07, 0xe7, 0xbd,
  0xa8, 0x96, 0x45, 0xbe, 0x77, 0x61, 0x80, 0xbe, 0x89, 0xc9, 0x35, 0x3d,
  0x24, 0x91, 0x98, 0x3d, 0xe7, 0xa8, 0xec, 0xbd, 0x61, 0xb2, 0xb7, 0x3d,
  0xb6, 0xfd, 0x4f, 0x3e, 0x8f, 0x7f, 0x5b, 0xbe, 0xcb, 0x10, 0x81, 0x3d,
  0x6e, 0xb6, 0x21, 0xbe, 0xb3, 0xfd, 0x24, 0x3e, 0x69, 0xb8, 0x5e, 0x3e,
  0x62, 0x46, 0x2e, 0xbe, 0x8c, 0x43, 0x48, 0xbe, 0x06, 0x71, 0x51, 0xbd,
  0x46, 0xd7, 0x0a, 0xbe, 0xb5, 0x6b, 0x0b, 0xbd, 0xc9, 0xb2, 0x42, 0xbe,
  0x00, 0x26, 0x1a, 0xbe, 0xa7, 0xd2, 0x9a, 0xbd, 0x7b, 0x7f, 0x5a, 0xbb,
  0x41, 0xac, 0xf0, 0x3d, 0x48, 0x60, 0x3d, 0x3e, 0x1c, 0xa5, 0xeb, 0xbd,
  0xb7, 0x9c, 0xdf, 0x3d, 0xd0, 0x0d, 0x72, 0xbe, 0x3c, 0x98, 0x1f, 0xbe,
  0xe9, 0x8b, 0xb8, 0x3d, 0xcf, 0x68, 0xf2, 0x3d, 0xcd, 0x09, 0xa1, 0xbd,
  0x78, 0x55, 0xd8, 0x3d, 0x93, 0x8e, 0x84, 0x3d, 0x2d, 0xdb, 0x23, 0xbe,
  0xc4, 0xa9, 0xd6, 0xbd, 0xc4, 0xfb, 0xe6, 0xbc, 0x65, 0xc3, 0x00, 0x3e,
  0x2a, 0xf7, 0xcd, 0xbc, 0xee, 0x1b, 0x05, 0xbe, 0x35, 0x86, 0x2c, 0xbe,
  0x08, 0xb6, 0xf7, 0xbd, 0x67, 0x46, 0x5a, 0x3e, 0x8f, 0x7a, 0xf7, 0x3d,
  0x2d, 0xd7, 0xb8, 0xbc, 0x52, 0x0b, 0x57, 0xbe, 0xea, 0xaf, 0xce, 0x3d,
  0x53, 0x85, 0xa7, 0xbd, 0x90, 0x65, 0x39, 0xbe, 0x9f, 0x63, 0x51, 0xbe,
  0xe0, 0xdc, 0x4e, 0xbe, 0xe2, 0x77, 0x71, 0xbe, 0xe9, 0xbf, 0xeb, 0x3d,
  0x08, 0x1d, 0x44, 0xbe, 0x83, 0x4f, 0x1f, 0xbe, 0x01, 0x5b, 0x2c, 0x3e,
  0xb0, 0x5c, 0xfa, 0xbd, 0x5d, 0xe5, 0x39, 0xbe, 0x05, 0x09, 0x62, 0xbe,
  0xfa, 0xa7, 0x11, 0xbe, 0x8a, 0xa6, 0x65, 0xbe, 0x1e, 0x6c, 0x3e, 0xbc,
  0x5c, 0x6f, 0x06, 0xbe, 0x57, 0xae, 0x43, 0x3e, 0xf7, 0x84, 0x01, 0x3e,
  0xf0, 0xfb, 0x7e, 0x3e, 0x61, 0x6b, 0xfe, 0xbb, 0x15, 0x16, 0x36, 0x3e,
  0x06, 0x6d, 0x35, 0xbf, 0x8e, 0xbc, 0x17, 0x3f, 0x3f, 0x59, 0x40, 0x3e,
  0xe9, 0x2a, 0xb1, 0x3e, 0xb6, 0x78, 0x4b, 0x3e, 0x9a, 0x16, 0x98, 0xbd,
  0x09, 0xd6, 0xb6, 0xbd, 0xc2, 0xac, 0xb3, 0x3e, 0xc8, 0x53, 0xe9, 0x3c,
  0x50, 0xad, 0x34, 0xbf, 0x99, 0x07, 0xcb, 0x3d, 0xbc, 0xb2, 0xe2, 0x3d,
  0xb4, 0x86, 0x95, 0xbc, 0x43, 0xb8, 0xaf, 0x3e, 0x2f, 0x05, 0x5b, 0x3e,
  0xf0, 0x97, 0x3a, 0x3f, 0x36, 0xf6, 0x8f, 0xbe, 0x41, 0xee, 0x12, 0xbe,
  0x64, 0x13, 0xbf, 0xbe, 0x00, 0xb3, 0xc2, 0x3c, 0x27, 0xa6, 0xcc, 0xbe,
  0x3a, 0x74, 0x64, 0xbc, 0x76, 0xca, 0xc8, 0xbd, 0xd2, 0x69, 0x56, 0xbe,
  0x9c, 0x6a, 0xe9, 0xbe, 0xff, 0x62, 0x83, 0x3e, 0x9d, 0x82, 0x70, 0x3e,
  0x93, 0x7b, 0x11, 0x3d, 0xa1, 0x8c, 0x1d, 0xbf, 0xfc, 0x38, 0x2d, 0xbe,
  0xe1, 0x1c, 0x11, 0xbf, 0xa3, 0x0e, 0x4a, 0xbe, 0x94, 0x8b, 0x37, 0xbe,
  0x4b, 0x97, 0x94, 0x3d, 0xf2, 0x97, 0x84, 0xbe, 0x30, 0x5c, 0x8f, 0xbd,
  0x66, 0xc4, 0x06, 0xbf, 0x2e, 0x1e, 0xb8, 0x3e, 0x88, 0x64, 0x1d, 0x3d,
  0x21, 0x2e, 0x93, 0xbd, 0x1d, 0xde, 0x8c, 0x3d, 0xa5, 0xff, 0x05, 0x3d,
  0xda, 0x1d, 0x8b, 0x3d, 0xc8, 0x6c, 0x0a, 0x3f, 0x7a, 0xc2, 0x4f, 0xbe,
  0xdd, 0x67, 0x0e, 0xbe, 0x7c, 0x73, 0x61, 0xbe, 0xd5, 0x5f, 0x3a, 0x3e,
  0x31, 0xa0, 0xc6, 0x3e, 0xb0, 0x04, 0x6f, 0xbe, 0xb9, 0xb1, 0xe1, 0x3d,
  0x3d, 0xc0, 0x76, 0x3e, 0x8f, 0x4b, 0x34, 0xbd, 0x43, 0xef, 0x98, 0x3e,
  0xdf, 0xff, 0x29, 0xbf, 0xb2, 0x33, 0x67, 0xbe, 0xb6, 0x34, 0x83, 0x3e,
  0x23, 0x4c, 0x3f, 0x3e, 0xc9, 0xc8, 0x9a, 0x3d, 0x6e, 0x83, 0xd3, 0xbd,
  0x76, 0xe6, 0x0e, 0x3d, 0x80, 0xc2, 0x9d, 0x3d, 0xed, 0xdc, 0xc7, 0xbd,
  0x9b, 0xf1, 0xc7, 0xbe, 0x8c, 0x7d, 0xdc, 0xbe, 0x10, 0xd8, 0x0d, 0x3f,
  0xfb, 0xca, 0xce, 0xbe, 0xed, 0x7b, 0x1f, 0x3f, 0xfe, 0xb3, 0xa2, 0xbc,
  0xb2, 0xf6, 0x0e, 0x3f, 0xa7, 0x94, 0xda, 0x3a, 0xd6, 0xa3, 0xef, 0x3e,
  0x42, 0xab, 0x3b, 0xbe, 0x32, 0x32, 0xa9, 0xbd, 0x6c, 0xc6, 0x18, 0xbe,
  0xd4, 0xbe, 0x18, 0xbe, 0x66, 0x6f, 0x02, 0xbe, 0x6f, 0x53, 0x3a, 0x3e,
  0xa2, 0x70, 0x73, 0x3e, 0xc1, 0x8f, 0x05, 0x3e, 0xf6, 0xda, 0xfa, 0xbd,
  0x0c, 0xe7, 0xa8, 0xbd, 0x01, 0x33, 0x1e, 0x3f, 0x38, 0x19, 0x94, 0xbf,
  0x71, 0x86, 0x01, 0xbf, 0x24, 0xe9, 0x85, 0xbe, 0x77, 0x4b, 0xa2, 0x3d,
  0x2b, 0xcc, 0x4d, 0xbe, 0xe4, 0x8a, 0x1a, 0x3e, 0x67, 0xb7, 0x66, 0x3e,
  0xbf, 0x46, 0xb9, 0xbe, 0x3a, 0x74, 0xe7, 0xbc, 0x66, 0xa3, 0x05, 0xbe,
  0xa0, 0xca, 0x56, 0xbf, 0xdd, 0x92, 0x82, 0x3f, 0x56, 0xf3, 0xc4, 0x3e,
  0x48, 0x6b, 0x2c, 0x3e, 0x30, 0x69, 0x29, 0xbe, 0x3c, 0xcf, 0xd7, 0x3e,
  0x9e, 0xc7, 0xd4, 0x3e, 0xab, 0x75, 0xa1, 0x3e, 0xc7, 0xd1, 0x54, 0xbe,
  0x3f, 0xa4, 0xfa, 0xbe, 0x00, 0x4b, 0x85, 0xbe, 0x62, 0x07, 0x9a, 0x3c,
  0xcb, 0x9d, 0xa1, 0x3d, 0xe9, 0xf6, 0xae, 0xbe, 0x60, 0x7e, 0x1c, 0x3f,
  0x71, 0x4c, 0x25, 0xbd, 0x76, 0x15, 0xc9, 0xbd, 0x91, 0x04, 0x76, 0xbe,
  0x21, 0x9e, 0xa5, 0x3d, 0x78, 0xf2, 0xd5, 0xbe, 0xf2, 0xdd, 0x3d, 0xbd,
  0xcd, 0x34, 0xd3, 0x3e, 0x0b, 0x11, 0xbb, 0x3e, 0xed, 0x21, 0x8a, 0x3d,
  0x5d, 0xab, 0x99, 0xbd, 0x62, 0xd7, 0xd4, 0xbd, 0x59, 0x63, 0x9b, 0x39,
  0xec, 0x10, 0x9a, 0xbe, 0xcf, 0x68, 0x99, 0xbe, 0xfa, 0x58, 0x1b, 0xbe,
  0x3d, 0x9e, 0x53, 0xbe, 0xdb, 0x00, 0x22, 0xbe, 0x8b, 0x7b, 0x8c, 0xbe,
  0xc4, 0xbb, 0xe0, 0x3e, 0x6f, 0x8f, 0x83, 0xbd, 0xc8, 0xc3, 0x45, 0x3e,
  0x66, 0x7b, 0x06, 0xbf, 0x1c, 0xc8, 0x6b, 0xbe, 0x3e, 0x8e, 0x35, 0xbe,
  0xcc, 0x93, 0x1b, 0x3f, 0x8a, 0x45, 0x28, 0xbe, 0x39, 0xcc, 0xd9, 0xbb,
  0xa9, 0x81, 0xc2, 0x3e, 0x1f, 0x3d, 0x0c, 0x3f, 0xc1, 0x93, 0x63, 0x3e,
  0xfe, 0xac, 0x3d, 0x3e, 0xf5, 0x2f, 0x16, 0x3f, 0xef, 0x29, 0x29, 0x3e,
  0xb5, 0x26, 0x8a, 0x3e, 0x61, 0x18, 0x4f, 0xbd, 0x6a, 0xca, 0x1e, 0xbe,
  0x24, 0xaa, 0x0f, 0xbd, 0x56, 0xcf, 0xc3, 0xbe, 0x74, 0x19, 0x0c, 0xbf,
  0x58, 0x52, 0xe4, 0xbd, 0x52, 0x29, 0x95, 0x3e, 0xb6, 0x5a, 0x4b, 0xbd,
  0x32, 0xc7, 0xc1, 0xbe, 0x53, 0x3a, 0x87, 0x3e, 0xa3, 0xda, 0xb0, 0x3e,
  0x2c, 0xcf, 0x34, 0x3d, 0x15, 0x10, 0xe1, 0x3e, 0x2f, 0x78, 0xbb, 0xbe,
  0x2f, 0xae, 0x9d, 0x3e, 0xe8, 0x2f, 0xe0, 0x3e, 0x69, 0xf7, 0x09, 0x3f,
  0xda, 0x81, 0x15, 0xbd, 0x36, 0x8a, 0x86, 0xbd, 0x17, 0x67, 0x24, 0xbf,
  0x74, 0x9e, 0xc7, 0x3e, 0xa1, 0x3d, 0xe7, 0xbb, 0x8f, 0xda, 0x54, 0xbe,
  0x15, 0xcf, 0x7e, 0xbe, 0xcf, 0x09, 0x00, 0xbd, 0x7c, 0xab, 0x85, 0xbe,
  0xc1, 0xf0, 0x6f, 0x3e, 0xd5, 0x8b, 0x7c, 0x3e, 0x26, 0x56, 0x84, 0xbe,
  0xdb, 0xe9, 0x57, 0x3e, 0x77, 0x28, 0xa3, 0xbe, 0x76, 0xf6, 0x4e, 0x3e,
  0x63, 0xb4, 0xce, 0xbe, 0xa2, 0x99, 0xa4, 0xbd, 0xfb, 0x23, 0x56, 0xbf,
  0x15, 0x7b, 0x85, 0x3e, 0xa3, 0xd4, 0xfc, 0xbd, 0xc1, 0x3b, 0xb0, 0xbe,
  0xbf, 0x1f, 0x11, 0xbe, 0x13, 0x6a, 0x4d, 0x3e, 0xae, 0x34, 0x95, 0xbe,
  0x85, 0xa2, 0x50, 0xbe, 0x2c, 0x9f, 0x37, 0x3e, 0x19, 0xd9, 0xa8, 0x3e,
  0xa0, 0xa5, 0xf0, 0x3d, 0x0b, 0x51, 0xe9, 0xbe, 0x8e, 0xbc, 0x24, 0xbf,
  0xdc, 0x10, 0x40, 0x3d, 0x50, 0x9e, 0x41, 0xbd, 0xf1, 0x8c, 0xdb, 0x3e,
  0x12, 0x0d, 0x5e, 0xbd, 0x69, 0xdd, 0xde, 0x3c, 0x28, 0x99, 0xc4, 0x3e,
  0x12, 0x8d, 0xd0, 0xbe, 0x75, 0x94, 0x99, 0xbe, 0xfa, 0xf2, 0xb6, 0xbd,
  0xa5, 0x38, 0x69, 0x3e, 0x1a, 0x97, 0x61, 0x3d, 0x46, 0x44, 0x23, 0x3f,
  0xf9, 0x84, 0xa4, 0x3e, 0x41, 0x3e, 0x95, 0x3e, 0x99, 0x5f, 0x50, 0xbf,
  0x09, 0x55, 0xa9, 0x3e, 0x01, 0xc5, 0x33, 0xbe, 0x53, 0x56, 0x64, 0xbe,
  0x83, 0xbb, 0xdd, 0xbc, 0x34, 0xb6, 0xed, 0xbd, 0x5b, 0x03, 0xba, 0x3e,
  0xdb, 0x90, 0xe8, 0xbe, 0x5f, 0x18, 0xb4, 0xbd, 0x37, 0x15, 0xab, 0x3c,
  0x55, 0xa3, 0x8c, 0xbd, 0x15, 0xea, 0x39, 0x3e, 0x67, 0x42, 0x1f, 0xbe,
  0x68, 0x8a, 0xf2, 0xbd, 0x29, 0x1a, 0xc7, 0x3e, 0x05, 0x90, 0xc8, 0xbe,
  0xfb, 0xca, 0x16, 0xbe, 0xc6, 0x65, 0x9e, 0x3d, 0x78, 0x25, 0x75, 0x3e,
  0xd3, 0xf1, 0x0e, 0x3f, 0xb6, 0x40, 0xc5, 0xbc, 0xf6, 0x97, 0xf6, 0xbd,
  0x4b, 0x77, 0x7b, 0x3e, 0x95, 0x7b, 0x03, 0xbe, 0x1e, 0x16, 0xff, 0xbd,
  0x86, 0x6a, 0x25, 0xbf, 0x15, 0xa5, 0x8d, 0x3d, 0x60, 0x01, 0xe8, 0xbe,
  0xe6, 0xd2, 0xec, 0x3e, 0x16, 0xb9, 0xb3, 0xbd, 0xd7, 0xbe, 0x5b, 0xbe,
  0xe9, 0x04, 0x6a, 0xbe, 0x38, 0x6d, 0xe9, 0x3e, 0xd9, 0x09, 0xe8, 0xbe,
  0x11, 0x6c, 0x55, 0x3c, 0x4a, 0x74, 0x32, 0xbe, 0x96, 0x85, 0x25, 0x3e,
  0x16, 0xc0, 0x21, 0xbd, 0x2e, 0x03, 0x8a, 0x3e, 0xe2, 0x8a, 0x9d, 0xbc,
  0x2e, 0x4f, 0xa0, 0x3d, 0xf8, 0x6e, 0xaf, 0xbe, 0x4a, 0x68, 0x3f, 0xbd,
  0x91, 0x96, 0x88, 0xbe, 0x89, 0x32, 0x2b, 0x3e, 0xec, 0xf2, 0x10, 0xbe,
  0xad, 0x2b, 0xc6, 0xbe, 0xf1, 0x61, 0xd5, 0xbc, 0xc9, 0x17, 0x98, 0xbe,
  0x15, 0x0c, 0x13, 0x3f, 0x01, 0xfd, 0xf7, 0x3d, 0x2f, 0x7c, 0xb5, 0xbb,
  0x1b, 0xa5, 0x0b, 0xbe, 0x8b, 0x22, 0x2a, 0xbe, 0x85, 0xf8, 0xc5, 0xbe,
  0x1d, 0xb0, 0x9f, 0x3e, 0x51, 0xec, 0x9e, 0xbd, 0xa9, 0x51, 0x3b, 0xbf,
  0xa6, 0x4e, 0xa3, 0x3e, 0xf2, 0x9b, 0x91, 0x3e, 0x53, 0x29, 0x12, 0xbe,
  0xaf, 0xa6, 0x0f, 0x3f, 0x70, 0xca, 0x3f, 0xbe, 0x8c, 0x7e, 0x99, 0x3d,
  0xde, 0x33, 0x3a, 0xbc, 0xd6, 0x72, 0xc0, 0xbc, 0x67, 0x07, 0x83, 0xbd,
  0xcc, 0xb6, 0x8a, 0x3e, 0x32, 0xe2, 0x49, 0x3e, 0x95, 0x9c, 0x1a, 0x3e,
  0x1f, 0x9f, 0xfd, 0x3d, 0x6a, 0xc0, 0x81, 0xbd, 0x4b, 0xd8, 0x75, 0x3e,
  0x62, 0xa1, 0xd3, 0x3e, 0xb9, 0xd2, 0x65, 0x3e, 0x44, 0x4e, 0x99, 0x3e,
  0x82, 0x1b, 0x48, 0xbc, 0xff, 0x18, 0xba, 0x3e, 0x06, 0xfe, 0xe5, 0xbd,
  0x54, 0x12, 0x03, 0xbf, 0xaf, 0x1c, 0xdf, 0x3e, 0xa4, 0xbc, 0xbb, 0xbe,
  0xd3, 0xab, 0x89, 0xbd, 0x26, 0xef, 0x39, 0xba, 0x21, 0xc6, 0xf3, 0xbe,
  0xe0, 0x7a, 0x16, 0xbe, 0xb5, 0x11, 0xa2, 0x3e, 0xca, 0x89, 0x76, 0x3e,
  0xc6, 0x00, 0x5c, 0x3e, 0xbd, 0x0a, 0x8c, 0x3e, 0x9c, 0x38, 0xcd, 0x3e,
  0x0c, 0x13, 0x92, 0x3e, 0x6c, 0x75, 0x12, 0xbd, 0x66, 0x24, 0x20, 0xbf,
  0x40, 0x00, 0x4d, 0xbe, 0xb2, 0x97, 0x3c, 0x3e, 0xf5, 0x7f, 0x13, 0xbe,
  0xf6, 0xec, 0x22, 0xbe, 0x00, 0xa6, 0x34, 0xbe, 0x67, 0xcd, 0xa7, 0xbe,
  0xba, 0xe2, 0x88, 0x3d, 0xce, 0x40, 0x24, 0x3e, 0x38, 0xbc, 0xd7, 0x3d,
  0x80, 0xe9, 0x5f, 0x3e, 0x37, 0xd2, 0xb7, 0xbd, 0x79, 0x6d, 0x23, 0x3e,
  0x71, 0x07, 0xbc, 0xbe, 0xef, 0xdc, 0xc4, 0x3e, 0x57, 0xa7, 0x1f, 0xbc,
  0x88, 0x09, 0x49, 0xbe, 0x15, 0x28, 0xa2, 0xbe, 0x80, 0xc2, 0x53, 0xbe,
  0x6e, 0xc9, 0xbe, 0xbd, 0x12, 0xd1, 0xc2, 0x3d, 0xe1, 0x5e, 0x9a, 0x3e,
  0x84, 0xa9, 0x28, 0xbd, 0x73, 0x83, 0xb8, 0xbe, 0xcd, 0x2e, 0xa7, 0x3d,
  0x4d, 0xdc, 0x8f, 0x3e, 0xea, 0x43, 0x3c, 0xbe, 0x8c, 0x44, 0x32, 0x3e,
  0x95, 0xe4, 0x31, 0x3f, 0x94, 0xd3, 0x0d, 0xbf, 0x69, 0xd6, 0xb6, 0xbe,
  0xde, 0x7c, 0xdd, 0xbe, 0xf1, 0xac, 0x73, 0xbe, 0x5c, 0xbe, 0x0b, 0xbf,
  0x53, 0xb5, 0x80, 0x3b, 0x4c, 0xe2, 0x3d, 0xbe, 0xbc, 0x2a, 0x25, 0x3e,
  0x8c, 0x87, 0xd0, 0xbe, 0x9a, 0xcb, 0xad, 0xbe, 0x55, 0x26, 0x05, 0xbf,
  0x1c, 0xef, 0xeb, 0x3d, 0x03, 0x66, 0x92, 0x3e, 0x7f, 0x35, 0x18, 0x3e,
  0x1b, 0x53, 0x62, 0xbe, 0x9d, 0x50, 0xf3, 0xbe, 0x96, 0x1c, 0xa4, 0xbe,
  0x51, 0xe3, 0xd2, 0x3e, 0x62, 0xe2, 0xc8, 0xbd, 0x35, 0xff, 0x31, 0x3e,
  0xbb, 0xac, 0x82, 0x3e, 0xa0, 0x74, 0xb0, 0x3e, 0x8f, 0xdb, 0x19, 0xbe,
  0x19, 0x2c, 0xd4, 0xbe, 0xa8, 0x12, 0x13, 0xbf, 0xeb, 0x15, 0x90, 0x3e,
  0xff, 0x62, 0x39, 0x3e, 0x0f, 0x54, 0xf3, 0x3d, 0x95, 0xc9, 0xf4, 0x3d,
  0x81, 0x37, 0xaa, 0xbd, 0x5c, 0xcf, 0x14, 0xbf, 0x43, 0xe2, 0x20, 0xbe,
  0x38, 0xe3, 0xa7, 0xbe, 0xaf, 0x2a, 0x72, 0x3d, 0x8b, 0x5f, 0xcd, 0x3e,
  0x52, 0xc6, 0x64, 0x3e, 0xc1, 0xdc, 0x64, 0x3e, 0x69, 0xd1, 0x0f, 0xbd,
  0xc1, 0x29, 0xd2, 0x3d, 0x39, 0xfa, 0xc3, 0x3d, 0x9d, 0x96, 0x73, 0xbe,
  0x94, 0x11, 0x30, 0xbe, 0xff, 0x87, 0x98, 0xbd, 0x6e, 0x5a, 0x92, 0xbe,
  0xf6, 0xa2, 0xb8, 0xbc, 0x7b, 0x81, 0xe1, 0x3c, 0xd3, 0x44, 0x20, 0x3e,
  0xe7, 0x2e, 0x0f, 0x3e, 0x34, 0x13, 0x1c, 0xbd, 0x6b, 0xaa, 0xe6, 0x3e,
  0x07, 0xd2, 0xdb, 0x3c, 0x87, 0x88, 0x97, 0x3e, 0xee, 0x19, 0x72, 0x3e,
  0x49, 0x6b, 0x85, 0x3e, 0xf6, 0xd6, 0x74, 0xbd, 0x83, 0x9d, 0x39, 0xbe,
  0x34, 0xb8, 0x7e, 0x3e, 0xd3, 0x0d, 0xd5, 0xbe, 0xf1, 0x1d, 0x0d, 0xbe,
  0xfe, 0xeb, 0xc7, 0xbe, 0x5f, 0x49, 0x95, 0x3e, 0x5a, 0x9c, 0xb2, 0xbd,
  0xae, 0x19, 0x57, 0x3e, 0x49, 0x7d, 0xc9, 0xbe, 0x1b, 0xb7, 0xf9, 0x3d,
  0xe6, 0xcc, 0x99, 0x3d, 0x73, 0xf4, 0xdf, 0xbe, 0xcf, 0xe3, 0x88, 0xbe,
  0x76, 0x53, 0x9c, 0x3c, 0x34, 0x87, 0xe5, 0xbe, 0x3c, 0xf6, 0x1b, 0xbf,
  0x2b, 0x83, 0x1c, 0xbd, 0xda, 0xeb, 0xb2, 0x3d, 0xfb, 0x49, 0xf9, 0x3d,
  0x91, 0x4b, 0x73, 0x3e, 0xf0, 0x4c, 0x82, 0xbe, 0x50, 0xef, 0x58, 0x3e,
  0xc0, 0x4c, 0x5d, 0xbe, 0xd5, 0x0f, 0x45, 0xbe, 0x0e, 0x46, 0xfb, 0xbe,
  0x91, 0xe7, 0xdc, 0xbd, 0xe5, 0x84, 0xc0, 0x3d, 0xcd, 0x06, 0x1c, 0xbe,
  0xd0, 0xd3, 0x2d, 0x3e, 0x7b, 0x32, 0xaa, 0xbd, 0x1f, 0x54, 0x1a, 0x3e,
  0xd0, 0x17, 0xad, 0xbe, 0x1d, 0xad, 0x68, 0x3d, 0x0b, 0x7f, 0x02, 0xbd,
  0x13, 0x76, 0x1b, 0xbd, 0x78, 0x53, 0xca, 0x3e, 0x49, 0x05, 0xdc, 0x3d,
  0x07, 0x15, 0x58, 0x3e, 0xd2, 0xc3, 0x28, 0xbe, 0x2f, 0x74, 0x46, 0xbb,
  0x76, 0xdf, 0x41, 0xbe, 0xb7, 0x96, 0xde, 0x3d, 0xe4, 0x60, 0x4d, 0x3e,
  0x73, 0x5e, 0x89, 0xbd, 0xf7, 0x4d, 0xde, 0x3d, 0x3f, 0x89, 0x85, 0xbc,
  0x29, 0xc7, 0x0e, 0xbf, 0x7b, 0x6c, 0x31, 0xbe, 0xd4, 0x9e, 0xf4, 0xbd,
  0x0d, 0x19, 0x85, 0x3e, 0x58, 0x10, 0xe2, 0xbe, 0x7f, 0xb3, 0xb6, 0xbe,
  0x27, 0x9e, 0x41, 0xbf, 0xdf, 0x80, 0x8a, 0x3e, 0xfc, 0x59, 0x0c, 0x3f,
  0x28, 0xbe, 0xef, 0x3e, 0x33, 0x8b, 0x18, 0x3e, 0xff, 0x97, 0xce, 0x3e,
  0x7f, 0x23, 0x32, 0x3e, 0x08, 0xeb, 0xa8, 0x3e, 0x89, 0xf9, 0x51, 0x3e,
  0xcd, 0xed, 0x13, 0xbe, 0x64, 0x3d, 0xab, 0xbd, 0x0f, 0xa2, 0x7b, 0x3e,
  0xc2, 0xb5, 0xae, 0x3d, 0xc5, 0xdb, 0xf4, 0xbb, 0xa7, 0x66, 0x6c, 0x3e,
  0x45, 0x40, 0xd7, 0x3d, 0x30, 0xba, 0x38, 0xbd, 0x5b, 0x19, 0xca, 0x3e,
  0x4b, 0x3c, 0x56, 0xbd, 0x3e, 0x9c, 0xe9, 0xbd, 0x39, 0x21, 0x06, 0x3e,
  0x8d, 0x32, 0xf1, 0xbd, 0x5a, 0x30, 0x06, 0x3e, 0x42, 0xd5, 0xd4, 0x3e,
  0x02, 0xb0, 0xd4, 0x3d, 0x67, 0xe3, 0x9e, 0xbd, 0x95, 0x1f, 0xbc, 0x3d,
  0xa6, 0x8a, 0xc2, 0x3e, 0x84, 0x41, 0x0c, 0xbf, 0x5c, 0x51, 0xf8, 0x3d,
  0x3c, 0xb2, 0x83, 0xbe, 0xbf, 0xf7, 0x25, 0x3e, 0x11, 0x4f, 0xb1, 0x3c,
  0x47, 0x0c, 0xb0, 0xbe, 0xe0, 0xeb, 0xea, 0xbd, 0x38, 0xfc, 0xb9, 0x3e,
  0xea, 0x16, 0x44, 0xbe, 0x7d, 0x95, 0xb4, 0xbc, 0x8e, 0x55, 0xdd, 0xbd,
  0x42, 0x0f, 0xd0, 0x3e, 0x63, 0xab, 0x4d, 0x3e, 0x1e, 0xf6, 0x15, 0xbe,
  0x98, 0x85, 0xe1, 0xbe, 0x2f, 0x6f, 0xa2, 0xbe, 0xdd, 0xa0, 0x27, 0x3e,
  0x86, 0x2f, 0x68, 0xbe, 0x80, 0x36, 0x45, 0x3f, 0xb9, 0x18, 0x76, 0x3d,
  0xc4, 0x43, 0xfa, 0x3c, 0x83, 0x1a, 0x5f, 0x3d, 0x87, 0x3d, 0x80, 0x3c,
  0x58, 0x61, 0xf5, 0x3c, 0xec, 0x3a, 0x3f, 0xbc, 0x5e, 0x6e, 0x4c, 0xbf,
  0xcc, 0x31, 0xbf, 0xbc, 0x00, 0x8e, 0xd4, 0x3c, 0x1a, 0xed, 0xcf, 0xbd,
  0x5d, 0xcd, 0xe9, 0x3d, 0xd9, 0x9d, 0x54, 0x3e, 0xec, 0xda, 0x06, 0xbf,
  0x3e, 0x2e, 0x95, 0xbd, 0xb3, 0x41, 0x6a, 0x3c, 0x47, 0x7c, 0x69, 0x3e,
  0x51, 0x98, 0xdf, 0xbd, 0x0c, 0x63, 0x16, 0x3e, 0x34, 0x58, 0x38, 0x3e,
  0x7f, 0x3a, 0x4a, 0xbe, 0xcf, 0x3a, 0x08, 0x3f, 0xe9, 0xff, 0x9e, 0x3d,
  0x2f, 0xb4, 0xed, 0x3d, 0x6f, 0xf8, 0x62, 0x3f, 0xcb, 0x19, 0xe0, 0x3d,
  0xf4, 0x31, 0xcb, 0xbc, 0xcc, 0x89, 0x66, 0x3e, 0x37, 0xf4, 0xfb, 0xbd,
  0xe8, 0xcc, 0xfb, 0x3e, 0x38, 0x25, 0x92, 0xbe, 0x2c, 0x3e, 0xb7, 0xbe,
  0x9c, 0x78, 0x95, 0xbc, 0x68, 0x72, 0xbb, 0x3e, 0xfb, 0x11, 0x99, 0x3e,
  0x9a, 0x62, 0x19, 0x3f, 0x4f, 0xd2, 0xd6, 0x3e, 0xb7, 0xe1, 0x70, 0xbe,
  0xdd, 0x2e, 0xe0, 0xbc, 0x3f, 0x12, 0x4a, 0xbe, 0x0a, 0x43, 0x40, 0x3e,
  0x99, 0x1f, 0xe0, 0xbe, 0x3f, 0x86, 0x0f, 0x3f, 0x20, 0x32, 0x22, 0x3d,
  0xd1, 0x27, 0x1e, 0xbf, 0x0a, 0x47, 0x9c, 0xbd, 0x7c, 0x2f, 0x5e, 0xbf,
  0x6a, 0x86, 0x14, 0x3e, 0x9c, 0x9c, 0x5f, 0xbe, 0xfe, 0x28, 0x5e, 0x3e,
  0x70, 0x3d, 0x91, 0xbd, 0x8c, 0x62, 0xb0, 0x3e, 0x82, 0xc1, 0x22, 0xbe,
  0x23, 0x89, 0x33, 0x3e, 0x21, 0xaf, 0xd8, 0x3d, 0x38, 0x65, 0xc2, 0xbd,
  0x23, 0xd7, 0xdb, 0xbd, 0x56, 0xc4, 0x08, 0xbe, 0x60, 0x00, 0xa0, 0xbc,
  0x15, 0x2e, 0xa8, 0xbe, 0xe1, 0xfe, 0xcc, 0xbe, 0x39, 0x47, 0x72, 0x3e,
  0x86, 0xde, 0x85, 0x3e, 0x16, 0xe3, 0xc8, 0x3e, 0xdd, 0x4a, 0x12, 0xbf,
  0xfc, 0xf4, 0x3a, 0xbe, 0x20, 0x1e, 0xbc, 0xbe, 0xb6, 0xac, 0x91, 0x3e,
  0x3f, 0x6d, 0xb0, 0xbe, 0x5e, 0xc8, 0x83, 0xbf, 0x5b, 0xbc, 0x9d, 0x3c,
  0x72, 0x4d, 0x6a, 0x3f, 0x96, 0x94, 0x42, 0xbe, 0xed, 0x22, 0xd6, 0x3e,
  0x5c, 0x5d, 0x93, 0xbd, 0x9e, 0x1f, 0x82, 0x3d, 0x76, 0x0d, 0xda, 0x3d,
  0xae, 0xf7, 0x6e, 0x3e, 0x4b, 0x52, 0x37, 0xbd, 0x92, 0xe5, 0xff, 0xbb,
  0x42, 0x63, 0x4d, 0xbc, 0x33, 0x13, 0xe5, 0xbd, 0x7b, 0xcd, 0x7f, 0x3e,
  0x38, 0x68, 0x7d, 0xbf, 0xba, 0x90, 0x15, 0x3e, 0x7c, 0x9d, 0x99, 0xbf,
  0x01, 0xb3, 0x1a, 0xbe, 0xad, 0x23, 0x74, 0x3e, 0xb5, 0xf2, 0xbb, 0xbe,
  0x7d, 0x88, 0x8b, 0xbd, 0x77, 0x2c, 0xb2, 0xbe, 0x09, 0x1a, 0x1b, 0x3e,
  0xc5, 0xce, 0x42, 0xbe, 0x52, 0xb3, 0x91, 0xbe, 0xa2, 0x0a, 0xbf, 0x3e,
  0x9f, 0x2c, 0x21, 0x3e, 0x44, 0x50, 0x1c, 0x3e, 0xee, 0x14, 0x01, 0x3f,
  0x0a, 0xcd, 0x82, 0xbd, 0x4b, 0x25, 0x94, 0xbe, 0x50, 0xaa, 0x85, 0x3e,
  0x19, 0xdc, 0x9b, 0xbc, 0x87, 0xe2, 0x93, 0x3e, 0x75, 0x23, 0x9c, 0x3c,
  0xe4, 0x72, 0x8f, 0xbe, 0xf3, 0x3c, 0xae, 0xbe, 0x62, 0x39, 0x09, 0x3e,
  0x49, 0x0c, 0x0c, 0xbe, 0x6b, 0xef, 0xd7, 0xbe, 0xb2, 0xe7, 0x8c, 0x3e,
  0xee, 0x04, 0x1d, 0x3e, 0xab, 0x1f, 0xc1, 0x3e, 0x94, 0x72, 0x24, 0xbe,
  0xc7, 0x90, 0x81, 0x3d, 0x1b, 0x87, 0x97, 0xbd, 0x9e, 0xd5, 0x53, 0xbe,
  0x1d, 0x48, 0xdb, 0xbe, 0x06, 0x14, 0x89, 0x3d, 0x88, 0x97, 0x46, 0xbd,
  0x8a, 0xd7, 0xa5, 0xbe, 0x6e, 0xf8, 0x05, 0xbf, 0xa0, 0xbd, 0xf9, 0x3c,
  0x04, 0xa4, 0x13, 0x3e, 0x67, 0xfe, 0xe0, 0x3e, 0xb3, 0x63, 0xee, 0xbc,
  0x94, 0xc8, 0xc2, 0xbe, 0x9b, 0x43, 0x9b, 0x3e, 0x8e, 0xc7, 0xd2, 0xbd,
  0xd9, 0x34, 0x8a, 0xbe, 0x41, 0xd3, 0x13, 0x3f, 0x3a, 0x9b, 0xfa, 0xbe,
  0x63, 0x9e, 0xe2, 0xbd, 0x72, 0x01, 0x9e, 0x3e, 0xb5, 0x5c, 0x91, 0x3e,
  0x96, 0xf7, 0x8b, 0xbd, 0xa3, 0xf8, 0xdd, 0xbd, 0x8a, 0x0e, 0x66, 0x3d,
  0xdf, 0x13, 0x40, 0xbf, 0x7a, 0x53, 0xd5, 0xbd, 0x4f, 0xf8, 0x95, 0xbd,
  0x21, 0x85, 0x3d, 0x3d, 0xe0, 0x0f, 0xd8, 0x3e, 0x2b, 0x42, 0xed, 0x3d,
  0xe7, 0x60, 0x87, 0x3e, 0x70, 0x4a, 0x56, 0xbe, 0x12, 0x69, 0x03, 0xbe,
  0xb9, 0x98, 0x04, 0x3f, 0x10, 0xa9, 0x26, 0xbd, 0x91, 0xc3, 0x85, 0x3e,
  0xe9, 0x64, 0x47, 0x3e, 0x5e, 0xca, 0x6c, 0xbe, 0xe6, 0x12, 0xc3, 0x3c,
  0x63, 0x36, 0xcd, 0x3c, 0xdc, 0x79, 0x01, 0xbf, 0xdf, 0xe7, 0x64, 0xbe,
  0xf2, 0xee, 0x88, 0x3d, 0xbe, 0xa5, 0xaa, 0x3e, 0xf0, 0x55, 0xb3, 0x3c,
  0x73, 0xe0, 0x8b, 0x3c, 0xa3, 0x87, 0xc0, 0x3e, 0x7f, 0x02, 0x37, 0x3e,
  0xcb, 0xd2, 0x27, 0xbd, 0xd0, 0xfb, 0xae, 0x3e, 0x64, 0x59, 0x2c, 0x3e,
  0x9d, 0x1d, 0x7f, 0x3e, 0x39, 0x3b, 0x44, 0x3d, 0x13, 0x41, 0x60, 0xbe,
  0x85, 0x7a, 0xbe, 0x3e, 0xc1, 0x85, 0x32, 0x3e, 0x5d, 0x92, 0x9a, 0xbd,
  0x29, 0x63, 0x49, 0xbe, 0xd0, 0xdc, 0x95, 0x3d, 0x7b, 0xa1, 0x20, 0x3e,
  0x02, 0x20, 0x81, 0xbe, 0xd3, 0x48, 0x28, 0x3e, 0x92, 0xb3, 0x17, 0x3d,
  0x04, 0x8b, 0xed, 0x3e, 0xa5, 0xbf, 0x5e, 0xbe, 0x3a, 0xd0, 0x04, 0xbf,
  0x5f, 0x37, 0x74, 0xbd, 0x39, 0x83, 0xd0, 0xbd, 0xcf, 0x51, 0xea, 0xbd,
  0xc5, 0xa8, 0x36, 0xbe, 0xb5, 0x42, 0x50, 0xbc, 0xda, 0xc6, 0xd7, 0xbd,
  0xaa, 0x24, 0x44, 0xbe, 0x21, 0x33, 0xb7, 0x3c, 0xf2, 0xfd, 0x70, 0xbe,
  0x2a, 0x2e, 0xa9, 0x3d, 0xd9, 0x8f, 0x59, 0x3e, 0xae, 0xde, 0x0c, 0x3e,
  0x24, 0x26, 0xc6, 0x3d, 0xe3, 0x1d, 0x13, 0xbf, 0xb4, 0xcc, 0xe5, 0x3d,
  0x94, 0x7b, 0x9f, 0xbe, 0x70, 0x5f, 0x9e, 0xbe, 0x04, 0xd0, 0xd3, 0xbe,
  0x41, 0xc5, 0x9b, 0x3e, 0xc3, 0xdc, 0x0b, 0x3e, 0xb5, 0x2c, 0xad, 0x3d,
  0xd7, 0xd8, 0x68, 0x3e, 0x4d, 0x74, 0x9c, 0xbe, 0xd9, 0x13, 0x94, 0x3e,
  0xa6, 0xf7, 0xa6, 0xbe, 0xf1, 0xb9, 0x1c, 0x3e, 0xa2, 0x95, 0x8f, 0x3e,
  0x71, 0xe1, 0x76, 0xbc, 0x2a, 0xd2, 0xa6, 0xbd, 0x4c, 0x80, 0x9c, 0x3d,
  0xa9, 0x60, 0x41, 0xbf, 0xfb, 0xb9, 0xfb, 0xbe, 0xd3, 0x57, 0x5e, 0xbe,
  0x8d, 0xdb, 0x08, 0x3e, 0x68, 0x9f, 0x1e, 0x3e, 0x29, 0x6a, 0x21, 0x3e,
  0x9f, 0x74, 0xc9, 0x3c, 0xfa, 0x28, 0x34, 0xbf, 0x08, 0xfa, 0x1d, 0x3e,
  0xfa, 0x66, 0xb2, 0xbd, 0xfe, 0x39, 0xb3, 0x3d, 0xd1, 0xba, 0xd4, 0x3d,
  0x56, 0xff, 0x91, 0x3e, 0x0e, 0xd0, 0xbf, 0x3d, 0x97, 0x00, 0xe1, 0x3d,
  0x39, 0x69, 0x0d, 0xbd, 0xef, 0x36, 0x0c, 0x3d, 0x2b, 0x8f, 0xb4, 0xbd,
  0xc1, 0x95, 0x87, 0x3d, 0xe1, 0xaf, 0x20, 0x3e, 0x9d, 0x00, 0xed, 0x3e,
  0xac, 0x1c, 0x12, 0x3e, 0x9f, 0xbe, 0x7f, 0xbd, 0xca, 0xb1, 0x89, 0x3e,
  0xec, 0xfb, 0x72, 0xbe, 0x52, 0xac, 0x22, 0x3f, 0xb3, 0x79, 0x4d, 0xbf,
  0x7a, 0x96, 0xa6, 0xbe, 0xe3, 0xf7, 0x34, 0x3e, 0x73, 0x72, 0x99, 0xbe,
  0x8a, 0x7d, 0xa2, 0x3e, 0x9a, 0x87, 0x75, 0xbe, 0xbf, 0x18, 0xf5, 0x3e,
  0x3d, 0x8a, 0x36, 0xbe, 0x4c, 0x76, 0xc9, 0x3c, 0xbe, 0xbe, 0x26, 0x3f,
  0x53, 0xce, 0xfd, 0xbd, 0x81, 0x12, 0xc0, 0x3e, 0xbb, 0x5d, 0x0b, 0xbf,
  0x65, 0x5e, 0xa5, 0xbe, 0x56, 0x1e, 0xac, 0xbe, 0x57, 0x25, 0xe5, 0x3e,
  0xf7, 0xcd, 0x2b, 0x3e, 0x87, 0xcd, 0x1c, 0x3e, 0xbf, 0xcb, 0xad, 0x3e,
  0x66, 0x5f, 0x71, 0xbe, 0x1a, 0x05, 0x97, 0xbe, 0xb8, 0x05, 0x16, 0x3f,
  0xb4, 0x8f, 0xd0, 0x3e, 0x88, 0x36, 0x41, 0x3e, 0x0d, 0xfd, 0x57, 0xbe,
  0x53, 0xed, 0xc8, 0xbd, 0x75, 0xb0, 0x1a, 0xbf, 0x93, 0xe8, 0xf4, 0x3e,
  0xdd, 0x15, 0x12, 0xbe, 0x8b, 0x8b, 0xc1, 0xbd, 0x27, 0xf4, 0x94, 0x3e,
  0x85, 0x32, 0xa2, 0x3e, 0xfa, 0x5b, 0x85, 0x3e, 0x5f, 0x49, 0xca, 0x3e,
  0x34, 0x66, 0x8c, 0xbe, 0xb7, 0x5e, 0x3b, 0x3e, 0xa6, 0x46, 0x8a, 0xbe,
  0xe1, 0x0c, 0x04, 0x3f, 0x5b, 0xdd, 0x03, 0x3e, 0x1b, 0xc0, 0x2e, 0x3f,
  0xca, 0xee, 0x8e, 0x3e, 0xb5, 0xaf, 0x58, 0xbe, 0xaf, 0xc5, 0xbb, 0xbe,
  0xa5, 0xc3, 0xa1, 0xbe, 0xa0, 0xcb, 0x1a, 0xbe, 0x76, 0xec, 0x6e, 0x3f,
  0x9f, 0xf1, 0x12, 0xbf, 0x95, 0x15, 0x74, 0xbe, 0xbf, 0xd7, 0x41, 0x3d,
  0xfd, 0x57, 0xa7, 0x3e, 0x54, 0x31, 0x1d, 0x3e, 0x47, 0x4e, 0xe0, 0xbe,
  0x66, 0xf7, 0xff, 0xff, 0x04, 0x00, 0x00, 0x00, 0x00, 0x08, 0x00, 0x00,
  0x7a, 0x1f, 0x85, 0x3d, 0x6b, 0x4e, 0x87, 0xbe, 0x2f, 0xf5, 0x53, 0xbd,
  0xd5, 0xbf, 0x59, 0x3e, 0x7e, 0x02, 0x2a, 0xbe, 0x12, 0xe5, 0xf3, 0xbd,
  0x92, 0x55, 0x2c, 0x3d, 0x39, 0x32, 0x3c, 0x3f, 0x93, 0x9b, 0x80, 0x3e,
  0x63, 0xed, 0x28, 0xbe, 0xf0, 0x05, 0xf6, 0xbe, 0xa7, 0x5b, 0x84, 0xbd,
  0x91, 0x0f, 0x1e, 0xbc, 0xaa, 0x43, 0xf2, 0x3e, 0x20, 0xad, 0xd2, 0xbe,
  0x4e, 0xce, 0xa1, 0x3d, 0x2a, 0xa6, 0xff, 0x3e, 0x46, 0xad, 0xab, 0xbe,
  0x1e, 0x0e, 0xac, 0xbe, 0x6a, 0x9a, 0xb2, 0x3d, 0xa4, 0x0e, 0x3c, 0x3e,
  0x2f, 0xe8, 0xcf, 0xbf, 0xc6, 0xfc, 0x20, 0xbf, 0x16, 0x2c, 0x3a, 0x3e,
  0xc3, 0x4e, 0xfc, 0x3d, 0xa0, 0x02, 0x8b, 0xbd, 0x8b, 0x9a, 0x45, 0xbc,
  0x02, 0x10, 0x17, 0x3e, 0x73, 0x3d, 0x10, 0x3f, 0xa8, 0x7c, 0x61, 0xbf,
  0xc6, 0xdb, 0xc6, 0xbd, 0xbe, 0xd4, 0x92, 0x3c, 0xbc, 0x2b, 0x8e, 0xbe,
  0xe9, 0xc8, 0x08, 0xbe, 0x5d, 0x32, 0x78, 0x3d, 0x82, 0xb5, 0x08, 0xbf,
  0xda, 0xf8, 0x77, 0x3e, 0x7c, 0xa0, 0x3e, 0xbe, 0x26, 0x25, 0x05, 0xbe,
  0x05, 0xf9, 0x97, 0x3e, 0x15, 0x5e, 0xd0, 0x3e, 0x69, 0x20, 0x77, 0x3e,
  0x52, 0x73, 0x0e, 0x3e, 0xef, 0xe5, 0xb1, 0x3e, 0x73, 0x7b, 0x91, 0xbf,
  0x80, 0x83, 0x1d, 0xbd, 0x20, 0x1b, 0xa3, 0xbe, 0xd6, 0x98, 0x15, 0x3d,
  0x2a, 0xc1, 0x4f, 0xbe, 0x04, 0x57, 0xc1, 0x3c, 0x99, 0x29, 0x25, 0x3f,
  0x3d, 0x3a, 0x14, 0xbd, 0x4c, 0x79, 0x59, 0xbe, 0x00, 0xe6, 0x35, 0xbf,
  0x7d, 0xec, 0xe8, 0x3e, 0xb0, 0x66, 0x0a, 0x3d, 0x87, 0x6c, 0xcf, 0xbe,
  0xfa, 0x32, 0xf1, 0x3e, 0x27, 0x39, 0xd5, 0x3e, 0x9c, 0x59, 0xe9, 0x3e,
  0x39, 0xa9, 0x91, 0x3d, 0x65, 0x3c, 0x29, 0x3e, 0xff, 0x42, 0xa7, 0x3d,
  0xf1, 0xfd, 0xd2, 0x3e, 0xdc, 0x24, 0x0b, 0xbf, 0xcc, 0x72, 0xc0, 0xbe,
  0xa9, 0x07, 0xee, 0x3e, 0x20, 0x2d, 0xdc, 0xbe, 0x9f, 0xbd, 0xac, 0xbe,
  0xe2, 0xe4, 0x07, 0x3f, 0x53, 0x2b, 0xc8, 0xbf, 0x56, 0x3f, 0xb5, 0x3e,
  0x68, 0x1a, 0x01, 0x3d, 0xc8, 0x3c, 0xb2, 0xbc, 0x5c, 0x0b, 0xbb, 0xbe,
  0xb4, 0xa2, 0x22, 0xbf, 0x18, 0x71, 0x67, 0x3e, 0x8a, 0xad, 0xc2, 0x3e,
  0x26, 0x8b, 0x9e, 0x3c, 0x04, 0xe9, 0xc9, 0xbe, 0xb8, 0x42, 0x6d, 0xbc,
  0x69, 0x11, 0xdb, 0xbe, 0xb6, 0x63, 0x12, 0xbc, 0xea, 0x06, 0xa2, 0x3e,
  0x7b, 0x72, 0xa9, 0x3e, 0x45, 0x8d, 0x19, 0x3f, 0x3f, 0xbd, 0x0d, 0xbf,
  0xc3, 0x22, 0x77, 0xbe, 0x61, 0x24, 0x76, 0xbe, 0xd8, 0x07, 0x8b, 0xbe,
  0x56, 0xf5, 0xd1, 0x3e, 0x13, 0xa8, 0xc0, 0x3e, 0xf9, 0x39, 0x57, 0x3f,
  0x70, 0xd9, 0x52, 0xbe, 0xa8, 0xbb, 0x34, 0x3e, 0x16, 0xbb, 0x0e, 0x3f,
  0xb0, 0xd6, 0xf0, 0xbc, 0x22, 0x39, 0x02, 0xbe, 0x93, 0xc0, 0x04, 0xbf,
  0x2c, 0x07, 0xe7, 0x3c, 0xee, 0x87, 0xdb, 0x3e, 0xf5, 0x3e, 0xa7, 0x3f,
  0x65, 0x3e, 0x65, 0xbe, 0x03, 0x52, 0x1a, 0x3e, 0x13, 0xf8, 0x2a, 0x3e,
  0x69, 0xd2, 0x80, 0xbe, 0xb3, 0x00, 0x3b, 0xbd, 0x95, 0x40, 0xb3, 0xbc,
  0xeb, 0x3b, 0x9f, 0xbf, 0x91, 0xb5, 0x7f, 0xbd, 0xc1, 0x17, 0x2f, 0xbf,
  0xb8, 0x04, 0x48, 0x3e, 0xcb, 0x72, 0xc0, 0xbd, 0x67, 0x8c, 0x08, 0x3e,
  0x33, 0xda, 0x90, 0x3f, 0x29, 0xb4, 0x96, 0xbd, 0x47, 0x10, 0x4e, 0x3e,
  0x0d, 0x41, 0x9e, 0x3f, 0x2f, 0x70, 0xff, 0xbe, 0x9a, 0x23, 0x61, 0x3e,
  0xae, 0x87, 0xc3, 0x3e, 0xe5, 0xbe, 0xb6, 0xbc, 0xb4, 0x65, 0x4c, 0xbe,
  0x74, 0xc7, 0x7b, 0xbe, 0xe7, 0x20, 0x87, 0x3f, 0xc4, 0x55, 0xf8, 0x3e,
  0xaf, 0x48, 0xdc, 0xbe, 0xc1, 0xf0, 0xc8, 0xbe, 0xec, 0x7c, 0x01, 0x3e,
  0xa7, 0x2f, 0x93, 0x3e, 0x73, 0xf7, 0x2a, 0x3f, 0xb4, 0x16, 0x24, 0x3e,
  0x3c, 0x89, 0xd8, 0x3e, 0x31, 0x53, 0xbc, 0xbe, 0xdd, 0x44, 0xa3, 0xbe,
  0x5e, 0xf7, 0xb0, 0xbe, 0x52, 0x45, 0xc3, 0xbe, 0x44, 0x74, 0xfa, 0xbd,
  0x3f, 0x9e, 0x85, 0x3e, 0x3c, 0x88, 0xde, 0xbe, 0x90, 0xdf, 0x40, 0xbd,
  0x59, 0x6c, 0xac, 0x3d, 0x97, 0x53, 0x7c, 0x3c, 0x39, 0x6f, 0xe8, 0x3d,
  0x3a, 0x27, 0xe7, 0xbe, 0xc0, 0x34, 0x97, 0x3d, 0x36, 0x02, 0x34, 0xbf,
  0xcb, 0xc2, 0x8d, 0xbe, 0x52, 0xa3, 0x79, 0x3d, 0x8c, 0xf5, 0x2e, 0xbf,
  0x33, 0x74, 0x11, 0x3e, 0xd1, 0xa1, 0xad, 0x3e, 0x43, 0x56, 0x3d, 0xbe,
  0x26, 0xd5, 0x8d, 0x3e, 0xa3, 0xce, 0x8e, 0x3d, 0x44, 0x74, 0xc6, 0xbe,
  0x8c, 0x7e, 0xe8, 0x3e, 0xe3, 0x1e, 0xdf, 0xbe, 0x72, 0xf7, 0xca, 0xbd,
  0x20, 0x7d, 0x24, 0x3f, 0x70, 0x4f, 0xd3, 0xbe, 0xf2, 0x47, 0xb8, 0xbd,
  0xff, 0xa9, 0x2d, 0x3f, 0x37, 0xce, 0x75, 0x3e, 0x13, 0x53, 0x0d, 0x3e,
  0xa7, 0xc7, 0x83, 0x3c, 0x14, 0x7b, 0xb7, 0x3d, 0xa1, 0xe7, 0xb8, 0xbd,
  0x2e, 0x68, 0xdc, 0x3e, 0x2c, 0x19, 0xce, 0x3e, 0xc9, 0xa6, 0x09, 0xbe,
  0xbd, 0xa1, 0x67, 0xbf, 0xd0, 0xce, 0xd3, 0x3e, 0x85, 0xff, 0x58, 0xbf,
  0xa2, 0x7e, 0x10, 0x3c, 0x32, 0xc9, 0x96, 0x3d, 0x23, 0x41, 0x6a, 0xbe,
  0xa7, 0x8e, 0x1e, 0x3e, 0xfe, 0x67, 0x03, 0xbf, 0x64, 0x85, 0xaf, 0xbe,
  0x57, 0x1e, 0x46, 0xbf, 0x7c, 0x56, 0x4a, 0xbf, 0xcb, 0xe4, 0xf4, 0x3e,
  0x8d, 0x29, 0x01, 0xbf, 0x25, 0xc9, 0xe5, 0x3d, 0x58, 0x80, 0x09, 0x3f,
  0x85, 0xe6, 0xff, 0xbe, 0xf3, 0x27, 0x12, 0x3e, 0x07, 0xb8, 0x2b, 0xbe,
  0xd2, 0x91, 0x1f, 0xbe, 0x6c, 0xc4, 0xd7, 0xbd, 0x1a, 0x3b, 0x21, 0xbf,
  0x0d, 0x65, 0xdf, 0x3b, 0x42, 0x32, 0x58, 0x3d, 0x2c, 0xee, 0xa1, 0xbf,
  0x8d, 0x86, 0xe1, 0x3e, 0x16, 0x79, 0x80, 0xbf, 0xad, 0x5a, 0x3e, 0xbf,
  0x96, 0x00, 0x81, 0xbd, 0x19, 0x72, 0xfb, 0xbe, 0xc9, 0x30, 0xce, 0xbe,
  0xc1, 0x7c, 0xe2, 0x3c, 0xdc, 0xf2, 0x34, 0xbe, 0xcf, 0x89, 0xfb, 0xbd,
  0x8a, 0x7d, 0xe7, 0x3d, 0x78, 0x85, 0x80, 0x3d, 0x1e, 0x62, 0xe2, 0x3c,
  0xe1, 0x11, 0x6c, 0xbe, 0x94, 0xce, 0x0b, 0x3b, 0x92, 0xd6, 0xb0, 0xbc,
  0xdf, 0xce, 0x29, 0xbf, 0xf7, 0x55, 0x5b, 0xbe, 0xef, 0xe5, 0xab, 0xbd,
  0x51, 0xe5, 0x11, 0x3f, 0xdf, 0xb9, 0x84, 0xbd, 0x85, 0x5d, 0x8b, 0x3e,
  0xe4, 0xc3, 0x19, 0xbf, 0xed, 0x8d, 0xb3, 0xbd, 0x46, 0x6d, 0x88, 0xbf,
  0x27, 0x87, 0xfe, 0x3e, 0xc1, 0xa3, 0x54, 0x3d, 0xcf, 0xea, 0x22, 0xbd,
  0x71, 0xbd, 0x01, 0x3e, 0x40, 0x00, 0x7f, 0x3f, 0xbd, 0x28, 0x61, 0xbe,
  0x64, 0x5b, 0xa3, 0x3e, 0x2a, 0x41, 0x1a, 0xbf, 0x69, 0x69, 0xb9, 0xbe,
  0xd7, 0xef, 0x64, 0xbf, 0x9a, 0xfb, 0x5e, 0x3f, 0x66, 0x9d, 0x8c, 0x3e,
  0x1d, 0x72, 0x06, 0xbf, 0x07, 0x9e, 0xa3, 0x3e, 0x14, 0x9b, 0x76, 0xbe,
  0x71, 0x60, 0xf6, 0xbe, 0x26, 0x52, 0x39, 0x3f, 0x06, 0xe3, 0xba, 0xbd,
  0x96, 0xd1, 0xad, 0xbe, 0xba, 0x04, 0x08, 0xbe, 0x3c, 0x2a, 0x3a, 0x3d,
  0x42, 0x33, 0xf8, 0x3e, 0xa7, 0xec, 0x8c, 0xbe, 0xe9, 0xae, 0x96, 0x3f,
  0xc1, 0x42, 0x74, 0x3d, 0x2d, 0x29, 0x04, 0x3f, 0x74, 0x73, 0x97, 0x3f,
  0x21, 0x5f, 0x36, 0x3f, 0xa6, 0xd2, 0x23, 0xbe, 0x87, 0x72, 0x41, 0xbe,
  0xda, 0xdd, 0x74, 0xbf, 0x42, 0x30, 0xe5, 0x3e, 0x68, 0xa0, 0x40, 0x3e,
  0x47, 0x8a, 0xc6, 0xbd, 0x32, 0x22, 0x78, 0x3f, 0x9f, 0xa5, 0x16, 0x3e,
  0xc8, 0xc1, 0x7b, 0xbe, 0x75, 0x9a, 0x74, 0xbb, 0xc8, 0xf5, 0x0a, 0x3f,
  0xce, 0x5b, 0x8f, 0xbd, 0x8f, 0xd3, 0x08, 0xbf, 0x52, 0x32, 0x20, 0x3e,
  0x49, 0xe7, 0xd4, 0xbf, 0xc2, 0x5f, 0x5e, 0xbf, 0xb9, 0x00, 0xd6, 0xbd,
  0x2e, 0x91, 0x2c, 0xbf, 0x16, 0x09, 0xbb, 0x3e, 0xe9, 0x03, 0x39, 0xbe,
  0x69, 0x2a, 0x9c, 0xbd, 0x8a, 0x9f, 0xa6, 0x3e, 0x87, 0x13, 0xe4, 0xbe,
  0x26, 0xe4, 0x36, 0xbe, 0x59, 0x4e, 0x86, 0x3e, 0xec, 0xa3, 0x2e, 0x3e,
  0x92, 0x90, 0xf9, 0x3d, 0x66, 0x9f, 0x40, 0x3d, 0xf2, 0xcc, 0x5d, 0xbe,
  0xb5, 0x46, 0x94, 0x3e, 0xa4, 0x3b, 0x1f, 0x3f, 0x19, 0xfa, 0xb7, 0x3e,
  0x29, 0x00, 0xbf, 0x3e, 0x60, 0x1a, 0xf1, 0xbd, 0x26, 0xd8, 0x17, 0x3f,
  0x95, 0x39, 0xcd, 0xbe, 0x11, 0xfe, 0x1c, 0x3f, 0x2b, 0x6f, 0x37, 0xbe,
  0x08, 0xb4, 0x40, 0xbf, 0x65, 0x64, 0x5e, 0xbe, 0xa5, 0xcc, 0xbd, 0x3e,
  0xeb, 0xaf, 0x34, 0x3e, 0xda, 0x1b, 0x22, 0x3f, 0x02, 0x2b, 0xb5, 0xbe,
  0x66, 0xaa, 0x1e, 0xbf, 0x4a, 0x73, 0x1d, 0xbf, 0xb4, 0xde, 0x9c, 0xbc,
  0xc9, 0xaa, 0x34, 0x3e, 0xbe, 0x01, 0xbe, 0xbe, 0x18, 0x0c, 0x30, 0x3e,
  0xc6, 0x80, 0x58, 0xbf, 0x28, 0x3e, 0xc6, 0x3e, 0x55, 0x67, 0x18, 0xbf,
  0xfe, 0x84, 0x16, 0xbe, 0x74, 0xb7, 0x12, 0xbf, 0x91, 0xae, 0xf6, 0x3d,
  0x1c, 0x29, 0x19, 0xbe, 0x62, 0xc5, 0xd2, 0x3e, 0xd2, 0x23, 0xfa, 0xbd,
  0x4d, 0x04, 0x0a, 0x3f, 0xd1, 0xeb, 0xa8, 0xbd, 0xf4, 0x96, 0x14, 0x3e,
  0x0f, 0xa8, 0x58, 0x3e, 0x0d, 0xff, 0x49, 0x3d, 0x48, 0x50, 0x50, 0x3f,
  0x7c, 0x04, 0x81, 0x3f, 0x32, 0x1a, 0x38, 0xbd, 0xd3, 0xa0, 0xfe, 0x3d,
  0xe9, 0x22, 0x1d, 0x3e, 0x86, 0x34, 0x92, 0x3e, 0x0c, 0x77, 0x08, 0x3f,
  0x7d, 0xe0, 0x26, 0x3c, 0x54, 0x7e, 0x37, 0x3f, 0x0f, 0xb2, 0xb7, 0xbe,
  0x68, 0x1a, 0x76, 0xbd, 0xe7, 0x1d, 0x4d, 0xbe, 0xd4, 0x74, 0x66, 0x3d,
  0x0a, 0x9a, 0xb8, 0x3d, 0xf0, 0x51, 0x72, 0x3e, 0xca, 0x24, 0x0b, 0x3f,
  0xda, 0x06, 0x7e, 0xbe, 0x28, 0x63, 0xce, 0x3e, 0x5e, 0xe4, 0xea, 0x3e,
  0x24, 0x1d, 0xca, 0xbd, 0x9c, 0x50, 0xa5, 0x3d, 0xca, 0x2f, 0x6a, 0xbe,
  0x88, 0xba, 0x8e, 0x3e, 0x5f, 0x1a, 0x19, 0xbe, 0x74, 0xc0, 0x38, 0xbd,
  0x2c, 0xda, 0x0c, 0x3f, 0x81, 0xa8, 0x2a, 0x3f, 0x39, 0x5d, 0xf5, 0x3d,
  0xc5, 0x67, 0xc1, 0xbc, 0x86, 0x13, 0x6f, 0x3e, 0x62, 0x0c, 0xf4, 0x3e,
  0xd1, 0x0f, 0x06, 0x3e, 0xd7, 0xc5, 0xda, 0x3e, 0x56, 0x03, 0x43, 0x3f,
  0xec, 0x84, 0x9c, 0xbe, 0x7d, 0x2f, 0x0b, 0x3e, 0x2e, 0xc9, 0x48, 0x3e,
  0xee, 0x53, 0xa7, 0xbe, 0x77, 0xd1, 0xdb, 0xbe, 0x76, 0xda, 0x07, 0x3f,
  0xc6, 0xff, 0x0d, 0xbf, 0xcb, 0x04, 0x08, 0x3f, 0xa7, 0xab, 0x29, 0x3f,
  0x5f, 0x52, 0xca, 0xbe, 0x68, 0x43, 0xfa, 0x3d, 0x07, 0x8a, 0xb9, 0xbe,
  0x38, 0x96, 0x21, 0xbf, 0xa5, 0xe4, 0x95, 0xbd, 0x42, 0x30, 0x94, 0x3e,
  0x0c, 0xb0, 0xbc, 0xbe, 0xe2, 0xb3, 0x9f, 0x3c, 0x01, 0x58, 0x8f, 0xbe,
  0x3f, 0xc0, 0xc3, 0x3e, 0x5f, 0x29, 0x3c, 0x3e, 0x44, 0xb2, 0x83, 0xbe,
  0xf8, 0xbb, 0x0f, 0xbf, 0x22, 0xaa, 0x1a, 0xbe, 0x83, 0x6f, 0xe2, 0x3e,
  0x5b, 0xfe, 0x7b, 0x3d, 0x21, 0x6f, 0xb5, 0xbe, 0x92, 0xd2, 0x62, 0xbe,
  0x99, 0x1f, 0x2a, 0xbd, 0x62, 0x40, 0x8e, 0x3e, 0x81, 0xae, 0x14, 0x3f,
  0x73, 0xad, 0x3b, 0x3f, 0xce, 0x16, 0x1a, 0x3e, 0x52, 0x68, 0x53, 0xbf,
  0x86, 0xdf, 0xc7, 0x3d, 0x95, 0xfe, 0xb4, 0x3e, 0xf7, 0x32, 0x4f, 0x3f,
  0xa6, 0xfc, 0x81, 0xbe, 0xe9, 0xbf, 0x8c, 0xbf, 0x9f, 0x49, 0x96, 0x3e,
  0xbf, 0x31, 0xa1, 0x3d, 0x55, 0x78, 0xf5, 0xbe, 0xa8, 0xe8, 0x9e, 0xbd,
  0xa1, 0x9c, 0xc4, 0xbe, 0x10, 0x57, 0xa0, 0x3d, 0xa5, 0xd1, 0x03, 0x3f,
  0x74, 0xbe, 0xcd, 0x3e, 0xac, 0x00, 0xc6, 0xbe, 0x74, 0xfe, 0xb0, 0xbc,
  0x4a, 0xf5, 0x2d, 0x3e, 0x7e, 0x39, 0x1f, 0x3e, 0x3d, 0x6f, 0xef, 0x3e,
  0x06, 0x79, 0xe9, 0x3e, 0xa0, 0xfb, 0xad, 0x3d, 0x71, 0x81, 0x9b, 0x3e,
  0x9d, 0xae, 0x95, 0x3e, 0x55, 0x44, 0x58, 0xbe, 0x7c, 0xa2, 0xea, 0x3e,
  0xbd, 0x04, 0xcb, 0x3c, 0x4d, 0xbe, 0x1e, 0x3e, 0x9f, 0xdd, 0xff, 0xbe,
  0x4d, 0xa2, 0x47, 0xbf, 0xfe, 0x31, 0x23, 0x3f, 0xde, 0xe4, 0x37, 0xbe,
  0xc0, 0x9e, 0x0c, 0x3e, 0x47, 0x73, 0xc3, 0x3d, 0x9d, 0x9b, 0x49, 0xbe,
  0xd5, 0x73, 0xfd, 0x3e, 0xf8, 0xcb, 0xd5, 0x3d, 0x28, 0xa5, 0x77, 0xbd,
  0xd6, 0x6d, 0xcb, 0xbe, 0x4a, 0xb7, 0xab, 0x3e, 0x89, 0xa4, 0x88, 0xbe,
  0x1f, 0x7d, 0x0a, 0x3e, 0x33, 0x7f, 0x83, 0x3c, 0xc8, 0x97, 0xdf, 0x3e,
  0xdc, 0xec, 0xb9, 0x3e, 0xf2, 0x35, 0xea, 0xbe, 0x68, 0x0d, 0x13, 0xbf,
  0x23, 0x88, 0x8a, 0xbe, 0xb7, 0x35, 0xa3, 0x3e, 0x84, 0xc9, 0xa7, 0x3e,
  0xaf, 0x3f, 0x8d, 0x3d, 0x56, 0x50, 0x1d, 0x3f, 0x23, 0xbc, 0x81, 0xbe,
  0xd4, 0xba, 0x24, 0xbd, 0x16, 0x58, 0xaf, 0x3d, 0xa8, 0x99, 0x31, 0x3e,
  0xa8, 0x12, 0x31, 0xbf, 0xed, 0x0f, 0x8c, 0xbf, 0xbc, 0x3a, 0x75, 0xbe,
  0x5a, 0x4a, 0x96, 0xbe, 0xad, 0xa4, 0xd5, 0x3e, 0x83, 0x2d, 0x85, 0x3e,
  0xc1, 0x46, 0x0b, 0x3f, 0xe5, 0xf2, 0xb3, 0xbe, 0x8a, 0x1e, 0x9b, 0x3e,
  0x3c, 0xbc, 0xbb, 0x3e, 0x3c, 0xf0, 0x00, 0x3c, 0xb2, 0x37, 0x01, 0x3f,
  0xb7, 0x84, 0x51, 0xbf, 0x4e, 0x85, 0xc6, 0xbe, 0xe0, 0xaf, 0xbc, 0xbd,
  0xb9, 0x32, 0x4b, 0xbf, 0xff, 0xe1, 0x9d, 0x3e, 0x57, 0xea, 0x18, 0x3f,
  0x70, 0xfd, 0x42, 0xbd, 0xed, 0xc3, 0x5f, 0xbe, 0x86, 0x62, 0x05, 0xbe,
  0x85, 0x31, 0x87, 0x3f, 0xd4, 0x09, 0x02, 0x3f, 0x86, 0xc5, 0x6f, 0x3e,
  0x3f, 0x6b, 0xec, 0x3d, 0x62, 0xf1, 0x83, 0x3e, 0x13, 0xb1, 0x4d, 0xbf,
  0x04, 0xbc, 0x95, 0xbc, 0x43, 0x90, 0x2f, 0x3a, 0xdc, 0xbc, 0x0b, 0xbd,
  0x78, 0xee, 0xa1, 0x3e, 0x46, 0x27, 0xa7, 0xbe, 0x0f, 0x7e, 0x6c, 0xbe,
  0x82, 0x65, 0x82, 0x3e, 0xfe, 0x63, 0x5a, 0xbe, 0x58, 0x43, 0x5a, 0xbe,
  0x68, 0x45, 0x87, 0xbf, 0xac, 0xa4, 0x96, 0x3e, 0xdc, 0xb9, 0x34, 0xbf,
  0x95, 0x87, 0xcc, 0xbb, 0xa1, 0x4b, 0x36, 0x3f, 0x20, 0xb8, 0xad, 0x3d,
  0x71, 0x19, 0xcd, 0x3e, 0x58, 0x4a, 0x66, 0x3e, 0xf9, 0x03, 0x1c, 0xbf,
  0x00, 0xa2, 0xcf, 0xbe, 0xe9, 0x8e, 0x30, 0xbe, 0xfd, 0xd7, 0x06, 0x3f,
  0xe4, 0x1c, 0x40, 0xbf, 0xd4, 0x88, 0x27, 0xbf, 0x66, 0xfa, 0x86, 0xbd,
  0x18, 0xe3, 0xa3, 0x3e, 0x8b, 0x97, 0xc1, 0xbd, 0xd3, 0xe5, 0x38, 0x3f,
  0xdc, 0x51, 0x8e, 0xbe, 0xc4, 0x7f, 0x90, 0x3f, 0xa7, 0x23, 0x85, 0xbf,
  0x64, 0x7c, 0x65, 0x3e, 0xa5, 0x9e, 0xd2, 0x3c, 0x69, 0x7a, 0x8d, 0x3d,
  0xea, 0x61, 0x02, 0x3b, 0xb9, 0x6c, 0xf3, 0xbe, 0xb9, 0xa0, 0x3a, 0xbe,
  0xc9, 0x97, 0x71, 0xbe, 0x16, 0x8c, 0x21, 0xbe, 0x54, 0x0a, 0x8c, 0xbb,
  0x9d, 0x41, 0x0b, 0x3e, 0xef, 0x46, 0x5a, 0xbd, 0xac, 0xcc, 0xdb, 0x3e,
  0x59, 0xe6, 0x16, 0x3d, 0xe9, 0xe8, 0x6c, 0x3f, 0xd8, 0x94, 0x34, 0xbe,
  0xbc, 0xcf, 0xb2, 0xbd, 0x90, 0x0b, 0xcc, 0x3e, 0x5c, 0x50, 0x11, 0xbf,
  0xe0, 0x5b, 0xbc, 0xbd, 0xdf, 0x7c, 0x65, 0xbe, 0x61, 0x90, 0xb4, 0x3d,
  0x04, 0xc4, 0xbe, 0xbe, 0xdf, 0xbb, 0x35, 0xbe, 0xcc, 0xf7, 0xff, 0xff,
  0xd0, 0xf7, 0xff, 0xff, 0x0f, 0x00, 0x00, 0x00, 0x4d, 0x4c, 0x49, 0x52,
  0x20, 0x43, 0x6f, 0x6e, 0x76, 0x65, 0x72, 0x74, 0x65, 0x64, 0x2e, 0x00,
  0x01, 0x00, 0x00, 0x00, 0x14, 0x00, 0x00, 0x00, 0x00, 0x00, 0x0e, 0x00,
  0x18, 0x00, 0x14, 0x00, 0x10, 0x00, 0x0c, 0x00, 0x08, 0x00, 0x04, 0x00,
  0x0e, 0x00, 0x00, 0x00, 0x14, 0x00, 0x00, 0x00, 0x1c, 0x00, 0x00, 0x00,
  0x94, 0x01, 0x00, 0x00, 0x98, 0x01, 0x00, 0x00, 0x9c, 0x01, 0x00, 0x00,
  0x04, 0x00, 0x00, 0x00, 0x6d, 0x61, 0x69, 0x6e, 0x00, 0x00, 0x00, 0x00,
  0x06, 0x00, 0x00, 0x00, 0x38, 0x01, 0x00, 0x00, 0xf0, 0x00, 0x00, 0x00,
  0xb8, 0x00, 0x00, 0x00, 0x84, 0x00, 0x00, 0x00, 0x40, 0x00, 0x00, 0x00,
  0x04, 0x00, 0x00, 0x00, 0x96, 0xff, 0xff, 0xff, 0x1c, 0x00, 0x00, 0x00,
  0x00, 0x00, 0x00, 0x09, 0x1c, 0x00, 0x00, 0x00, 0x20, 0x00, 0x00, 0x00,
  0x02, 0x00, 0x00, 0x00, 0x00, 0x00, 0x06, 0x00, 0x08, 0x00, 0x04, 0x00,
  0x06, 0x00, 0x00, 0x00, 0x00, 0x00, 0x80, 0x3f, 0x01, 0x00, 0x00, 0x00,
  0x0f, 0x00, 0x00, 0x00, 0x01, 0x00, 0x00, 0x00, 0x0e, 0x00, 0x00, 0x00,
  0x26, 0xff, 0xff, 0xff, 0x10, 0x00, 0x00, 0x00, 0x00, 0x00, 0x00, 0x08,
  0x0c, 0x00, 0x00, 0x00, 0x10, 0x00, 0x00, 0x00, 0x8c, 0xf8, 0xff, 0xff,
  0x01, 0x00, 0x00, 0x00, 0x0e, 0x00, 0x00, 0x00, 0x03, 0x00, 0x00, 0x00,
  0x0d, 0x00, 0x00, 0x00, 0x03, 0x00, 0x00, 0x00, 0x04, 0x00, 0x00, 0x00,
  0x00, 0x00, 0x0e, 0x00, 0x18, 0x00, 0x14, 0x00, 0x10, 0x00, 0x0c, 0x00,
  0x0b, 0x00, 0x04, 0x00, 0x0e, 0x00, 0x00, 0x00, 0x14, 0x00, 0x00, 0x00,
  0x00, 0x00, 0x00, 0x1b, 0x10, 0x00, 0x00, 0x00, 0x14, 0x00, 0x00, 0x00,
  0x01, 0x00, 0x00, 0x00, 0xd0, 0xf8, 0xff, 0xff, 0x01, 0x00, 0x00, 0x00,
  0x0d, 0x00, 0x00, 0x00, 0x02, 0x00, 0x00, 0x00, 0x0c, 0x00, 0x00, 0x00,
  0x06, 0x00, 0x00, 0x00, 0x96, 0xff, 0xff, 0xff, 0x10, 0x00, 0x00, 0x00,
  0x00, 0x00, 0x00, 0x08, 0x10, 0x00, 0x00, 0x00, 0x14, 0x00, 0x00, 0x00,
  0x86, 0xff, 0xff, 0xff, 0x00, 0x00, 0x01, 0x01, 0x01, 0x00, 0x00, 0x00,
  0x0c, 0x00, 0x00, 0x00, 0x03, 0x00, 0x00, 0x00, 0x0b, 0x00, 0x00, 0x00,
  0x01, 0x00, 0x00, 0x00, 0x05, 0x00, 0x00, 0x00, 0xca, 0xff, 0xff, 0xff,
  0x10, 0x00, 0x00, 0x00, 0x00, 0x00, 0x00, 0x08, 0x10, 0x00, 0x00, 0x00,
  0x14, 0x00, 0x00, 0x00, 0xba, 0xff, 0xff, 0xff, 0x00, 0x00, 0x01, 0x01,
  0x01, 0x00, 0x00, 0x00, 0x0b, 0x00, 0x00, 0x00, 0x03, 0x00, 0x00, 0x00,
  0x0a, 0x00, 0x00, 0x00, 0x02, 0x00, 0x00, 0x00, 0x07, 0x00, 0x00, 0x00,
  0x00, 0x00, 0x0e, 0x00, 0x16, 0x00, 0x00, 0x00, 0x10, 0x00, 0x0c, 0x00,
  0x0b, 0x00, 0x04, 0x00, 0x0e, 0x00, 0x00, 0x00, 0x1c, 0x00, 0x00, 0x00,
  0x00, 0x00, 0x00, 0x08, 0x1c, 0x00, 0x00, 0x00, 0x20, 0x00, 0x00, 0x00,
  0x00, 0x00, 0x0a, 0x00, 0x08, 0x00, 0x07, 0x00, 0x00, 0x00, 0x06, 0x00,
  0x0a, 0x00, 0x00, 0x00, 0x00, 0x00, 0x01, 0x01, 0x01, 0x00, 0x00, 0x00,
  0x0a, 0x00, 0x00, 0x00, 0x03, 0x00, 0x00, 0x00, 0x00, 0x00, 0x00, 0x00,
  0x09, 0x00, 0x00, 0x00, 0x08, 0x00, 0x00, 0x00, 0x01, 0x00, 0x00, 0x00,
  0x0f, 0x00, 0x00, 0x00, 0x01, 0x00, 0x00, 0x00, 0x00, 0x00, 0x00, 0x00,
  0x10, 0x00, 0x00, 0x00, 0x20, 0x06, 0x00, 0x00, 0xc8, 0x05, 0x00, 0x00,
  0x70, 0x05, 0x00, 0x00, 0x30, 0x05, 0x00, 0x00, 0xf4, 0x04, 0x00, 0x00,
  0xb8, 0x04, 0x00, 0x00, 0x4c, 0x04, 0x00, 0x00, 0xd8, 0x03, 0x00, 0x00,
  0x80, 0x03, 0x00, 0x00, 0x34, 0x03, 0x00, 0x00, 0x98, 0x02, 0x00, 0x00,
  0xf4, 0x01, 0x00, 0x00, 0x50, 0x01, 0x00, 0x00, 0xe0, 0x00, 0x00, 0x00,
  0x60, 0x00, 0x00, 0x00, 0x04, 0x00, 0x00, 0x00, 0x36, 0xfa, 0xff, 0xff,
  0x00, 0x00, 0x00, 0x01, 0x14, 0x00, 0x00, 0x00, 0x1c, 0x00, 0x00, 0x00,
  0x1c, 0x00, 0x00, 0x00, 0x10, 0x00, 0x00, 0x00, 0x34, 0x00, 0x00, 0x00,
  0x02, 0x00, 0x00, 0x00, 0xff, 0xff, 0xff, 0xff, 0x0c, 0x00, 0x00, 0x00,
  0x1c, 0xfa, 0xff, 0xff, 0x1b, 0x00, 0x00, 0x00, 0x53, 0x74, 0x61, 0x74,
  0x65, 0x66, 0x75, 0x6c, 0x50, 0x61, 0x72, 0x74, 0x69, 0x74, 0x69, 0x6f,
  0x6e, 0x65, 0x64, 0x43, 0x61, 0x6c, 0x6c, 0x5f, 0x31, 0x3a, 0x30, 0x00,
  0x02, 0x00, 0x00, 0x00, 0x01, 0x00, 0x00, 0x00, 0x0c, 0x00, 0x00, 0x00,
  0x8e, 0xfa, 0xff, 0xff, 0x00, 0x00, 0x00, 0x01, 0x14, 0x00, 0x00, 0x00,
  0x1c, 0x00, 0x00, 0x00, 0x1c, 0x00, 0x00, 0x00, 0x0f, 0x00, 0x00, 0x00,
  0x58, 0x00, 0x00, 0x00, 0x02, 0x00, 0x00, 0x00, 0xff, 0xff, 0xff, 0xff,
  0x0c, 0x00, 0x00, 0x00, 0x74, 0xfa, 0xff, 0xff, 0x3c, 0x00, 0x00, 0x00,
  0x73, 0x65, 0x71, 0x75, 0x65, 0x6e, 0x74, 0x69, 0x61, 0x6c, 0x5f, 0x31,
  0x2f, 0x64, 0x65, 0x6e, 0x73, 0x65, 0x5f, 0x33, 0x5f, 0x31, 0x2f, 0x4d,
  0x61, 0x74, 0x4d, 0x75, 0x6c, 0x3b, 0x73, 0x65, 0x71, 0x75, 0x65, 0x6e,
  0x74, 0x69, 0x61, 0x6c, 0x5f, 0x31, 0x2f, 0x64, 0x65, 0x6e, 0x73, 0x65,
  0x5f, 0x33, 0x5f, 0x31, 0x2f, 0x42, 0x69, 0x61, 0x73, 0x41, 0x64, 0x64,
  0x00, 0x00, 0x00, 0x00, 0x02, 0x00, 0x00, 0x00, 0x01, 0x00, 0x00, 0x00,
  0x0c, 0x00, 0x00, 0x00, 0x0a, 0xfb, 0xff, 0xff, 0x00, 0x00, 0x00, 0x01,
  0x14, 0x00, 0x00, 0x00, 0x1c, 0x00, 0x00, 0x00, 0x1c, 0x00, 0x00, 0x00,
  0x0e, 0x00, 0x00, 0x00, 0x48, 0x00, 0x00, 0x00, 0x02, 0x00, 0x00, 0x00,
  0xff, 0xff, 0xff, 0xff, 0x10, 0x00, 0x00, 0x00, 0xf0, 0xfa, 0xff, 0xff,
  0x2c, 0x00, 0x00, 0x00, 0x73, 0x65, 0x71, 0x75, 0x65, 0x6e, 0x74, 0x69,
  0x61, 0x6c, 0x5f, 0x31, 0x2f, 0x67, 0x6c, 0x6f, 0x62, 0x61, 0x6c, 0x5f,
  0x61, 0x76, 0x65, 0x72, 0x61, 0x67, 0x65, 0x5f, 0x70, 0x6f, 0x6f, 0x6c,
  0x69, 0x6e, 0x67, 0x31, 0x64, 0x5f, 0x31, 0x2f, 0x4d, 0x65, 0x61, 0x6e,
  0x00, 0x00, 0x00, 0x00, 0x02, 0x00, 0x00, 0x00, 0x01, 0x00, 0x00, 0x00,
  0x10, 0x00, 0x00, 0x00, 0x76, 0xfb, 0xff, 0xff, 0x00, 0x00, 0x00, 0x01,
  0x14, 0x00, 0x00, 0x00, 0x20, 0x00, 0x00, 0x00, 0x20, 0x00, 0x00, 0x00,
  0x0d, 0x00, 0x00, 0x00, 0x78, 0x00, 0x00, 0x00, 0x03, 0x00, 0x00, 0x00,
  0xff, 0xff, 0xff, 0xff, 0x7d, 0x00, 0x00, 0x00, 0x10, 0x00, 0x00, 0x00,
  0x60, 0xfb, 0xff, 0xff, 0x58, 0x00, 0x00, 0x00, 0x73, 0x65, 0x71, 0x75,
  0x65, 0x6e, 0x74, 0x69, 0x61, 0x6c, 0x5f, 0x31, 0x2f, 0x64, 0x65, 0x6e,
  0x73, 0x65, 0x5f, 0x32, 0x5f, 0x31, 0x2f, 0x4d, 0x61, 0x74, 0x4d, 0x75,
  0x6c, 0x3b, 0x73, 0x65, 0x71, 0x75, 0x65, 0x6e, 0x74, 0x69, 0x61, 0x6c,
  0x5f, 0x31, 0x2f, 0x64, 0x65, 0x6e, 0x73, 0x65, 0x5f, 0x32, 0x5f, 0x31,
  0x2f, 0x52, 0x65, 0x6c, 0x75, 0x3b, 0x73, 0x65, 0x71, 0x75, 0x65, 0x6e,
  0x74, 0x69, 0x61, 0x6c, 0x5f, 0x31, 0x2f, 0x64, 0x65, 0x6e, 0x73, 0x65,
  0x5f, 0x32, 0x5f, 0x31, 0x2f, 0x42, 0x69, 0x61, 0x73, 0x41, 0x64, 0x64,
  0x00, 0x00, 0x00, 0x00, 0x03, 0x00, 0x00, 0x00, 0x01, 0x00, 0x00, 0x00,
  0x7d, 0x00, 0x00, 0x00, 0x10, 0x00, 0x00, 0x00, 0x16, 0xfc, 0xff, 0xff,
  0x00, 0x00, 0x00, 0x01, 0x14, 0x00, 0x00, 0x00, 0x20, 0x00, 0x00, 0x00,
  0x20, 0x00, 0x00, 0x00, 0x0c, 0x00, 0x00, 0x00, 0x78, 0x00, 0x00, 0x00,
  0x03, 0x00, 0x00, 0x00, 0xff, 0xff, 0xff, 0xff, 0x7d, 0x00, 0x00, 0x00,
  0x20, 0x00, 0x00, 0x00, 0x00, 0xfc, 0xff, 0xff, 0x58, 0x00, 0x00, 0x00,
  0x73, 0x65, 0x71, 0x75, 0x65, 0x6e, 0x74, 0x69, 0x61, 0x6c, 0x5f, 0x31,
  0x2f, 0x64, 0x65, 0x6e, 0x73, 0x65, 0x5f, 0x31, 0x5f, 0x32, 0x2f, 0x4d,
  0x61, 0x74, 0x4d, 0x75, 0x6c, 0x3b, 0x73, 0x65, 0x71, 0x75, 0x65, 0x6e,
  0x74, 0x69, 0x61, 0x6c, 0x5f, 0x31, 0x2f, 0x64, 0x65, 0x6e, 0x73, 0x65,
  0x5f, 0x31, 0x5f, 0x32, 0x2f, 0x52, 0x65, 0x6c, 0x75, 0x3b, 0x73, 0x65,
  0x71, 0x75, 0x65, 0x6e, 0x74, 0x69, 0x61, 0x6c, 0x5f, 0x31, 0x2f, 0x64,
  0x65, 0x6e, 0x73, 0x65, 0x5f, 0x31, 0x5f, 0x32, 0x2f, 0x42, 0x69, 0x61,
  0x73, 0x41, 0x64, 0x64, 0x00, 0x00, 0x00, 0x00, 0x03, 0x00, 0x00, 0x00,
  0x01, 0x00, 0x00, 0x00, 0x7d, 0x00, 0x00, 0x00, 0x20, 0x00, 0x00, 0x00,
  0xb6, 0xfc, 0xff, 0xff, 0x00, 0x00, 0x00, 0x01, 0x14, 0x00, 0x00, 0x00,
  0x20, 0x00, 0x00, 0x00, 0x20, 0x00, 0x00, 0x00, 0x0b, 0x00, 0x00, 0x00,
  0x70, 0x00, 0x00, 0x00, 0x03, 0x00, 0x00, 0x00, 0xff, 0xff, 0xff, 0xff,
  0x7d, 0x00, 0x00, 0x00, 0x40, 0x00, 0x00, 0x00, 0xa0, 0xfc, 0xff, 0xff,
  0x52, 0x00, 0x00, 0x00, 0x73, 0x65, 0x71, 0x75, 0x65, 0x6e, 0x74, 0x69,
  0x61, 0x6c, 0x5f, 0x31, 0x2f, 0x64, 0x65, 0x6e, 0x73, 0x65, 0x5f, 0x31,
  0x2f, 0x4d, 0x61, 0x74, 0x4d, 0x75, 0x6c, 0x3b, 0x73, 0x65, 0x71, 0x75,
  0x65, 0x6e, 0x74, 0x69, 0x61, 0x6c, 0x5f, 0x31, 0x2f, 0x64, 0x65, 0x6e,
  0x73, 0x65, 0x5f, 0x31, 0x2f, 0x52, 0x65, 0x6c, 0x75, 0x3b, 0x73, 0x65,
  0x71, 0x75, 0x65, 0x6e, 0x74, 0x69, 0x61, 0x6c, 0x5f, 0x31, 0x2f, 0x64,
  0x65, 0x6e, 0x73, 0x65, 0x5f, 0x31, 0x2f, 0x42, 0x69, 0x61, 0x73, 0x41,
  0x64, 0x64, 0x00, 0x00, 0x03, 0x00, 0x00, 0x00, 0x01, 0x00, 0x00, 0x00,
  0x7d, 0x00, 0x00, 0x00, 0x40, 0x00, 0x00, 0x00, 0xa2, 0xfd, 0xff, 0xff,
  0x00, 0x00, 0x00, 0x01, 0x10, 0x00, 0x00, 0x00, 0x10, 0x00, 0x00, 0x00,
  0x0a, 0x00, 0x00, 0x00, 0x28, 0x00, 0x00, 0x00, 0x24, 0xfd, 0xff, 0xff,
  0x1b, 0x00, 0x00, 0x00, 0x73, 0x65, 0x71, 0x75, 0x65, 0x6e, 0x74, 0x69,
  0x61, 0x6c, 0x5f, 0x31, 0x2f, 0x64, 0x65, 0x6e, 0x73, 0x65, 0x5f, 0x31,
  0x2f, 0x4d, 0x61, 0x74, 0x4d, 0x75, 0x6c, 0x00, 0x02, 0x00, 0x00, 0x00,
  0x40, 0x00, 0x00, 0x00, 0x0a, 0x00, 0x00, 0x00, 0xea, 0xfd, 0xff, 0xff,
  0x00, 0x00, 0x00, 0x01, 0x10, 0x00, 0x00, 0x00, 0x10, 0x00, 0x00, 0x00,
  0x09, 0x00, 0x00, 0x00, 0x38, 0x00, 0x00, 0x00, 0x6c, 0xfd, 0xff, 0xff,
  0x2b, 0x00, 0x00, 0x00, 0x73, 0x65, 0x71, 0x75, 0x65, 0x6e, 0x74, 0x69,
  0x61, 0x6c, 0x5f, 0x31, 0x2f, 0x64, 0x65, 0x6e, 0x73, 0x65, 0x5f, 0x31,
  0x2f, 0x42, 0x69, 0x61, 0x73, 0x41, 0x64, 0x64, 0x2f, 0x52, 0x65, 0x61,
  0x64, 0x56, 0x61, 0x72, 0x69, 0x61, 0x62, 0x6c, 0x65, 0x4f, 0x70, 0x00,
  0x01, 0x00, 0x00, 0x00, 0x40, 0x00, 0x00, 0x00, 0x3e, 0xfe, 0xff, 0xff,
