unsigned char Handshake_0604_1114_tflite[] = {
  0x1c, 0x00, 0x00, 0x00, 0x54, 0x46, 0x4c, 0x33, 0x14, 0x00, 0x20, 0x00,
  0x1c, 0x00, 0x18, 0x00, 0x14, 0x00, 0x10, 0x00, 0x0c, 0x00, 0x00, 0x00,
  0x08, 0x00, 0x04, 0x00, 0x14, 0x00, 0x00, 0x00, 0x1c, 0x00, 0x00, 0x00,
  0x98, 0x00, 0x00, 0x00, 0xf0, 0x00, 0x00, 0x00, 0x44, 0x35, 0x00, 0x00,
  0x54, 0x35, 0x00, 0x00, 0x34, 0x3e, 0x00, 0x00, 0x03, 0x00, 0x00, 0x00,
  0x01, 0x00, 0x00, 0x00, 0x10, 0x00, 0x00, 0x00, 0x00, 0x00, 0x0a, 0x00,
  0x10, 0x00, 0x0c, 0x00, 0x08, 0x00, 0x04, 0x00, 0x0a, 0x00, 0x00, 0x00,
  0x0c, 0x00, 0x00, 0x00, 0x1c, 0x00, 0x00, 0x00, 0x3c, 0x00, 0x00, 0x00,
  0x0f, 0x00, 0x00, 0x00, 0x73, 0x65, 0x72, 0x76, 0x69, 0x6e, 0x67, 0x5f,
  0x64, 0x65, 0x66, 0x61, 0x75, 0x6c, 0x74, 0x00, 0x01, 0x00, 0x00, 0x00,
  0x04, 0x00, 0x00, 0x00, 0x90, 0xff, 0xff, 0xff, 0x0f, 0x00, 0x00, 0x00,
  0x04, 0x00, 0x00, 0x00, 0x08, 0x00, 0x00, 0x00, 0x6f, 0x75, 0x74, 0x70,
  0x75, 0x74, 0x5f, 0x30, 0x00, 0x00, 0x00, 0x00, 0x01, 0x00, 0x00, 0x00,
  0x04, 0x00, 0x00, 0x00, 0xaa, 0xca, 0xff, 0xff, 0x04, 0x00, 0x00, 0x00,
  0x0c, 0x00, 0x00, 0x00, 0x6b, 0x65, 0x72, 0x61, 0x73, 0x5f, 0x74, 0x65,
  0x6e, 0x73, 0x6f, 0x72, 0x00, 0x00, 0x00, 0x00, 0x02, 0x00, 0x00, 0x00,
  0x34, 0x00, 0x00, 0x00, 0x04, 0x00, 0x00, 0x00, 0xdc, 0xff, 0xff, 0xff,
  0x12, 0x00, 0x00, 0x00, 0x04, 0x00, 0x00, 0x00, 0x13, 0x00, 0x00, 0x00,
  0x43, 0x4f, 0x4e, 0x56, 0x45, 0x52, 0x53, 0x49, 0x4f, 0x4e, 0x5f, 0x4d,
  0x45, 0x54, 0x41, 0x44, 0x41, 0x54, 0x41, 0x00, 0x08, 0x00, 0x0c, 0x00,
  0x08, 0x00, 0x04, 0x00, 0x08, 0x00, 0x00, 0x00, 0x11, 0x00, 0x00, 0x00,
  0x04, 0x00, 0x00, 0x00, 0x13, 0x00, 0x00, 0x00, 0x6d, 0x69, 0x6e, 0x5f,
  0x72, 0x75, 0x6e, 0x74, 0x69, 0x6d, 0x65, 0x5f, 0x76, 0x65, 0x72, 0x73,
  0x69, 0x6f, 0x6e, 0x00, 0x13, 0x00, 0x00, 0x00, 0x50, 0x34, 0x00, 0x00,
  0x48, 0x34, 0x00, 0x00, 0x38, 0x2c, 0x00, 0x00, 0xe8, 0x2b, 0x00, 0x00,
  0xd8, 0x0b, 0x00, 0x00, 0x48, 0x0b, 0x00, 0x00, 0x38, 0x08, 0x00, 0x00,
  0xf8, 0x07, 0x00, 0x00, 0xe8, 0x06, 0x00, 0x00, 0xd4, 0x06, 0x00, 0x00,
  0xc4, 0x00, 0x00, 0x00, 0xbc, 0x00, 0x00, 0x00, 0xb4, 0x00, 0x00, 0x00,
  0xac, 0x00, 0x00, 0x00, 0xa4, 0x00, 0x00, 0x00, 0x9c, 0x00, 0x00, 0x00,
  0x94, 0x00, 0x00, 0x00, 0x74, 0x00, 0x00, 0x00, 0x04, 0x00, 0x00, 0x00,
  0x72, 0xcb, 0xff, 0xff, 0x04, 0x00, 0x00, 0x00, 0x60, 0x00, 0x00, 0x00,
  0x10, 0x00, 0x00, 0x00, 0x00, 0x00, 0x00, 0x00, 0x08, 0x00, 0x0e, 0x00,
  0x08, 0x00, 0x04, 0x00, 0x08, 0x00, 0x00, 0x00, 0x10, 0x00, 0x00, 0x00,
  0x24, 0x00, 0x00, 0x00, 0x00, 0x00, 0x06, 0x00, 0x08, 0x00, 0x04, 0x00,
  0x06, 0x00, 0x00, 0x00, 0x04, 0x00, 0x00, 0x00, 0x00, 0x00, 0x00, 0x00,
  0x0c, 0x00, 0x18, 0x00, 0x14, 0x00, 0x10, 0x00, 0x0c, 0x00, 0x04, 0x00,
  0x0c, 0x00, 0x00, 0x00, 0xb0, 0xdb, 0x4c, 0x75, 0x6a, 0x48, 0xcc, 0x84,
  0x02, 0x00, 0x00, 0x00, 0x02, 0x00, 0x00, 0x00, 0x04, 0x00, 0x00, 0x00,
  0x06, 0x00, 0x00, 0x00, 0x32, 0x2e, 0x31, 0x39, 0x2e, 0x30, 0x00, 0x00,
  0xde, 0xcb, 0xff, 0xff, 0x04, 0x00, 0x00, 0x00, 0x10, 0x00, 0x00, 0x00,
  0x32, 0x2e, 0x30, 0x2e, 0x30, 0x00, 0x00, 0x00, 0x00, 0x00, 0x00, 0x00,
  0x00, 0x00, 0x00, 0x00, 0xc4, 0xc3, 0xff, 0xff, 0xc8, 0xc3, 0xff, 0xff,
  0xcc, 0xc3, 0xff, 0xff, 0xd0, 0xc3, 0xff, 0xff, 0xd4, 0xc3, 0xff, 0xff,
  0xd8, 0xc3, 0xff, 0xff, 0x12, 0xcc, 0xff, 0xff, 0x04, 0x00, 0x00, 0x00,
  0x00, 0x06, 0x00, 0x00, 0x3e, 0x40, 0x24, 0x3e, 0x74, 0x75, 0x03, 0xbf,
  0x15, 0x40, 0x68, 0xbf, 0x5a, 0x03, 0xa0, 0x3b, 0x72, 0xdf, 0x15, 0x3d,
  0x77, 0x02, 0xce, 0x3c, 0x80, 0x3e, 0x8a, 0xbd, 0xdb, 0xd6, 0x7c, 0x3f,
  0x92, 0x64, 0x00, 0x3e, 0x32, 0xef, 0x3c, 0xbe, 0xeb, 0x7a, 0x99, 0x3b,
  0x19, 0x33, 0xa6, 0xbd, 0xbe, 0xfe, 0xe9, 0xbf, 0x01, 0x91, 0xbc, 0xbe,
  0xe9, 0x18, 0xd7, 0x3d, 0x3b, 0x16, 0x3e, 0x3b, 0x0d, 0x69, 0xa3, 0xbc,
  0xf4, 0x17, 0x16, 0xbd, 0xc9, 0x36, 0x54, 0x3e, 0xc3, 0x7a, 0x8c, 0x3e,
  0x9c, 0xe7, 0x57, 0x3e, 0x45, 0xe4, 0x30, 0xbe, 0xb7, 0x69, 0xf2, 0x3b,
  0x37, 0x08, 0x88, 0xbe, 0x5d, 0x72, 0x05, 0x3f, 0x38, 0xa5, 0x6a, 0x3e,
  0x64, 0xb4, 0x1d, 0x3d, 0xc7, 0x77, 0xe0, 0x3d, 0x22, 0xc9, 0x4c, 0xbe,
  0x7b, 0x1d, 0x54, 0xbe, 0xad, 0x79, 0xf6, 0x3d, 0x19, 0xec, 0x82, 0x3f,
  0x09, 0x2d, 0x7f, 0x3e, 0x69, 0x7a, 0x70, 0xbe, 0x33, 0x23, 0xc5, 0x3d,
  0xa3, 0xba, 0x17, 0x3e, 0x25, 0x8c, 0x4c, 0x3f, 0xb3, 0xd8, 0x3e, 0x3f,
  0xc1, 0x1e, 0x9d, 0x3c, 0x54, 0xc2, 0x16, 0x3e, 0x3a, 0x18, 0xa5, 0x3c,
  0xa0, 0xc5, 0x06, 0x3d, 0xd0, 0xa7, 0x5c, 0x3f, 0x40, 0x13, 0xaf, 0xbe,
  0x7e, 0x6b, 0x8d, 0x3e, 0xe9, 0xc9, 0x4e, 0xbd, 0x80, 0x3b, 0xb1, 0x3d,
  0x17, 0x6e, 0xd1, 0x3a, 0x8c, 0x2f, 0x4e, 0xbf, 0x71, 0x31, 0x0a, 0xbf,
  0xfc, 0x03, 0xb7, 0xbe, 0x69, 0x44, 0x14, 0x3c, 0xf3, 0x79, 0xaf, 0xba,
  0x7c, 0x28, 0x06, 0x3c, 0x89, 0x36, 0x3f, 0x3e, 0xe2, 0x98, 0x18, 0xbf,
  0x72, 0xa8, 0xb9, 0xbf, 0x08, 0x46, 0x8e, 0xbd, 0x81, 0x32, 0x43, 0xbd,
  0x59, 0x47, 0xc5, 0xbc, 0x4e, 0xa1, 0x36, 0x3f, 0xa7, 0x93, 0x80, 0xbf,
  0xfd, 0x41, 0xb7, 0x3d, 0x1d, 0xe5, 0x85, 0xbb, 0x25, 0xfb, 0x9a, 0xbc,
  0x07, 0x49, 0xa7, 0xbb, 0x59, 0x33, 0xab, 0x3f, 0xae, 0x8e, 0x95, 0x3e,
  0x9a, 0xd1, 0xa5, 0x3d, 0x30, 0x61, 0x89, 0xbd, 0x17, 0x92, 0xec, 0xbc,
  0x54, 0xd5, 0xa5, 0xbc, 0x37, 0xd8, 0x48, 0x3f, 0xc3, 0x42, 0x58, 0xbd,
  0x99, 0x0d, 0x4f, 0xbf, 0x73, 0x8c, 0x25, 0x3e, 0x8c, 0x59, 0x96, 0xbb,
  0x7a, 0x93, 0xc4, 0x3d, 0xbd, 0xd9, 0x16, 0xbf, 0xfa, 0xf6, 0x5d, 0xbf,
  0x1c, 0x6e, 0x84, 0xbf, 0x79, 0x83, 0xac, 0x3d, 0xea, 0xca, 0x84, 0x3d,
  0xc0, 0x01, 0x78, 0x3c, 0x6e, 0x37, 0x0c, 0xbf, 0xe2, 0x9b, 0x10, 0xbf,
  0x86, 0xfd, 0x8f, 0x3f, 0xad, 0x40, 0xf0, 0xbb, 0x5b, 0xc6, 0xe2, 0x3c,
  0xc1, 0x00, 0x23, 0xbb, 0x11, 0x9f, 0x88, 0x3d, 0x95, 0xb0, 0xb1, 0xbe,
  0x7e, 0x4a, 0xab, 0x3e, 0x09, 0x91, 0x15, 0xbe, 0x17, 0x53, 0x25, 0x3e,
  0xcb, 0x10, 0x63, 0x3d, 0xf9, 0xc2, 0x5c, 0xbf, 0xf8, 0x88, 0x3e, 0xbf,
  0x65, 0x5f, 0xa0, 0xbf, 0x4c, 0x55, 0x96, 0x3d, 0x9c, 0x40, 0x1c, 0x3e,
  0xe1, 0xcb, 0x80, 0x3d, 0xfb, 0xa7, 0x5a, 0xbf, 0xb3, 0xf3, 0x20, 0xbf,
  0x4d, 0x63, 0xc5, 0x3e, 0x90, 0x5c, 0x38, 0xbd, 0x7f, 0x6f, 0x6c, 0x3e,
  0xde, 0x52, 0x02, 0xbe, 0xe7, 0x80, 0x51, 0x3e, 0xf8, 0x18, 0x85, 0xbf,
  0xb5, 0x59, 0x31, 0x3e, 0x1c, 0xbc, 0xb8, 0xbd, 0x64, 0xa0, 0x10, 0xbc,
  0xa9, 0x5b, 0x77, 0x3e, 0x1f, 0xcb, 0x80, 0xbe, 0x9a, 0x31, 0x0a, 0xbf,
  0xbb, 0x72, 0xa6, 0x3f, 0xab, 0x71, 0x77, 0xbd, 0x18, 0x48, 0x3d, 0xbe,
  0xd5, 0xb6, 0xf3, 0x3d, 0xc6, 0x44, 0x2c, 0x3f, 0x95, 0xb6, 0x3a, 0xbe,
  0x25, 0x4b, 0x14, 0x3f, 0x64, 0x94, 0x0c, 0xbe, 0x30, 0x01, 0xc7, 0xbc,
  0xed, 0x55, 0x74, 0xbe, 0x9c, 0x72, 0x94, 0xbe, 0xed, 0x8f, 0x2c, 0xbe,
  0x9c, 0xac, 0x81, 0xbf, 0x4d, 0xec, 0xd2, 0xba, 0x25, 0x3e, 0x62, 0x3c,
  0x36, 0x3f, 0xde, 0xb9, 0xf2, 0xc1, 0x30, 0x3e, 0x2c, 0xe8, 0xe2, 0x3e,
  0xd8, 0x0a, 0x51, 0xbf, 0x1a, 0x2d, 0x63, 0x3e, 0xc0, 0x65, 0xf8, 0xbd,
  0x9b, 0xd1, 0xd2, 0x3d, 0xda, 0x92, 0xb0, 0x3d, 0x43, 0x5a, 0x22, 0x3e,
  0x6a, 0xb6, 0x29, 0x3e, 0x4d, 0x26, 0xf6, 0x3d, 0x86, 0x7c, 0x4f, 0xbd,
  0xe4, 0x7c, 0x87, 0xbe, 0x17, 0x53, 0x9c, 0x3f, 0x1e, 0xfc, 0x27, 0xbe,
  0x67, 0xfb, 0x91, 0xbf, 0xbe, 0x93, 0x59, 0x3d, 0x13, 0x0c, 0xf9, 0xbc,
  0x95, 0x42, 0x39, 0xba, 0x1d, 0xbc, 0x86, 0xbf, 0x41, 0x7a, 0x31, 0xbf,
  0xc8, 0x2f, 0xfb, 0x3e, 0x1a, 0x37, 0x0c, 0x3c, 0x9c, 0xa6, 0x0b, 0xbd,
  0x20, 0x1e, 0x94, 0x3c, 0x1c, 0xa8, 0xf9, 0x3e, 0x16, 0x65, 0xac, 0xbe,
  0x7e, 0xc4, 0x69, 0x3f, 0x9c, 0x70, 0x84, 0xbd, 0xaf, 0xc6, 0x85, 0x3d,
  0x1b, 0x43, 0xd9, 0x3c, 0xac, 0xc1, 0xa2, 0x3e, 0xe6, 0x8f, 0xd2, 0x3c,
  0x03, 0xd1, 0x33, 0xbe, 0xc2, 0x73, 0x03, 0x3e, 0xc8, 0x32, 0x4d, 0xbe,
  0xd2, 0x32, 0x90, 0x3c, 0xed, 0xb7, 0x60, 0x3f, 0x4c, 0x30, 0x09, 0xbf,
  0x59, 0xaa, 0x0c, 0xbf, 0x3b, 0xbb, 0x29, 0xbd, 0x37, 0x80, 0xe6, 0x3c,
  0xf6, 0x9b, 0xad, 0xbb, 0xab, 0x9b, 0x85, 0x3e, 0xad, 0x42, 0x3b, 0xbf,
  0x0c, 0x7c, 0xa2, 0x3e, 0xac, 0x51, 0xc3, 0x3d, 0x58, 0x9d, 0x1c, 0x3e,
  0x74, 0xd9, 0x89, 0x3e, 0x37, 0x23, 0xe8, 0x3e, 0xe8, 0x06, 0x57, 0xbf,
  0xbb, 0xb7, 0x46, 0xbf, 0x91, 0x3e, 0x00, 0x3d, 0x9e, 0xc0, 0x8d, 0x3c,
  0xc3, 0x84, 0xfc, 0xbc, 0x5c, 0xfe, 0x6b, 0x3f, 0x0b, 0x29, 0xbd, 0x3c,
  0xe6, 0xb5, 0x48, 0x3f, 0x05, 0xa9, 0xac, 0x3c, 0xa2, 0x2e, 0x06, 0xbc,
  0x1c, 0x5a, 0x5e, 0x3c, 0x35, 0x0c, 0xf5, 0xbd, 0x04, 0x58, 0x98, 0xbf,
  0x5d, 0x87, 0x67, 0xbf, 0x9f, 0x19, 0x70, 0xbd, 0x68, 0x96, 0x4d, 0x3c,
  0xe2, 0xd9, 0x32, 0xbc, 0x71, 0x32, 0x94, 0x3d, 0xc8, 0x1b, 0x36, 0xbf,
  0xe7, 0x6f, 0x83, 0xbf, 0x89, 0xd7, 0x2f, 0xbd, 0xee, 0x3d, 0x96, 0xbc,
  0x19, 0x8d, 0xce, 0x3b, 0x8a, 0x1c, 0x98, 0xbe, 0x41, 0x3d, 0x8d, 0x3f,
  0x17, 0x63, 0xbf, 0xbd, 0x71, 0x9d, 0x73, 0xbe, 0xaf, 0x4c, 0x62, 0x3d,
  0x1a, 0x94, 0x10, 0x3e, 0xb6, 0x06, 0x46, 0x3f, 0x52, 0x90, 0x5b, 0xbf,
  0x74, 0x25, 0xe9, 0x3e, 0xb5, 0x4e, 0x1d, 0xbd, 0x58, 0x96, 0x9d, 0xbc,
  0x88, 0xba, 0x95, 0x3c, 0xd2, 0xf5, 0x5b, 0xbd, 0x34, 0xa6, 0xc2, 0x3e,
  0x98, 0x0b, 0xdb, 0xbf, 0x0d, 0x38, 0xf8, 0xbd, 0xb6, 0x0a, 0xec, 0xbc,
  0xb8, 0xf1, 0x09, 0xbc, 0x0f, 0xc8, 0x42, 0x3e, 0x28, 0x9a, 0xbb, 0x3f,
  0x4c, 0x31, 0xc6, 0xbe, 0xcc, 0xfa, 0x98, 0x3d, 0xac, 0xd6, 0xa8, 0x3c,
  0xfd, 0x32, 0xea, 0xbd, 0xcd, 0x20, 0xb3, 0x3f, 0x81, 0xfb, 0x8e, 0x3e,
  0x1d, 0x82, 0x4c, 0xbe, 0xea, 0x80, 0xed, 0xbd, 0x5d, 0xfd, 0xb7, 0xbd,
  0x70, 0x22, 0x07, 0xbe, 0xab, 0x2c, 0x98, 0x3e, 0x90, 0x86, 0xb9, 0xbf,
  0x56, 0x3e, 0x6d, 0xbf, 0x17, 0x57, 0xf4, 0x3d, 0x6e, 0xdf, 0xdb, 0xbd,
  0x6d, 0x89, 0x3a, 0xbd, 0xbd, 0x43, 0x8b, 0xbe, 0xfe, 0x58, 0x85, 0x3f,
  0xcd, 0x5e, 0x50, 0xbf, 0xde, 0xf6, 0x8b, 0x3c, 0xf8, 0xbd, 0x08, 0x3c,
  0x4b, 0x0f, 0xe9, 0x3b, 0xf9, 0x5e, 0xed, 0x3d, 0xca, 0x21, 0x18, 0xbf,
  0x88, 0xc1, 0xc5, 0x3d, 0x8f, 0x84, 0xa6, 0x3c, 0x58, 0x70, 0x86, 0x3b,
  0x55, 0xea, 0x41, 0xbc, 0x5c, 0x55, 0x80, 0x3e, 0x53, 0x65, 0x83, 0xbf,
  0x0f, 0x68, 0xb0, 0xbe, 0x97, 0x54, 0x7d, 0x3c, 0xeb, 0x41, 0xa1, 0x3b,
  0x87, 0xef, 0x56, 0x3d, 0x7c, 0xa1, 0xac, 0xbe, 0x49, 0x57, 0x17, 0x3f,
  0x74, 0xbf, 0x52, 0xbf, 0x6f, 0x55, 0xbe, 0xbb, 0xdf, 0xab, 0x04, 0x3c,
  0x1e, 0x31, 0x81, 0xbb, 0xf2, 0xc8, 0x66, 0x3d, 0x12, 0x83, 0xc0, 0xbf,
  0x64, 0x5b, 0x3c, 0xbf, 0xbc, 0x03, 0xbe, 0x3d, 0xfc, 0xe7, 0x0d, 0x3b,
  0xfb, 0xa4, 0x87, 0x3c, 0x32, 0xad, 0x14, 0x3d, 0x30, 0x7a, 0xa3, 0xbf,
  0x5d, 0x1f, 0x0e, 0xbe, 0xb6, 0xc3, 0x97, 0xbb, 0x1b, 0x2b, 0x7d, 0xbc,
  0xb3, 0x53, 0xae, 0xbc, 0xf1, 0x03, 0x4c, 0x3f, 0x86, 0xef, 0x4a, 0xbf,
  0xa7, 0x1b, 0xa3, 0x3f, 0xaa, 0xb5, 0x27, 0xbe, 0x89, 0xfc, 0xe2, 0xbd,
  0x4c, 0x1a, 0x92, 0xbd, 0x0f, 0x4e, 0x20, 0x3f, 0xa4, 0x3a, 0xa5, 0x3d,
  0x5c, 0xa5, 0x24, 0xbf, 0x90, 0x01, 0xba, 0x3b, 0x95, 0x28, 0x20, 0x3b,
  0x58, 0xe9, 0x86, 0x39, 0xa0, 0x52, 0x4a, 0x3e, 0x2e, 0x71, 0x44, 0xbf,
  0x6b, 0x0c, 0x02, 0x3f, 0x62, 0x45, 0x6f, 0x3d, 0x5d, 0x3a, 0x06, 0x3a,
  0xd4, 0x8e, 0x7d, 0x3b, 0x05, 0xbc, 0x00, 0x3e, 0x12, 0x2d, 0x99, 0xbf,
  0x42, 0x3d, 0x08, 0xbe, 0xae, 0xfe, 0x23, 0xbd, 0xa5, 0x10, 0x58, 0x3d,
  0x6a, 0xae, 0x7d, 0xbd, 0x62, 0xdb, 0xc2, 0xbe, 0x8c, 0x19, 0x82, 0x3f,
  0x58, 0x7d, 0x20, 0xbf, 0x6c, 0x6f, 0x56, 0xbd, 0x6c, 0x05, 0x3a, 0x3c,
  0x9f, 0x72, 0x9b, 0xbc, 0x9d, 0x76, 0xdc, 0x3f, 0x7a, 0xd1, 0x29, 0xbf,
  0x4a, 0x12, 0xfa, 0xbd, 0x18, 0x9a, 0x8b, 0xbc, 0x07, 0xf0, 0x6e, 0x3d,
  0xbb, 0xd0, 0x8c, 0xbd, 0x25, 0x57, 0x14, 0x3f, 0x17, 0xa0, 0x2f, 0x3f,
  0x55, 0xdc, 0x85, 0x3f, 0x91, 0x39, 0x21, 0x3c, 0x10, 0x00, 0x02, 0xbd,
  0xd2, 0x5b, 0x8c, 0xbb, 0xab, 0x56, 0x46, 0x3f, 0xd1, 0xb7, 0x11, 0xbf,
  0xe5, 0xc1, 0x10, 0x3e, 0xfa, 0xa2, 0x0d, 0x3e, 0xdd, 0xf1, 0x0a, 0xbe,
  0xb8, 0x7e, 0x07, 0xbe, 0xde, 0x05, 0xe6, 0xbe, 0xb8, 0x4b, 0xa8, 0xbd,
  0xb7, 0xfd, 0xc9, 0xbe, 0x42, 0x6b, 0xaf, 0x3c, 0xc8, 0xa2, 0xdb, 0x3c,
  0xb5, 0x46, 0x59, 0x3d, 0x4f, 0xb8, 0x1a, 0x3e, 0x3d, 0x0a, 0xd6, 0xbf,
  0x0a, 0xbb, 0x5a, 0xbd, 0x6f, 0x31, 0x82, 0x3b, 0x9a, 0xa1, 0x27, 0x3b,
  0xe2, 0xea, 0x84, 0x3c, 0xe6, 0xc5, 0xfa, 0xbd, 0x7a, 0x2a, 0xa4, 0xbe,
  0xa7, 0x8b, 0x8e, 0x3f, 0xaa, 0x39, 0x79, 0xbc, 0xd0, 0xfe, 0xab, 0xbc,
  0x59, 0xab, 0xff, 0xbb, 0xaa, 0xd2, 0x7a, 0x3f, 0xc4, 0x9f, 0x50, 0xbf,
  0x9c, 0xf0, 0x88, 0xbe, 0x1f, 0xd9, 0x8a, 0xbc, 0xa6, 0xaf, 0xa6, 0xbd,
  0xba, 0xdb, 0xfe, 0xbc, 0x7e, 0xf5, 0x89, 0x3e, 0xca, 0x8e, 0x6a, 0x3f,
  0xe0, 0x0e, 0xaa, 0xbd, 0x75, 0xbe, 0x7b, 0x3d, 0x51, 0xaa, 0xdf, 0x3d,
  0x75, 0x6d, 0x71, 0xbb, 0xf0, 0xf2, 0x55, 0x3f, 0xa6, 0xfd, 0xba, 0x3e,
  0x8c, 0x79, 0x74, 0xbe, 0x23, 0x1f, 0x97, 0x3d, 0x15, 0x12, 0x47, 0xbe,
  0x5c, 0x3c, 0x20, 0x3d, 0x21, 0x41, 0xba, 0x3f, 0x1a, 0xce, 0x81, 0xbf,
  0x26, 0x18, 0x4f, 0x3e, 0xde, 0x77, 0x7d, 0x3c, 0x96, 0x52, 0x90, 0x3c,
  0x63, 0xcf, 0xc8, 0x3d, 0x27, 0x4e, 0x01, 0x3f, 0x67, 0xc5, 0xa3, 0xbd,
  0xb3, 0x5f, 0x91, 0xbf, 0x19, 0xdb, 0xa6, 0x3d, 0x0a, 0xf3, 0x0c, 0xbd,
  0x4b, 0x40, 0x2c, 0x3d, 0x2f, 0x20, 0xdc, 0xbe, 0x6f, 0xd8, 0xe5, 0xbe,
  0x49, 0xc0, 0x75, 0xbd, 0x34, 0x03, 0x93, 0xbc, 0xb3, 0x80, 0xbe, 0x3c,
  0xbd, 0x37, 0xc1, 0x3c, 0xda, 0x45, 0x69, 0xbd, 0x8b, 0x00, 0xcf, 0xbe,
  0xa9, 0xb1, 0x31, 0xbf, 0x0b, 0x0a, 0x4e, 0x3c, 0xa3, 0x6c, 0xa1, 0x3a,
  0x69, 0x85, 0x9a, 0x3c, 0x1e, 0xd2, 0xff, 0xff, 0x04, 0x00, 0x00, 0x00,
  0x04, 0x00, 0x00, 0x00, 0x01, 0x00, 0x00, 0x00, 0x2e, 0xd2, 0xff, 0xff,
  0x04, 0x00, 0x00, 0x00, 0x00, 0x01, 0x00, 0x00, 0x2e, 0x4f, 0x64, 0xbf,
  0x4b, 0xaa, 0x87, 0x3c, 0xbd, 0xc2, 0xdb, 0xbd, 0x20, 0x33, 0x72, 0xbf,
  0x63, 0x7b, 0x8b, 0x3f, 0x97, 0x83, 0x39, 0xbe, 0x95, 0x93, 0x67, 0xbe,
  0x76, 0x42, 0xef, 0xbf, 0xd0, 0x07, 0xaf, 0xbd, 0x7f, 0xab, 0x61, 0xbe,
  0xf9, 0xbf, 0x91, 0x3e, 0x3c, 0x35, 0x38, 0xbd, 0x7f, 0x5a, 0x52, 0xbf,
  0x91, 0xa2, 0xbe, 0xbf, 0xe3, 0xa9, 0x48, 0x3f, 0x0e, 0x10, 0x94, 0x3f,
  0xff, 0xb6, 0x1a, 0xbe, 0x93, 0xa0, 0x14, 0xc0, 0x3c, 0x28, 0x42, 0xbf,
  0x15, 0xc1, 0x6b, 0xbf, 0xf5, 0xa1, 0xb5, 0xbf, 0xb7, 0xf6, 0x94, 0xbf,
  0x99, 0x83, 0xbd, 0xbf, 0xdc, 0xeb, 0xa9, 0x3e, 0x4a, 0x20, 0xe3, 0x3e,
  0x71, 0x4a, 0x12, 0x3f, 0x44, 0x87, 0xad, 0xbf, 0x94, 0x99, 0x2c, 0x3f,
  0xe0, 0xae, 0x8c, 0x3f, 0xcd, 0x18, 0xc2, 0xbe, 0xb6, 0xe9, 0x84, 0xbc,
  0xd3, 0x43, 0x8c, 0x3d, 0x98, 0x53, 0x83, 0x3e, 0x9f, 0x1c, 0x81, 0xbf,
  0x36, 0x6b, 0x91, 0x3f, 0x82, 0x4a, 0x8b, 0xbf, 0xd0, 0xe2, 0x5e, 0x3e,
  0xab, 0x68, 0x27, 0x3f, 0xac, 0xc3, 0x58, 0xbf, 0xb6, 0xda, 0x91, 0x3f,
  0x12, 0x74, 0xd4, 0xbe, 0xa7, 0xf1, 0x91, 0xbf, 0x53, 0xb3, 0xf5, 0xbe,
  0x5c, 0x32, 0xca, 0x3e, 0x03, 0x8f, 0x9c, 0xbf, 0x04, 0xa8, 0x5d, 0xbf,
  0xec, 0x95, 0x23, 0xbf, 0xcb, 0x8d, 0x3c, 0x3d, 0x53, 0x72, 0x67, 0xbf,
  0xa4, 0x1e, 0xdf, 0xbf, 0x07, 0x5e, 0xf7, 0x3e, 0xef, 0x02, 0x5d, 0xbf,
  0x5a, 0xac, 0x9d, 0xbf, 0x4f, 0x06, 0x26, 0x40, 0xe0, 0x39, 0xac, 0x3f,
  0x34, 0x95, 0x2a, 0x3d, 0xd7, 0x22, 0xfa, 0xbe, 0x16, 0x0e, 0x65, 0xbf,
  0x37, 0xf1, 0xe4, 0xbf, 0x61, 0xf7, 0xb0, 0xbf, 0xf8, 0x26, 0x1c, 0xbd,
  0xb1, 0x6b, 0x9e, 0xbf, 0x33, 0x95, 0x2a, 0xc0, 0x9d, 0xd5, 0xfd, 0xbf,
  0x3a, 0xd3, 0xff, 0xff, 0x04, 0x00, 0x00, 0x00, 0x30, 0x00, 0x00, 0x00,
  0x1f, 0x5a, 0x28, 0xbe, 0x14, 0x9f, 0x6e, 0xbd, 0xc4, 0x75, 0xce, 0x3d,
  0xda, 0x8d, 0x31, 0xbe, 0xaa, 0xf6, 0x9c, 0x3d, 0x23, 0xaa, 0xa5, 0xbd,
  0x96, 0x2e, 0x53, 0x3e, 0x1c, 0x09, 0xfb, 0xbb, 0x3b, 0xb3, 0x76, 0x3c,
  0xeb, 0x1a, 0x3c, 0x3e, 0x25, 0x28, 0xca, 0x3c, 0xa9, 0x50, 0x8c, 0xbc,
  0x76, 0xd3, 0xff, 0xff, 0x04, 0x00, 0x00, 0x00, 0x00, 0x03, 0x00, 0x00,
  0xcf, 0x75, 0xad, 0xbe, 0x06, 0x90, 0x12, 0xbf, 0xfc, 0xa2, 0xad, 0xbe,
  0x08, 0x3c, 0xa8, 0xbe, 0xc3, 0xf6, 0xab, 0x3e, 0x44, 0xda, 0xff, 0xbe,
  0x32, 0x33, 0x28, 0x3f, 0x7c, 0x23, 0x09, 0x3f, 0x43, 0xf9, 0x2c, 0x3f,
  0xaa, 0x8e, 0x8a, 0xbf, 0x26, 0xdb, 0x67, 0xbf, 0x0d, 0xea, 0x8c, 0xbf,
  0x36, 0x3d, 0x15, 0xbe, 0x98, 0xe2, 0x1e, 0x3f, 0x49, 0xa3, 0xe1, 0x3e,
  0x0b, 0xf3, 0x16, 0x3f, 0x65, 0xe8, 0x42, 0xbf, 0x92, 0xf9, 0xc2, 0x3d,
  0x45, 0x32, 0x72, 0xbe, 0x2c, 0xbf, 0xb1, 0xbc, 0xff, 0x70, 0x85, 0xbf,
  0xcc, 0xf8, 0x35, 0x3f, 0x0c, 0x6d, 0xf1, 0x3e, 0x79, 0x96, 0x86, 0x3e,
  0x02, 0x99, 0x20, 0xbf, 0x54, 0x5f, 0xdb, 0xbd, 0xa5, 0xb0, 0x0b, 0x3f,
  0xb6, 0xbd, 0x49, 0xbe, 0x47, 0xc8, 0xb3, 0xbe, 0x95, 0x7d, 0x68, 0x3f,
  0x9a, 0xe6, 0x76, 0x3f, 0x0b, 0xa2, 0x31, 0xbf, 0x31, 0x16, 0xee, 0xbe,
  0xdd, 0x63, 0x77, 0x3d, 0x7b, 0x3f, 0x09, 0x3f, 0xd4, 0xa0, 0xde, 0xbe,
  0xe7, 0x88, 0xf3, 0xbd, 0x2a, 0xc8, 0xa0, 0x3e, 0x59, 0x64, 0xd2, 0xbf,
  0xa1, 0x6a, 0x17, 0x3f, 0x30, 0x12, 0x45, 0x3d, 0x2d, 0x9c, 0xcc, 0x3d,
  0x8b, 0xc7, 0xe0, 0x3e, 0xae, 0x0e, 0xb8, 0x3e, 0x47, 0xb0, 0xe0, 0xbe,
  0x35, 0x07, 0xcb, 0xbf, 0x12, 0xd5, 0x20, 0x3f, 0x74, 0x42, 0x2b, 0x3f,
  0x64, 0x88, 0x2c, 0xbf, 0xab, 0x9e, 0xd7, 0xbd, 0x66, 0x28, 0xe7, 0x3e,
  0x73, 0x57, 0xb9, 0xbd, 0x69, 0x45, 0x5b, 0x3f, 0x81, 0x3b, 0xa3, 0xbf,
  0x55, 0xef, 0x9b, 0x3e, 0x8a, 0xe8, 0x0a, 0xbf, 0x95, 0x1d, 0x04, 0xbf,
  0xd8, 0x8a, 0xe5, 0xbe, 0x4c, 0xc4, 0x0f, 0xbf, 0x4e, 0x75, 0x15, 0xbe,
  0x48, 0x2f, 0x62, 0x3f, 0xfc, 0xe6, 0xa4, 0x3f, 0x33, 0x97, 0x5d, 0xbf,
  0xdf, 0x89, 0xec, 0x3c, 0x55, 0xc5, 0x9c, 0xbb, 0x67, 0xc3, 0x79, 0xbf,
  0xa7, 0xce, 0xbc, 0xbf, 0xc0, 0x04, 0x73, 0x3f, 0x63, 0x5c, 0x82, 0xbf,
  0x88, 0x09, 0x58, 0x3f, 0x3b, 0xbb, 0x7b, 0xbe, 0x3a, 0x9c, 0x3d, 0x3f,
  0x7e, 0x11, 0x02, 0xbe, 0x58, 0x09, 0xb5, 0x3e, 0x8c, 0x90, 0x2a, 0xbf,
  0x6b, 0x01, 0x03, 0x3f, 0xf7, 0x59, 0x47, 0xbf, 0xe2, 0x45, 0x14, 0xbe,
  0x65, 0x3a, 0x03, 0x3f, 0xdc, 0xee, 0x70, 0x3e, 0x38, 0xdc, 0xf7, 0x3e,
  0xb6, 0x5d, 0xa3, 0x3e, 0x07, 0x34, 0x5c, 0x3f, 0x48, 0x2f, 0x3f, 0xbb,
  0x29, 0x25, 0xe6, 0x3e, 0x96, 0xb0, 0x02, 0xbf, 0x32, 0x9c, 0x21, 0xbe,
  0xa2, 0xcf, 0x0c, 0x3e, 0x70, 0x36, 0x46, 0xbf, 0xaf, 0xc1, 0x5d, 0xbd,
  0xac, 0x9f, 0xb9, 0xbe, 0x38, 0x08, 0xb6, 0xbc, 0xec, 0x9e, 0x1f, 0x3f,
  0x48, 0x41, 0x5a, 0xbe, 0xd0, 0xd3, 0x46, 0x3f, 0x4b, 0x38, 0x64, 0xbf,
  0x81, 0x7c, 0x95, 0x3f, 0x83, 0x3d, 0xde, 0x3e, 0xe3, 0xfb, 0xdf, 0xbe,
  0xa2, 0xd3, 0x87, 0xbf, 0x51, 0x1e, 0x04, 0xbf, 0xf7, 0x79, 0x09, 0x3e,
  0xb6, 0x0c, 0x3c, 0x3f, 0x3d, 0x1b, 0xd9, 0x3e, 0x96, 0xeb, 0x11, 0xbf,
  0x77, 0x81, 0xd2, 0x3e, 0xc9, 0x49, 0x41, 0xbe, 0xd8, 0xc9, 0xae, 0xbe,
  0x0c, 0x93, 0x48, 0xbf, 0x3c, 0x38, 0x38, 0xbf, 0x02, 0x94, 0xc1, 0xbe,
  0xcf, 0x84, 0x3d, 0x3f, 0xe9, 0x4c, 0xde, 0xbe, 0x45, 0xdc, 0x93, 0xbf,
  0xd9, 0x69, 0xcc, 0x3e, 0xf7, 0x90, 0x17, 0x3f, 0xe1, 0x9d, 0x01, 0xbf,
  0xbd, 0x3b, 0x6e, 0xbf, 0xb8, 0xdd, 0x2b, 0xbd, 0x54, 0x64, 0x3d, 0x3f,
  0xd1, 0xca, 0x8c, 0x3e, 0xe1, 0x13, 0xd2, 0xbd, 0x6e, 0x82, 0x87, 0x3e,
  0x0d, 0x7c, 0x34, 0xbe, 0x59, 0xd5, 0xa9, 0x3f, 0x1e, 0xcc, 0x84, 0xbe,
  0x54, 0xfa, 0x30, 0xbf, 0x1d, 0xe9, 0x84, 0x3d, 0x18, 0x45, 0x10, 0x3f,
  0x18, 0x45, 0xc2, 0xbf, 0x4d, 0x74, 0x94, 0xbf, 0xa2, 0xa2, 0x19, 0xbf,
  0x08, 0x83, 0xd5, 0x3e, 0x4a, 0xd1, 0x49, 0x3d, 0xfb, 0x09, 0xad, 0xbf,
  0xff, 0x4d, 0x96, 0xbf, 0xa4, 0x57, 0x91, 0xbe, 0xf6, 0xe5, 0x3a, 0x3f,
  0xbd, 0xf8, 0xfa, 0x3e, 0x51, 0x9c, 0xd4, 0x3e, 0x4b, 0x9d, 0xe8, 0xbe,
  0xaa, 0xb1, 0x29, 0xbf, 0x65, 0xf9, 0x43, 0xbf, 0x64, 0x0f, 0xea, 0xbf,
  0x16, 0xf0, 0x36, 0xbe, 0x5b, 0x8a, 0x10, 0x3f, 0x1a, 0xf9, 0xb6, 0xbe,
  0x5e, 0xbf, 0x17, 0x3f, 0xfb, 0x4e, 0x0b, 0x3f, 0x66, 0x41, 0x31, 0xbf,
  0xd5, 0xc2, 0xa1, 0xbe, 0x22, 0x25, 0x83, 0xbf, 0xc0, 0x4b, 0xf1, 0x3e,
  0x08, 0x48, 0x64, 0x3f, 0x2f, 0x79, 0xda, 0x3c, 0xb2, 0xce, 0x8e, 0xbf,
  0xb1, 0xf7, 0x98, 0xbe, 0x15, 0x05, 0xfc, 0xbe, 0xe4, 0xe9, 0xa6, 0x3e,
  0x10, 0x8c, 0x29, 0x3f, 0x38, 0x10, 0x3d, 0x3f, 0x70, 0x42, 0xb5, 0xbf,
  0x5e, 0x21, 0xe0, 0xbe, 0x55, 0x87, 0x45, 0x3f, 0xa3, 0x3e, 0x17, 0xbf,
  0xcb, 0x7e, 0x14, 0x3f, 0x1f, 0x34, 0x71, 0xbe, 0xc4, 0xcd, 0xa7, 0xbf,
  0x90, 0xbc, 0xed, 0x3e, 0x08, 0xdd, 0xd8, 0xbe, 0x46, 0xa3, 0x2b, 0x3f,
  0x29, 0x16, 0x3f, 0xbf, 0xeb, 0x32, 0x76, 0x3f, 0x25, 0x11, 0xd8, 0xbf,
  0x17, 0x4b, 0xdf, 0xbf, 0x2b, 0x22, 0x6f, 0x3e, 0x4b, 0xf6, 0x1b, 0xbf,
  0x9c, 0x4c, 0x85, 0x3f, 0xee, 0x36, 0xf2, 0x3e, 0xfd, 0xbe, 0x91, 0xbe,
  0x4a, 0xc3, 0xb7, 0x3e, 0x00, 0x62, 0x09, 0x3e, 0x18, 0xb7, 0x98, 0x3e,
  0xc7, 0x9d, 0x08, 0xbf, 0x5a, 0x7f, 0xb7, 0x3f, 0x7d, 0xea, 0xb4, 0xbe,
  0x9b, 0x4b, 0xa1, 0xbf, 0x91, 0xbc, 0x24, 0x3f, 0x42, 0xea, 0x1c, 0xbf,
  0x76, 0xe3, 0x01, 0xbe, 0xef, 0xda, 0x83, 0xbe, 0x9e, 0x77, 0x9c, 0xbf,
  0x82, 0xd6, 0xff, 0xff, 0x04, 0x00, 0x00, 0x00, 0x80, 0x00, 0x00, 0x00,
  0x6a, 0xdf, 0x9b, 0x3f, 0xf6, 0x51, 0x3d, 0x3f, 0x77, 0x2b, 0xba, 0x3e,
  0x19, 0x10, 0xdc, 0x3e, 0x30, 0x22, 0xb0, 0x3e, 0x3d, 0xa4, 0x3c, 0xbf,
  0x5d, 0xe4, 0x15, 0x3f, 0x2c, 0x9f, 0xd2, 0x3e, 0xc9, 0x09, 0x8d, 0xbf,
  0x0b, 0xaa, 0x7a, 0x3f, 0x7c, 0x3f, 0x97, 0x3e, 0x72, 0x63, 0x80, 0xbe,
  0x7f, 0x8b, 0xc7, 0x3e, 0xc9, 0x4f, 0x4b, 0xbf, 0xb6, 0xc3, 0x23, 0x3f,
  0x02, 0x06, 0x15, 0x3f, 0x81, 0xda, 0xf0, 0x3e, 0xaf, 0x59, 0xc4, 0x3d,
  0x07, 0x09, 0x8b, 0x3e, 0xfd, 0xf4, 0xa8, 0x3e, 0xd4, 0xdb, 0xd8, 0x3e,
  0x87, 0xfe, 0xdd, 0xbe, 0x00, 0xb8, 0xba, 0x3e, 0x37, 0xe4, 0x2f, 0x3f,
  0x24, 0x5c, 0x4c, 0x3f, 0x23, 0x15, 0xc8, 0x3e, 0x4a, 0xcf, 0x5d, 0xbf,
  0x59, 0xfe, 0x0c, 0x3f, 0xc7, 0x1c, 0x72, 0x3f, 0x23, 0x09, 0x5a, 0x3f,
  0x8f, 0x54, 0x28, 0x3f, 0xe7, 0x43, 0x17, 0x3f, 0x0e, 0xd7, 0xff, 0xff,
  0x04, 0x00, 0x00, 0x00, 0x00, 0x20, 0x00, 0x00, 0x8a, 0x93, 0xab, 0xbd,
  0x83, 0xb4, 0xf3, 0x3a, 0x8b, 0x28, 0xcd, 0xbb, 0x6e, 0xd3, 0x4c, 0xba,
  0x91, 0x32, 0xb0, 0xbb, 0xfd, 0xbe, 0xb9, 0x38, 0x27, 0x09, 0x14, 0x3b,
  0xf9, 0x48, 0xed, 0xbc, 0x03, 0x77, 0x2d, 0x3d, 0x8d, 0x56, 0xa9, 0x3b,
  0x5d, 0xbd, 0x8b, 0x3d, 0xcd, 0x69, 0x17, 0x3b, 0x47, 0xda, 0x65, 0x3c,
  0x13, 0x36, 0xa6, 0x3b, 0x0b, 0x12, 0xc4, 0x3c, 0x67, 0xa0, 0x20, 0xbc,
  0x21, 0xfc, 0x39, 0x3a, 0x3b, 0xff, 0xa0, 0x3b, 0xa6, 0xd0, 0xf9, 0x3a,
  0xaf, 0xae, 0x9b, 0x3b, 0xde, 0x63, 0xea, 0xba, 0xd9, 0x5e, 0x52, 0xbd,
  0x34, 0x99, 0x48, 0xbb, 0x21, 0x05, 0x86, 0xba, 0x4d, 0x6d, 0xb7, 0xbc,
  0xcb, 0xbb, 0xdd, 0x3c, 0x9b, 0x58, 0xdf, 0xbb, 0xfd, 0x97, 0x64, 0xbb,
  0x93, 0x22, 0xac, 0xbc, 0xe7, 0x78, 0x1e, 0xbc, 0x6f, 0x18, 0x14, 0x3d,
  0x6b, 0xd5, 0xaf, 0xbc, 0xb1, 0x59, 0xd1, 0x3c, 0xd2, 0xdc, 0xfc, 0x3c,
  0xf0, 0x6a, 0x15, 0x3a, 0xe7, 0x6c, 0xb6, 0x3c, 0xec, 0x5f, 0x6c, 0x3b,
  0xd4, 0x17, 0xd8, 0xba, 0x95, 0xfa, 0x71, 0xbb, 0x58, 0x7d, 0x4b, 0xbc,
  0x8e, 0x32, 0xe5, 0x3a, 0xd4, 0xbf, 0x0c, 0xbe, 0x18, 0x00, 0xd5, 0xbd,
  0x7f, 0x53, 0xad, 0xbb, 0x20, 0x5e, 0x16, 0xbb, 0x8f, 0x3d, 0x03, 0xbf,
  0x5f, 0xa7, 0x8f, 0xbb, 0x24, 0x21, 0x4f, 0x3d, 0xac, 0x33, 0x4f, 0xbc,
  0x81, 0x0c, 0x4d, 0x3c, 0x14, 0x3b, 0x0f, 0xba, 0x4f, 0x85, 0xef, 0x3b,
  0xb4, 0x3f, 0xed, 0xbc, 0x7c, 0x90, 0x9e, 0xbb, 0x89, 0x60, 0x31, 0xbd,
  0x00, 0xee, 0xf4, 0xbe, 0x40, 0xb9, 0xad, 0xbc, 0xa5, 0x0a, 0x81, 0x3b,
  0xc1, 0xf2, 0x23, 0x3b, 0x69, 0x0c, 0x99, 0x3a, 0x86, 0x8e, 0xc9, 0xbc,
  0xc6, 0x61, 0x41, 0x3c, 0x00, 0x42, 0x97, 0xba, 0x46, 0x76, 0x92, 0xbd,
  0xe6, 0xd1, 0x81, 0x3d, 0x86, 0x6d, 0x06, 0xbb, 0xe8, 0x18, 0x3c, 0xbc,
  0xa1, 0xda, 0x07, 0x3a, 0x8f, 0xa3, 0xee, 0x3a, 0xb1, 0x09, 0x62, 0xba,
  0x96, 0x74, 0x28, 0xbd, 0xb0, 0x19, 0xd5, 0xbc, 0x48, 0x31, 0x38, 0xbd,
  0xc5, 0xcf, 0x03, 0xbd, 0x92, 0x1d, 0xa8, 0x3d, 0xd1, 0xb5, 0xdd, 0x3b,
  0x86, 0x66, 0x97, 0xbb, 0x55, 0xe5, 0x8f, 0xbc, 0x55, 0x3b, 0x4f, 0xbd,
  0x5e, 0x29, 0x5e, 0xbc, 0x42, 0xe8, 0x5a, 0x3c, 0xa4, 0x97, 0x06, 0x3b,
  0x20, 0x05, 0x6a, 0x3b, 0x84, 0x2a, 0x8c, 0x3a, 0x17, 0x86, 0x94, 0x3a,
  0x0b, 0x4e, 0xf6, 0x3c, 0x66, 0x99, 0x80, 0xbc, 0x6f, 0x94, 0xdc, 0x3a,
  0xc5, 0xce, 0x01, 0xbe, 0x3c, 0x7a, 0x69, 0xbc, 0xf5, 0x24, 0xb1, 0xbc,
  0xdb, 0x8f, 0xc3, 0xb8, 0xcb, 0xb7, 0xb6, 0xbd, 0xc5, 0x84, 0x8d, 0x3b,
  0x0b, 0x07, 0xa8, 0x3a, 0x02, 0x84, 0x0c, 0xbd, 0xff, 0xce, 0x09, 0xbe,
  0x89, 0xe7, 0xd5, 0x3c, 0xc5, 0xf4, 0x1d, 0xba, 0xa5, 0x2d, 0x23, 0x3d,
  0xb1, 0x77, 0x35, 0xbc, 0xbb, 0xb1, 0x9e, 0x3b, 0xcd, 0xfa, 0x9c, 0x3b,
  0xfc, 0x29, 0x07, 0xbc, 0xe0, 0xcc, 0x3a, 0xbc, 0xf3, 0x39, 0xcc, 0x3d,
  0x6e, 0xc1, 0xa4, 0x3d, 0x65, 0x46, 0x9f, 0xbc, 0x94, 0x5a, 0x09, 0xbc,
  0xfb, 0x61, 0x64, 0x3a, 0x7b, 0x38, 0x03, 0x3a, 0x09, 0xeb, 0xb1, 0xbe,
  0xe5, 0x6b, 0x18, 0xbd, 0x10, 0xd2, 0xca, 0x3c, 0x52, 0x99, 0x1f, 0xbc,
  0xfa, 0x34, 0x8f, 0x3c, 0x1b, 0x0e, 0x0e, 0xba, 0xe6, 0x02, 0x98, 0x3a,
  0x19, 0x65, 0xc4, 0xbb, 0x98, 0x11, 0x85, 0x3d, 0xb9, 0xee, 0x34, 0xbd,
  0x90, 0xbe, 0x14, 0x3b, 0x40, 0xe5, 0x69, 0xbc, 0xa3, 0x4a, 0xf1, 0x38,
  0xec, 0x41, 0xe9, 0x3c, 0x7c, 0xb4, 0x8c, 0xbc, 0xb3, 0xb5, 0x40, 0x3c,
  0x76, 0x29, 0xc5, 0x3e, 0x11, 0x8e, 0x0a, 0x3d, 0xe3, 0xbf, 0x98, 0xbb,
  0xc7, 0xca, 0xaa, 0x3b, 0x4e, 0xe7, 0x25, 0xbb, 0xd5, 0x75, 0xa9, 0xb8,
  0x14, 0x30, 0xf1, 0x3a, 0x26, 0x41, 0x83, 0xbc, 0xc8, 0x2b, 0x97, 0x3c,
  0xcb, 0x9e, 0x40, 0x3e, 0x15, 0xe3, 0x77, 0xbd, 0x46, 0x9c, 0x10, 0xbc,
  0x99, 0x76, 0x00, 0x3d, 0x85, 0xf1, 0x7c, 0xbb, 0xc0, 0x0f, 0x23, 0x3c,
  0x8c, 0xc8, 0x19, 0xbc, 0xee, 0xfc, 0xd5, 0x3a, 0x27, 0x8c, 0x89, 0x3b,
  0x91, 0x56, 0x99, 0xbb, 0xb0, 0x21, 0x04, 0x3b, 0xbd, 0xd3, 0xa1, 0xba,
  0x0a, 0x2a, 0xbd, 0xba, 0x07, 0xa8, 0xcb, 0xb9, 0xe4, 0x86, 0xdb, 0xba,
  0xde, 0x3f, 0xa0, 0x39, 0xd7, 0x09, 0xd8, 0xbc, 0xd2, 0x62, 0x88, 0xbb,
  0xc4, 0x69, 0xde, 0xb9, 0x12, 0x48, 0x3b, 0x3c, 0xe1, 0x37, 0x6f, 0x3d,
  0x0d, 0x3b, 0x17, 0x3b, 0x43, 0x7d, 0xbd, 0x3c, 0xa5, 0xd4, 0xe7, 0x3c,
  0x7f, 0xb8, 0x32, 0xbd, 0xc8, 0x27, 0x0d, 0xbe, 0x86, 0xc5, 0xde, 0x3a,
  0xdc, 0x09, 0x60, 0xbc, 0xd8, 0x1d, 0x7a, 0xbc, 0xa8, 0xd9, 0x24, 0xbc,
  0x09, 0xdc, 0xc1, 0x3b, 0xd0, 0x79, 0x70, 0xbb, 0x74, 0xa3, 0xe7, 0x3b,
  0x24, 0x73, 0x1e, 0xbd, 0xc1, 0xc0, 0x0f, 0xbc, 0x00, 0xb7, 0x87, 0xbd,
  0xdf, 0xf0, 0x46, 0xbe, 0xd8, 0xe9, 0x63, 0xbd, 0x5d, 0x3c, 0x1e, 0x3b,
  0x52, 0xac, 0x58, 0x3d, 0x05, 0x63, 0x2d, 0xbe, 0x87, 0xc6, 0xb9, 0xbc,
  0xb8, 0x58, 0x9a, 0xbc, 0x89, 0x08, 0x82, 0x3b, 0xcb, 0x31, 0x04, 0x3c,
  0x54, 0x3e, 0x52, 0xbb, 0xff, 0x43, 0x61, 0x3b, 0xd9, 0x13, 0x9d, 0x3c,
  0x76, 0xa8, 0xcc, 0xbc, 0x72, 0xe8, 0xde, 0x3b, 0x75, 0x86, 0x41, 0xbc,
  0xc0, 0x97, 0x33, 0x3b, 0x37, 0xec, 0xbc, 0x3b, 0xad, 0x1f, 0xce, 0xbc,
  0x70, 0xf9, 0x4e, 0xbd, 0x2a, 0x58, 0x1b, 0xbf, 0x88, 0xfc, 0x2e, 0x3d,
  0xe9, 0x25, 0x4e, 0x3b, 0xfc, 0x8d, 0x6f, 0x3b, 0x14, 0x9a, 0x86, 0x3b,
  0x95, 0x18, 0x74, 0xbc, 0xe2, 0xc3, 0x2b, 0xbc, 0x2b, 0xf2, 0xc9, 0xbb,
  0x1e, 0x67, 0x5e, 0xbc, 0x8f, 0x66, 0x61, 0x3d, 0x25, 0x35, 0xca, 0x3b,
  0x0c, 0x54, 0x85, 0xbc, 0x16, 0x14, 0x6b, 0x3c, 0x4a, 0x9b, 0x00, 0x3b,
  0x7c, 0x87, 0x6b, 0x3a, 0x31, 0xd7, 0x60, 0x3c, 0xa5, 0xa0, 0xce, 0xbb,
  0x82, 0x73, 0xc2, 0x3c, 0x5d, 0x15, 0x57, 0x3b, 0x1f, 0x38, 0xb1, 0x39,
  0x57, 0x87, 0x10, 0x3b, 0xdc, 0xcf, 0x00, 0x3b, 0xd4, 0xfb, 0xa2, 0x3b,
  0xf8, 0xac, 0x67, 0xba, 0x5c, 0xc5, 0x09, 0xbc, 0xac, 0x3d, 0x77, 0xbc,
  0x3c, 0x31, 0xfd, 0x3a, 0x08, 0x34, 0x8a, 0xbd, 0x86, 0x10, 0x27, 0x3b,
  0x11, 0x43, 0x7a, 0x3c, 0x30, 0x0a, 0x31, 0x3b, 0x59, 0xa1, 0xf4, 0xbb,
  0x72, 0xb6, 0x13, 0xbd, 0xa0, 0x9a, 0x3c, 0xbd, 0xd7, 0x08, 0x8f, 0x3b,
  0x60, 0x1f, 0x17, 0xbc, 0x3a, 0x97, 0x84, 0xbd, 0x4e, 0x48, 0x12, 0xbc,
  0x5e, 0xf5, 0xdc, 0xbb, 0x29, 0xfa, 0x66, 0x3b, 0x4a, 0x9d, 0xbe, 0x3a,
  0xe5, 0x1b, 0xa4, 0xbc, 0xed, 0xf3, 0xbd, 0xbd, 0x3a, 0x6e, 0x01, 0x3d,
  0x3b, 0xa1, 0xef, 0x3b, 0x57, 0xa8, 0x3b, 0xbc, 0xea, 0xaa, 0xa1, 0xbe,
  0xc4, 0xfd, 0x20, 0x3c, 0x0b, 0x69, 0x37, 0x3d, 0x8d, 0x58, 0xbf, 0xbc,
  0x73, 0x04, 0xcf, 0xbc, 0x71, 0x04, 0x87, 0x3b, 0x90, 0x5b, 0xae, 0xbd,
  0x90, 0x66, 0xa1, 0xbc, 0x21, 0x0a, 0x9a, 0xbc, 0x70, 0x49, 0x4b, 0x3d,
  0xf5, 0x7e, 0x2d, 0xbe, 0x7d, 0xf9, 0x57, 0xbc, 0xaf, 0x12, 0x3b, 0x3d,
  0x67, 0x28, 0xb1, 0x3b, 0x26, 0xb3, 0xc7, 0x3b, 0x16, 0x58, 0x5d, 0x3c,
  0x3d, 0x37, 0xd9, 0x3b, 0x38, 0xd7, 0x94, 0xbe, 0x92, 0xaf, 0x34, 0xbe,
  0xfe, 0x53, 0x85, 0xbc, 0xda, 0x65, 0xa1, 0x3a, 0xf3, 0xb6, 0xe2, 0x3a,
  0xf4, 0x31, 0x25, 0x3b, 0x79, 0x08, 0xb8, 0x3a, 0x45, 0xbb, 0x42, 0xbc,
  0x1d, 0x79, 0x28, 0x3c, 0x17, 0x0c, 0x7a, 0xbc, 0x60, 0xfe, 0x1c, 0x3d,
  0x78, 0xd7, 0xd0, 0x37, 0x4a, 0xcb, 0xe8, 0x3d, 0x59, 0x7d, 0x19, 0xbc,
  0x69, 0xae, 0x00, 0xbd, 0xd3, 0x47, 0xa2, 0xbc, 0x36, 0xaf, 0xd3, 0xbb,
  0xcf, 0x55, 0x98, 0xbc, 0xa2, 0x92, 0x3e, 0xbc, 0x7a, 0x4a, 0x72, 0x3b,
  0xdf, 0xd7, 0x54, 0x3c, 0x32, 0x0f, 0x1f, 0xbc, 0x97, 0xad, 0x04, 0x3b,
  0x39, 0xc3, 0xe8, 0xbb, 0x79, 0x56, 0xcb, 0xbc, 0x0a, 0x24, 0xba, 0x3a,
  0xfe, 0xbb, 0xcc, 0x3c, 0x73, 0x95, 0x94, 0xbb, 0x78, 0x1e, 0x33, 0xbd,
  0xba, 0x9c, 0xc8, 0xb9, 0x11, 0x7d, 0x81, 0xbd, 0x22, 0xc8, 0x0b, 0x3b,
  0x75, 0x40, 0x25, 0xbd, 0x0f, 0xfd, 0xe7, 0x3c, 0x28, 0xcf, 0x1b, 0x3c,
  0x90, 0x45, 0x67, 0x3b, 0xcf, 0xde, 0x36, 0xbc, 0xad, 0x51, 0xfe, 0xbd,
  0x7a, 0x8e, 0x8e, 0x3b, 0x2f, 0xc1, 0x36, 0x3b, 0x6e, 0xda, 0x37, 0x3a,
  0x6e, 0xdd, 0x94, 0xbb, 0x1a, 0xf9, 0x94, 0x3b, 0x15, 0xe4, 0xa0, 0xbe,
  0x09, 0x13, 0x00, 0x3e, 0xfd, 0xff, 0xe1, 0xbb, 0xc3, 0xf0, 0x22, 0xbd,
  0xb0, 0x50, 0x18, 0x3c, 0x31, 0xcc, 0xab, 0xbb, 0x03, 0x11, 0x51, 0xbd,
  0xfb, 0xc1, 0xa4, 0xbd, 0xce, 0x6b, 0x1f, 0xbb, 0xa2, 0xaf, 0xd3, 0x37,
  0x53, 0x41, 0xd0, 0xbb, 0x28, 0x16, 0x67, 0xbb, 0x61, 0x22, 0x72, 0x3a,
  0x63, 0x2c, 0x6c, 0xbc, 0x0d, 0xbf, 0x6c, 0x3d, 0x75, 0x3d, 0xeb, 0xbc,
  0x63, 0x64, 0x02, 0xbe, 0xf1, 0x26, 0xe8, 0x3a, 0x94, 0xbb, 0x44, 0xbd,
  0xef, 0xbc, 0x3d, 0xbc, 0x95, 0x81, 0xc3, 0xbd, 0x20, 0x8a, 0xbd, 0xbd,
  0xbd, 0x54, 0x47, 0xbd, 0x88, 0x30, 0x46, 0x3d, 0x26, 0xd5, 0x79, 0x3b,
  0x8c, 0x3f, 0x95, 0xba, 0xca, 0x96, 0x5e, 0x3b, 0xe8, 0x97, 0x74, 0xbb,
  0xc4, 0x6e, 0xb0, 0xbb, 0x31, 0xf3, 0xec, 0xbb, 0xe1, 0x18, 0xe7, 0x3c,
  0x22, 0x89, 0x90, 0xbc, 0xea, 0x94, 0x2a, 0xbc, 0x49, 0xa9, 0x9f, 0xbc,
  0x32, 0x7c, 0x8f, 0x3a, 0x12, 0xf5, 0x3d, 0x3b, 0x8c, 0x1f, 0x8c, 0x3c,
  0x73, 0x14, 0xa3, 0xbd, 0x7d, 0x33, 0x05, 0x3c, 0x1f, 0xa2, 0x40, 0x3b,
  0x96, 0xfc, 0xad, 0x3b, 0xe4, 0x86, 0x4a, 0x3c, 0xe4, 0xf5, 0x30, 0x3c,
  0x93, 0x7c, 0xaf, 0x39, 0xdb, 0x60, 0xc0, 0x3c, 0x60, 0xac, 0x44, 0x3c,
  0x98, 0x8f, 0x39, 0x3a, 0x57, 0x39, 0x6b, 0xbc, 0x5c, 0x30, 0xaf, 0x3c,
  0x27, 0x30, 0xa1, 0xbc, 0x0c, 0x6d, 0x84, 0x3b, 0x42, 0x4f, 0x3f, 0x3d,
  0x22, 0x10, 0xa4, 0xbc, 0xd0, 0x34, 0x88, 0x3d, 0x64, 0x0f, 0x46, 0xbe,
  0xc4, 0x95, 0x77, 0x3b, 0xd4, 0x49, 0x27, 0x3b, 0x6c, 0xd1, 0x26, 0xbb,
  0x9d, 0x33, 0x21, 0xbd, 0xf2, 0xbc, 0xb6, 0xbb, 0x1e, 0xb4, 0x2a, 0x3b,
  0x97, 0x23, 0x1c, 0xbb, 0x0d, 0x30, 0x4a, 0x3b, 0x49, 0xb8, 0x9c, 0x3c,
  0x53, 0xb1, 0x5f, 0x3d, 0xd3, 0x5a, 0x70, 0xbd, 0x54, 0x9c, 0x2e, 0xbb,
  0xb7, 0x1f, 0x71, 0x3b, 0x1d, 0xdd, 0xdf, 0xb9, 0xaa, 0xfe, 0xc6, 0x39,
  0x7a, 0x0a, 0x07, 0xbb, 0xd8, 0x02, 0x48, 0xbd, 0xdd, 0xf1, 0xa5, 0x3c,
  0x44, 0x27, 0xed, 0x3b, 0x4a, 0xb6, 0x65, 0x3c, 0xb2, 0xbf, 0xf8, 0xbc,
  0x85, 0xc6, 0xd7, 0xbb, 0xcd, 0x54, 0x5c, 0xbc, 0xfc, 0x82, 0xc0, 0xbc,
  0x95, 0x2f, 0x04, 0xbd, 0xa4, 0x77, 0x8c, 0x3c, 0xda, 0x53, 0x9d, 0x3b,
  0x1d, 0x7b, 0x9c, 0x3b, 0x16, 0x5b, 0xaf, 0xbd, 0x25, 0x86, 0xf3, 0x3b,
  0xd8, 0x7d, 0x62, 0xbe, 0x3d, 0x9b, 0x21, 0xbd, 0x7c, 0x32, 0x5e, 0x3d,
  0xff, 0x6c, 0xbc, 0xba, 0x9e, 0x48, 0xbb, 0x39, 0xa4, 0x89, 0xa3, 0x3b,
  0x76, 0xae, 0xc9, 0xba, 0x34, 0x8b, 0x2f, 0x3a, 0x5c, 0x5c, 0x49, 0xbb,
  0x23, 0x7c, 0xf3, 0xbc, 0x22, 0x65, 0xc7, 0x3c, 0x81, 0x1e, 0x78, 0xb8,
  0x21, 0xd3, 0x1e, 0xbd, 0x8b, 0x32, 0xb3, 0xba, 0x43, 0x68, 0x96, 0x3b,
  0x75, 0x50, 0x0e, 0xbd, 0x4e, 0x00, 0x03, 0xbe, 0x27, 0x7e, 0x9a, 0xbb,
  0xcc, 0xea, 0xdb, 0x39, 0x9d, 0x90, 0xf0, 0xbb, 0xf2, 0xa0, 0xa2, 0x3a,
  0x27, 0x2b, 0xab, 0xba, 0x1e, 0xd9, 0xb3, 0x3b, 0x77, 0x84, 0x2c, 0x3d,
  0xe5, 0xc9, 0xdd, 0x3a, 0xbb, 0x1c, 0x41, 0xba, 0xc8, 0xf7, 0x8b, 0xbd,
  0x4c, 0xf0, 0x45, 0xbc, 0x66, 0x49, 0xe7, 0xbb, 0xe2, 0xa9, 0x9c, 0xba,
  0x77, 0x03, 0x56, 0xbe, 0x66, 0x6e, 0x37, 0x3b, 0xb5, 0x85, 0xfb, 0x3c,
  0x63, 0xbd, 0x27, 0x3d, 0x35, 0x70, 0x3b, 0xbd, 0x3a, 0x93, 0x7e, 0xbc,
  0x85, 0xaa, 0x1a, 0x3a, 0x96, 0xa1, 0x8c, 0xbd, 0xf6, 0x15, 0x46, 0xbb,
  0x04, 0xa5, 0x09, 0xbb, 0x45, 0xa7, 0x34, 0x3b, 0x1f, 0x4b, 0x95, 0xbc,
  0xbf, 0xa1, 0xb8, 0xbb, 0xc3, 0xea, 0x3e, 0xbd, 0xde, 0x4b, 0x99, 0xbb,
  0x39, 0x0a, 0x66, 0xbb, 0x0d, 0x68, 0x89, 0xbd, 0xd1, 0x28, 0x6f, 0x3e,
  0x38, 0xe7, 0xd4, 0xbb, 0x1a, 0x1d, 0xb3, 0xbd, 0x28, 0x35, 0xe3, 0xbd,
  0xbe, 0x20, 0xc2, 0xbc, 0x69, 0x06, 0xf3, 0x39, 0xe6, 0x9c, 0x19, 0x3b,
  0x43, 0x72, 0x93, 0xbc, 0x23, 0x3a, 0xb7, 0xbb, 0x14, 0x7c, 0xa8, 0x3b,
  0x83, 0x0d, 0x8d, 0xbe, 0x47, 0x1e, 0x32, 0xbe, 0xd6, 0xe5, 0x6d, 0xbb,
  0x5c, 0x67, 0xf4, 0xbc, 0xc0, 0x8a, 0x55, 0xba, 0x00, 0x58, 0x01, 0x3c,
  0xfe, 0xab, 0x24, 0xbc, 0xb9, 0x13, 0xb6, 0x3c, 0xec, 0x59, 0xbe, 0x3c,
  0x4e, 0x24, 0xe1, 0xbc, 0xaa, 0x7b, 0x02, 0xbc, 0x01, 0xbf, 0x3e, 0xbd,
  0xeb, 0x5b, 0x7e, 0xbb, 0x2f, 0x20, 0x8a, 0xbb, 0xb7, 0xf0, 0x2d, 0xbb,
  0xdf, 0x87, 0x94, 0x3b, 0x27, 0xad, 0x96, 0x3b, 0xa9, 0xdf, 0x25, 0xbe,
  0xad, 0x07, 0x34, 0x3d, 0x15, 0x80, 0x2d, 0x3d, 0xc2, 0xa6, 0x00, 0xbe,
  0xea, 0x9d, 0xad, 0xb8, 0x86, 0xd1, 0xb0, 0xbc, 0xe4, 0x28, 0x02, 0x3d,
  0x9e, 0x35, 0xcb, 0x3b, 0x57, 0x41, 0xa5, 0x3b, 0x4c, 0x65, 0x60, 0x3b,
  0xa3, 0x62, 0x4a, 0xbc, 0xdc, 0xf9, 0x66, 0x3a, 0x35, 0x17, 0xcb, 0xba,
  0x9c, 0x3e, 0x84, 0xbd, 0x9a, 0x3f, 0x74, 0x3b, 0xbf, 0xd6, 0x8e, 0xbb,
  0x19, 0xb2, 0x46, 0x3c, 0x1a, 0x55, 0x08, 0xbd, 0x4f, 0x81, 0x33, 0x3b,
  0x10, 0xc9, 0x02, 0x3b, 0x99, 0x88, 0xe6, 0xbb, 0x35, 0x47, 0x80, 0xbb,
  0x79, 0x16, 0x1b, 0xbd, 0x6e, 0x95, 0x79, 0x3c, 0x65, 0x38, 0x0c, 0x3d,
  0xac, 0x6d, 0x95, 0xbd, 0xae, 0xc7, 0x3e, 0xbb, 0x81, 0xa3, 0xc6, 0xbe,
  0xd4, 0xf2, 0x7a, 0x3c, 0xca, 0x98, 0xb0, 0xbb, 0x76, 0x7d, 0x66, 0xbd,
  0x7c, 0xb6, 0x43, 0x3a, 0xd1, 0xee, 0x1e, 0x3d, 0xa2, 0x66, 0x26, 0xbe,
  0x2d, 0xd1, 0x2c, 0xbe, 0x81, 0x7b, 0xff, 0xbb, 0x25, 0xd3, 0xf3, 0xbc,
  0x98, 0x48, 0xaf, 0xbd, 0x94, 0xdb, 0xe2, 0xbc, 0xd5, 0xb0, 0x49, 0xbd,
  0x1a, 0x10, 0x57, 0xbc, 0x64, 0x12, 0x27, 0xba, 0x19, 0x0b, 0x82, 0xbb,
  0xfb, 0x14, 0x84, 0xbc, 0x3c, 0x5e, 0xab, 0x3b, 0x23, 0xf2, 0x90, 0xbb,
  0x6c, 0xf4, 0xe9, 0x3b, 0xcf, 0x49, 0xbb, 0x3d, 0x44, 0x78, 0x3d, 0xbb,
  0x81, 0xab, 0x17, 0x3c, 0x89, 0xfb, 0x54, 0xba, 0x89, 0x1e, 0xc7, 0x3b,
  0x37, 0xa9, 0xc5, 0xbc, 0x87, 0x08, 0x03, 0x3c, 0x69, 0x34, 0x8d, 0xbe,
  0x3d, 0x6c, 0x8d, 0xbe, 0xe5, 0x46, 0x11, 0xbc, 0xbd, 0x37, 0x86, 0x3b,
  0x77, 0xe9, 0x69, 0xbb, 0x0c, 0xd0, 0xcf, 0x3b, 0x5e, 0xf8, 0x15, 0xbb,
  0xc6, 0xc8, 0x85, 0xbc, 0xe4, 0x0c, 0x1e, 0xbc, 0x69, 0xb1, 0x9d, 0x3c,
  0x8f, 0x8a, 0xd6, 0xbd, 0x3a, 0x5d, 0x5c, 0xbb, 0xba, 0xfb, 0xf1, 0x3c,
  0x90, 0xa5, 0xf8, 0x3a, 0x14, 0xeb, 0xe3, 0x3b, 0x71, 0x72, 0x9d, 0x3b,
  0x1f, 0x78, 0x2b, 0x3b, 0x90, 0x71, 0xe4, 0xbb, 0x03, 0x9c, 0xe5, 0xba,
  0x74, 0xe1, 0x43, 0x3b, 0x35, 0xa3, 0x45, 0x3c, 0xf5, 0xe0, 0x04, 0x3c,
  0xaf, 0xec, 0xcd, 0x3b, 0xfb, 0x38, 0x97, 0xbe, 0x5a, 0x5f, 0x94, 0x3b,
  0x8a, 0x04, 0x02, 0x3b, 0xc4, 0xc2, 0x0a, 0x3c, 0x9f, 0x04, 0x23, 0x3d,
  0xca, 0x29, 0x0b, 0xbd, 0xc1, 0x4a, 0x0d, 0xb9, 0x42, 0xec, 0x06, 0xba,
  0x70, 0xe7, 0xab, 0x3b, 0x96, 0x3b, 0x22, 0x3c, 0xd1, 0x84, 0x57, 0x3c,
  0x29, 0x04, 0x0a, 0xbd, 0x9b, 0x46, 0xc5, 0xbd, 0x31, 0x53, 0xe8, 0xbb,
  0x41, 0x65, 0xe3, 0x3c, 0x17, 0x8e, 0x9f, 0x3a, 0x3a, 0x38, 0xae, 0x3b,
  0x83, 0x4a, 0xca, 0x3b, 0x7a, 0xb1, 0x84, 0xbc, 0xf6, 0x6c, 0x62, 0xbd,
  0xd2, 0xad, 0x52, 0xbd, 0xc7, 0xa5, 0x5c, 0x3d, 0x91, 0xc9, 0x1c, 0xbc,
  0x01, 0x21, 0x40, 0x3c, 0xdc, 0x3c, 0x15, 0x3d, 0x8a, 0x8d, 0x0a, 0xbb,
  0x23, 0x44, 0x67, 0x3d, 0x80, 0xa7, 0x1f, 0xbc, 0xe2, 0x7d, 0x88, 0x3c,
  0xd7, 0x08, 0xf1, 0x3c, 0xff, 0x20, 0x06, 0x3c, 0xee, 0x2c, 0x02, 0xbc,
  0xc8, 0x2e, 0x9e, 0xbb, 0x2a, 0xc0, 0x57, 0x3c, 0x2b, 0x6d, 0x4d, 0x3b,
  0x87, 0x22, 0x6b, 0xbc, 0xdd, 0x34, 0x8d, 0x3c, 0x66, 0x04, 0xa4, 0x3c,
  0xc3, 0xad, 0xf6, 0xba, 0x02, 0x08, 0x86, 0x3b, 0x0c, 0x23, 0x19, 0x3c,
  0xc1, 0xb3, 0xa3, 0xbd, 0x18, 0x43, 0x31, 0x3d, 0xdd, 0x29, 0x1f, 0xbd,
  0x45, 0x36, 0xa5, 0x3b, 0x36, 0x6a, 0x34, 0xbc, 0x42, 0x0d, 0xa8, 0xba,
  0x48, 0x7a, 0xf4, 0x39, 0x99, 0x4d, 0xbc, 0x39, 0xdd, 0x8f, 0x3d, 0xbb,
  0x97, 0xb5, 0x31, 0x3b, 0xcd, 0xf7, 0x28, 0x3c, 0xb4, 0x2f, 0x28, 0x3c,
  0x3c, 0x94, 0x0a, 0xbe, 0x6a, 0x35, 0x17, 0x3b, 0xea, 0x3e, 0x12, 0x3c,
  0x20, 0x0c, 0x53, 0x3c, 0x08, 0x1c, 0x96, 0xbc, 0xbc, 0xbe, 0x31, 0x3b,
  0xb3, 0x48, 0x0c, 0x3c, 0x93, 0x60, 0x0f, 0xbc, 0x90, 0x48, 0x55, 0x39,
  0x00, 0xef, 0x8f, 0xbb, 0x06, 0x50, 0x11, 0xbb, 0x3f, 0x90, 0x44, 0xbe,
  0x3f, 0x5c, 0x0a, 0x3b, 0xe8, 0xe3, 0x22, 0xbb, 0x16, 0xee, 0xc7, 0x3a,
  0xb8, 0x00, 0x80, 0xbc, 0x16, 0x8b, 0x89, 0x39, 0xe6, 0x41, 0xd4, 0x3a,
  0x7a, 0x8f, 0x5a, 0xbc, 0xd4, 0x2f, 0x26, 0x3a, 0x38, 0x87, 0xdc, 0xba,
  0xc9, 0xb8, 0x74, 0xbd, 0x68, 0x86, 0x69, 0x3c, 0x13, 0xb9, 0xf4, 0x3c,
  0xe9, 0xd6, 0x3f, 0x3a, 0xbd, 0xa6, 0xaa, 0xbc, 0x2c, 0x1e, 0x89, 0x3b,
  0xf5, 0x51, 0xb2, 0xbb, 0xf9, 0x77, 0x05, 0x3b, 0xf0, 0x3c, 0xf3, 0x3b,
  0x2c, 0xb3, 0x83, 0xbe, 0x8c, 0x64, 0x80, 0x3d, 0x79, 0x4c, 0x64, 0x3d,
  0x4f, 0xd4, 0x4e, 0xbd, 0xe4, 0xf4, 0x71, 0x3c, 0x76, 0xae, 0x2b, 0xbe,
  0xc0, 0xe4, 0xd9, 0x3b, 0x09, 0xbd, 0x58, 0xbe, 0xb7, 0x7f, 0x40, 0xbb,
  0xbe, 0x4b, 0x64, 0xbd, 0x68, 0xf2, 0x12, 0x3b, 0x27, 0x84, 0xe8, 0xbb,
  0xec, 0x6a, 0xac, 0xbd, 0x55, 0x99, 0x95, 0xba, 0x50, 0x25, 0x77, 0xbc,
  0x0c, 0xe7, 0x95, 0xbd, 0x26, 0xae, 0x40, 0xbd, 0x05, 0x0a, 0xb4, 0xbb,
  0xc7, 0x36, 0x8d, 0xbc, 0xae, 0x84, 0xde, 0x3a, 0xbc, 0x49, 0xe2, 0xb6,
  0xe3, 0xde, 0xc6, 0x3c, 0xd6, 0xb7, 0x9d, 0xbc, 0xd1, 0xa9, 0xc4, 0xbe,
  0xf5, 0x6a, 0x44, 0xbd, 0x56, 0xb1, 0x6e, 0xba, 0x76, 0xe7, 0x23, 0xbb,
  0xe3, 0x8d, 0xf9, 0xba, 0xcf, 0x45, 0x13, 0xbb, 0x83, 0xfa, 0x82, 0x38,
  0xe6, 0x34, 0x0f, 0x3c, 0x86, 0x99, 0x6f, 0x3b, 0x01, 0x08, 0x36, 0xbd,
  0xf3, 0x08, 0xf9, 0xba, 0xfc, 0xd4, 0xcc, 0x3c, 0xfb, 0xbf, 0x8a, 0xbc,
  0xe6, 0xd4, 0xcb, 0xba, 0x9f, 0xa7, 0x70, 0xbc, 0x2a, 0x11, 0xd4, 0x3c,
  0x49, 0x10, 0x61, 0x3b, 0xc7, 0x32, 0x52, 0xbc, 0x09, 0x10, 0xb8, 0x3a,
  0xa0, 0xd6, 0xb6, 0xbb, 0xd6, 0x99, 0xa1, 0x38, 0x45, 0xd4, 0x40, 0xbb,
  0xe2, 0x07, 0x61, 0xbe, 0x82, 0x91, 0xea, 0x3a, 0x3b, 0xec, 0xd2, 0xbb,
  0x71, 0xed, 0xc0, 0x3c, 0xb2, 0x92, 0x84, 0x3c, 0xfb, 0xf4, 0xbb, 0x3b,
  0xd0, 0x72, 0x2d, 0x3b, 0xc5, 0xac, 0x89, 0x3b, 0x6a, 0x37, 0xa7, 0xba,
  0x13, 0x9b, 0x1d, 0xbe, 0x35, 0x34, 0x1a, 0xbd, 0xf7, 0xe5, 0xa5, 0x3b,
  0xbb, 0x5c, 0xe0, 0xbd, 0xb8, 0x43, 0xba, 0xba, 0xf0, 0xb6, 0xb3, 0xbe,
  0xdd, 0xff, 0xe1, 0x3b, 0xaa, 0x7f, 0xa6, 0xbb, 0x65, 0xce, 0xcc, 0xbb,
  0x81, 0xae, 0xa2, 0x3a, 0x04, 0xf3, 0x6b, 0x3c, 0xdb, 0x4d, 0x9d, 0xbe,
  0xfe, 0x89, 0x2c, 0xbe, 0x1b, 0x2f, 0xb1, 0x3c, 0xc4, 0xb1, 0xbd, 0xbd,
  0xda, 0x6e, 0xc2, 0x3c, 0x00, 0x77, 0xa7, 0xbb, 0xd6, 0x82, 0x05, 0x3e,
  0x29, 0x07, 0x56, 0xbc, 0xa5, 0x10, 0x3a, 0x3c, 0x49, 0xef, 0xa4, 0x3b,
  0x23, 0x68, 0x64, 0x3b, 0xcf, 0x47, 0x98, 0xbc, 0x2c, 0xb3, 0x44, 0xbb,
  0xdc, 0x0e, 0x93, 0xbb, 0x50, 0x3b, 0xa4, 0xbe, 0xb9, 0x7c, 0xb6, 0xbb,
  0x4b, 0x65, 0x8b, 0xbb, 0x1a, 0x1a, 0x93, 0x3b, 0x87, 0x89, 0x3e, 0x3b,
  0x1f, 0x3f, 0xf5, 0xbb, 0xef, 0x69, 0x34, 0x3b, 0x24, 0x61, 0x71, 0xbe,
  0xa8, 0x9e, 0x68, 0xbf, 0x02, 0x9e, 0xf3, 0xbb, 0x65, 0x65, 0xbf, 0x3a,
  0xb6, 0x0e, 0x0d, 0xbc, 0xc7, 0xd5, 0xde, 0x3a, 0xd5, 0x0f, 0xeb, 0xbb,
  0x74, 0xe6, 0x59, 0x3b, 0x6b, 0x95, 0x85, 0xba, 0x0f, 0x42, 0x08, 0xbb,
  0xd1, 0xec, 0x2e, 0x3c, 0xf6, 0xbb, 0xa6, 0x3b, 0x60, 0x7c, 0xb9, 0xbe,
  0xd5, 0xbc, 0xd8, 0x3b, 0x31, 0x22, 0x86, 0x3c, 0x39, 0x38, 0xc2, 0x3c,
  0x34, 0xc4, 0x10, 0xbd, 0xc5, 0x37, 0x42, 0x3b, 0x19, 0x1b, 0x7d, 0x3b,
  0x95, 0x5d, 0xfe, 0x3b, 0xe9, 0xd2, 0xde, 0x3b, 0xc0, 0x25, 0x59, 0x3c,
  0xa3, 0x19, 0x0c, 0x3b, 0xa0, 0x2c, 0x53, 0x3d, 0x13, 0xa0, 0x8c, 0x3c,
  0x79, 0x7b, 0x05, 0x3b, 0x3f, 0x5f, 0x24, 0xbd, 0x23, 0xd3, 0x97, 0x3b,
  0x83, 0x14, 0xf4, 0x3b, 0x69, 0x4c, 0xb4, 0xb9, 0xa7, 0x8a, 0xc2, 0xbb,
  0x0c, 0x55, 0x7f, 0xbc, 0x97, 0x3f, 0xf6, 0x3c, 0x63, 0xc7, 0x8a, 0xbd,
  0x51, 0xdd, 0x83, 0xbc, 0xb2, 0x04, 0xcc, 0xbc, 0x78, 0x1c, 0x99, 0x3b,
  0x1f, 0xbd, 0x25, 0x3d, 0x7d, 0x8e, 0x96, 0x3b, 0x9b, 0x44, 0x97, 0x3b,
  0x85, 0xdd, 0xa3, 0x3b, 0x24, 0x2b, 0x98, 0xbc, 0xe3, 0x04, 0x80, 0x3b,
  0x46, 0xd8, 0x63, 0xbd, 0x47, 0xbe, 0xa4, 0xbe, 0xc6, 0x04, 0xf6, 0x3a,
  0x6c, 0x13, 0xc4, 0x39, 0x4d, 0x0f, 0xaf, 0xbd, 0xfe, 0xe7, 0xb0, 0x3b,
  0x26, 0x8d, 0x0e, 0xbd, 0xe7, 0x10, 0x07, 0xbd, 0xff, 0x76, 0x3a, 0x3c,
  0x50, 0x6a, 0xbf, 0x3b, 0xcd, 0x68, 0xd3, 0xba, 0x4c, 0x76, 0xb8, 0xbc,
  0x8b, 0xfe, 0xea, 0xbb, 0xe9, 0xd2, 0x04, 0xbd, 0x9b, 0x84, 0x89, 0xbe,
  0xa4, 0x45, 0xbd, 0x3b, 0x07, 0x66, 0x6c, 0xbd, 0xd6, 0x01, 0x2f, 0x3c,
  0x6f, 0x98, 0x8c, 0x3b, 0xa7, 0xc3, 0x9f, 0xbd, 0xcb, 0xd7, 0x5e, 0x3c,
  0x4e, 0x22, 0xc3, 0xbd, 0xb5, 0xf1, 0xce, 0xbc, 0xe9, 0x83, 0x48, 0x3d,
  0x1f, 0x15, 0x44, 0x3a, 0x66, 0x27, 0xb1, 0xbd, 0x9f, 0xe9, 0xeb, 0xba,
  0x51, 0x58, 0x8a, 0xbc, 0x63, 0xaf, 0x3b, 0xba, 0x2c, 0x08, 0x88, 0x3a,
  0x92, 0x6c, 0x76, 0x3c, 0xe9, 0x5a, 0xa1, 0xbe, 0xc6, 0x3c, 0x70, 0x3c,
  0x60, 0x33, 0x4f, 0xbd, 0x6a, 0x81, 0xd3, 0xbb, 0x22, 0x63, 0xa2, 0x3a,
  0x3a, 0x7c, 0x7a, 0x3c, 0x47, 0x2c, 0xb7, 0x3c, 0xb1, 0x3b, 0x95, 0xbb,
  0x42, 0xe2, 0xf2, 0x3b, 0x88, 0x33, 0x89, 0x3b, 0x51, 0x0d, 0x37, 0xb9,
  0x86, 0x33, 0x94, 0x3b, 0x7b, 0xfc, 0x79, 0xbb, 0x83, 0xbb, 0xa4, 0xbd,
  0x3c, 0x4c, 0xa8, 0xba, 0x4e, 0x3d, 0x2c, 0x3b, 0x8f, 0xe7, 0xb4, 0xbc,
  0xfb, 0x5e, 0x05, 0x3c, 0x9d, 0x55, 0x75, 0xbc, 0xbe, 0xba, 0xf8, 0x3b,
  0x45, 0xbf, 0x18, 0x3c, 0x95, 0x44, 0x4a, 0xbb, 0x9d, 0xa8, 0x5e, 0x3d,
  0x64, 0x0a, 0xcb, 0xbc, 0xb4, 0xcf, 0x36, 0xbd, 0x69, 0x6b, 0x16, 0xbd,
  0xef, 0x78, 0xc2, 0x3a, 0xe5, 0xf3, 0x1b, 0x3c, 0x75, 0x32, 0x06, 0x3b,
  0xdf, 0x46, 0x60, 0xb9, 0x2a, 0x43, 0xaa, 0xbb, 0xf8, 0xd1, 0x20, 0xbd,
  0x35, 0x7f, 0xe6, 0xbd, 0x50, 0x4c, 0xeb, 0x3d, 0x87, 0x2d, 0xb8, 0xbb,
  0xe5, 0x92, 0x07, 0xbe, 0xac, 0xd6, 0xe4, 0x3c, 0x7d, 0x5a, 0x30, 0xbe,
  0x91, 0x2a, 0x28, 0x3c, 0x82, 0x69, 0x0f, 0xbc, 0xc1, 0xe7, 0x21, 0x3c,
  0xea, 0xd2, 0xaa, 0x3b, 0x31, 0x17, 0xb1, 0xbc, 0xd3, 0xff, 0xdb, 0x3c,
  0xc1, 0x65, 0x9d, 0xbc, 0x2f, 0x00, 0x93, 0xbc, 0x82, 0x53, 0xc7, 0xbc,
  0x28, 0x42, 0xf3, 0xbc, 0x69, 0x44, 0xe5, 0x3c, 0xd9, 0x83, 0xe4, 0x3c,
  0x5a, 0x76, 0x02, 0xba, 0x31, 0x16, 0x4d, 0x3c, 0x77, 0xa8, 0x36, 0x3a,
  0xb2, 0x18, 0x13, 0xbc, 0xb6, 0x20, 0x55, 0xbe, 0xf1, 0xaa, 0x9e, 0x3e,
  0x4e, 0xe9, 0x91, 0x3c, 0x16, 0xaa, 0x80, 0x3b, 0xca, 0x5c, 0x24, 0xbc,
  0x0f, 0x49, 0xc8, 0xba, 0x55, 0xc4, 0x79, 0x3b, 0xe8, 0xae, 0xbb, 0x37,
  0xc6, 0x08, 0xa2, 0x3c, 0x53, 0x40, 0xc8, 0x3b, 0xe8, 0x2d, 0xfd, 0x3c,
  0x7b, 0xbe, 0xf8, 0x3c, 0xa7, 0x39, 0x5b, 0xbc, 0xcb, 0x91, 0x8e, 0xbb,
  0xa1, 0x32, 0x15, 0x3c, 0x20, 0x8e, 0xb2, 0xba, 0x72, 0xab, 0x90, 0xbd,
  0x99, 0x51, 0x44, 0x3b, 0xd7, 0x4f, 0xa1, 0xbc, 0x1a, 0x05, 0xc3, 0xbb,
  0x5b, 0x6d, 0xf7, 0xba, 0x26, 0xfa, 0x6a, 0xba, 0x25, 0xd7, 0xb2, 0xba,
  0x68, 0x8d, 0xeb, 0xbc, 0x18, 0x1f, 0x8b, 0xba, 0x65, 0xcd, 0xaa, 0x3a,
  0x78, 0x4d, 0x82, 0x3d, 0x49, 0xe0, 0xd2, 0xbc, 0x5d, 0x6f, 0x0e, 0x3c,
  0x0f, 0x3f, 0x25, 0xbc, 0xf0, 0x1d, 0x04, 0x3d, 0x9a, 0xd0, 0xad, 0xb5,
  0xff, 0xc4, 0x65, 0x3c, 0xab, 0x65, 0xd3, 0x3c, 0x0c, 0xe9, 0xb8, 0x3d,
  0x53, 0xdd, 0x66, 0x3d, 0xf3, 0x82, 0x79, 0x3a, 0xab, 0xa1, 0x35, 0x3d,
  0xba, 0xf8, 0xe1, 0x3b, 0x3f, 0x7e, 0x0e, 0x3c, 0x21, 0xfc, 0xb0, 0xbb,
  0x0e, 0xee, 0x42, 0xbb, 0x6c, 0xa4, 0xdf, 0x3c, 0x01, 0x3b, 0xbf, 0xbd,
  0xa6, 0xb8, 0x0d, 0xbc, 0xed, 0x4a, 0x67, 0xbd, 0xcc, 0x35, 0xcc, 0xbb,
  0xa0, 0xbc, 0xab, 0xbd, 0xc6, 0xaa, 0x99, 0x3b, 0xb8, 0xe3, 0x16, 0x3e,
  0xa4, 0x6a, 0x69, 0x3d, 0x36, 0x8c, 0x0b, 0xbd, 0xfd, 0xa7, 0x50, 0x39,
  0xe0, 0x5b, 0x8e, 0x3c, 0xbd, 0x15, 0x3c, 0x3b, 0x61, 0x0a, 0x08, 0xba,
  0x8a, 0xa0, 0xb9, 0xbb, 0xc0, 0x8f, 0xf6, 0x3d, 0x61, 0x26, 0x91, 0x3d,
  0x2d, 0x12, 0xaa, 0xbc, 0x4e, 0xec, 0x41, 0x3b, 0xec, 0x4a, 0x4d, 0xbc,
  0x6d, 0x9e, 0x36, 0x3b, 0x5a, 0x6e, 0x85, 0x3c, 0xe7, 0x4b, 0xad, 0x3b,
  0x1a, 0xb8, 0x0f, 0x3e, 0xb5, 0xab, 0xb5, 0x3c, 0xf4, 0x76, 0xbd, 0x3b,
  0x88, 0x94, 0x00, 0xbc, 0x2e, 0x69, 0xea, 0xba, 0x9b, 0xa4, 0x6c, 0x38,
  0x9b, 0xc9, 0x1f, 0x3b, 0x39, 0xda, 0x0e, 0xbc, 0x64, 0x04, 0x51, 0x3c,
  0x60, 0x50, 0x12, 0x3c, 0xe4, 0xc5, 0xe6, 0xbc, 0x0c, 0x00, 0x76, 0xbb,
  0x3e, 0xb7, 0x9e, 0x3b, 0xe6, 0xfc, 0x15, 0xbb, 0xa0, 0xc7, 0x0f, 0x39,
  0x20, 0x0e, 0xb4, 0xbc, 0xc4, 0x59, 0xcf, 0x3b, 0x6d, 0x9b, 0xb9, 0xbc,
  0x86, 0x6f, 0xe8, 0xbb, 0x48, 0xc0, 0x25, 0xbd, 0x26, 0xd3, 0x03, 0xbc,
  0xd7, 0x3c, 0xe1, 0xba, 0xc6, 0x07, 0xbc, 0x3c, 0x0e, 0xca, 0xf9, 0xba,
  0xae, 0xd2, 0x42, 0xbb, 0xd2, 0x64, 0x19, 0xbc, 0xbb, 0x8d, 0x44, 0xbc,
  0x17, 0x4b, 0xdf, 0xba, 0x9e, 0x64, 0xd8, 0xba, 0x74, 0xd8, 0x41, 0x3c,
  0x21, 0x0f, 0x9e, 0xbc, 0xad, 0x2c, 0x04, 0x3d, 0x4b, 0xbb, 0xb0, 0xbb,
  0x92, 0xf0, 0xe2, 0xbc, 0x44, 0x00, 0x2c, 0xbe, 0x8e, 0xbd, 0x1c, 0x3b,
  0x50, 0xd9, 0x9a, 0xbd, 0x18, 0x01, 0xad, 0x3a, 0xbd, 0x97, 0x3b, 0xbc,
  0x3c, 0xbe, 0x18, 0xba, 0x68, 0x27, 0x19, 0xba, 0x05, 0xe5, 0x82, 0xbd,
  0x6f, 0xad, 0xe1, 0x3c, 0x26, 0x1e, 0x7e, 0xbe, 0x10, 0x7e, 0x1c, 0xbd,
  0xb0, 0xf1, 0x70, 0x3d, 0x68, 0x19, 0x0a, 0xbe, 0xb2, 0xf4, 0x2d, 0x3b,
  0x87, 0x78, 0x2f, 0xbe, 0xab, 0xf0, 0x05, 0x3c, 0x44, 0xdd, 0x0f, 0xbd,
  0x12, 0xd1, 0x55, 0x3c, 0xf7, 0xa4, 0x99, 0xbc, 0xb1, 0x25, 0x2c, 0x3c,
  0xb0, 0xd8, 0x3b, 0x3a, 0x81, 0x6d, 0xb2, 0xbd, 0x50, 0x9e, 0x8a, 0xbe,
  0x14, 0xbe, 0x1e, 0x3d, 0x8c, 0xc6, 0x15, 0xbc, 0x5f, 0x5f, 0x36, 0xbd,
  0xa3, 0x65, 0xbd, 0xba, 0x02, 0xa5, 0x50, 0xbc, 0x75, 0xba, 0x08, 0x3c,
  0x24, 0xf6, 0xd8, 0xbd, 0x89, 0x93, 0x78, 0x3e, 0xe9, 0x13, 0x2b, 0x3d,
  0xed, 0x4e, 0x98, 0xbb, 0xa1, 0x87, 0x7c, 0x3c, 0x07, 0x01, 0xa6, 0xbb,
  0xda, 0x70, 0xdb, 0x3b, 0xc1, 0xe1, 0x8e, 0x3b, 0x18, 0x2b, 0x84, 0x3b,
  0x22, 0x20, 0xf1, 0xbc, 0xe1, 0xf3, 0x09, 0xba, 0x46, 0x87, 0x84, 0x3c,
  0x1f, 0xaf, 0x2d, 0xbd, 0x95, 0x9c, 0xd9, 0xbb, 0x11, 0xe6, 0x43, 0xbc,
  0x42, 0xda, 0xad, 0x3b, 0x1a, 0xc2, 0xa1, 0x3c, 0xa6, 0xe8, 0xfe, 0xbb,
  0x62, 0x9a, 0x80, 0x3c, 0xdb, 0x30, 0xbb, 0xbb, 0x18, 0xd1, 0x23, 0x3b,
  0xd5, 0x4b, 0x58, 0x3b, 0x98, 0xf4, 0xb5, 0xbb, 0xca, 0xb4, 0x5c, 0xbd,
  0x3d, 0x71, 0xb0, 0xbc, 0x5a, 0x8e, 0x32, 0x3b, 0x0f, 0x7f, 0x20, 0x3b,
  0xed, 0xa0, 0x25, 0x3d, 0xa1, 0x90, 0x4b, 0x3c, 0x2a, 0x01, 0xc6, 0xbb,
  0x33, 0x33, 0xe5, 0xbd, 0xb5, 0x0d, 0x9a, 0xbb, 0x44, 0x98, 0xbe, 0x3b,
  0x0a, 0x0f, 0x3c, 0x3d, 0x51, 0x74, 0x8a, 0xbd, 0x02, 0x75, 0x46, 0x3b,
  0x94, 0x69, 0xf0, 0x3a, 0x12, 0x04, 0x08, 0x3e, 0xd4, 0x9a, 0xcf, 0x3b,
  0x21, 0xdd, 0xf6, 0x3a, 0xd1, 0x6f, 0x5f, 0x3b, 0x17, 0xc4, 0x85, 0x3b,
  0x0f, 0xf2, 0x26, 0x3d, 0x94, 0x28, 0x12, 0x3e, 0x61, 0xe5, 0x6d, 0x3c,
  0xc6, 0x5a, 0x6c, 0x3d, 0x42, 0xd9, 0xa3, 0x3a, 0x42, 0x6b, 0xf9, 0xbd,
  0x7a, 0x03, 0x0f, 0x3b, 0xed, 0x67, 0xaa, 0x3c, 0xc8, 0x36, 0x31, 0x3d,
  0xa9, 0x1b, 0x63, 0xbb, 0xa3, 0xf5, 0x9c, 0xbb, 0x3d, 0x92, 0xd5, 0xba,
  0x30, 0xc0, 0x70, 0xbd, 0xbf, 0x23, 0xee, 0x3b, 0x91, 0x88, 0xab, 0xbc,
  0x3b, 0x67, 0x29, 0x3d, 0xad, 0x7c, 0x86, 0x3c, 0xf1, 0x21, 0x1d, 0xbd,
  0x35, 0xd0, 0x82, 0x3a, 0x44, 0x40, 0x91, 0xbc, 0xde, 0x73, 0x5b, 0x3c,
  0xcd, 0x64, 0x76, 0xbd, 0xae, 0x22, 0xde, 0x3c, 0x65, 0x18, 0x70, 0xbf,
  0x09, 0x65, 0xce, 0x3c, 0x17, 0x67, 0xb5, 0xbb, 0x25, 0x70, 0x5d, 0xbd,
  0x09, 0x8e, 0x98, 0x3b, 0x48, 0xb4, 0x9b, 0xbb, 0x77, 0x5d, 0xbb, 0x39,
  0x69, 0x60, 0xed, 0xbc, 0xd1, 0xe6, 0x92, 0xbb, 0x9e, 0xbc, 0x02, 0xbd,
  0x23, 0x81, 0x6f, 0x3c, 0x52, 0x0a, 0x2d, 0xbd, 0x83, 0x7a, 0x22, 0xbd,
  0xe7, 0x2c, 0x12, 0xbc, 0x45, 0xdf, 0x7f, 0xbd, 0x81, 0xf9, 0xbe, 0xbc,
  0xe8, 0xe1, 0x1d, 0xbb, 0x1d, 0x30, 0x8c, 0x3a, 0xa8, 0x0f, 0x08, 0x3a,
  0x11, 0xde, 0xb0, 0x3a, 0x72, 0x35, 0x54, 0x3b, 0x44, 0x14, 0xec, 0x3a,
  0x35, 0x95, 0x20, 0xbe, 0x3d, 0x13, 0x9c, 0xbc, 0x5f, 0xd4, 0x9c, 0xbb,
  0x68, 0xb1, 0x42, 0x3d, 0x3f, 0xdf, 0xc6, 0x3c, 0x3f, 0x57, 0x11, 0xbb,
  0x7b, 0x01, 0x9e, 0xbc, 0x0c, 0xc4, 0x3a, 0xbb, 0x5b, 0x44, 0x65, 0x3b,
  0xfb, 0x2f, 0xb6, 0x3b, 0x1d, 0x30, 0x5b, 0xbd, 0x50, 0x2e, 0x02, 0x3c,
  0xd5, 0x2d, 0x68, 0x3d, 0xad, 0x9f, 0x96, 0x39, 0x6e, 0xa0, 0x55, 0xbc,
  0xc4, 0xdd, 0xa3, 0xbb, 0xb4, 0x70, 0xf4, 0xb9, 0x5a, 0x33, 0x81, 0xbc,
  0xbe, 0x8b, 0x71, 0xbc, 0x64, 0x03, 0x36, 0xbe, 0xd0, 0xae, 0x85, 0xbd,
  0xfe, 0x0a, 0x14, 0x3d, 0x00, 0x20, 0x4d, 0xbe, 0x7e, 0xe7, 0xc9, 0x3c,
  0x8c, 0x1c, 0xef, 0xbc, 0x03, 0x11, 0x51, 0xbc, 0x4a, 0xb2, 0x5e, 0x3d,
  0x92, 0xbe, 0xd7, 0xbc, 0x8b, 0x86, 0xae, 0xba, 0x12, 0x57, 0xd8, 0xbc,
  0xaf, 0xf2, 0xd6, 0x3c, 0x0f, 0xf1, 0x87, 0xbd, 0x8c, 0x38, 0xb4, 0xbb,
  0x05, 0xbe, 0x62, 0x3b, 0xc5, 0xd6, 0x67, 0x3c, 0x5b, 0xf0, 0xf0, 0xbb,
  0xb2, 0xde, 0xb2, 0xbd, 0x82, 0x48, 0x2f, 0xba, 0xc2, 0x86, 0x9c, 0xbc,
  0x4b, 0x1d, 0xa6, 0x3b, 0x4b, 0xb9, 0xee, 0xbc, 0xf5, 0xcf, 0x03, 0x3d,
  0x0c, 0xb5, 0xcb, 0xbd, 0xa5, 0xb9, 0x55, 0xbe, 0x9d, 0xef, 0xaa, 0x3a,
  0xdc, 0xdb, 0xe9, 0x3c, 0xf2, 0xa5, 0x0a, 0xbc, 0x3e, 0xd6, 0x4d, 0x3a,
  0x38, 0x6c, 0xf0, 0x3a, 0x34, 0x72, 0x81, 0xbb, 0xa5, 0x9c, 0x9d, 0x3b,
  0x00, 0xf7, 0x76, 0x3d, 0xc3, 0xab, 0xad, 0xbd, 0x57, 0xd9, 0xa2, 0xbe,
  0x22, 0x47, 0xe5, 0x3b, 0xea, 0x32, 0x1d, 0xbb, 0x49, 0x66, 0x40, 0xbb,
  0x97, 0x70, 0x4f, 0x3d, 0xf8, 0x50, 0xa6, 0x3b, 0x55, 0x86, 0x43, 0xbc,
  0xc3, 0x73, 0x1b, 0xbc, 0x09, 0x74, 0x15, 0xbb, 0xf6, 0x5b, 0xb4, 0xbb,
  0x56, 0xcf, 0x20, 0xbc, 0xf9, 0xac, 0x8a, 0xbd, 0x92, 0x88, 0xa6, 0xb8,
  0x70, 0x71, 0x0d, 0xbb, 0x97, 0xc8, 0x6b, 0xbb, 0x2f, 0x39, 0xa0, 0x3c,
  0x0b, 0xa0, 0x1f, 0x3c, 0xcf, 0x99, 0xfa, 0x3a, 0x37, 0x1c, 0x93, 0x3d,
  0xc8, 0x25, 0xf2, 0xba, 0x19, 0x4f, 0xa6, 0x3b, 0xbc, 0x3d, 0x63, 0xbd,
  0xa0, 0x95, 0x7a, 0xbd, 0x06, 0x1b, 0x1f, 0xbe, 0x0f, 0x0f, 0x46, 0x39,
  0xe8, 0x5d, 0x80, 0x3d, 0x6c, 0x33, 0x03, 0xbc, 0x9e, 0x80, 0xc5, 0xbb,
  0x67, 0x3c, 0x0e, 0xbd, 0x41, 0x2b, 0xee, 0x3b, 0x81, 0x52, 0x88, 0x3b,
  0x21, 0x27, 0x96, 0x3d, 0x15, 0xf3, 0xc6, 0xbc, 0x7c, 0x62, 0x97, 0x3a,
  0x05, 0xa6, 0x89, 0x3c, 0xff, 0x9a, 0x57, 0x3d, 0x3c, 0x08, 0xb3, 0xbb,
  0x9f, 0x10, 0x11, 0x3e, 0x7f, 0x43, 0xd4, 0x3c, 0x28, 0x12, 0x42, 0xbc,
  0xa9, 0x0c, 0x43, 0x3c, 0x07, 0xcc, 0xbc, 0xbc, 0xe0, 0x7e, 0x42, 0xbd,
  0x08, 0xb5, 0xff, 0x3a, 0xcd, 0xd9, 0x90, 0x3b, 0x9b, 0xf9, 0x14, 0xbd,
  0x09, 0x0e, 0x59, 0xbb, 0x91, 0xf9, 0xa7, 0xb9, 0x6f, 0xbc, 0x2c, 0xbd,
  0x1e, 0x7d, 0x8b, 0xbb, 0xd4, 0xe7, 0xd5, 0xbc, 0x6e, 0xde, 0xe6, 0x3b,
  0x39, 0x1d, 0x66, 0x3c, 0xe8, 0x8c, 0xd4, 0xbd, 0x00, 0x7b, 0xfd, 0x3c,
  0xda, 0xe0, 0x2b, 0xbc, 0xa9, 0xa3, 0xe6, 0x3c, 0xce, 0xb9, 0x4b, 0x3b,
  0xea, 0x01, 0x07, 0x3c, 0x9a, 0x7e, 0xcc, 0x3a, 0x5a, 0x15, 0x5d, 0x3a,
  0xc6, 0x7b, 0x4a, 0xbb, 0x70, 0x14, 0x46, 0x3d, 0x90, 0x24, 0xa5, 0x3c,
  0x87, 0xf5, 0xea, 0x3c, 0x2c, 0xb5, 0x80, 0xbd, 0x43, 0x8b, 0xed, 0xba,
  0x48, 0x5d, 0x8d, 0xbc, 0x2e, 0xa5, 0x25, 0xbd, 0xcd, 0xd3, 0x52, 0xba,
  0xbf, 0xc2, 0x0f, 0x3c, 0x4f, 0xd3, 0xf6, 0xba, 0x3a, 0x81, 0x4c, 0x3b,
  0xd4, 0x9f, 0xdb, 0xbb, 0xd2, 0x1d, 0x6c, 0x3b, 0x2e, 0x81, 0x2a, 0xbc,
  0x6a, 0x39, 0xee, 0xbc, 0xc5, 0x58, 0x29, 0x3b, 0xef, 0x4a, 0x2b, 0xbc,
  0x33, 0x1b, 0x89, 0xbc, 0x47, 0x6e, 0x8f, 0x3c, 0x9c, 0xfd, 0x21, 0xbb,
  0xdc, 0x7a, 0xcc, 0x3b, 0x93, 0xbf, 0x82, 0x3b, 0x5f, 0x4b, 0xe9, 0x3b,
  0x9d, 0x99, 0xac, 0x3c, 0x1c, 0x28, 0xa9, 0xbc, 0xd4, 0xb6, 0x24, 0xbd,
  0x8f, 0xdd, 0x22, 0x3a, 0x0a, 0xdd, 0x58, 0x3c, 0x1c, 0x7f, 0x1f, 0xbd,
  0x56, 0x2b, 0xcd, 0x3a, 0x86, 0x42, 0xcc, 0xbb, 0x99, 0x30, 0x11, 0x3c,
  0x8e, 0xcc, 0x30, 0x3b, 0xa3, 0xc3, 0xa6, 0xbe, 0x58, 0x78, 0x24, 0x3d,
  0xab, 0xa6, 0x52, 0xbc, 0x32, 0x40, 0x85, 0xbc, 0x00, 0xd0, 0xe5, 0x3c,
  0xb5, 0x3d, 0x7d, 0xbc, 0x5b, 0x9c, 0xbd, 0xbc, 0xe8, 0x40, 0x6d, 0xbd,
  0xe1, 0xe6, 0x22, 0xbc, 0x80, 0x58, 0xa0, 0xbc, 0xfe, 0x9d, 0xf5, 0x3b,
  0xd3, 0xaf, 0x25, 0xbc, 0x41, 0xa1, 0x3c, 0x3c, 0x4b, 0x89, 0x13, 0x3b,
  0x82, 0xed, 0x09, 0x3c, 0x83, 0x0e, 0x38, 0xbe, 0xef, 0xf5, 0xf7, 0xbb,
  0xa2, 0x04, 0xae, 0xba, 0x5f, 0x34, 0xc8, 0xbc, 0x12, 0xc4, 0xd7, 0x3c,
  0x3c, 0xe5, 0xa0, 0xbd, 0xbb, 0x6b, 0x8d, 0x3d, 0xf0, 0x54, 0xaa, 0xbe,
  0x5a, 0x04, 0xa8, 0x3c, 0x2a, 0xb7, 0xe9, 0x3b, 0x41, 0xea, 0x22, 0xbc,
  0xc8, 0xa2, 0x93, 0x3b, 0x53, 0xd5, 0x33, 0x3a, 0x17, 0x1b, 0x07, 0xba,
  0x06, 0x72, 0x99, 0x3b, 0xc1, 0x09, 0xc4, 0x3c, 0x5d, 0xf8, 0x98, 0x3c,
  0x87, 0x7b, 0xc8, 0xbc, 0x59, 0x9e, 0x04, 0x3e, 0x2a, 0xde, 0x72, 0xbc,
  0x92, 0x5d, 0xcc, 0x3c, 0x20, 0x94, 0xfe, 0xbc, 0x37, 0x24, 0xac, 0x3d,
  0x90, 0x1d, 0x23, 0x3c, 0xe3, 0xc5, 0x1b, 0xbb, 0xe8, 0x4b, 0x42, 0x3b,
  0x30, 0xd9, 0xcf, 0x3b, 0x8c, 0x6d, 0xb8, 0xbc, 0x60, 0x13, 0x8a, 0x3b,
  0xcb, 0x05, 0xe2, 0x3c, 0xa6, 0xe5, 0x43, 0x3c, 0x3b, 0x67, 0x70, 0x3b,
  0x34, 0x74, 0xba, 0x3c, 0x38, 0x68, 0xa5, 0xbd, 0xc0, 0x63, 0xd9, 0x39,
  0xa9, 0xb7, 0xc8, 0xb9, 0x3b, 0x7e, 0x0b, 0xbc, 0x4a, 0x20, 0xa5, 0x39,
  0x0b, 0xb2, 0x44, 0x3c, 0x46, 0x07, 0x9b, 0x3c, 0x7a, 0xf9, 0x85, 0x3d,
  0x90, 0x39, 0xc7, 0xbd, 0x97, 0x29, 0x65, 0xbb, 0xcb, 0xc9, 0x70, 0x3d,
  0x80, 0x55, 0x10, 0xbc, 0x54, 0xfb, 0x16, 0x3b, 0xe3, 0x9f, 0x47, 0x3b,
  0x71, 0x14, 0x5a, 0x3b, 0xdb, 0x02, 0xc1, 0xbb, 0x34, 0xbc, 0xe0, 0xbd,
  0xa3, 0x0f, 0xc5, 0xbc, 0xbd, 0x8c, 0x3e, 0xbc, 0xb9, 0xd0, 0x82, 0x3b,
  0x25, 0x2a, 0x41, 0xbd, 0x43, 0xcf, 0x0c, 0x3c, 0x95, 0xd6, 0x3e, 0xbc,
  0x29, 0x32, 0xae, 0xba, 0x8e, 0x2b, 0x85, 0x3c, 0x5d, 0xcc, 0x8f, 0xba,
  0x87, 0xbd, 0x01, 0xbc, 0xb5, 0xef, 0x48, 0x3c, 0xcf, 0xc0, 0x4e, 0x3b,
  0xec, 0x56, 0x8e, 0x3d, 0xda, 0xf7, 0xc1, 0xba, 0x22, 0x66, 0x46, 0x3d,
  0x47, 0xa3, 0xa5, 0x3c, 0x11, 0x16, 0x66, 0xbc, 0x6d, 0x8c, 0x36, 0x3b,
  0x8d, 0x2e, 0x3e, 0xbd, 0xbf, 0x8c, 0x18, 0x3d, 0x1e, 0xc3, 0x11, 0x3d,
  0x6a, 0x75, 0x45, 0x3e, 0xec, 0x52, 0x80, 0xbc, 0xf6, 0x09, 0x04, 0x3c,
  0x50, 0x83, 0x80, 0x3c, 0xb8, 0x1a, 0x42, 0xba, 0xd2, 0xa8, 0xef, 0x3b,
  0xd0, 0x7a, 0xed, 0x3a, 0x28, 0xed, 0x08, 0xba, 0x09, 0x9b, 0x28, 0x3c,
  0x6a, 0x90, 0x9e, 0xbd, 0xbd, 0x7a, 0xa2, 0xbb, 0x5b, 0xac, 0x41, 0x3e,
  0xbc, 0xa9, 0x25, 0xbd, 0xfe, 0x85, 0xbb, 0x3b, 0x26, 0x6c, 0xfa, 0xbc,
  0x9f, 0xa4, 0x00, 0x3d, 0x7f, 0x77, 0x1a, 0x3b, 0x6d, 0x7a, 0x3b, 0xbb,
  0x43, 0x93, 0xb9, 0x3a, 0x53, 0x72, 0xc4, 0x39, 0x98, 0x52, 0x51, 0xbc,
  0xb4, 0xfb, 0x55, 0xba, 0x60, 0xd4, 0xc7, 0xbc, 0xb1, 0x45, 0x14, 0x3c,
  0xaf, 0xca, 0x21, 0x3b, 0x6f, 0x6a, 0xd2, 0x3c, 0xfc, 0x88, 0x9e, 0xbd,
  0xfa, 0x37, 0x0a, 0xbb, 0x14, 0x4e, 0x4b, 0x3c, 0x24, 0x11, 0x06, 0xbb,
  0xc4, 0xf8, 0x7c, 0x3a, 0x22, 0xc5, 0x50, 0xbd, 0xca, 0x77, 0x6e, 0xbd,
  0x0e, 0x3f, 0x20, 0x3d, 0x3b, 0xf6, 0xeb, 0xbb, 0x47, 0x77, 0x67, 0x3a,
  0xd5, 0xb9, 0xae, 0xbd, 0x05, 0x5e, 0x06, 0x3c, 0x11, 0x42, 0x77, 0xbb,
  0xe7, 0x68, 0xf1, 0x39, 0xee, 0xfc, 0x1f, 0x3c, 0x1e, 0x23, 0x68, 0x3d,
  0x17, 0xf3, 0xcc, 0xbe, 0xf8, 0x07, 0x8c, 0xbc, 0xe3, 0xaa, 0x09, 0x3b,
  0x88, 0xc8, 0x19, 0xbb, 0xf4, 0x8a, 0x01, 0xbe, 0x2f, 0x12, 0x39, 0xbc,
  0x94, 0x1c, 0x62, 0xbd, 0xfa, 0xbf, 0x05, 0xbd, 0xc8, 0x1a, 0xff, 0x3a,
  0x20, 0xf6, 0xed, 0x3b, 0x72, 0x1e, 0xf4, 0xbc, 0xc5, 0x01, 0x1b, 0xbd,
  0x33, 0x2f, 0x06, 0x3c, 0x33, 0xf0, 0xc5, 0xbb, 0x50, 0x2b, 0x15, 0xbd,
  0xc6, 0xe9, 0x3c, 0xbe, 0x13, 0x79, 0xa6, 0x3b, 0xa3, 0x3f, 0x2a, 0xbc,
  0x28, 0x03, 0x49, 0x3c, 0xaf, 0x24, 0x30, 0xbc, 0x79, 0x88, 0xb6, 0x3c,
  0xd2, 0x6f, 0xaa, 0xbd, 0xbe, 0x20, 0x8b, 0x3e, 0x1f, 0x31, 0x60, 0xbc,
  0x87, 0xe1, 0x36, 0x3c, 0x30, 0x20, 0x0a, 0x3c, 0xa8, 0x45, 0xb5, 0x39,
  0x4d, 0xa2, 0xaf, 0xbb, 0x6e, 0xa3, 0x1f, 0xba, 0xb5, 0xb9, 0xed, 0x3b,
  0x48, 0x21, 0x21, 0x3b, 0xe1, 0xe1, 0xd6, 0xbc, 0x56, 0xb5, 0x3a, 0xbc,
  0x22, 0xc1, 0x05, 0x3e, 0x4c, 0x36, 0xe2, 0xbc, 0x19, 0x8c, 0x9b, 0x3b,
  0x0a, 0x67, 0xc2, 0xba, 0x70, 0x0f, 0x83, 0x3d, 0x1b, 0xf6, 0xe8, 0xbb,
  0xe6, 0x2a, 0x69, 0x3b, 0x29, 0x7f, 0x27, 0x3b, 0x88, 0xe5, 0x28, 0x3a,
  0x07, 0x7d, 0x53, 0xbc, 0x2c, 0x2a, 0x34, 0xb8, 0x52, 0x02, 0x10, 0xbd,
  0xea, 0xf4, 0x28, 0xbb, 0x4f, 0x45, 0x9b, 0x3a, 0xd7, 0xe1, 0x07, 0xba,
  0x4d, 0x96, 0x26, 0x3d, 0x53, 0x9a, 0xee, 0xbc, 0x4c, 0x1f, 0x06, 0x3c,
  0xcb, 0x62, 0x07, 0xbd, 0x99, 0xa0, 0x36, 0xbb, 0xee, 0x15, 0xec, 0x3c,
  0xec, 0x93, 0xbd, 0xbc, 0xc9, 0x27, 0xec, 0xbc, 0xa3, 0x31, 0x77, 0xbd,
  0xb0, 0x8b, 0xf3, 0x3b, 0x90, 0x84, 0xfb, 0xbc, 0xa2, 0x48, 0x95, 0x3c,
  0x3c, 0xcc, 0xc5, 0xba, 0x72, 0xcc, 0xa4, 0x3b, 0xc4, 0x64, 0xe2, 0xbb,
  0x73, 0x4b, 0xcd, 0x3c, 0x2b, 0x40, 0x8a, 0x3e, 0x77, 0x45, 0x04, 0xbe,
  0x57, 0x95, 0xa7, 0x3c, 0x51, 0x91, 0x74, 0x3c, 0x51, 0x5f, 0x44, 0xbd,
  0xa7, 0x71, 0xcf, 0xbb, 0x86, 0xbb, 0xaf, 0x3d, 0x2c, 0xaa, 0x62, 0x3d,
  0x42, 0x6a, 0xd4, 0xba, 0xfc, 0xad, 0x97, 0x3c, 0x6a, 0x8c, 0x15, 0xbc,
  0x56, 0xe1, 0x73, 0xbd, 0xbd, 0xad, 0x91, 0xbb, 0x24, 0xa9, 0x63, 0x3a,
  0x4d, 0x18, 0x24, 0xbd, 0xe5, 0x80, 0x8c, 0xbd, 0x2e, 0x84, 0x52, 0x3d,
  0x66, 0xe5, 0xfa, 0xba, 0x78, 0x05, 0x7e, 0x3c, 0xbd, 0xea, 0x32, 0xbd,
  0xca, 0x78, 0x02, 0xbc, 0x21, 0x82, 0xfc, 0x3d, 0x6f, 0x27, 0xa0, 0xbc,
  0x4b, 0x59, 0x10, 0x3d, 0x35, 0xef, 0x65, 0xba, 0x23, 0xfe, 0xfa, 0xbb,
  0xea, 0x17, 0xaf, 0xba, 0x5f, 0xcf, 0x2d, 0xbc, 0x30, 0xf2, 0x0c, 0xbb,
  0xaa, 0x87, 0x06, 0xbd, 0x4c, 0x69, 0x96, 0xba, 0x56, 0x76, 0x6f, 0xbd,
  0x96, 0x99, 0x8e, 0xbc, 0x3a, 0xf6, 0x0a, 0xbc, 0x11, 0x3f, 0xc9, 0xbb,
  0xf6, 0x68, 0x92, 0xbc, 0x93, 0x98, 0xaf, 0x3b, 0x52, 0xd5, 0x8a, 0x3b,
  0x2d, 0x6e, 0x40, 0xba, 0xd4, 0x04, 0xf0, 0x3b, 0x49, 0x4e, 0x92, 0x3a,
  0xa1, 0x24, 0xc1, 0xbb, 0x01, 0x2d, 0x09, 0x3c, 0x5c, 0xa9, 0xc5, 0xba,
  0xe8, 0x83, 0x24, 0x3d, 0xf6, 0xcd, 0xb3, 0xbc, 0x70, 0x3f, 0x34, 0xbc,
  0x0d, 0x47, 0x5a, 0x3c, 0x49, 0x86, 0xa1, 0x3c, 0xa1, 0x87, 0x6e, 0xbb,
  0xd0, 0xa2, 0x1b, 0x3b, 0x4b, 0x7e, 0x8c, 0xbb, 0x28, 0x59, 0xab, 0xbc,
  0x9d, 0xdb, 0x14, 0x3d, 0x37, 0xfc, 0x47, 0xba, 0xd0, 0xcf, 0x01, 0x3c,
  0x50, 0xe8, 0xee, 0xbc, 0xaa, 0x3a, 0xde, 0xba, 0x91, 0xcd, 0xd0, 0xbc,
  0xfe, 0x09, 0x15, 0xbc, 0xcb, 0xf8, 0x98, 0xbc, 0x25, 0x4b, 0xb8, 0xbb,
  0xa5, 0x66, 0xd3, 0xbc, 0x9b, 0x9f, 0x81, 0xbc, 0x2f, 0x2f, 0x6a, 0x3d,
  0x82, 0x2b, 0x4a, 0xbd, 0x2c, 0x93, 0x49, 0xbe, 0x59, 0xca, 0xbf, 0xbc,
  0xf8, 0x23, 0x09, 0x3d, 0x05, 0x0e, 0x81, 0x3a, 0x72, 0x05, 0xa5, 0x3d,
  0x48, 0x3e, 0xf0, 0xbd, 0x52, 0x8e, 0x16, 0x3c, 0x95, 0x7c, 0x89, 0xbc,
  0x9e, 0xfe, 0xa3, 0x3b, 0x2b, 0x66, 0x10, 0x3d, 0x41, 0xca, 0xd0, 0xbc,
  0x5f, 0xbb, 0x2b, 0xbe, 0x5b, 0x42, 0x82, 0x3d, 0xae, 0xac, 0x85, 0x3c,
  0xba, 0x9a, 0x3f, 0xbc, 0x7a, 0x7b, 0x9a, 0xbb, 0xb2, 0x50, 0x7b, 0x3b,
  0x8c, 0x6a, 0x5f, 0xbd, 0x9f, 0xbb, 0xaa, 0xbc, 0x85, 0xc3, 0x87, 0x3c,
  0x93, 0xad, 0x28, 0xbe, 0xed, 0x3e, 0xdf, 0xbc, 0x11, 0xcd, 0x46, 0xba,
  0x2d, 0xc9, 0x14, 0x3c, 0xe7, 0x8f, 0x7c, 0x3b, 0xc9, 0xb4, 0xa1, 0xbb,
  0xec, 0x25, 0x07, 0xbb, 0xfa, 0xd3, 0x12, 0x3b, 0x69, 0x3c, 0xa0, 0x3b,
  0x34, 0x44, 0x90, 0x3d, 0x03, 0x76, 0xab, 0xbc, 0xc3, 0x0a, 0xb6, 0xbc,
  0x48, 0x6d, 0x0d, 0xbc, 0x55, 0xf7, 0x5c, 0xbb, 0x98, 0x0b, 0x82, 0xbb,
  0x6f, 0xc8, 0xb8, 0x3c, 0xd7, 0xf1, 0x13, 0x3a, 0x1d, 0x93, 0xdb, 0xba,
  0x50, 0x3c, 0xd1, 0x3b, 0xb6, 0xa2, 0x93, 0xbb, 0x74, 0xd7, 0x0b, 0xbc,
  0x8b, 0x7e, 0x99, 0x3b, 0x55, 0xeb, 0x26, 0x3d, 0xca, 0x2f, 0xbc, 0x3a,
  0xf9, 0x17, 0x8e, 0xba, 0xef, 0xe1, 0x26, 0xbc, 0xd0, 0x3d, 0xec, 0x3c,
  0xbc, 0xac, 0xeb, 0x3a, 0x43, 0xca, 0x64, 0xbb, 0xf1, 0x9b, 0x14, 0x3b,
  0x48, 0xcc, 0x53, 0xbb, 0x4f, 0xdc, 0xe3, 0xbd, 0x35, 0x97, 0xab, 0x3a,
  0x93, 0xbe, 0x10, 0x3c, 0x9c, 0x15, 0x24, 0x3d, 0xaf, 0x69, 0x86, 0xbb,
  0x29, 0x0c, 0x5a, 0x3b, 0x71, 0xe6, 0x72, 0xbb, 0xa2, 0x88, 0x26, 0xbc,
  0x54, 0xa8, 0x8d, 0x39, 0x64, 0xfa, 0x66, 0xbc, 0xa8, 0x27, 0x83, 0xbe,
  0x6c, 0xf4, 0x94, 0xbe, 0x49, 0x3d, 0x4c, 0x3d, 0x86, 0x1c, 0x04, 0xbe,
  0x35, 0x97, 0x60, 0x3c, 0x15, 0x0c, 0xdf, 0xbd, 0xf8, 0x54, 0x55, 0xbb,
  0xf9, 0xce, 0x5a, 0xbd, 0xc4, 0x6f, 0xf9, 0x3c, 0x7e, 0xed, 0x99, 0x3c,
  0x5c, 0x47, 0x30, 0xbc, 0x2e, 0xc6, 0x12, 0x3c, 0x6a, 0x6a, 0xaf, 0xbc,
  0x8c, 0x8b, 0x63, 0xbc, 0xba, 0x80, 0xbb, 0xbb, 0x56, 0x29, 0x40, 0xbd,
  0xc0, 0xf6, 0x24, 0xbd, 0x05, 0x7c, 0x53, 0xbe, 0x6d, 0xd5, 0x46, 0xbc,
  0x7e, 0xba, 0xa3, 0xba, 0x39, 0xbe, 0x06, 0x3c, 0xb6, 0x0b, 0x47, 0xbc,
  0xde, 0xe6, 0x2c, 0xbc, 0xc6, 0x7c, 0xad, 0xbd, 0x00, 0x78, 0x1c, 0x3d,
  0x17, 0xd2, 0xe2, 0xbc, 0x13, 0xb6, 0x5f, 0x3b, 0x4b, 0xd1, 0x82, 0xbb,
  0xde, 0xfd, 0x98, 0xb9, 0xc3, 0xbc, 0x34, 0xbd, 0xb8, 0x7c, 0x2e, 0x3b,
  0x19, 0xfe, 0x2d, 0xbd, 0x4a, 0x87, 0x8d, 0xbd, 0x91, 0x81, 0x93, 0xbc,
  0x81, 0xd4, 0xea, 0x3c, 0xb2, 0xf8, 0xdb, 0xbc, 0x13, 0x4e, 0x81, 0xb9,
  0xe7, 0x6d, 0x14, 0x3c, 0xb0, 0x04, 0x3e, 0xbe, 0x9d, 0x62, 0x95, 0x3b,
  0x45, 0xd6, 0x70, 0xbd, 0x9b, 0x12, 0x17, 0xbc, 0xd5, 0xfe, 0x42, 0xbc,
  0x93, 0x9a, 0xa0, 0xba, 0x66, 0x86, 0x92, 0xbc, 0x97, 0xbb, 0xbe, 0xbc,
  0x45, 0x63, 0xf6, 0x3a, 0xe1, 0x1e, 0x7c, 0xba, 0x57, 0xbe, 0x19, 0xbb,
  0x4c, 0x41, 0x55, 0x3a, 0xc9, 0x12, 0xf3, 0xbc, 0x44, 0x77, 0x5a, 0xb9,
  0x0e, 0xe5, 0x42, 0x3d, 0xef, 0xcf, 0xf0, 0xbc, 0x3d, 0x8a, 0x53, 0xbc,
  0xf1, 0x86, 0x8a, 0xbb, 0xb1, 0xef, 0x69, 0x3d, 0x8b, 0x3c, 0x38, 0xbd,
  0x0c, 0x9a, 0x4f, 0xbb, 0x1e, 0x0e, 0x08, 0xbd, 0x2c, 0x1c, 0xe1, 0xbc,
  0xf7, 0x2c, 0xcf, 0xbb, 0xd2, 0x87, 0x91, 0xbc, 0x85, 0xec, 0x83, 0xb9,
  0xdc, 0xe2, 0x56, 0xbc, 0x9f, 0xc1, 0x34, 0x3c, 0xe2, 0xae, 0x86, 0x3c,
  0x4b, 0xa7, 0x01, 0xbf, 0x3d, 0xc0, 0xd5, 0xbb, 0xd0, 0xc1, 0x56, 0x3c,
  0xf7, 0x6d, 0x88, 0xbb, 0x81, 0x80, 0x30, 0xbc, 0xdc, 0xe7, 0x8a, 0xbb,
  0xf6, 0xb0, 0x63, 0xbc, 0x27, 0xa1, 0xe5, 0xbc, 0x80, 0xe7, 0x23, 0xbb,
  0x3a, 0x6a, 0x93, 0xbb, 0xfd, 0xba, 0x00, 0x3a, 0xad, 0x3e, 0xcc, 0xbd,
  0x8b, 0x3c, 0x2c, 0x3c, 0x20, 0x69, 0x9f, 0x3c, 0x17, 0x03, 0x6b, 0xbb,
  0xb4, 0xc2, 0x3f, 0xbc, 0xa9, 0xbb, 0x9b, 0x3a, 0xa7, 0x24, 0x74, 0xbb,
  0x11, 0xea, 0xa9, 0xba, 0x66, 0x7b, 0x60, 0xbd, 0x9d, 0x3c, 0xe3, 0xbd,
  0xf3, 0x3f, 0x21, 0xbd, 0xe7, 0x57, 0xbe, 0xba, 0x78, 0xf7, 0x1e, 0x3c,
  0x2d, 0x58, 0x4c, 0x3b, 0x7b, 0x8f, 0x79, 0xba, 0x5d, 0x80, 0x61, 0xbb,
  0x1d, 0xb3, 0xb3, 0xbb, 0xaf, 0x45, 0xcd, 0xbd, 0x80, 0x48, 0xfa, 0x3c,
  0xc3, 0x56, 0x9b, 0x3c, 0x42, 0xa5, 0xb0, 0xbe, 0x28, 0x82, 0xbf, 0x3b,
  0xce, 0xe7, 0xcc, 0xbb, 0x43, 0xa8, 0xb8, 0x3b, 0xce, 0x83, 0x49, 0x3b,
  0x20, 0x93, 0xfc, 0xbb, 0x2b, 0xa1, 0xb2, 0x3a, 0xcf, 0xb1, 0x4c, 0xbb,
  0x10, 0x32, 0x30, 0x3b, 0x0a, 0x09, 0xe7, 0xb9, 0xf2, 0x16, 0x91, 0x3b,
  0x1c, 0x8f, 0xdb, 0xbe, 0xea, 0x16, 0xaa, 0xbb, 0x40, 0xa5, 0x03, 0x3b,
  0x4c, 0x4e, 0x0c, 0xbd, 0xb0, 0x05, 0xac, 0xbc, 0x4f, 0xc2, 0xd4, 0xbc,
  0x53, 0x8c, 0xa0, 0xbc, 0x60, 0x0c, 0xdd, 0xbc, 0x5b, 0x3c, 0xab, 0x3c,
  0xe5, 0x36, 0xdb, 0x3c, 0xd0, 0x09, 0xe0, 0x3c, 0x53, 0xa2, 0x48, 0xbd,
  0xef, 0x4c, 0x05, 0xbd, 0xa0, 0xf3, 0xd5, 0xba, 0x14, 0xb9, 0x1c, 0x3d,
  0xa5, 0x41, 0x97, 0x3b, 0x97, 0x6a, 0x9f, 0xb8, 0x96, 0x73, 0x21, 0x3b,
  0x9b, 0x31, 0x01, 0xbc, 0x3c, 0xfc, 0x18, 0xbe, 0x8d, 0xea, 0x8b, 0x3d,
  0x5c, 0xe7, 0x6c, 0xbc, 0x1c, 0x89, 0x41, 0xbd, 0x96, 0x5e, 0x9b, 0x3c,
  0x60, 0x54, 0xb0, 0x3d, 0x51, 0x68, 0x2a, 0x3c, 0x01, 0xf6, 0x5e, 0x3d,
  0x13, 0x52, 0xe5, 0x3c, 0x57, 0x0f, 0x23, 0x3c, 0x8c, 0x7c, 0xf6, 0xbb,
  0x48, 0x60, 0x13, 0x3a, 0x52, 0x40, 0x80, 0xbd, 0x30, 0xdc, 0x08, 0xbb,
  0x2a, 0xd7, 0x9a, 0xbc, 0xb9, 0x52, 0x8a, 0xbd, 0x43, 0x27, 0x23, 0xbd,
  0x6c, 0xa1, 0x5f, 0x3c, 0x3d, 0x14, 0x31, 0xbc, 0x16, 0x89, 0xaa, 0xbc,
  0x62, 0x8f, 0x96, 0x3c, 0x1a, 0x4b, 0x62, 0xbc, 0x2c, 0xf4, 0xf1, 0x3c,
  0x92, 0xa2, 0x05, 0x3e, 0xfa, 0x4e, 0xe5, 0xbd, 0x93, 0x14, 0x60, 0x3b,
  0x4c, 0x7c, 0xe5, 0x3b, 0x3c, 0xc7, 0x28, 0x3b, 0x45, 0x8e, 0xaa, 0x3b,
  0xb7, 0xa6, 0x44, 0x3a, 0x7c, 0x90, 0x7d, 0x3b, 0xba, 0x38, 0x17, 0x3b,
  0xe3, 0x7d, 0x9f, 0x3b, 0xab, 0x7e, 0xe9, 0x3b, 0xe8, 0xf1, 0x94, 0xbd,
  0xa1, 0xb5, 0xb4, 0xbb, 0x13, 0x28, 0x32, 0xbb, 0xec, 0x53, 0x81, 0xbd,
  0x95, 0x55, 0x8e, 0xbc, 0x36, 0x1c, 0x5a, 0x3a, 0x88, 0xd4, 0x8a, 0xbd,
  0x95, 0x4c, 0xa0, 0xbb, 0x2b, 0xfc, 0x09, 0x3a, 0x7a, 0x10, 0xf3, 0x3a,
  0x23, 0xf8, 0x04, 0x3b, 0xda, 0x2e, 0x69, 0x3d, 0x15, 0xda, 0x28, 0xbb,
  0x98, 0x34, 0x7a, 0x3b, 0xae, 0x57, 0x18, 0x3c, 0x93, 0x38, 0xac, 0x3c,
  0x68, 0xdc, 0x03, 0x3b, 0x80, 0xbd, 0xac, 0xbb, 0xce, 0x9f, 0x03, 0x3c,
  0x9b, 0x78, 0x22, 0x3b, 0xb1, 0x34, 0x2c, 0xbb, 0xc8, 0xf4, 0x68, 0x3d,
  0x57, 0xeb, 0x23, 0x3c, 0xc0, 0x5f, 0xf7, 0x3c, 0x90, 0x75, 0xa7, 0x3a,
  0xb8, 0xfe, 0x23, 0x3b, 0xe5, 0x70, 0x01, 0x3b, 0xe6, 0xe5, 0x56, 0x3b,
  0x90, 0x4e, 0x98, 0xb9, 0x52, 0x26, 0x90, 0x3b, 0xf2, 0xd5, 0x21, 0x3d,
  0xd3, 0xfc, 0x17, 0x3d, 0xc3, 0x64, 0x82, 0xbd, 0xaa, 0x81, 0x8a, 0x3d,
  0x1e, 0x2e, 0x9c, 0xbc, 0x8c, 0xaf, 0x25, 0xbe, 0x41, 0xf8, 0x48, 0xbb,
  0x00, 0xad, 0x9d, 0x3d, 0x1a, 0x55, 0x2b, 0x3d, 0xc5, 0xc6, 0xe0, 0xbc,
  0x8a, 0xf0, 0xbd, 0x3c, 0xe5, 0x70, 0x9b, 0x3c, 0x39, 0x5c, 0x43, 0x3d,
  0xb1, 0x6e, 0xb8, 0x3b, 0x01, 0x21, 0x9f, 0x3c, 0x03, 0xeb, 0x54, 0x3e,
  0x62, 0x96, 0x12, 0x3d, 0x0a, 0x7e, 0xfe, 0xbc, 0xc9, 0xd4, 0x92, 0xbc,
  0x74, 0x32, 0x08, 0xbc, 0x28, 0x81, 0xe7, 0x3b, 0xf9, 0xd6, 0x75, 0xbc,
  0x53, 0xf3, 0xee, 0x3c, 0x96, 0xdd, 0x19, 0x3d, 0x63, 0x6f, 0xbb, 0x3c,
  0x11, 0x7d, 0x2d, 0xbd, 0xde, 0x02, 0xc1, 0xbb, 0x6a, 0xe7, 0x15, 0xbc,
  0x49, 0x49, 0x68, 0x3b, 0x1d, 0x6d, 0x95, 0x3b, 0x13, 0x85, 0xdd, 0xbc,
  0x5f, 0xb6, 0x0e, 0xba, 0x37, 0xda, 0x60, 0x3c, 0x58, 0xee, 0xf9, 0xbb,
  0x64, 0xfe, 0x80, 0x3d, 0xf9, 0x50, 0xbb, 0x3b, 0xf9, 0x78, 0x82, 0xbd,
  0x28, 0x7e, 0xaf, 0x3c, 0x48, 0xaf, 0x87, 0xbc, 0x04, 0x8e, 0x8a, 0x3b,
  0x7b, 0x0f, 0x5f, 0xbb, 0xa5, 0x74, 0x92, 0x3a, 0xdf, 0x8f, 0x22, 0xbb,
  0xea, 0x2c, 0x72, 0x3b, 0xd3, 0x66, 0x08, 0xbc, 0x8e, 0x5c, 0xea, 0x3d,
  0xda, 0xc7, 0x54, 0xbb, 0x55, 0x2e, 0x1a, 0x3b, 0x2a, 0x43, 0xcf, 0xbc,
  0xd6, 0x7f, 0x13, 0x3c, 0x69, 0x8e, 0x17, 0x3c, 0xd7, 0xca, 0x2d, 0x3b,
  0xb5, 0xe8, 0xff, 0xbb, 0x22, 0x4b, 0xa0, 0x3b, 0x2b, 0x0b, 0x40, 0x3d,
  0x44, 0x6b, 0xb7, 0x39, 0xf3, 0xee, 0x15, 0xbb, 0xb9, 0xda, 0x49, 0xbd,
  0x5a, 0x44, 0x3b, 0x3b, 0x50, 0x06, 0x2f, 0xbd, 0x56, 0x53, 0x48, 0xbc,
  0x7f, 0x63, 0xbf, 0xb9, 0x3c, 0x05, 0x1a, 0xbc, 0x73, 0xb2, 0xbb, 0x3b,
  0x6d, 0x9e, 0x1a, 0xbd, 0xbe, 0xc2, 0x4b, 0xbe, 0x32, 0xdb, 0x25, 0xbd,
  0x87, 0xff, 0x77, 0xbc, 0x7a, 0xb8, 0x37, 0xbd, 0x16, 0x0c, 0x80, 0x3d,
  0x34, 0x1f, 0xac, 0xbc, 0xdc, 0xa6, 0xc6, 0xbd, 0x4b, 0xf3, 0x97, 0xbd,
  0xac, 0x48, 0xb8, 0xbc, 0x2b, 0x11, 0x36, 0xbd, 0xf7, 0x55, 0xac, 0x39,
  0xb3, 0xb9, 0xa9, 0xbc, 0xcb, 0x72, 0xba, 0x3b, 0x62, 0xf3, 0xe0, 0x3b,
  0x39, 0x01, 0x8e, 0xbc, 0xfa, 0x2c, 0xd6, 0xbd, 0x2f, 0xe5, 0xde, 0x3c,
  0x5b, 0x60, 0xe0, 0xbb, 0x8b, 0xed, 0x29, 0x3b, 0x06, 0x64, 0x9f, 0xbc,
  0x11, 0x3e, 0x17, 0xbd, 0x53, 0xef, 0xbc, 0xbb, 0x0f, 0x74, 0xdb, 0xbd,
  0xb0, 0x92, 0x00, 0xbc, 0xdd, 0xa3, 0x7e, 0xba, 0x57, 0xfe, 0x80, 0xbd,
  0x17, 0xaf, 0x8c, 0xbb, 0xbb, 0x91, 0xd7, 0xbb, 0x2a, 0x68, 0xc1, 0x3a,
  0xc8, 0xe5, 0x02, 0x3c, 0x71, 0x99, 0x19, 0xba, 0x72, 0x7b, 0x40, 0x3c,
  0x4a, 0x63, 0x89, 0x3c, 0xf0, 0x65, 0xe9, 0xbd, 0x58, 0xc1, 0x5d, 0xbb,
  0x72, 0xa8, 0xb4, 0x3b, 0xf4, 0xcd, 0x20, 0xbb, 0x52, 0x93, 0xe5, 0xbc,
  0x0a, 0xef, 0xb7, 0x3a, 0x5e, 0xc3, 0xa7, 0x3b, 0x98, 0x95, 0x9f, 0xbb,
  0xba, 0x16, 0x3a, 0x3a, 0x8c, 0x10, 0x3b, 0xbc, 0x9f, 0xfc, 0x7c, 0xbb,
  0xe2, 0x34, 0x76, 0xbd, 0x22, 0x18, 0xa4, 0xbc, 0x76, 0x25, 0x98, 0x3a,
  0xbe, 0x22, 0x3b, 0xbc, 0x66, 0x17, 0x79, 0xbd, 0x5e, 0x99, 0xaa, 0xbb,
  0x01, 0x7b, 0x97, 0xbd, 0x8e, 0x1b, 0x21, 0x3c, 0x67, 0x37, 0xc4, 0xb9,
  0x8b, 0xcc, 0xa0, 0xbc, 0x43, 0xad, 0x06, 0xbe, 0x1a, 0x21, 0xc4, 0x3b,
  0x5e, 0x30, 0x81, 0x3c, 0x57, 0x23, 0x06, 0x3b, 0x34, 0x8c, 0x3a, 0xbc,
  0x68, 0x5e, 0xde, 0x39, 0x14, 0xb0, 0xcd, 0xbb, 0xb4, 0xef, 0x96, 0xba,
  0xd0, 0x86, 0x29, 0xbd, 0x39, 0x12, 0x95, 0xbc, 0xdd, 0xe1, 0x19, 0x3e,
  0x60, 0x42, 0x86, 0xbc, 0xe0, 0x3b, 0x90, 0xbc, 0xcc, 0x3d, 0xd5, 0xba,
  0xf6, 0x88, 0x97, 0xbe, 0x68, 0x05, 0x24, 0x3b, 0xf5, 0xf0, 0xaf, 0x3c,
  0x6b, 0x25, 0x1f, 0x3d, 0xba, 0x05, 0x9f, 0xbb, 0xcd, 0x8e, 0x04, 0xbc,
  0xff, 0xee, 0x81, 0x3c, 0xb9, 0x70, 0x9c, 0xbd, 0x66, 0xf5, 0x12, 0xbc,
  0xaa, 0xfe, 0x03, 0xbc, 0xf2, 0x48, 0xdc, 0x3c, 0x54, 0xe0, 0x98, 0xbd,
  0x7c, 0xde, 0x62, 0x3c, 0xdb, 0x50, 0xe1, 0xba, 0xb3, 0xd6, 0xa5, 0xbd,
  0x8a, 0x56, 0x73, 0xbd, 0xe4, 0x49, 0x72, 0x3b, 0x47, 0x4d, 0xe3, 0xbb,
  0x54, 0x55, 0x30, 0x3e, 0x30, 0x88, 0x41, 0x3d, 0x88, 0xef, 0x58, 0x3a,
  0x64, 0xb5, 0x3b, 0xbc, 0xe3, 0xa9, 0x47, 0x38, 0x42, 0x30, 0x49, 0x3a,
  0x38, 0x7c, 0x12, 0x3b, 0x02, 0x89, 0x67, 0xbb, 0x23, 0xc9, 0x63, 0xb8,
  0xd4, 0x33, 0x0d, 0xbe, 0xc6, 0x88, 0x16, 0x3b, 0xd3, 0x53, 0x5f, 0x3d,
  0xcb, 0x9e, 0xf5, 0xbb, 0x4e, 0xb7, 0xf1, 0x3b, 0xf2, 0x63, 0x1f, 0x3d,
  0xd9, 0x38, 0x9e, 0xbd, 0x9e, 0xb9, 0x28, 0xbb, 0x95, 0xe9, 0x87, 0x3c,
  0xfc, 0xb5, 0xe5, 0x3b, 0x08, 0x08, 0xaa, 0x3a, 0x05, 0xad, 0x20, 0x3b,
  0x4d, 0xce, 0xa5, 0x3a, 0x38, 0x9b, 0x7f, 0xbd, 0xee, 0xf4, 0x15, 0x3b,
  0x02, 0xfe, 0x0e, 0x39, 0x2b, 0x42, 0x88, 0xba, 0xc9, 0xaa, 0xae, 0xbc,
  0x4b, 0x2e, 0x5d, 0xbc, 0xf5, 0xa1, 0xd0, 0x3a, 0xaa, 0x1c, 0x2b, 0xbc,
  0x07, 0x62, 0x48, 0x3b, 0x39, 0x7b, 0x38, 0x3d, 0xe5, 0x0b, 0xb2, 0xbc,
  0x01, 0xe9, 0xf7, 0x3c, 0xb4, 0x64, 0x4d, 0x3d, 0x0e, 0x4f, 0xb7, 0x3a,
  0x42, 0xf6, 0x2e, 0x3d, 0xa5, 0x7b, 0xae, 0x3b, 0xfa, 0x11, 0x8e, 0xba,
  0xe2, 0x02, 0xb0, 0xba, 0xc2, 0x2e, 0xac, 0x3b, 0xd7, 0x2d, 0x03, 0xbe,
  0x84, 0x9d, 0x97, 0x3d, 0x8a, 0x67, 0x36, 0x3b, 0xfb, 0xc8, 0x18, 0xbe,
  0x84, 0x0c, 0x27, 0x3d, 0x7a, 0x95, 0x41, 0xbd, 0xb4, 0xb6, 0x84, 0x3b,
  0xfd, 0xd4, 0x2c, 0xbe, 0x0e, 0xd1, 0xc8, 0x3c, 0x88, 0x64, 0x22, 0x3d,
  0x10, 0x3b, 0x2d, 0xbc, 0xbd, 0xab, 0x0e, 0x3c, 0xbc, 0xf1, 0x5c, 0xbd,
  0xff, 0x40, 0x10, 0x3b, 0x03, 0x48, 0x95, 0x3c, 0x39, 0xb4, 0x96, 0xbc,
  0x9f, 0xc6, 0x16, 0xbc, 0x8e, 0x68, 0x8c, 0x3c, 0xd5, 0x23, 0x20, 0xbb,
  0xa8, 0xfa, 0x0d, 0x3b, 0xdb, 0x9c, 0x0e, 0x3c, 0x66, 0x2c, 0xcb, 0x3c,
  0x9f, 0x2e, 0x30, 0x3d, 0x31, 0x0a, 0x14, 0xbe, 0x64, 0x61, 0xea, 0xbd,
  0x8b, 0x32, 0x39, 0xbb, 0x34, 0xd6, 0x34, 0x3c, 0x6d, 0x03, 0x41, 0xba,
  0x23, 0x67, 0xf8, 0xba, 0x4b, 0x50, 0x8b, 0xbb, 0x19, 0xee, 0x74, 0xba,
  0xfe, 0x69, 0x64, 0x3c, 0xaa, 0x68, 0x0b, 0x3e, 0xd0, 0x80, 0x92, 0xbc,
  0x8b, 0x6f, 0x54, 0xbd, 0x66, 0xfd, 0xb0, 0xbb, 0xef, 0x82, 0xb5, 0x3b,
  0x6d, 0x4f, 0xd9, 0xbd, 0xbb, 0x2d, 0xe0, 0xbb, 0x0d, 0x25, 0xc9, 0x3a,
  0x5b, 0x49, 0xb2, 0xbc, 0x19, 0x4b, 0x96, 0x3b, 0x64, 0xb5, 0x61, 0xba,
  0xd1, 0xda, 0x05, 0x3b, 0xd2, 0xcf, 0x60, 0x3a, 0x16, 0x57, 0x94, 0xbe,
  0x82, 0xa7, 0x1b, 0x3b, 0xdd, 0x2e, 0x25, 0xba, 0x26, 0x00, 0xc1, 0x3c,
  0x31, 0x08, 0x5d, 0x3c, 0xc1, 0xbb, 0xcc, 0x3b, 0xe4, 0xf4, 0x99, 0x3a,
  0x13, 0x5f, 0xdc, 0x3c, 0x2c, 0x00, 0xb7, 0xba, 0x05, 0xcb, 0x0d, 0x3d,
  0xe0, 0x61, 0x03, 0xba, 0x4c, 0x0b, 0x1a, 0xbc, 0x7b, 0xd2, 0xb4, 0xbd,
  0x33, 0x9e, 0x86, 0xbb, 0xc5, 0x43, 0x96, 0x3a, 0xbb, 0x84, 0xb6, 0xbc,
  0xab, 0x18, 0x10, 0x3b, 0xb7, 0x13, 0x6f, 0x3a, 0x01, 0x3a, 0x50, 0xba,
  0x7b, 0xd6, 0x33, 0xbd, 0x39, 0xbd, 0x5d, 0xbe, 0x8e, 0xa7, 0x7a, 0x3c,
  0x19, 0x37, 0xb6, 0xbd, 0x4f, 0xec, 0xa3, 0xbd, 0x34, 0x12, 0xa8, 0xbc,
  0x1c, 0xac, 0xcd, 0xbb, 0xa2, 0x17, 0xa8, 0x3d, 0x67, 0xfa, 0x0b, 0xbd,
  0x25, 0x4b, 0x88, 0x3b, 0x68, 0x89, 0x8f, 0xbc, 0xcb, 0xef, 0x81, 0x3c,
  0x23, 0xe4, 0x08, 0xbc, 0x4a, 0x77, 0x56, 0xbb, 0x94, 0xaa, 0x83, 0x3c,
  0xe4, 0x10, 0x1b, 0xbe, 0xaf, 0x9f, 0xf6, 0xbc, 0x67, 0xc3, 0x7d, 0x3c,
  0x7d, 0xcd, 0x81, 0x3a, 0xf0, 0x28, 0x1a, 0x3a, 0x4d, 0xcf, 0xfa, 0xbb,
  0xc3, 0xa1, 0xa3, 0x3c, 0x8c, 0x23, 0x10, 0xbe, 0xef, 0xc6, 0x01, 0xbf,
  0x7f, 0x5f, 0xfd, 0x3c, 0xbd, 0x06, 0x48, 0x3a, 0xeb, 0x84, 0xdc, 0xbb,
  0x2e, 0xf6, 0xef, 0xb9, 0x11, 0x3f, 0x74, 0x3b, 0x68, 0x14, 0x90, 0xba,
  0xfa, 0x45, 0x50, 0x3a, 0xf0, 0x55, 0x4b, 0xbe, 0xfc, 0x06, 0xd2, 0xbc,
  0x79, 0xd4, 0x71, 0x3c, 0x59, 0xfa, 0x85, 0x3c, 0x03, 0x7e, 0x36, 0x3c,
  0xed, 0x14, 0x85, 0x3a, 0x80, 0x4e, 0x32, 0x3c, 0x2f, 0x3d, 0x73, 0x3d,
  0x37, 0xcd, 0x11, 0xbc, 0x10, 0xca, 0x44, 0x3c, 0x65, 0xb7, 0xa6, 0xbc,
  0x08, 0xbe, 0xb0, 0x3b, 0xc1, 0x8d, 0x52, 0xbb, 0xaf, 0x94, 0x47, 0xbb,
  0x1c, 0xf3, 0x20, 0x3d, 0x28, 0xac, 0x0c, 0xbb, 0x0f, 0x24, 0x14, 0x3b,
  0x8d, 0x6a, 0x29, 0xbc, 0xa0, 0xfc, 0x80, 0xbd, 0x93, 0x07, 0xb6, 0xbc,
  0xc4, 0x5a, 0x98, 0xbb, 0x40, 0x73, 0xbe, 0x3b, 0x76, 0x68, 0xfa, 0x39,
  0x8c, 0x4d, 0x0d, 0xbd, 0xbc, 0x69, 0x2c, 0xbb, 0x76, 0x79, 0x6d, 0xbc,
  0x4d, 0x5b, 0xf3, 0x3c, 0xc0, 0xf5, 0x19, 0xbb, 0x14, 0xc1, 0x14, 0x3c,
  0xcf, 0x2e, 0xbd, 0x3b, 0xb6, 0x40, 0x4b, 0xb8, 0x58, 0x30, 0x1c, 0x3b,
  0x8f, 0x3f, 0xd2, 0x3a, 0x67, 0xaf, 0xc1, 0xbc, 0x20, 0xb5, 0x31, 0x3d,
  0x24, 0xab, 0x45, 0x3d, 0xa5, 0xcc, 0x16, 0x3d, 0x08, 0x55, 0x34, 0x3c,
  0x4a, 0x17, 0xd4, 0xbe, 0xa2, 0xea, 0x09, 0x3c, 0xb9, 0x64, 0x91, 0x3c,
  0x4b, 0x69, 0xe6, 0x3c, 0x14, 0x82, 0x3c, 0xbe, 0xc6, 0x77, 0x64, 0xbc,
  0xf1, 0x34, 0xa0, 0xbd, 0x06, 0xfb, 0x5b, 0xbc, 0xc4, 0x54, 0x9d, 0x3b,
  0x49, 0xac, 0x2a, 0xbc, 0x8e, 0xed, 0x98, 0x3c, 0x19, 0x10, 0x4c, 0x3c,
  0x53, 0x94, 0x29, 0xbc, 0x8f, 0x40, 0x83, 0xbb, 0x51, 0xb9, 0xda, 0xbb,
  0x5e, 0xbd, 0x99, 0x3c, 0x60, 0x1d, 0x96, 0xbb, 0xde, 0xe5, 0xfa, 0xbd,
  0xa6, 0x9d, 0xf7, 0xbd, 0x1a, 0xf7, 0xff, 0xff, 0x04, 0x00, 0x00, 0x00,
  0x40, 0x00, 0x00, 0x00, 0x2b, 0x34, 0x67, 0x41, 0xda, 0x9b, 0xfb, 0x40,
  0x73, 0xf7, 0x8a, 0x3e, 0x51, 0x19, 0xe8, 0x40, 0x52, 0xb4, 0xb5, 0x40,
  0xa8, 0x4e, 0x79, 0x41, 0x39, 0x2c, 0x6c, 0x41, 0x34, 0x68, 0x1f, 0x40,
  0x7f, 0x6b, 0x12, 0x41, 0x6c, 0x5f, 0x16, 0x41, 0xc0, 0x83, 0xa0, 0x41,
  0xc3, 0x5d, 0xc5, 0xc0, 0x79, 0x8b, 0xe6, 0x40, 0x3f, 0x7d, 0x0a, 0x41,
  0x72, 0x0f, 0xbe, 0xc0, 0xe8, 0x04, 0x0d, 0x41, 0x66, 0xf7, 0xff, 0xff,
  0x04, 0x00, 0x00, 0x00, 0x00, 0x08, 0x00, 0x00, 0xda, 0xbd, 0x3e, 0xbf,
  0x52, 0xb9, 0x88, 0xbf, 0x94, 0xfc, 0x2c, 0x3e, 0x79, 0xa0, 0xcc, 0xc0,
  0xac, 0x87, 0x11, 0xc0, 0x2f, 0x29, 0x40, 0xc0, 0x35, 0x2d, 0x48, 0xc1,
  0x55, 0x9d, 0x53, 0x41, 0x1c, 0x45, 0xaa, 0xc0, 0xd8, 0xd7, 0x6b, 0xc0,
  0x27, 0xa2, 0x9a, 0x41, 0xb3, 0x3b, 0xb2, 0xbf, 0xfb, 0x52, 0xe6, 0xc0,
  0x0a, 0x7a, 0x57, 0xbf, 0x6a, 0xff, 0x3b, 0xc1, 0x08, 0xe6, 0x35, 0x3f,
  0xa5, 0x37, 0x27, 0xc1, 0x15, 0x8b, 0xa0, 0xc0, 0x0d, 0xc7, 0xef, 0xc0,
  0xf0, 0x82, 0xb6, 0xbf, 0xab, 0x59, 0x8f, 0xbf, 0xb6, 0x69, 0x08, 0xc0,
  0x80, 0xcc, 0x52, 0xc1, 0x9e, 0x05, 0x31, 0xc0, 0xd0, 0x9b, 0x06, 0xc1,
  0xe7, 0xda, 0xa7, 0xc0, 0x2b, 0x2a, 0xc6, 0xbd, 0x72, 0x07, 0x2a, 0x40,
  0xbb, 0x7b, 0x26, 0x3c, 0x94, 0x4b, 0x1a, 0x40, 0x3d, 0x7c, 0x00, 0xc0,
  0x8a, 0xb5, 0x89, 0xc0, 0x3b, 0x1f, 0x49, 0x3e, 0x8d, 0xd2, 0x26, 0xbf,
  0xd6, 0x80, 0xd8, 0xc0, 0x21, 0x74, 0xf3, 0x40, 0x6e, 0xe3, 0x29, 0xc1,
  0x72, 0x90, 0x9f, 0x40, 0x81, 0x87, 0xb0, 0xc0, 0xff, 0x2b, 0xc4, 0x3f,
  0x73, 0x4c, 0xe3, 0x40, 0xec, 0x0f, 0x41, 0x40, 0x5c, 0x55, 0x59, 0xc0,
  0x74, 0xda, 0x83, 0x40, 0x48, 0xcc, 0xd4, 0xbf, 0x26, 0xd5, 0x0d, 0xc0,
  0xa8, 0x62, 0xcf, 0x40, 0xff, 0x44, 0xb3, 0xbf, 0xd4, 0x44, 0xf1, 0xc0,
  0x63, 0xd4, 0xa9, 0xbf, 0xe4, 0x07, 0x54, 0xc0, 0x4a, 0xce, 0xc1, 0xbd,
  0xd3, 0x65, 0x1d, 0xc0, 0x96, 0x3e, 0x8c, 0xbe, 0x7d, 0x32, 0x28, 0xc0,
  0xe8, 0xd8, 0x1f, 0xc0, 0x85, 0xc6, 0x8a, 0xc1, 0xdb, 0x4e, 0x13, 0x41,
  0xf0, 0x96, 0x45, 0xc0, 0x20, 0xfa, 0x11, 0xc1, 0xd4, 0x09, 0xc5, 0x40,
  0x53, 0xb8, 0xb6, 0x3f, 0xa2, 0x4a, 0x26, 0xc1, 0xc2, 0x53, 0x1c, 0x41,
  0xf9, 0x72, 0xb5, 0x40, 0xe6, 0x0a, 0x83, 0x40, 0x4c, 0xce, 0x98, 0xc0,
  0xb4, 0x0d, 0x7e, 0xbf, 0xf0, 0x03, 0x81, 0x3e, 0x29, 0xca, 0x15, 0x40,
  0x33, 0xea, 0x7d, 0x41, 0xd8, 0x6d, 0xcc, 0xbd, 0x17, 0xba, 0x9a, 0x40,
  0xfc, 0x72, 0x16, 0x40, 0xaa, 0x4b, 0x00, 0xc1, 0x80, 0xf0, 0xb5, 0x40,
  0x42, 0x9e, 0xb0, 0x40, 0x54, 0x2d, 0x3d, 0xbe, 0xb0, 0xa1, 0x5b, 0xbf,
  0x3a, 0x8d, 0x4a, 0x3f, 0x10, 0xcc, 0x28, 0xc1, 0xb2, 0x75, 0xae, 0xc0,
  0xfd, 0x87, 0x2c, 0xbf, 0x68, 0xbd, 0xa0, 0xbf, 0xbb, 0x49, 0x01, 0x3f,
  0xde, 0x24, 0xe1, 0x3f, 0x05, 0x32, 0x02, 0x41, 0x7f, 0x39, 0xc4, 0xc0,
  0x6f, 0x54, 0x2b, 0xc1, 0x71, 0xf1, 0x10, 0xc1, 0xa6, 0xb0, 0x40, 0x40,
  0x65, 0x2e, 0xfa, 0xc0, 0x82, 0x1f, 0x12, 0xc0, 0xa5, 0x60, 0x29, 0xbf,
  0xff, 0x2c, 0x72, 0xc0, 0x5e, 0x09, 0xa3, 0x40, 0x0e, 0x00, 0xfd, 0xbf,
  0x9a, 0xbb, 0xbb, 0xc0, 0x9b, 0x3d, 0xa4, 0x40, 0xdf, 0x26, 0xdd, 0xbf,
  0x29, 0x5e, 0xd6, 0x40, 0x3d, 0x01, 0x4d, 0xc0, 0x5d, 0x53, 0x20, 0x40,
  0x5d, 0x9e, 0xa7, 0xc1, 0x60, 0xb7, 0x65, 0xbe, 0xe0, 0x78, 0x32, 0x40,
  0x00, 0xfe, 0x67, 0xc1, 0x48, 0xf0, 0x6a, 0xbf, 0x11, 0x85, 0xcc, 0xc0,
  0x3e, 0xc8, 0x94, 0xbf, 0xd6, 0x21, 0x09, 0xc1, 0x6e, 0xd0, 0x4f, 0x40,
  0x8d, 0x0e, 0x2a, 0x41, 0x16, 0x8d, 0xb2, 0x3e, 0xbc, 0x88, 0xe1, 0x40,
  0x76, 0x76, 0xe9, 0xbe, 0x22, 0xfe, 0xed, 0xbf, 0x77, 0xb2, 0x01, 0xc0,
  0x9e, 0xb2, 0x99, 0xc0, 0x6a, 0xc0, 0xca, 0x40, 0xd7, 0x81, 0x13, 0xc1,
  0xd7, 0xa4, 0x82, 0x40, 0x51, 0x71, 0xe8, 0x3f, 0x10, 0x0d, 0x93, 0xc0,
  0x81, 0x25, 0x3d, 0x40, 0x2e, 0xfa, 0x92, 0xc0, 0x47, 0x8a, 0x59, 0x40,
  0x5e, 0x5f, 0x79, 0x3f, 0x07, 0x85, 0x62, 0x40, 0x96, 0xa8, 0xce, 0x3f,
  0x3f, 0x6d, 0xdc, 0xc0, 0x80, 0xe9, 0x74, 0xc0, 0xf5, 0x29, 0xef, 0xc0,
  0x7c, 0x4b, 0x05, 0x40, 0x26, 0x09, 0x0d, 0x41, 0xc9, 0xcc, 0xd3, 0x40,
  0x1f, 0xe1, 0xfe, 0xbf, 0x05, 0x5f, 0x86, 0xc0, 0x8c, 0x3b, 0x20, 0xc1,
  0x4d, 0x4b, 0x30, 0x40, 0xc0, 0xa4, 0x86, 0x40, 0x57, 0x8e, 0x59, 0x3e,
  0x09, 0x5e, 0x01, 0xc1, 0xfb, 0xbb, 0x08, 0xbf, 0x08, 0x39, 0x3c, 0xc0,
  0xb0, 0x21, 0xea, 0xc0, 0xba, 0x72, 0x46, 0xc0, 0xa7, 0x55, 0x92, 0x3f,
  0x5c, 0x9b, 0x5c, 0x40, 0x9b, 0xa9, 0x19, 0x40, 0x39, 0x2a, 0x19, 0xc1,
  0x60, 0x30, 0x8f, 0xc0, 0x7c, 0x99, 0x03, 0x40, 0xb3, 0x65, 0x22, 0xc1,
  0xa5, 0x57, 0xf7, 0xbf, 0x50, 0x15, 0xef, 0xc0, 0x64, 0x91, 0x02, 0x41,
  0x4a, 0x57, 0xc5, 0xbf, 0x66, 0xd1, 0xd0, 0xc0, 0xf1, 0x28, 0xa7, 0x40,
  0x52, 0x02, 0x34, 0xbf, 0xf6, 0x10, 0x43, 0xc0, 0xb8, 0x38, 0xde, 0x40,
  0x75, 0x23, 0xd8, 0x3f, 0xc7, 0x59, 0x89, 0xc0, 0x31, 0xc0, 0x1b, 0xc0,
  0xba, 0x5e, 0xe4, 0x3f, 0xc3, 0x7f, 0xc9, 0xc0, 0x5d, 0x3a, 0xc7, 0xc0,
  0x4c, 0x8b, 0xa8, 0x40, 0xd1, 0x29, 0x16, 0xc1, 0x78, 0x9a, 0x76, 0xc0,
  0x5e, 0xf4, 0x24, 0xc1, 0x7d, 0xf5, 0x82, 0xbf, 0x91, 0x50, 0x4b, 0xbf,
  0x00, 0x98, 0xc1, 0xbf, 0x46, 0xe6, 0x5a, 0xc1, 0xe7, 0x04, 0x3a, 0x41,
  0x47, 0xd1, 0x06, 0x40, 0x40, 0x5f, 0x1f, 0xc0, 0x39, 0xd5, 0x84, 0xc0,
  0x2f, 0xba, 0x27, 0xc0, 0x99, 0xda, 0x51, 0x41, 0x72, 0x5c, 0x19, 0xc1,
  0xed, 0x57, 0x0b, 0xc1, 0x3a, 0x40, 0x27, 0xbf, 0xd5, 0x46, 0xe2, 0xbf,
  0x9b, 0x57, 0x21, 0x41, 0x2f, 0x99, 0x09, 0xc1, 0x82, 0x8b, 0xe3, 0x3e,
  0x2f, 0x4c, 0x9d, 0x40, 0xcf, 0x95, 0xac, 0xc0, 0x0a, 0x6a, 0x98, 0xc0,
  0xc9, 0x4e, 0x8f, 0x3f, 0x1e, 0x7e, 0x97, 0xbf, 0xa0, 0x73, 0x09, 0xbe,
  0x90, 0xaf, 0x7f, 0xc0, 0x1a, 0x78, 0xa6, 0x40, 0x37, 0x98, 0xae, 0xc1,
  0xf6, 0x09, 0x91, 0x40, 0x43, 0x2c, 0x35, 0xc0, 0x79, 0x35, 0x78, 0x3f,
  0x08, 0x95, 0x2c, 0x40, 0xea, 0x86, 0x8a, 0x40, 0x96, 0x2d, 0x0a, 0xc1,
  0x96, 0xcf, 0x0b, 0x3f, 0x3c, 0x56, 0x17, 0xc1, 0xcc, 0xba, 0x05, 0x3e,
  0x74, 0x8c, 0x27, 0xbf, 0x15, 0xaa, 0x79, 0xbf, 0xf5, 0x2f, 0x04, 0xc1,
  0x0e, 0x89, 0xb1, 0x3e, 0xc1, 0x50, 0xf4, 0xbe, 0x76, 0x8f, 0xfd, 0xbf,
  0x16, 0xc5, 0xf7, 0x40, 0x27, 0xae, 0x60, 0xc0, 0xea, 0x34, 0x40, 0xc1,
  0x00, 0xc8, 0x3f, 0xbe, 0xc5, 0x23, 0x52, 0xbd, 0xe2, 0xe2, 0x02, 0xc1,
  0xa4, 0xdb, 0xc7, 0xc0, 0x0c, 0xea, 0x85, 0xbe, 0x59, 0x8b, 0x02, 0xc0,
  0x1c, 0x96, 0x3e, 0x3f, 0x7a, 0x35, 0x2e, 0xbe, 0xe4, 0xac, 0x9f, 0x40,
  0xd3, 0x05, 0x82, 0x40, 0x6a, 0x89, 0x46, 0xc0, 0xf7, 0x59, 0xaf, 0x40,
  0xc8, 0x87, 0x16, 0xc0, 0xad, 0xef, 0x0c, 0x41, 0x07, 0xf2, 0x24, 0xc1,
  0x5b, 0x3c, 0x05, 0x3f, 0x41, 0x04, 0xb9, 0xbf, 0x5f, 0xc6, 0xc1, 0xc0,
  0xc3, 0xe2, 0xde, 0x3d, 0xa9, 0xd9, 0x12, 0x3e, 0x6e, 0xb4, 0x8b, 0x40,
  0x12, 0x8c, 0x97, 0xc0, 0xe4, 0x13, 0x6d, 0x3f, 0xa2, 0xd9, 0xc8, 0xc0,
  0x5e, 0xd8, 0x27, 0x41, 0x0f, 0x6c, 0x56, 0xbf, 0xf1, 0xf4, 0x1c, 0x3f,
  0x0c, 0xb1, 0xdc, 0xbf, 0xa3, 0x28, 0xe9, 0x3f, 0xb7, 0x58, 0x7c, 0x41,
  0x32, 0x23, 0xf2, 0xc0, 0x1b, 0x7e, 0x54, 0xc1, 0x21, 0xd4, 0x37, 0xc0,
  0x8a, 0xfb, 0xa0, 0x40, 0x2e, 0xf8, 0x0c, 0xc1, 0xf3, 0xeb, 0x04, 0xc1,
  0xc3, 0x5f, 0x0d, 0x40, 0x48, 0x8d, 0xa9, 0xbf, 0x0a, 0xa7, 0x57, 0xc0,
  0xab, 0xd8, 0x0e, 0x40, 0x02, 0x37, 0xd9, 0xc0, 0x37, 0xae, 0x14, 0x3f,
  0x9f, 0xbc, 0x8a, 0x40, 0x10, 0x68, 0x09, 0x41, 0x96, 0x73, 0x3d, 0x3f,
  0xf0, 0x80, 0x83, 0x40, 0xf4, 0x2f, 0x56, 0xc1, 0x6f, 0x90, 0xc7, 0x40,
  0x16, 0x20, 0xd9, 0xc0, 0xf0, 0x0c, 0x73, 0xc1, 0xb9, 0x42, 0xfd, 0x3f,
  0x43, 0x5b, 0x76, 0x40, 0xa0, 0x33, 0x0f, 0xbf, 0x17, 0x47, 0x4f, 0xc1,
  0x82, 0xc1, 0x8f, 0xc0, 0x77, 0x0e, 0xba, 0xc0, 0x61, 0xe5, 0x55, 0x40,
  0xdc, 0xb6, 0x55, 0xc0, 0xd8, 0x9e, 0x07, 0x40, 0x47, 0xa8, 0xa2, 0x3f,
  0x00, 0x08, 0x21, 0x40, 0xa2, 0xd1, 0x77, 0xc1, 0xcc, 0x13, 0x3d, 0x3f,
  0xd3, 0x9c, 0x53, 0x3f, 0xcb, 0x43, 0x32, 0xc0, 0x9b, 0x92, 0x27, 0xc0,
  0x29, 0x4b, 0x67, 0xc0, 0x5a, 0x3f, 0xbc, 0xbf, 0x8f, 0xb6, 0x14, 0xc0,
  0x7c, 0x77, 0xac, 0x40, 0x1b, 0x7c, 0x77, 0xbf, 0xf5, 0xe0, 0xb7, 0x3f,
  0x1d, 0x15, 0xa1, 0xbf, 0x26, 0x37, 0x85, 0xc0, 0x8d, 0x64, 0x76, 0xc0,
  0xa0, 0x9b, 0x0b, 0xc1, 0xb5, 0x92, 0x0b, 0xc0, 0xb9, 0x81, 0xb1, 0x40,
  0x56, 0x62, 0xc6, 0xc0, 0x0e, 0x29, 0x65, 0xc0, 0x12, 0x64, 0x85, 0x40,
  0xf1, 0xd2, 0x3d, 0x41, 0x3d, 0x76, 0x1f, 0xc0, 0xfa, 0x34, 0x67, 0xc0,
  0xf8, 0x08, 0x4c, 0xbf, 0xc1, 0x9b, 0x58, 0x40, 0x40, 0xd1, 0x57, 0xbf,
  0xdb, 0xa7, 0xff, 0x40, 0x4e, 0x86, 0x25, 0xc0, 0x85, 0xc8, 0xc2, 0xc0,
  0x92, 0x0d, 0xbc, 0xbf, 0x4d, 0x56, 0x72, 0xbf, 0x22, 0x40, 0x19, 0xc0,
  0x3c, 0xcd, 0x55, 0xc0, 0x83, 0xa4, 0x83, 0xc0, 0xf6, 0xf2, 0x8b, 0x41,
  0x79, 0xce, 0x99, 0xc0, 0x7c, 0x0f, 0xbb, 0xbf, 0x27, 0x79, 0x30, 0xc0,
  0x05, 0xe5, 0xff, 0x40, 0x05, 0x8b, 0x59, 0xc0, 0x95, 0xb3, 0x58, 0xc0,
  0xe1, 0x2f, 0x57, 0xbf, 0xb9, 0x9a, 0xb4, 0xc0, 0x8e, 0x31, 0x4e, 0xc0,
  0xa3, 0xb2, 0xb6, 0x3f, 0xe0, 0x83, 0xd5, 0xc0, 0x6d, 0x45, 0x97, 0x3f,
  0x4d, 0x75, 0x88, 0xc0, 0x16, 0xcb, 0x87, 0xbf, 0xc7, 0x15, 0x08, 0xc1,
  0x99, 0xc6, 0x4a, 0xbf, 0x73, 0x9e, 0xf3, 0x3f, 0xa3, 0x16, 0x60, 0xc1,
  0xff, 0x20, 0x74, 0xc0, 0xf9, 0x46, 0xc1, 0x40, 0x5e, 0xdb, 0xfb, 0xbf,
  0xad, 0xb0, 0x9e, 0x40, 0x47, 0xf3, 0x54, 0xc0, 0x10, 0x56, 0xa3, 0xc0,
  0x8a, 0x7a, 0x7c, 0xc0, 0x4f, 0xa2, 0x4c, 0xc0, 0xbf, 0xe9, 0x8a, 0xbe,
  0xd5, 0x5f, 0x81, 0xbf, 0xea, 0x37, 0x04, 0xc0, 0xca, 0xf5, 0x22, 0x40,
  0x68, 0x33, 0x5f, 0xbd, 0x7d, 0x39, 0x42, 0x41, 0x39, 0xd2, 0x80, 0xc1,
  0xa8, 0xd8, 0x0f, 0xc0, 0x40, 0x2c, 0xb7, 0x40, 0x5a, 0x02, 0xc0, 0xbe,
  0xb9, 0x2f, 0x6e, 0x3f, 0xaf, 0x2d, 0x51, 0xc0, 0xd1, 0xfd, 0xcf, 0xc0,
  0xc6, 0xee, 0x5b, 0x40, 0xfa, 0x3f, 0x1f, 0xc0, 0xd2, 0xf9, 0xd6, 0x40,
  0x3f, 0x4f, 0xb3, 0x3e, 0x89, 0x10, 0x4a, 0xc1, 0x8d, 0xcf, 0x62, 0xc0,
  0xc3, 0x2b, 0x25, 0xc1, 0xdb, 0x92, 0x14, 0x41, 0x30, 0x56, 0x98, 0x40,
  0x9e, 0x95, 0x01, 0x40, 0xaa, 0xae, 0x00, 0x41, 0xe2, 0xc3, 0xd7, 0xbe,
  0x6a, 0xe5, 0x8a, 0x40, 0x07, 0xdb, 0xc9, 0x3e, 0x6a, 0x37, 0x0e, 0x41,
  0x62, 0x37, 0x72, 0xbf, 0x8e, 0x96, 0x96, 0x3f, 0x9b, 0x73, 0xde, 0x40,
  0xe9, 0x5b, 0xa7, 0xc0, 0xd8, 0x71, 0xf2, 0x3e, 0x7c, 0x82, 0x86, 0xbf,
  0xbf, 0x97, 0x15, 0x3f, 0x69, 0x82, 0x4e, 0x41, 0x27, 0x81, 0xd7, 0x3f,
  0xb5, 0xf1, 0x4d, 0x40, 0x08, 0xc4, 0x32, 0xc1, 0xfb, 0xac, 0xde, 0x3e,
  0x23, 0xaf, 0xc4, 0x40, 0x79, 0x44, 0x73, 0x40, 0x9d, 0x02, 0x45, 0xc0,
  0x48, 0x82, 0x18, 0x41, 0xf0, 0x9a, 0x08, 0xc1, 0x7f, 0xed, 0x86, 0xc0,
  0xc4, 0xba, 0x5b, 0xbf, 0x46, 0xc8, 0x33, 0x40, 0x76, 0x2f, 0x04, 0xc1,
  0x35, 0x7d, 0x97, 0x41, 0xea, 0xbd, 0x5a, 0xc0, 0xec, 0x51, 0xdb, 0xbf,
  0x7e, 0x1d, 0x32, 0x41, 0xef, 0xac, 0xa7, 0xbf, 0x0c, 0x39, 0x86, 0xbf,
  0x96, 0xff, 0x49, 0xc1, 0x89, 0x4b, 0x55, 0x40, 0x73, 0x79, 0x8e, 0xbc,
  0x72, 0x18, 0x23, 0xbf, 0xe7, 0x96, 0xa2, 0xc0, 0x6d, 0xb0, 0xd7, 0x3e,
  0xd5, 0xa2, 0x91, 0x40, 0x41, 0x99, 0x5d, 0xc1, 0x21, 0x75, 0x75, 0xbf,
  0x09, 0x9b, 0xac, 0xbd, 0x61, 0xe1, 0x64, 0x40, 0x5d, 0x91, 0xca, 0xbf,
  0x1d, 0x89, 0x6d, 0x41, 0x60, 0xf0, 0xe9, 0x40, 0xda, 0x48, 0xf8, 0x3f,
  0xa8, 0x46, 0x97, 0xc1, 0x17, 0x87, 0x12, 0x40, 0xaa, 0x37, 0xf6, 0xbf,
  0xaa, 0x5d, 0xdd, 0x3f, 0x9a, 0x69, 0x75, 0xc0, 0x69, 0xcf, 0x89, 0xbf,
  0x94, 0x4f, 0xe6, 0x3f, 0x04, 0x1c, 0x77, 0xc0, 0xa2, 0xa3, 0x8f, 0xc0,
  0xef, 0x34, 0x9a, 0x3e, 0x75, 0xd9, 0x77, 0x40, 0x13, 0xb9, 0x10, 0xc1,
  0x24, 0xd9, 0xa9, 0x40, 0x2c, 0x42, 0xd9, 0xc0, 0x74, 0x6c, 0x75, 0x40,
  0x97, 0x98, 0x9d, 0xc0, 0xab, 0xbb, 0xa5, 0xc0, 0xac, 0x46, 0x2a, 0xc1,
  0x06, 0x2d, 0xc0, 0x40, 0x28, 0xae, 0xd7, 0x3e, 0x79, 0x3a, 0xe8, 0x3f,
  0xf2, 0xc5, 0x6f, 0x41, 0x00, 0x8b, 0xf0, 0x3e, 0xbf, 0x32, 0x3d, 0x40,
  0xa5, 0xfc, 0xc1, 0x40, 0xfd, 0x7d, 0x5a, 0xbe, 0xa3, 0xbb, 0x01, 0x40,
  0xbc, 0x1b, 0xa7, 0x3f, 0x50, 0xaf, 0xda, 0xbf, 0xa3, 0xd0, 0xc6, 0x41,
  0xc9, 0xba, 0xd0, 0xc0, 0xad, 0xfc, 0x24, 0xbe, 0x55, 0xd8, 0x6f, 0xc0,
  0x79, 0x7f, 0x1c, 0x40, 0x39, 0xd4, 0x1e, 0xc1, 0x0d, 0x6b, 0x13, 0xc0,
  0x84, 0x04, 0x88, 0xc0, 0xb7, 0xd7, 0x0b, 0xc1, 0x6c, 0x1f, 0x31, 0x40,
  0xd3, 0xc4, 0x58, 0x3f, 0x2f, 0xdf, 0xe2, 0x3f, 0xca, 0xbd, 0x3c, 0xbf,
  0xbc, 0x43, 0xa7, 0x40, 0xbd, 0x50, 0x3f, 0xc1, 0x4c, 0x56, 0xa4, 0x40,
  0x3b, 0x80, 0x83, 0xc0, 0xca, 0x7d, 0x32, 0xc1, 0x98, 0x0c, 0x82, 0xbf,
  0x70, 0x0b, 0xa3, 0x40, 0x4f, 0x9d, 0x02, 0xc1, 0x98, 0x34, 0xa5, 0x3f,
  0x11, 0xba, 0x09, 0x41, 0x4b, 0xd9, 0x40, 0x3f, 0x5c, 0xad, 0x22, 0x40,
  0x15, 0x0d, 0x1a, 0x40, 0x0c, 0x30, 0x0f, 0x41, 0x89, 0x88, 0x67, 0x41,
  0xf5, 0x83, 0xe4, 0x40, 0x07, 0xf6, 0xb1, 0xbe, 0x59, 0x9b, 0xb1, 0xbf,
  0x7c, 0x8f, 0xc9, 0x40, 0xf0, 0xf1, 0x1e, 0x40, 0xa4, 0xdd, 0x48, 0x3f,
  0x10, 0x03, 0x43, 0xc0, 0x6d, 0x3c, 0xa2, 0xc0, 0xe8, 0x81, 0x29, 0x3f,
  0x70, 0x2f, 0xf0, 0xc0, 0x08, 0xcb, 0x8a, 0xc0, 0xbc, 0x24, 0x82, 0x40,
  0x84, 0xc2, 0xf5, 0xc0, 0x66, 0x1f, 0x2a, 0xc0, 0x02, 0x69, 0x35, 0xc0,
  0x1a, 0x69, 0xf3, 0x40, 0x52, 0x76, 0x1a, 0xc0, 0xee, 0xe2, 0x96, 0xc0,
  0x68, 0x7a, 0x0a, 0x40, 0xfe, 0x8f, 0x94, 0xc0, 0x41, 0xc5, 0x94, 0x41,
  0xea, 0x84, 0x80, 0xbf, 0x54, 0x44, 0x04, 0x40, 0x8b, 0xf4, 0x50, 0xc1,
  0xc8, 0x5e, 0xdd, 0xc0, 0x79, 0x36, 0xf8, 0xc0, 0x05, 0x5a, 0xa5, 0x40,
  0x5c, 0xab, 0xb0, 0x3e, 0x3f, 0xda, 0x03, 0xc1, 0x1a, 0xad, 0x40, 0xbf,
  0xcf, 0x38, 0x4c, 0xc1, 0x14, 0x47, 0xf2, 0x3e, 0xbc, 0x9e, 0x93, 0xc0,
  0x8e, 0x25, 0x24, 0x40, 0x97, 0x1c, 0xe0, 0xbf, 0x9a, 0xde, 0x8a, 0xbf,
  0xa0, 0xba, 0xe1, 0xc1, 0xe1, 0x36, 0xd5, 0xbf, 0xce, 0x54, 0xf3, 0xc0,
  0x64, 0x19, 0x85, 0x41, 0xff, 0xd1, 0x0c, 0xbf, 0xc8, 0x5c, 0x0a, 0xbe,
  0x7d, 0x4b, 0xa6, 0x40, 0x9e, 0x6c, 0xab, 0x40, 0x80, 0x94, 0x14, 0xc1,
  0x35, 0x74, 0x01, 0x3f, 0x3c, 0xf7, 0xff, 0xff, 0x40, 0xf7, 0xff, 0xff,
  0x0f, 0x00, 0x00, 0x00, 0x4d, 0x4c, 0x49, 0x52, 0x20, 0x43, 0x6f, 0x6e,
  0x76, 0x65, 0x72, 0x74, 0x65, 0x64, 0x2e, 0x00, 0x01, 0x00, 0x00, 0x00,
  0x14, 0x00, 0x00, 0x00, 0x00, 0x00, 0x0e, 0x00, 0x18, 0x00, 0x14, 0x00,
  0x10, 0x00, 0x0c, 0x00, 0x08, 0x00, 0x04, 0x00, 0x0e, 0x00, 0x00, 0x00,
  0x14, 0x00, 0x00, 0x00, 0x1c, 0x00, 0x00, 0x00, 0x94, 0x01, 0x00, 0x00,
  0x98, 0x01, 0x00, 0x00, 0x9c, 0x01, 0x00, 0x00, 0x04, 0x00, 0x00, 0x00,
  0x6d, 0x61, 0x69, 0x6e, 0x00, 0x00, 0x00, 0x00, 0x06, 0x00, 0x00, 0x00,
  0x38, 0x01, 0x00, 0x00, 0xf0, 0x00, 0x00, 0x00, 0xb8, 0x00, 0x00, 0x00,
  0x84, 0x00, 0x00, 0x00, 0x40, 0x00, 0x00, 0x00, 0x04, 0x00, 0x00, 0x00,
  0x96, 0xff, 0xff, 0xff, 0x1c, 0x00, 0x00, 0x00, 0x00, 0x00, 0x00, 0x09,
  0x1c, 0x00, 0x00, 0x00, 0x20, 0x00, 0x00, 0x00, 0x02, 0x00, 0x00, 0x00,
  0x00, 0x00, 0x06, 0x00, 0x08, 0x00, 0x04, 0x00, 0x06, 0x00, 0x00, 0x00,
  0x00, 0x00, 0x80, 0x3f, 0x01, 0x00, 0x00, 0x00, 0x0f, 0x00, 0x00, 0x00,
  0x01, 0x00, 0x00, 0x00, 0x0e, 0x00, 0x00, 0x00, 0x26, 0xff, 0xff, 0xff,
  0x10, 0x00, 0x00, 0x00, 0x00, 0x00, 0x00, 0x08, 0x0c, 0x00, 0x00, 0x00,
  0x10, 0x00, 0x00, 0x00, 0xfc, 0xf7, 0xff, 0xff, 0x01, 0x00, 0x00, 0x00,
  0x0e, 0x00, 0x00, 0x00, 0x03, 0x00, 0x00, 0x00, 0x0d, 0x00, 0x00, 0x00,
  0x05, 0x00, 0x00, 0x00, 0x06, 0x00, 0x00, 0x00, 0x00, 0x00, 0x0e, 0x00,
  0x18, 0x00, 0x14, 0x00, 0x10, 0x00, 0x0c, 0x00, 0x0b, 0x00, 0x04, 0x00,
  0x0e, 0x00, 0x00, 0x00, 0x14, 0x00, 0x00, 0x00, 0x00, 0x00, 0x00, 0x1b,
  0x10, 0x00, 0x00, 0x00, 0x14, 0x00, 0x00, 0x00, 0x01, 0x00, 0x00, 0x00,
  0x40, 0xf8, 0xff, 0xff, 0x01, 0x00, 0x00, 0x00, 0x0d, 0x00, 0x00, 0x00,
  0x02, 0x00, 0x00, 0x00, 0x0c, 0x00, 0x00, 0x00, 0x08, 0x00, 0x00, 0x00,
  0x96, 0xff, 0xff, 0xff, 0x10, 0x00, 0x00, 0x00, 0x00, 0x00, 0x00, 0x08,
  0x10, 0x00, 0x00, 0x00, 0x14, 0x00, 0x00, 0x00, 0x86, 0xff, 0xff, 0xff,
  0x00, 0x00, 0x01, 0x01, 0x01, 0x00, 0x00, 0x00, 0x0c, 0x00, 0x00, 0x00,
  0x03, 0x00, 0x00, 0x00, 0x0b, 0x00, 0x00, 0x00, 0x01, 0x00, 0x00, 0x00,
  0x02, 0x00, 0x00, 0x00, 0xca, 0xff, 0xff, 0xff, 0x10, 0x00, 0x00, 0x00,
  0x00, 0x00, 0x00, 0x08, 0x10, 0x00, 0x00, 0x00, 0x14, 0x00, 0x00, 0x00,
  0xba, 0xff, 0xff, 0xff, 0x00, 0x00, 0x01, 0x01, 0x01, 0x00, 0x00, 0x00,
  0x0b, 0x00, 0x00, 0x00, 0x03, 0x00, 0x00, 0x00, 0x0a, 0x00, 0x00, 0x00,
  0x03, 0x00, 0x00, 0x00, 0x04, 0x00, 0x00, 0x00, 0x00, 0x00, 0x0e, 0x00,
  0x16, 0x00, 0x00, 0x00, 0x10, 0x00, 0x0c, 0x00, 0x0b, 0x00, 0x04, 0x00,
  0x0e, 0x00, 0x00, 0x00, 0x1c, 0x00, 0x00, 0x00, 0x00, 0x00, 0x00, 0x08,
  0x1c, 0x00, 0x00, 0x00, 0x20, 0x00, 0x00, 0x00, 0x00, 0x00, 0x0a, 0x00,
  0x08, 0x00, 0x07, 0x00, 0x00, 0x00, 0x06, 0x00, 0x0a, 0x00, 0x00, 0x00,
  0x00, 0x00, 0x01, 0x01, 0x01, 0x00, 0x00, 0x00, 0x0a, 0x00, 0x00, 0x00,
  0x03, 0x00, 0x00, 0x00, 0x00, 0x00, 0x00, 0x00, 0x09, 0x00, 0x00, 0x00,
  0x07, 0x00, 0x00, 0x00, 0x01, 0x00, 0x00, 0x00, 0x0f, 0x00, 0x00, 0x00,
  0x01, 0x00, 0x00, 0x00, 0x00, 0x00, 0x00, 0x00, 0x10, 0x00, 0x00, 0x00,
  0xb0, 0x06, 0x00, 0x00, 0x58, 0x06, 0x00, 0x00, 0x04, 0x06, 0x00, 0x00,
  0xc4, 0x05, 0x00, 0x00, 0x88, 0x05, 0x00, 0x00, 0x48, 0x05, 0x00, 0x00,
  0x0c, 0x05, 0x00, 0x00, 0xd0, 0x04, 0x00, 0x00, 0x64, 0x04, 0x00, 0x00,
  0x00, 0x04, 0x00, 0x00, 0x64, 0x03, 0x00, 0x00, 0x5c, 0x02, 0x00, 0x00,
  0x50, 0x01, 0x00, 0x00, 0xe0, 0x00, 0x00, 0x00, 0x60, 0x00, 0x00, 0x00,
  0x04, 0x00, 0x00, 0x00, 0xa6, 0xf9, 0xff, 0xff, 0x00, 0x00, 0x00, 0x01,
  0x14, 0x00, 0x00, 0x00, 0x1c, 0x00, 0x00, 0x00, 0x1c, 0x00, 0x00, 0x00,
  0x10, 0x00, 0x00, 0x00, 0x34, 0x00, 0x00, 0x00, 0x02, 0x00, 0x00, 0x00,
  0xff, 0xff, 0xff, 0xff, 0x0c, 0x00, 0x00, 0x00, 0x8c, 0xf9, 0xff, 0xff,
  0x1b, 0x00, 0x00, 0x00, 0x53, 0x74, 0x61, 0x74, 0x65, 0x66, 0x75, 0x6c,
  0x50, 0x61, 0x72, 0x74, 0x69, 0x74, 0x69, 0x6f, 0x6e, 0x65, 0x64, 0x43,
  0x61, 0x6c, 0x6c, 0x5f, 0x31, 0x3a, 0x30, 0x00, 0x02, 0x00, 0x00, 0x00,
  0x01, 0x00, 0x00, 0x00, 0x0c, 0x00, 0x00, 0x00, 0xfe, 0xf9, 0xff, 0xff,
  0x00, 0x00, 0x00, 0x01, 0x14, 0x00, 0x00, 0x00, 0x1c, 0x00, 0x00, 0x00,
  0x1c, 0x00, 0x00, 0x00, 0x0f, 0x00, 0x00, 0x00, 0x58, 0x00, 0x00, 0x00,
  0x02, 0x00, 0x00, 0x00, 0xff, 0xff, 0xff, 0xff, 0x0c, 0x00, 0x00, 0x00,
  0xe4, 0xf9, 0xff, 0xff, 0x3c, 0x00, 0x00, 0x00, 0x73, 0x65, 0x71, 0x75,
  0x65, 0x6e, 0x74, 0x69, 0x61, 0x6c, 0x5f, 0x31, 0x2f, 0x64, 0x65, 0x6e,
  0x73, 0x65, 0x5f, 0x33, 0x5f, 0x31, 0x2f, 0x4d, 0x61, 0x74, 0x4d, 0x75,
  0x6c, 0x3b, 0x73, 0x65, 0x71, 0x75, 0x65, 0x6e, 0x74, 0x69, 0x61, 0x6c,
  0x5f, 0x31, 0x2f, 0x64, 0x65, 0x6e, 0x73, 0x65, 0x5f, 0x33, 0x5f, 0x31,
  0x2f, 0x42, 0x69, 0x61, 0x73, 0x41, 0x64, 0x64, 0x00, 0x00, 0x00, 0x00,
  0x02, 0x00, 0x00, 0x00, 0x01, 0x00, 0x00, 0x00, 0x0c, 0x00, 0x00, 0x00,
  0x7a, 0xfa, 0xff, 0xff, 0x00, 0x00, 0x00, 0x01, 0x14, 0x00, 0x00, 0x00,
  0x1c, 0x00, 0x00, 0x00, 0x1c, 0x00, 0x00, 0x00, 0x0e, 0x00, 0x00, 0x00,
  0x48, 0x00, 0x00, 0x00, 0x02, 0x00, 0x00, 0x00, 0xff, 0xff, 0xff, 0xff,
  0x10, 0x00, 0x00, 0x00, 0x60, 0xfa, 0xff, 0xff, 0x2c, 0x00, 0x00, 0x00,
  0x73, 0x65, 0x71, 0x75, 0x65, 0x6e, 0x74, 0x69, 0x61, 0x6c, 0x5f, 0x31,
  0x2f, 0x67, 0x6c, 0x6f, 0x62, 0x61, 0x6c, 0x5f, 0x61, 0x76, 0x65, 0x72,
  0x61, 0x67, 0x65, 0x5f, 0x70, 0x6f, 0x6f, 0x6c, 0x69, 0x6e, 0x67, 0x31,
  0x64, 0x5f, 0x31, 0x2f, 0x4d, 0x65, 0x61, 0x6e, 0x00, 0x00, 0x00, 0x00,
  0x02, 0x00, 0x00, 0x00, 0x01, 0x00, 0x00, 0x00, 0x10, 0x00, 0x00, 0x00,
  0xe6, 0xfa, 0xff, 0xff, 0x00, 0x00, 0x00, 0x01, 0x14, 0x00, 0x00, 0x00,
  0x20, 0x00, 0x00, 0x00, 0x20, 0x00, 0x00, 0x00, 0x0d, 0x00, 0x00, 0x00,
  0xe0, 0x00, 0x00, 0x00, 0x03, 0x00, 0x00, 0x00, 0xff, 0xff, 0xff, 0xff,
  0x7d, 0x00, 0x00, 0x00, 0x10, 0x00, 0x00, 0x00, 0xd0, 0xfa, 0xff, 0xff,
  0xc2, 0x00, 0x00, 0x00, 0x73, 0x65, 0x71, 0x75, 0x65, 0x6e, 0x74, 0x69,
  0x61, 0x6c, 0x5f, 0x31, 0x2f, 0x62, 0x61, 0x74, 0x63, 0x68, 0x5f, 0x6e,
  0x6f, 0x72, 0x6d, 0x61, 0x6c, 0x69, 0x7a, 0x61, 0x74, 0x69, 0x6f, 0x6e,
  0x5f, 0x31, 0x5f, 0x32, 0x2f, 0x62, 0x61, 0x74, 0x63, 0x68, 0x6e, 0x6f,
  0x72, 0x6d, 0x2f, 0x6d, 0x75, 0x6c, 0x5f, 0x31, 0x3b, 0x73, 0x65, 0x71,
  0x75, 0x65, 0x6e, 0x74, 0x69, 0x61, 0x6c, 0x5f, 0x31, 0x2f, 0x62, 0x61,
  0x74, 0x63, 0x68, 0x5f, 0x6e, 0x6f, 0x72, 0x6d, 0x61, 0x6c, 0x69, 0x7a,
  0x61, 0x74, 0x69, 0x6f, 0x6e, 0x5f, 0x31, 0x5f, 0x32, 0x2f, 0x62, 0x61,
  0x74, 0x63, 0x68, 0x6e, 0x6f, 0x72, 0x6d, 0x2f, 0x61, 0x64, 0x64, 0x5f,
  0x31, 0x3b, 0x73, 0x65, 0x71, 0x75, 0x65, 0x6e, 0x74, 0x69, 0x61, 0x6c,
  0x5f, 0x31, 0x2f, 0x64, 0x65, 0x6e, 0x73, 0x65, 0x5f, 0x32, 0x5f, 0x31,
  0x2f, 0x4d, 0x61, 0x74, 0x4d, 0x75, 0x6c, 0x3b, 0x73, 0x65, 0x71, 0x75,
  0x65, 0x6e, 0x74, 0x69, 0x61, 0x6c, 0x5f, 0x31, 0x2f, 0x64, 0x65, 0x6e,
  0x73, 0x65, 0x5f, 0x32, 0x5f, 0x31, 0x2f, 0x52, 0x65, 0x6c, 0x75, 0x3b,
  0x73, 0x65, 0x71, 0x75, 0x65, 0x6e, 0x74, 0x69, 0x61, 0x6c, 0x5f, 0x31,
  0x2f, 0x64, 0x65, 0x6e, 0x73, 0x65, 0x5f, 0x32, 0x5f, 0x31, 0x2f, 0x42,
  0x69, 0x61, 0x73, 0x41, 0x64, 0x64, 0x00, 0x00, 0x03, 0x00, 0x00, 0x00,
  0x01, 0x00, 0x00, 0x00, 0x7d, 0x00, 0x00, 0x00, 0x10, 0x00, 0x00, 0x00,
  0xee, 0xfb, 0xff, 0xff, 0x00, 0x00, 0x00, 0x01, 0x14, 0x00, 0x00, 0x00,
  0x20, 0x00, 0x00, 0x00, 0x20, 0x00, 0x00, 0x00, 0x0c, 0x00, 0x00, 0x00,
  0xdc, 0x00, 0x00, 0x00, 0x03, 0x00, 0x00, 0x00, 0xff, 0xff, 0xff, 0xff,
  0x7d, 0x00, 0x00, 0x00, 0x20, 0x00, 0x00, 0x00, 0xd8, 0xfb, 0xff, 0xff,
  0xbe, 0x00, 0x00, 0x00, 0x73, 0x65, 0x71, 0x75, 0x65, 0x6e, 0x74, 0x69,
  0x61, 0x6c, 0x5f, 0x31, 0x2f, 0x62, 0x61, 0x74, 0x63, 0x68, 0x5f, 0x6e,
  0x6f, 0x72, 0x6d, 0x61, 0x6c, 0x69, 0x7a, 0x61, 0x74, 0x69, 0x6f, 0x6e,
  0x5f, 0x31, 0x2f, 0x62, 0x61, 0x74, 0x63, 0x68, 0x6e, 0x6f, 0x72, 0x6d,
  0x2f, 0x6d, 0x75, 0x6c, 0x5f, 0x31, 0x3b, 0x73, 0x65, 0x71, 0x75, 0x65,
  0x6e, 0x74, 0x69, 0x61, 0x6c, 0x5f, 0x31, 0x2f, 0x62, 0x61, 0x74, 0x63,
  0x68, 0x5f, 0x6e, 0x6f, 0x72, 0x6d, 0x61, 0x6c, 0x69, 0x7a, 0x61, 0x74,
  0x69, 0x6f, 0x6e, 0x5f, 0x31, 0x2f, 0x62, 0x61, 0x74, 0x63, 0x68, 0x6e,
  0x6f, 0x72, 0x6d, 0x2f, 0x61, 0x64, 0x64, 0x5f, 0x31, 0x3b, 0x73, 0x65,
  0x71, 0x75, 0x65, 0x6e, 0x74, 0x69, 0x61, 0x6c, 0x5f, 0x31, 0x2f, 0x64,
  0x65, 0x6e, 0x73, 0x65, 0x5f, 0x31, 0x5f, 0x32, 0x2f, 0x4d, 0x61, 0x74,
  0x4d, 0x75, 0x6c, 0x3b, 0x73, 0x65, 0x71, 0x75, 0x65, 0x6e, 0x74, 0x69,
  0x61, 0x6c, 0x5f, 0x31, 0x2f, 0x64, 0x65, 0x6e, 0x73, 0x65, 0x5f, 0x31,
  0x5f, 0x32, 0x2f, 0x52, 0x65, 0x6c, 0x75, 0x3b, 0x73, 0x65, 0x71, 0x75,
  0x65, 0x6e, 0x74, 0x69, 0x61, 0x6c, 0x5f, 0x31, 0x2f, 0x64, 0x65, 0x6e,
  0x73, 0x65, 0x5f, 0x31, 0x5f, 0x32, 0x2f, 0x42, 0x69, 0x61, 0x73, 0x41,
  0x64, 0x64, 0x00, 0x00, 0x03, 0x00, 0x00, 0x00, 0x01, 0x00, 0x00, 0x00,
  0x7d, 0x00, 0x00, 0x00, 0x20, 0x00, 0x00, 0x00, 0xf2, 0xfc, 0xff, 0xff,
  0x00, 0x00, 0x00, 0x01, 0x14, 0x00, 0x00, 0x00, 0x20, 0x00, 0x00, 0x00,
  0x20, 0x00, 0x00, 0x00, 0x0b, 0x00, 0x00, 0x00, 0x70, 0x00, 0x00, 0x00,
  0x03, 0x00, 0x00, 0x00, 0xff, 0xff, 0xff, 0xff, 0x7d, 0x00, 0x00, 0x00,
  0x40, 0x00, 0x00, 0x00, 0xdc, 0xfc, 0xff, 0xff, 0x52, 0x00, 0x00, 0x00,
  0x73, 0x65, 0x71, 0x75, 0x65, 0x6e, 0x74, 0x69, 0x61, 0x6c, 0x5f, 0x31,
  0x2f, 0x64, 0x65, 0x6e, 0x73, 0x65, 0x5f, 0x31, 0x2f, 0x4d, 0x61, 0x74,
  0x4d, 0x75, 0x6c, 0x3b, 0x73, 0x65, 0x71, 0x75, 0x65, 0x6e, 0x74, 0x69,
  0x61, 0x6c, 0x5f, 0x31, 0x2f, 0x64, 0x65, 0x6e, 0x73, 0x65, 0x5f, 0x31,
  0x2f, 0x52, 0x65, 0x6c, 0x75, 0x3b, 0x73, 0x65, 0x71, 0x75, 0x65, 0x6e,
  0x74, 0x69, 0x61, 0x6c, 0x5f, 0x31, 0x2f, 0x64, 0x65, 0x6e, 0x73, 0x65,
  0x5f, 0x31, 0x2f, 0x42, 0x69, 0x61, 0x73, 0x41, 0x64, 0x64, 0x00, 0x00,
  0x03, 0x00, 0x00, 0x00, 0x01, 0x00, 0x00, 0x00, 0x7d, 0x00, 0x00, 0x00,
  0x40, 0x00, 0x00, 0x00, 0xde, 0xfd, 0xff, 0xff, 0x00, 0x00, 0x00, 0x01,
  0x10, 0x00, 0x00, 0x00, 0x10, 0x00, 0x00, 0x00, 0x0a, 0x00, 0x00, 0x00,
  0x28, 0x00, 0x00, 0x00, 0x60, 0xfd, 0xff, 0xff, 0x1b, 0x00, 0x00, 0x00,
  0x73, 0x65, 0x71, 0x75, 0x65, 0x6e, 0x74, 0x69, 0x61, 0x6c, 0x5f, 0x31,
  0x2f, 0x64, 0x65, 0x6e, 0x73, 0x65, 0x5f, 0x31, 0x2f, 0x4d, 0x61, 0x74,
  0x4d, 0x75, 0x6c, 0x00, 0x02, 0x00, 0x00, 0x00, 0x40, 0x00, 0x00, 0x00,
  0x06, 0x00, 0x00, 0x00, 0x00, 0x00, 0x16, 0x00, 0x1c, 0x00, 0x18, 0x00,
  0x17, 0x00, 0x10, 0x00, 0x0c, 0x00, 0x08, 0x00, 0x00, 0x00, 0x00, 0x00,
  0x00, 0x00, 0x07, 0x00, 0x16, 0x00, 0x00, 0x00, 0x00, 0x00, 0x00, 0x01,
  0x14, 0x00, 0x00, 0x00, 0x14, 0x00, 0x00, 0x00, 0x09, 0x00, 0x00, 0x00,
  0x00, 0x00, 0x00, 0x02, 0x4c, 0x00, 0x00, 0x00, 0xc4, 0xfd, 0xff, 0xff,
  0x3e, 0x00, 0x00, 0x00, 0x73, 0x65, 0x71, 0x75, 0x65, 0x6e, 0x74, 0x69,
  0x61, 0x6c, 0x5f, 0x31, 0x2f, 0x67, 0x6c, 0x6f, 0x62, 0x61, 0x6c, 0x5f,
  0x61, 0x76, 0x65, 0x72, 0x61, 0x67, 0x65, 0x5f, 0x70, 0x6f, 0x6f, 0x6c,
  0x69, 0x6e, 0x67, 0x31, 0x64, 0x5f, 0x31, 0x2f, 0x4d, 0x65, 0x61, 0x6e,
  0x2f, 0x72, 0x65, 0x64, 0x75, 0x63, 0x74, 0x69, 0x6f, 0x6e, 0x5f, 0x69,
  0x6e, 0x64, 0x69, 0x63, 0x65, 0x73, 0x00, 0x00, 0x00, 0x00, 0x00, 0x00,
  0xa6, 0xfe, 0xff, 0xff, 0x00, 0x00, 0x00, 0x01, 0x10, 0x00, 0x00, 0x00,
  0x10, 0x00, 0x00, 0x00, 0x08, 0x00, 0x00, 0x00, 0x1c, 0x00, 0x00, 0x00,
  0x28, 0xfe, 0xff, 0xff, 0x0f, 0x00, 0x00, 0x00, 0x61, 0x72, 0x69, 0x74,
  0x68, 0x2e, 0x63, 0x6f, 0x6e, 0x73, 0x74, 0x61, 0x6e, 0x74, 0x36, 0x00,
  0x01, 0x00, 0x00, 0x00, 0x40, 0x00, 0x00, 0x00, 0xde, 0xfe, 0xff, 0xff,
  0x00, 0x00, 0x00, 0x01, 0x10, 0x00, 0x00, 0x00, 0x10, 0x00, 0x00, 0x00,
  0x07, 0x00, 0x00, 0x00, 0x1c, 0x00, 0x00, 0x00, 0x60, 0xfe, 0xff, 0xff,
  0x0f, 0x00, 0x00, 0x00, 0x61, 0x72, 0x69, 0x74, 0x68, 0x2e, 0x63, 0x6f,
  0x6e, 0x73, 0x74, 0x61, 0x6e, 0x74, 0x35, 0x00, 0x01, 0x00, 0x00, 0x00,
  0x0c, 0x00, 0x00, 0x00, 0x16, 0xff, 0xff, 0xff, 0x00, 0x00, 0x00, 0x01,
  0x10, 0x00, 0x00, 0x00, 0x10, 0x00, 0x00, 0x00, 0x06, 0x00, 0x00, 0x00,
  0x1c, 0x00, 0x00, 0x00, 0x98, 0xfe, 0xff, 0xff, 0x0f, 0x00, 0x00, 0x00,
  0x61, 0x72, 0x69, 0x74, 0x68, 0x2e, 0x63, 0x6f, 0x6e, 0x73, 0x74, 0x61,
  0x6e, 0x74, 0x34, 0x00, 0x02, 0x00, 0x00, 0x00, 0x0c, 0x00, 0x00, 0x00,
  0x10, 0x00, 0x00, 0x00, 0x52, 0xff, 0xff, 0xff, 0x00, 0x00, 0x00, 0x01,
  0x10, 0x00, 0x00, 0x00, 0x10, 0x00, 0x00, 0x00, 0x05, 0x00, 0x00, 0x00,
  0x1c, 0x00, 0x00, 0x00, 0xd4, 0xfe, 0xff, 0xff, 0x0f, 0x00, 0x00, 0x00,
  0x61, 0x72, 0x69, 0x74, 0x68, 0x2e, 0x63, 0x6f, 0x6e, 0x73, 0x74, 0x61,
  0x6e, 0x74, 0x33, 0x00, 0x01, 0x00, 0x00, 0x00, 0x20, 0x00, 0x00, 0x00,
  0x8a, 0xff, 0xff, 0xff, 0x00, 0x00, 0x00, 0x01, 0x10, 0x00, 0x00, 0x00,
  0x10, 0x00, 0x00, 0x00, 0x04, 0x00, 0x00, 0x00, 0x1c, 0x00, 0x00, 0x00,
  0x0c, 0xff, 0xff, 0xff, 0x0f, 0x00, 0x00, 0x00, 0x61, 0x72, 0x69, 0x74,
  0x68, 0x2e, 0x63, 0x6f, 0x6e, 0x73, 0x74, 0x61, 0x6e, 0x74, 0x32, 0x00,
  0x02, 0x00, 0x00, 0x00, 0x20, 0x00, 0x00, 0x00, 0x40, 0x00, 0x00, 0x00,
  0xc6, 0xff, 0xff, 0xff, 0x00, 0x00, 0x00, 0x01, 0x10, 0x00, 0x00, 0x00,
  0x10, 0x00, 0x00, 0x00, 0x03, 0x00, 0x00, 0x00, 0x1c, 0x00, 0x00, 0x00,
  0x48, 0xff, 0xff, 0xff, 0x0f, 0x00, 0x00, 0x00, 0x61, 0x72, 0x69, 0x74,
  0x68, 0x2e, 0x63, 0x6f, 0x6e, 0x73, 0x74, 0x61, 0x6e, 0x74, 0x31, 0x00,
  0x01, 0x00, 0x00, 0x00, 0x10, 0x00, 0x00, 0x00, 0x00, 0x00, 0x16, 0x00,
  0x18, 0x00, 0x14, 0x00, 0x00, 0x00, 0x10, 0x00, 0x0c, 0x00, 0x08, 0x00,
  0x00, 0x00, 0x00, 0x00, 0x00, 0x00, 0x07, 0x00, 0x16, 0x00, 0x00, 0x00,
  0x00, 0x00, 0x00, 0x01, 0x10, 0x00, 0x00, 0x00, 0x10, 0x00, 0x00, 0x00,
  0x02, 0x00, 0x00, 0x00, 0x1c, 0x00, 0x00, 0x00, 0x98, 0xff, 0xff, 0xff,
  0x0e, 0x00, 0x00, 0x00, 0x61, 0x72, 0x69, 0x74, 0x68, 0x2e, 0x63, 0x6f,
  0x6e, 0x73, 0x74, 0x61, 0x6e, 0x74, 0x00, 0x00, 0x02, 0x00, 0x00, 0x00,
  0x10, 0x00, 0x00, 0x00, 0x20, 0x00, 0x00, 0x00, 0x00, 0x00, 0x16, 0x00,
  0x1c, 0x00, 0x18, 0x00, 0x00, 0x00, 0x14, 0x00, 0x10, 0x00, 0x0c, 0x00,
  0x00, 0x00, 0x00, 0x00, 0x08, 0x00, 0x07, 0x00, 0x16, 0x00, 0x00, 0x00,
  0x00, 0x00, 0x00, 0x01, 0x14, 0x00, 0x00, 0x00, 0x24, 0x00, 0x00, 0x00,
  0x24, 0x00, 0x00, 0x00, 0x01, 0x00, 0x00, 0x00, 0x40, 0x00, 0x00, 0x00,
  0x03, 0x00, 0x00, 0x00, 0xff, 0xff, 0xff, 0xff, 0x7d, 0x00, 0x00, 0x00,
  0x06, 0x00, 0x00, 0x00, 0x04, 0x00, 0x04, 0x00, 0x04, 0x00, 0x00, 0x00,
  0x1e, 0x00, 0x00, 0x00, 0x73, 0x65, 0x72, 0x76, 0x69, 0x6e, 0x67, 0x5f,
  0x64, 0x65, 0x66, 0x61, 0x75, 0x6c, 0x74, 0x5f, 0x6b, 0x65, 0x72, 0x61,
  0x73, 0x5f, 0x74, 0x65, 0x6e, 0x73, 0x6f, 0x72, 0x3a, 0x30, 0x00, 0x00,
  0x03, 0x00, 0x00, 0x00, 0x01, 0x00, 0x00, 0x00, 0x7d, 0x00, 0x00, 0x00,
  0x06, 0x00, 0x00, 0x00, 0x03, 0x00, 0x00, 0x00, 0x3c, 0x00, 0x00, 0x00,
  0x20, 0x00, 0x00, 0x00, 0x04, 0x00, 0x00, 0x00, 0xf4, 0xff, 0xff, 0xff,
  0x19, 0x00, 0x00, 0x00, 0x00, 0x00, 0x00, 0x19, 0x0c, 0x00, 0x0c, 0x00,
  0x0b, 0x00, 0x00, 0x00, 0x00, 0x00, 0x04, 0x00, 0x0c, 0x00, 0x00, 0x00,
  0x28, 0x00, 0x00, 0x00, 0x00, 0x00, 0x00, 0x28, 0x0c, 0x00, 0x10, 0x00,
  0x0f, 0x00, 0x00, 0x00, 0x08, 0x00, 0x04, 0x00, 0x0c, 0x00, 0x00, 0x00,
  0x09, 0x00, 0x00, 0x00, 0x05, 0x00, 0x00, 0x00, 0x00, 0x00, 0x00, 0x09
};
unsigned int Handshake_0604_1114_tflite_len = 16056;
