unsigned char Handshake_0604_1130_tflite[] = {
  0x1c, 0x00, 0x00, 0x00, 0x54, 0x46, 0x4c, 0x33, 0x14, 0x00, 0x20, 0x00,
  0x1c, 0x00, 0x18, 0x00, 0x14, 0x00, 0x10, 0x00, 0x0c, 0x00, 0x00, 0x00,
  0x08, 0x00, 0x04, 0x00, 0x14, 0x00, 0x00, 0x00, 0x1c, 0x00, 0x00, 0x00,
  0x8c, 0x00, 0x00, 0x00, 0xe4, 0x00, 0x00, 0x00, 0xe4, 0x2b, 0x00, 0x00,
  0xf4, 0x2b, 0x00, 0x00, 0xf4, 0x3e, 0x00, 0x00, 0x03, 0x00, 0x00, 0x00,
  0x01, 0x00, 0x00, 0x00, 0x04, 0x00, 0x00, 0x00, 0xae, 0xd0, 0xff, 0xff,
  0x0c, 0x00, 0x00, 0x00, 0x1c, 0x00, 0x00, 0x00, 0x3c, 0x00, 0x00, 0x00,
  0x0f, 0x00, 0x00, 0x00, 0x73, 0x65, 0x72, 0x76, 0x69, 0x6e, 0x67, 0x5f,
  0x64, 0x65, 0x66, 0x61, 0x75, 0x6c, 0x74, 0x00, 0x01, 0x00, 0x00, 0x00,
  0x04, 0x00, 0x00, 0x00, 0x90, 0xff, 0xff, 0xff, 0x24, 0x00, 0x00, 0x00,
  0x04, 0x00, 0x00, 0x00, 0x08, 0x00, 0x00, 0x00, 0x6f, 0x75, 0x74, 0x70,
  0x75, 0x74, 0x5f, 0x30, 0x00, 0x00, 0x00, 0x00, 0x01, 0x00, 0x00, 0x00,
  0x04, 0x00, 0x00, 0x00, 0x0a, 0xd2, 0xff, 0xff, 0x04, 0x00, 0x00, 0x00,
  0x0c, 0x00, 0x00, 0x00, 0x6b, 0x65, 0x72, 0x61, 0x73, 0x5f, 0x74, 0x65,
  0x6e, 0x73, 0x6f, 0x72, 0x00, 0x00, 0x00, 0x00, 0x02, 0x00, 0x00, 0x00,
  0x34, 0x00, 0x00, 0x00, 0x04, 0x00, 0x00, 0x00, 0xdc, 0xff, 0xff, 0xff,
  0x27, 0x00, 0x00, 0x00, 0x04, 0x00, 0x00, 0x00, 0x13, 0x00, 0x00, 0x00,
  0x43, 0x4f, 0x4e, 0x56, 0x45, 0x52, 0x53, 0x49, 0x4f, 0x4e, 0x5f, 0x4d,
  0x45, 0x54, 0x41, 0x44, 0x41, 0x54, 0x41, 0x00, 0x08, 0x00, 0x0c, 0x00,
  0x08, 0x00, 0x04, 0x00, 0x08, 0x00, 0x00, 0x00, 0x26, 0x00, 0x00, 0x00,
  0x04, 0x00, 0x00, 0x00, 0x13, 0x00, 0x00, 0x00, 0x6d, 0x69, 0x6e, 0x5f,
  0x72, 0x75, 0x6e, 0x74, 0x69, 0x6d, 0x65, 0x5f, 0x76, 0x65, 0x72, 0x73,
  0x69, 0x6f, 0x6e, 0x00, 0x28, 0x00, 0x00, 0x00, 0xfc, 0x2a, 0x00, 0x00,
  0xf4, 0x2a, 0x00, 0x00, 0xd8, 0x2a, 0x00, 0x00, 0xc8, 0x1e, 0x00, 0x00,
  0xb8, 0x16, 0x00, 0x00, 0xa8, 0x13, 0x00, 0x00, 0x98, 0x0b, 0x00, 0x00,
  0x88, 0x08, 0x00, 0x00, 0xf8, 0x03, 0x00, 0x00, 0xe4, 0x03, 0x00, 0x00,
  0xd0, 0x03, 0x00, 0x00, 0xbc, 0x03, 0x00, 0x00, 0xa8, 0x03, 0x00, 0x00,
  0xa0, 0x03, 0x00, 0x00, 0x8c, 0x03, 0x00, 0x00, 0x3c, 0x03, 0x00, 0x00,
  0xac, 0x02, 0x00, 0x00, 0x1c, 0x02, 0x00, 0x00, 0xcc, 0x01, 0x00, 0x00,
  0x5c, 0x01, 0x00, 0x00, 0x1c, 0x01, 0x00, 0x00, 0x14, 0x01, 0x00, 0x00,
  0x0c, 0x01, 0x00, 0x00, 0x04, 0x01, 0x00, 0x00, 0xfc, 0x00, 0x00, 0x00,
  0xf4, 0x00, 0x00, 0x00, 0xec, 0x00, 0x00, 0x00, 0xe4, 0x00, 0x00, 0x00,
  0xdc, 0x00, 0x00, 0x00, 0xd4, 0x00, 0x00, 0x00, 0xcc, 0x00, 0x00, 0x00,
  0xc4, 0x00, 0x00, 0x00, 0xbc, 0x00, 0x00, 0x00, 0xb4, 0x00, 0x00, 0x00,
  0xac, 0x00, 0x00, 0x00, 0xa4, 0x00, 0x00, 0x00, 0x9c, 0x00, 0x00, 0x00,
  0x94, 0x00, 0x00, 0x00, 0x74, 0x00, 0x00, 0x00, 0x04, 0x00, 0x00, 0x00,
  0x26, 0xd3, 0xff, 0xff, 0x04, 0x00, 0x00, 0x00, 0x60, 0x00, 0x00, 0x00,
  0x10, 0x00, 0x00, 0x00, 0x00, 0x00, 0x00, 0x00, 0x08, 0x00, 0x0e, 0x00,
  0x08, 0x00, 0x04, 0x00, 0x08, 0x00, 0x00, 0x00, 0x10, 0x00, 0x00, 0x00,
  0x24, 0x00, 0x00, 0x00, 0x00, 0x00, 0x06, 0x00, 0x08, 0x00, 0x04, 0x00,
  0x06, 0x00, 0x00, 0x00, 0x04, 0x00, 0x00, 0x00, 0x00, 0x00, 0x00, 0x00,
  0x0c, 0x00, 0x18, 0x00, 0x14, 0x00, 0x10, 0x00, 0x0c, 0x00, 0x04, 0x00,
  0x0c, 0x00, 0x00, 0x00, 0x63, 0x9e, 0x54, 0x35, 0x9a, 0x1e, 0xa4, 0x23,
  0x02, 0x00, 0x00, 0x00, 0x02, 0x00, 0x00, 0x00, 0x04, 0x00, 0x00, 0x00,
  0x06, 0x00, 0x00, 0x00, 0x32, 0x2e, 0x31, 0x39, 0x2e, 0x30, 0x00, 0x00,
  0x92, 0xd3, 0xff, 0xff, 0x04, 0x00, 0x00, 0x00, 0x10, 0x00, 0x00, 0x00,
  0x32, 0x2e, 0x30, 0x2e, 0x30, 0x00, 0x00, 0x00, 0x00, 0x00, 0x00, 0x00,
  0x00, 0x00, 0x00, 0x00, 0x4c, 0xc3, 0xff, 0xff, 0x50, 0xc3, 0xff, 0xff,
  0x54, 0xc3, 0xff, 0xff, 0x58, 0xc3, 0xff, 0xff, 0x5c, 0xc3, 0xff, 0xff,
  0x60, 0xc3, 0xff, 0xff, 0x64, 0xc3, 0xff, 0xff, 0x68, 0xc3, 0xff, 0xff,
  0x6c, 0xc3, 0xff, 0xff, 0x70, 0xc3, 0xff, 0xff, 0x74, 0xc3, 0xff, 0xff,
  0x78, 0xc3, 0xff, 0xff, 0x7c, 0xc3, 0xff, 0xff, 0x80, 0xc3, 0xff, 0xff,
  0x84, 0xc3, 0xff, 0xff, 0x88, 0xc3, 0xff, 0xff, 0x8c, 0xc3, 0xff, 0xff,
  0xf2, 0xd3, 0xff, 0xff, 0x04, 0x00, 0x00, 0x00, 0x30, 0x00, 0x00, 0x00,
  0x4e, 0xa2, 0xe8, 0xbf, 0x20, 0xf9, 0x80, 0xbf, 0x11, 0x5a, 0x4a, 0x3f,
  0x17, 0x35, 0xa8, 0x3a, 0x1a, 0xbb, 0x97, 0xbe, 0xde, 0xad, 0x35, 0xbe,
  0xad, 0x03, 0x0b, 0xbe, 0x6c, 0x55, 0xe1, 0x3e, 0x4d, 0x40, 0x23, 0x3f,
  0x58, 0x2d, 0xce, 0x3e, 0xbc, 0xe1, 0x84, 0x3f, 0xe4, 0xb5, 0xe1, 0x3c,
  0x2e, 0xd4, 0xff, 0xff, 0x04, 0x00, 0x00, 0x00, 0x60, 0x00, 0x00, 0x00,
  0x56, 0xa7, 0xb7, 0x3f, 0x7e, 0x4e, 0x2a, 0xbf, 0x23, 0x08, 0x00, 0xbe,
  0x11, 0x20, 0xac, 0xbd, 0xfa, 0x1d, 0xdc, 0xbd, 0x42, 0xa2, 0xd2, 0x3e,
  0xff, 0x6a, 0x38, 0xbf, 0xd9, 0xcd, 0x07, 0x3d, 0x46, 0x44, 0x95, 0x3d,
  0x91, 0xa4, 0xb7, 0x3f, 0x13, 0x74, 0x49, 0xbf, 0xf1, 0x1b, 0x52, 0x3e,
  0x72, 0xda, 0x9e, 0x3f, 0xb6, 0xc7, 0xf8, 0xbe, 0x35, 0x99, 0xab, 0x3e,
  0xc6, 0x45, 0x19, 0xbf, 0x46, 0x66, 0xfe, 0xbd, 0xa8, 0x1f, 0x18, 0xbf,
  0x71, 0x80, 0x4b, 0x3e, 0x22, 0x56, 0xa8, 0xbe, 0x16, 0xbb, 0x3a, 0xbf,
  0xd6, 0x97, 0x37, 0xbe, 0xf1, 0x41, 0x08, 0xbf, 0xa1, 0x82, 0x3a, 0x3f,
  0x9a, 0xd4, 0xff, 0xff, 0x04, 0x00, 0x00, 0x00, 0x40, 0x00, 0x00, 0x00,
  0xe8, 0xc3, 0xd9, 0x3f, 0x3a, 0x2c, 0x8b, 0x3f, 0x2d, 0xdb, 0xd8, 0x3f,
  0x2e, 0xc2, 0xd6, 0x3f, 0x59, 0xae, 0x8d, 0x3f, 0x1e, 0xc1, 0x5b, 0xbf,
  0x67, 0x5a, 0x09, 0xbd, 0xb2, 0xc5, 0x55, 0x3f, 0x65, 0x81, 0xfd, 0xbe,
  0xd7, 0x65, 0xa0, 0xbf, 0xd1, 0x5b, 0xe7, 0x3f, 0xb6, 0xd5, 0x6d, 0xbf,
  0xa9, 0x0c, 0xbc, 0xbf, 0xab, 0x02, 0x7e, 0x3f, 0x79, 0x53, 0x6e, 0xbf,
  0xe6, 0x3b, 0x3b, 0x3f, 0xe6, 0xd4, 0xff, 0xff, 0x04, 0x00, 0x00, 0x00,
  0x80, 0x00, 0x00, 0x00, 0x7b, 0x75, 0x14, 0x40, 0xf8, 0xc3, 0x3e, 0x40,
  0x3f, 0x2e, 0x9f, 0xbf, 0x7c, 0x07, 0xcc, 0xbf, 0xc1, 0xb7, 0xd3, 0xbf,
  0xcd, 0x7f, 0xf9, 0x3e, 0x16, 0xb0, 0xba, 0x3f, 0x3d, 0x28, 0xa7, 0xbf,
  0x06, 0x85, 0xc9, 0x3f, 0xe7, 0x80, 0x80, 0x3f, 0xaf, 0x8f, 0x42, 0xbf,
  0x10, 0x85, 0x25, 0x3f, 0xf4, 0xf1, 0x83, 0x3f, 0xca, 0x94, 0x15, 0xbe,
  0x7f, 0x64, 0xb7, 0x3f, 0x0e, 0x62, 0x24, 0xbf, 0xb0, 0x4a, 0xbf, 0x3f,
  0x96, 0xc7, 0xba, 0xbf, 0x4e, 0x33, 0xc4, 0x3f, 0x27, 0xc2, 0xf0, 0xbe,
  0xef, 0x8d, 0xfe, 0x3f, 0xd5, 0xab, 0x0e, 0x3f, 0x2c, 0x6f, 0xc3, 0xbf,
  0xc7, 0x4c, 0xfd, 0xbd, 0x0d, 0x16, 0x66, 0xbf, 0xe0, 0x11, 0xde, 0xbf,
  0x6f, 0xc7, 0x9b, 0xbf, 0x74, 0x61, 0x98, 0x3e, 0xc3, 0xc5, 0x4e, 0xc0,
  0x01, 0x44, 0x03, 0xc0, 0x40, 0x04, 0xee, 0xbf, 0xc4, 0x70, 0xd8, 0x3f,
  0x72, 0xd5, 0xff, 0xff, 0x04, 0x00, 0x00, 0x00, 0x80, 0x00, 0x00, 0x00,
  0xe6, 0x6b, 0xd5, 0x3e, 0x04, 0xd6, 0x02, 0x3f, 0x73, 0xe5, 0xf4, 0xbe,
  0x51, 0x73, 0x99, 0xbe, 0x72, 0xc3, 0xa3, 0x3d, 0x04, 0x70, 0x15, 0xbf,
  0xfd, 0x49, 0xda, 0x3e, 0x58, 0x09, 0xb8, 0xbf, 0xc5, 0xa3, 0x93, 0xbe,
  0x8e, 0x24, 0x2d, 0x3f, 0xb8, 0xaa, 0x65, 0x3f, 0x4e, 0x90, 0x06, 0x40,
  0x04, 0xb6, 0x8a, 0xbe, 0x01, 0x03, 0x2d, 0xbd, 0xb7, 0x5a, 0x8e, 0xbf,
  0x90, 0xc5, 0xdb, 0x3f, 0xf4, 0x72, 0xe6, 0x3f, 0x05, 0xf2, 0xa5, 0xbe,
  0xb1, 0x76, 0x46, 0xbf, 0x67, 0xad, 0x62, 0x3f, 0xe7, 0x8e, 0xbd, 0x3f,
  0xa8, 0xce, 0x2f, 0xbf, 0x4b, 0x11, 0x2e, 0xbd, 0xa7, 0x50, 0x67, 0x40,
  0x1d, 0x61, 0x81, 0x3f, 0xa3, 0xec, 0x82, 0xbd, 0xe1, 0x1d, 0xbf, 0x3f,
  0x05, 0x77, 0x9b, 0xbe, 0x22, 0x8e, 0x89, 0xbf, 0x11, 0x17, 0x44, 0x3f,
  0xc8, 0xca, 0x1f, 0xc0, 0x51, 0x93, 0x0a, 0xbf, 0xfe, 0xd5, 0xff, 0xff,
  0x04, 0x00, 0x00, 0x00, 0x40, 0x00, 0x00, 0x00, 0x3c, 0x59, 0x1b, 0xbf,
  0x73, 0xb9, 0xa0, 0xbe, 0xd5, 0x6c, 0xe0, 0xbd, 0xef, 0x3a, 0x08, 0x3f,
  0x9a, 0xf5, 0xba, 0xbf, 0x91, 0xf5, 0x41, 0xbf, 0x92, 0xc1, 0x85, 0x3f,
  0x4a, 0xbd, 0xd7, 0x3e, 0x59, 0x53, 0x60, 0x3f, 0x45, 0x7c, 0x4d, 0x3f,
  0x3f, 0xe3, 0x35, 0xbe, 0xfd, 0x97, 0x32, 0xbf, 0xe5, 0xc9, 0xa6, 0xbe,
  0xbb, 0x54, 0xd3, 0xbe, 0xc4, 0xac, 0xa6, 0x3f, 0xbb, 0x31, 0x7c, 0x3e,
  0x4a, 0xd6, 0xff, 0xff, 0x04, 0x00, 0x00, 0x00, 0x04, 0x00, 0x00, 0x00,
  0x02, 0x00, 0x00, 0x00, 0xf8, 0xc5, 0xff, 0xff, 0x5e, 0xd6, 0xff, 0xff,
  0x04, 0x00, 0x00, 0x00, 0x04, 0x00, 0x00, 0x00, 0x00, 0x00, 0x00, 0x00,
  0x6e, 0xd6, 0xff, 0xff, 0x04, 0x00, 0x00, 0x00, 0x04, 0x00, 0x00, 0x00,
  0x01, 0x00, 0x00, 0x00, 0x7e, 0xd6, 0xff, 0xff, 0x04, 0x00, 0x00, 0x00,
  0x04, 0x00, 0x00, 0x00, 0x7d, 0x00, 0x00, 0x00, 0x8e, 0xd6, 0xff, 0xff,
  0x04, 0x00, 0x00, 0x00, 0x04, 0x00, 0x00, 0x00, 0x10, 0x00, 0x00, 0x00,
  0x9e, 0xd6, 0xff, 0xff, 0x04, 0x00, 0x00, 0x00, 0x80, 0x04, 0x00, 0x00,
  0xea, 0x4a, 0x81, 0xbe, 0x48, 0xfd, 0x09, 0x3f, 0x05, 0x4b, 0xb0, 0x3e,
  0x4d, 0x86, 0x12, 0xbd, 0x8a, 0x73, 0xb0, 0x3e, 0xa4, 0x43, 0x48, 0xbe,
  0x5d, 0x81, 0xaf, 0x3e, 0x8a, 0xdd, 0xd1, 0xbe, 0xfb, 0x1f, 0x77, 0xbe,
  0x88, 0x0d, 0x16, 0xbf, 0xa0, 0x8d, 0xec, 0x3e, 0x9d, 0x75, 0x0c, 0x3f,
  0x36, 0xbc, 0x34, 0xbf, 0x1b, 0xac, 0x58, 0x3e, 0x97, 0x47, 0x96, 0x3e,
  0x97, 0x4e, 0x51, 0xbf, 0x31, 0xe7, 0x86, 0xbe, 0x37, 0xc2, 0xaf, 0x3e,
  0xae, 0x7b, 0x53, 0x3e, 0x51, 0x16, 0x6c, 0xbe, 0x94, 0xf6, 0x03, 0x3f,
  0x35, 0xe6, 0xdd, 0x3c, 0x32, 0x4e, 0x0b, 0x3f, 0x9d, 0xc3, 0x38, 0xbd,
  0x4b, 0xaa, 0x39, 0xbf, 0x74, 0x39, 0x0b, 0x3f, 0x7e, 0xce, 0xba, 0xbe,
  0xf4, 0x9d, 0x18, 0x3f, 0x42, 0x71, 0x86, 0x3e, 0x93, 0x06, 0x8e, 0x3d,
  0x99, 0x90, 0x15, 0x3e, 0x2c, 0xab, 0x07, 0xbf, 0xbd, 0x02, 0x13, 0xbf,
  0xa6, 0xcc, 0xb3, 0x3e, 0x06, 0x0a, 0x25, 0x3e, 0x3e, 0x05, 0x97, 0xbe,
  0x89, 0x9b, 0x45, 0xbd, 0xd3, 0xff, 0x08, 0x3f, 0x2f, 0xe3, 0x84, 0xbf,
  0xa3, 0x5a, 0x1c, 0xbf, 0xef, 0x14, 0x63, 0xbe, 0x50, 0x02, 0x04, 0xbf,
  0x74, 0xdc, 0x4d, 0xbf, 0xd2, 0x89, 0xab, 0x3e, 0x8a, 0x31, 0xca, 0x3e,
  0x60, 0x0a, 0x34, 0x3f, 0x94, 0xd9, 0x06, 0x3f, 0xbc, 0xf1, 0x69, 0xbf,
  0x33, 0xef, 0x1c, 0xbe, 0x5b, 0xa0, 0x13, 0xbf, 0x34, 0x68, 0x57, 0x3e,
  0x41, 0x29, 0x77, 0x3e, 0x32, 0xec, 0x4b, 0xbe, 0xdc, 0x83, 0xd8, 0xbd,
  0x94, 0xa4, 0x8c, 0xbe, 0x9c, 0x7a, 0x22, 0x3f, 0x82, 0x3d, 0x9a, 0xbe,
  0x8b, 0x42, 0x84, 0xbe, 0xbd, 0x76, 0x1d, 0x3f, 0xdc, 0x78, 0xbf, 0x3d,
  0x26, 0xbc, 0x0d, 0x3f, 0x9a, 0x49, 0x19, 0x3f, 0xec, 0x41, 0xec, 0x3d,
  0x9e, 0x92, 0x21, 0x3f, 0x06, 0x83, 0x83, 0xbf, 0x2b, 0xd1, 0x54, 0xbe,
  0xd1, 0x38, 0x34, 0xbe, 0x38, 0x37, 0x1b, 0xbf, 0x6d, 0x92, 0x45, 0x3f,
  0xd0, 0x1b, 0x8a, 0xbe, 0xfc, 0x48, 0x3c, 0x3e, 0xbf, 0x36, 0x3c, 0xbd,
  0x06, 0x63, 0x0b, 0x3f, 0x0f, 0x1d, 0x1e, 0x3e, 0xac, 0xa8, 0xa8, 0xbd,
  0xeb, 0xa9, 0x30, 0xbd, 0x52, 0xac, 0xd1, 0xbe, 0xa5, 0x19, 0x7d, 0xbe,
  0xfe, 0xc8, 0xb9, 0x3d, 0x87, 0x4b, 0xea, 0x3d, 0xb0, 0xf0, 0xf9, 0xbe,
  0x97, 0x90, 0x30, 0xbf, 0xee, 0x7f, 0x29, 0x3f, 0x3a, 0xf5, 0x91, 0xbe,
  0xb2, 0x41, 0x21, 0xbe, 0x4b, 0xc8, 0x33, 0xbe, 0x8a, 0x1b, 0x30, 0xbf,
  0xce, 0x40, 0x43, 0x3d, 0xdf, 0x79, 0xbf, 0x3e, 0x37, 0x21, 0x9d, 0xbd,
  0x1d, 0xba, 0x90, 0xbf, 0x77, 0x41, 0x72, 0x3e, 0x37, 0x44, 0xed, 0x3e,
  0x2b, 0x84, 0x6a, 0xbf, 0x9f, 0x82, 0x1d, 0x3e, 0x74, 0x9c, 0x2b, 0xbd,
  0x05, 0x63, 0xec, 0xbe, 0x0b, 0x9d, 0x6b, 0x3f, 0xee, 0x60, 0xb3, 0xbd,
  0xe1, 0x0b, 0x10, 0xbe, 0x94, 0x34, 0xd2, 0x3e, 0x09, 0x12, 0x0b, 0x3f,
  0xa1, 0xfe, 0x1d, 0xbf, 0x57, 0xbb, 0x0a, 0x3e, 0xd7, 0xb5, 0xe7, 0x3e,
  0x8d, 0x8a, 0x0d, 0xbf, 0x42, 0x54, 0x6a, 0xbf, 0xeb, 0xd3, 0xb3, 0xbe,
  0x91, 0xf1, 0x18, 0x3f, 0x77, 0x66, 0x83, 0x3e, 0x72, 0xae, 0x35, 0xbf,
  0x87, 0x6c, 0x32, 0x3f, 0x7e, 0xd9, 0x29, 0x3e, 0x81, 0x56, 0xd4, 0xbe,
  0x36, 0x53, 0x85, 0x3f, 0xba, 0x21, 0x36, 0xbf, 0x58, 0x05, 0x29, 0x3e,
  0xae, 0xeb, 0x80, 0xbf, 0x4d, 0x76, 0x68, 0x3f, 0x09, 0x80, 0xe5, 0x3e,
  0xd8, 0xb6, 0xe1, 0x3d, 0xda, 0xd8, 0x43, 0xbf, 0xd7, 0x07, 0xd0, 0x3d,
  0x67, 0x6f, 0x3e, 0xbd, 0xcd, 0x79, 0x02, 0x3f, 0xf3, 0x47, 0xc6, 0xbe,
  0x92, 0x85, 0x02, 0x3f, 0xb8, 0x39, 0xd3, 0x3d, 0x72, 0xc9, 0x83, 0x3e,
  0x43, 0xe4, 0xa2, 0x3e, 0xb9, 0x8c, 0x35, 0xbe, 0x18, 0x67, 0xd8, 0x3e,
  0x6d, 0x5a, 0x61, 0xbe, 0x17, 0x72, 0xd0, 0x3c, 0x4b, 0x17, 0x76, 0xbf,
  0xc1, 0x27, 0x43, 0x3f, 0x26, 0xed, 0x4b, 0xbe, 0x5b, 0x56, 0x02, 0xbf,
  0x45, 0xa6, 0xc5, 0xbf, 0xea, 0x6d, 0xb6, 0x3e, 0x4e, 0x6d, 0x92, 0xbd,
  0xfa, 0xf5, 0x57, 0xbf, 0x9e, 0xb8, 0x07, 0x3f, 0x3f, 0xe6, 0x7a, 0x3e,
  0x8e, 0x48, 0xa1, 0xbe, 0xd4, 0x86, 0x82, 0xbf, 0x36, 0xe3, 0x88, 0xbe,
  0xf7, 0x21, 0xc4, 0xbc, 0x7a, 0x23, 0x2b, 0xbe, 0x4d, 0x43, 0xbd, 0x3d,
  0xe9, 0x3f, 0x0f, 0x3f, 0xb0, 0x2e, 0x99, 0xbe, 0xa6, 0x99, 0xd0, 0x3e,
  0x58, 0x59, 0x65, 0xbd, 0x2a, 0x85, 0xf2, 0xbe, 0x26, 0x29, 0xa6, 0xbe,
  0xd1, 0x01, 0xe4, 0x3d, 0x32, 0x73, 0xff, 0xbe, 0x86, 0x4f, 0x92, 0x3e,
  0xf9, 0x4a, 0xdc, 0xbe, 0xeb, 0x69, 0x3a, 0x3e, 0x11, 0x0b, 0x09, 0x3e,
  0xf3, 0x46, 0xaa, 0x3d, 0xf1, 0x8b, 0x94, 0x3e, 0xa1, 0xa0, 0x85, 0xbf,
  0x7a, 0x0c, 0x9e, 0x3f, 0xed, 0x46, 0xce, 0x3d, 0xf7, 0xdd, 0xfe, 0x3e,
  0x52, 0xe9, 0x99, 0xbd, 0xe0, 0x4e, 0x17, 0x3f, 0xa5, 0xb8, 0xc0, 0xbe,
  0x13, 0x3b, 0x63, 0xbe, 0x83, 0x71, 0xac, 0xbe, 0xa7, 0xc5, 0x49, 0x3d,
  0x14, 0xd5, 0x11, 0xbe, 0x23, 0x1a, 0x03, 0x3f, 0x55, 0x50, 0x9d, 0x3e,
  0x06, 0xb3, 0xdc, 0x3e, 0x2e, 0xfc, 0xcf, 0xbe, 0xd6, 0x02, 0x4f, 0x3e,
  0x58, 0x20, 0x3e, 0xbf, 0xb8, 0xdb, 0x85, 0xbe, 0xe1, 0x36, 0x01, 0x3e,
  0x81, 0xf6, 0x1c, 0x3f, 0x13, 0x2c, 0x40, 0xbf, 0x27, 0xd6, 0xc3, 0x3e,
  0x9e, 0x53, 0x54, 0x3f, 0xca, 0xc2, 0x27, 0xbe, 0x59, 0x97, 0xb5, 0xbe,
  0x07, 0x75, 0x19, 0xbe, 0xf6, 0x95, 0x0a, 0x3f, 0x89, 0x43, 0x48, 0x3f,
  0x2d, 0x0d, 0xa9, 0x3e, 0xca, 0xb8, 0x46, 0xc0, 0x61, 0xc5, 0x3c, 0x3e,
  0xd4, 0xfd, 0x0d, 0x3f, 0x91, 0xba, 0x23, 0xbe, 0x3d, 0x59, 0x81, 0xbf,
  0x30, 0xb7, 0x55, 0xbf, 0x46, 0x42, 0xbb, 0xbe, 0x52, 0xf8, 0x51, 0xbf,
  0xe1, 0x92, 0x3e, 0x3f, 0xc1, 0x5f, 0x21, 0xc0, 0xa9, 0x81, 0xd4, 0xbf,
  0x3a, 0xc6, 0xe9, 0x3e, 0x20, 0x9a, 0x2a, 0x3e, 0x84, 0x9c, 0x85, 0xbe,
  0xad, 0x84, 0x1c, 0x40, 0x97, 0x0c, 0x93, 0xbe, 0x31, 0x99, 0xe8, 0x3e,
  0x88, 0xab, 0x2b, 0xc0, 0xea, 0x04, 0x9d, 0xbf, 0xff, 0xfd, 0xb3, 0xbe,
  0x10, 0x45, 0x42, 0x3f, 0x63, 0x4d, 0xf4, 0x3d, 0xfe, 0xd5, 0xf8, 0x3e,
  0xa9, 0x75, 0xda, 0x3e, 0x8c, 0xb5, 0x5d, 0xbf, 0x12, 0xc3, 0xb3, 0x3e,
  0x6d, 0x27, 0xe1, 0x3d, 0x8a, 0x71, 0x84, 0xbe, 0x84, 0xf3, 0xc8, 0x3e,
  0x1f, 0x40, 0xa8, 0xbd, 0x5f, 0x54, 0xb1, 0x3e, 0x23, 0x61, 0xa5, 0xbe,
  0x64, 0x6a, 0x08, 0x3f, 0x89, 0x5d, 0xc7, 0xbe, 0x61, 0x79, 0x9f, 0x3e,
  0x5b, 0x08, 0x41, 0xbf, 0xf0, 0xc8, 0x01, 0xbf, 0x27, 0x7f, 0x41, 0x3f,
  0x0a, 0x69, 0xb8, 0xbd, 0x04, 0x46, 0x2e, 0x3f, 0x48, 0x18, 0x00, 0xbf,
  0xe3, 0xa3, 0x09, 0x3f, 0x23, 0xa5, 0x87, 0x3e, 0x80, 0xd1, 0xfe, 0xbd,
  0xfa, 0x20, 0x57, 0xbe, 0x6f, 0x02, 0xf0, 0xbe, 0x6d, 0xe3, 0x24, 0xbd,
  0xea, 0xeb, 0x9b, 0x3e, 0x25, 0x90, 0x27, 0x3f, 0xfe, 0x2e, 0x9a, 0xbe,
  0xdd, 0x27, 0xd0, 0xbd, 0x87, 0xab, 0x27, 0x3f, 0xe9, 0xef, 0x69, 0x3e,
  0x83, 0x49, 0xf6, 0xbe, 0x6f, 0x03, 0xc2, 0xbf, 0xd4, 0x6a, 0xcf, 0x3e,
  0x14, 0x38, 0x13, 0x3f, 0xd5, 0xe8, 0x1a, 0xbf, 0xe0, 0x13, 0x06, 0x3f,
  0x40, 0x64, 0x54, 0x3f, 0x0d, 0xad, 0xca, 0xbf, 0x3f, 0xcd, 0xb0, 0x3d,
  0x5b, 0xcc, 0x41, 0xbf, 0x31, 0xd5, 0x09, 0x3f, 0x80, 0xa5, 0x83, 0xbc,
  0x32, 0x0c, 0x89, 0x3f, 0x4f, 0x06, 0x26, 0xbf, 0x9d, 0x6b, 0xd7, 0xbe,
  0x9c, 0xe2, 0x36, 0x3e, 0x48, 0xa3, 0x82, 0xbf, 0x7d, 0xe5, 0xc0, 0xbf,
  0xae, 0xf8, 0xc3, 0x3e, 0xa2, 0xf1, 0x80, 0x3c, 0x39, 0xf7, 0x9a, 0xbe,
  0x1b, 0x79, 0x29, 0xbe, 0xc4, 0xba, 0xcf, 0xbf, 0x82, 0x64, 0xe5, 0xbe,
  0x84, 0x41, 0x9c, 0x3e, 0xb2, 0x32, 0xe5, 0x3c, 0x4c, 0xc4, 0xe1, 0x3e,
  0x48, 0x15, 0x13, 0x3f, 0x09, 0xd5, 0x1a, 0x3f, 0xeb, 0x67, 0x4a, 0x3e,
  0xae, 0x11, 0x02, 0xbf, 0xc4, 0xd5, 0x1b, 0x3f, 0x2f, 0x36, 0x0a, 0xbf,
  0x65, 0xa0, 0xe6, 0xbe, 0x1a, 0xed, 0x09, 0x3f, 0x6d, 0x47, 0x94, 0xbe,
  0x8d, 0x0c, 0x6a, 0x3f, 0x24, 0x7a, 0x10, 0x3e, 0x5e, 0x14, 0x09, 0xbf,
  0x66, 0x3b, 0x79, 0xbf, 0x07, 0xea, 0xa3, 0xbe, 0x8b, 0x9f, 0x55, 0xba,
  0x2a, 0xdb, 0xff, 0xff, 0x04, 0x00, 0x00, 0x00, 0x00, 0x03, 0x00, 0x00,
  0xef, 0xe0, 0xec, 0x3f, 0xf4, 0x66, 0x51, 0xbf, 0x26, 0x4b, 0x77, 0xbf,
  0xc2, 0xf0, 0x92, 0xbe, 0xa7, 0xb7, 0x0a, 0xbf, 0xb8, 0x12, 0x4f, 0xbe,
  0x8c, 0x49, 0x92, 0xbf, 0xb0, 0x4e, 0xd5, 0x3e, 0x9c, 0x8d, 0x8d, 0x3f,
  0x1c, 0x37, 0xbb, 0xbe, 0xcd, 0x97, 0x8d, 0xbe, 0xf2, 0x63, 0x01, 0xba,
  0xda, 0x2f, 0x0c, 0x40, 0xc7, 0x85, 0x1c, 0xbe, 0x66, 0x90, 0x0d, 0x40,
  0x3e, 0x0e, 0xbd, 0xbd, 0x65, 0x55, 0x6e, 0xbd, 0x26, 0xca, 0x30, 0x3e,
  0xe6, 0x0f, 0xf1, 0x3f, 0x28, 0x2d, 0xab, 0x3f, 0xc4, 0xc4, 0x51, 0x3f,
  0x66, 0x21, 0x0f, 0xbe, 0x9f, 0xb5, 0xed, 0x3e, 0x78, 0x65, 0xd2, 0xbc,
  0xad, 0xc1, 0x1a, 0x3f, 0x70, 0xa1, 0x86, 0xbd, 0x3a, 0x92, 0x27, 0x3f,
  0x2f, 0x24, 0x06, 0xbd, 0x8b, 0x8a, 0xdd, 0xbe, 0xf9, 0x74, 0x4d, 0x3e,
  0x64, 0x72, 0xbe, 0xbf, 0xb7, 0x40, 0x9c, 0xbf, 0x46, 0x41, 0xc7, 0xbf,
  0x9f, 0x35, 0x06, 0x3e, 0x10, 0xed, 0x93, 0xbe, 0xc7, 0xaa, 0x60, 0xbe,
  0x26, 0xd1, 0x8d, 0xbf, 0x24, 0x3a, 0xcf, 0x3e, 0x78, 0x9b, 0x6f, 0xbf,
  0x0c, 0xb4, 0x44, 0xbe, 0xbf, 0xe8, 0x18, 0xbd, 0x7d, 0x3d, 0xb9, 0xbe,
  0xa4, 0xb6, 0x8b, 0x3e, 0xda, 0x2a, 0xce, 0xbf, 0xa9, 0x7e, 0xe2, 0x3f,
  0x5c, 0xea, 0xf4, 0xbd, 0xfa, 0x19, 0x74, 0x3e, 0xdd, 0x3b, 0xbc, 0xbe,
  0x0f, 0x72, 0x9a, 0xbf, 0x52, 0x3a, 0x08, 0x3f, 0x1d, 0xed, 0xe6, 0x3f,
  0x86, 0x49, 0x8c, 0x3e, 0xee, 0x44, 0xc9, 0xbe, 0xae, 0x1e, 0xe4, 0x3d,
  0x28, 0x31, 0xae, 0xbf, 0x5c, 0x27, 0x0d, 0xc0, 0x19, 0xa4, 0x85, 0xbf,
  0xf8, 0xfb, 0x21, 0xbc, 0x9e, 0x19, 0x4e, 0x3e, 0xd2, 0xe1, 0x73, 0x3e,
  0xb3, 0x3a, 0x29, 0x40, 0x5e, 0xcc, 0x38, 0xbf, 0x88, 0x2e, 0xd0, 0xbf,
  0x0c, 0xe8, 0xae, 0x3e, 0xf5, 0x27, 0x52, 0xbe, 0x23, 0x9b, 0xb7, 0x3d,
  0xda, 0x84, 0x19, 0x3f, 0xad, 0xc5, 0x09, 0xc0, 0xd9, 0x2f, 0x46, 0xbf,
  0x00, 0xb3, 0x12, 0x3f, 0x38, 0x85, 0x7b, 0x3c, 0xad, 0x3d, 0xc5, 0x3e,
  0x1a, 0x53, 0x05, 0x40, 0xcc, 0xbd, 0x56, 0x3f, 0x6a, 0x03, 0x80, 0x3f,
  0x65, 0x07, 0x72, 0x3d, 0x09, 0xd1, 0xc2, 0x3e, 0x81, 0x54, 0xe1, 0x3d,
  0x25, 0xce, 0x95, 0xbf, 0x41, 0x11, 0x0a, 0xbf, 0x33, 0xe0, 0xb6, 0x3e,
  0x79, 0xc1, 0xd0, 0xbe, 0x42, 0x60, 0x54, 0xbc, 0x0c, 0x82, 0x83, 0x3e,
  0x77, 0x09, 0xfa, 0xbf, 0x21, 0x9e, 0xd4, 0xbe, 0xf4, 0x15, 0x81, 0x3f,
  0x69, 0xc2, 0xa8, 0xbc, 0xa7, 0xc9, 0xcb, 0xbc, 0xce, 0xec, 0x01, 0x3e,
  0x57, 0x7d, 0xf6, 0x3f, 0xec, 0x9e, 0xdf, 0x3f, 0x4f, 0x7f, 0x0c, 0xc0,
  0xe0, 0xb3, 0x86, 0xbe, 0x0b, 0x0f, 0x8a, 0xbe, 0x18, 0x79, 0xa6, 0x3e,
  0xf2, 0x17, 0xbf, 0x3f, 0x30, 0x41, 0xcf, 0x3e, 0x05, 0x8a, 0x90, 0xbf,
  0x4d, 0x35, 0xc1, 0x3e, 0xe1, 0x6b, 0x2c, 0x3e, 0x9b, 0x81, 0x00, 0x3e,
  0x2e, 0x3a, 0xee, 0x3e, 0x3c, 0x0b, 0x7e, 0xbe, 0x47, 0x00, 0x26, 0x3e,
  0x78, 0xb2, 0xf5, 0x3e, 0xed, 0xe9, 0xc8, 0x3e, 0x6e, 0x82, 0x3c, 0xbe,
  0xd8, 0x32, 0x3f, 0xbf, 0x61, 0x31, 0x96, 0x3f, 0xb7, 0x3f, 0x2d, 0xc0,
  0xd3, 0x81, 0x8e, 0xbe, 0x70, 0xc2, 0xb5, 0x3e, 0xf8, 0x30, 0xf5, 0xbd,
  0x90, 0x5b, 0xc7, 0x3d, 0x18, 0xaf, 0x76, 0x3f, 0x48, 0x24, 0x30, 0xbf,
  0x77, 0xaa, 0x4e, 0xbe, 0x91, 0x91, 0x75, 0x3e, 0x4e, 0x89, 0x2e, 0xbe,
  0x38, 0xa2, 0xee, 0x3e, 0x53, 0xdd, 0x70, 0xbe, 0xb2, 0x58, 0x93, 0xbe,
  0x15, 0x50, 0xa6, 0x3c, 0x97, 0xc6, 0xe9, 0xbd, 0x42, 0x94, 0xbf, 0xbe,
  0xb5, 0x4f, 0x96, 0xbf, 0x49, 0x41, 0x2b, 0xc0, 0x96, 0x9b, 0x54, 0xbf,
  0xc9, 0xbf, 0xcb, 0xbe, 0x91, 0x78, 0x0b, 0xbd, 0x56, 0x40, 0x49, 0x3d,
  0xc3, 0xf5, 0x0e, 0xc0, 0xac, 0xbf, 0xfa, 0xbf, 0x54, 0xda, 0xc3, 0x3f,
  0x0c, 0xd8, 0x20, 0x3e, 0xa6, 0x91, 0x6a, 0x3d, 0x83, 0xaa, 0x0d, 0x3f,
  0x27, 0x73, 0x30, 0xc0, 0xe0, 0x32, 0x8e, 0xbf, 0x26, 0x5b, 0x80, 0xbf,
  0x89, 0x1c, 0x19, 0xbd, 0x64, 0xe3, 0x5b, 0xbd, 0xf3, 0x5d, 0xee, 0x3e,
  0xda, 0xc8, 0xe3, 0x3f, 0xc9, 0x9d, 0xde, 0x3f, 0xab, 0x1a, 0x7f, 0x3f,
  0xe4, 0x55, 0xac, 0xbd, 0x32, 0x6d, 0xe9, 0x3e, 0x9b, 0xde, 0xcd, 0x3e,
  0x95, 0x34, 0x76, 0x3f, 0x85, 0xfa, 0xcc, 0xbe, 0x2e, 0xc9, 0x5b, 0xbf,
  0xa3, 0x7d, 0xaf, 0xbe, 0xdf, 0x18, 0x1c, 0xbe, 0x73, 0x19, 0x3f, 0x3d,
  0xf2, 0x2e, 0xad, 0x3f, 0xd3, 0xbd, 0x84, 0x3e, 0x51, 0xd1, 0x8e, 0xbe,
  0x24, 0x91, 0x62, 0xbe, 0x08, 0x69, 0x97, 0xbe, 0x37, 0xc7, 0xdd, 0xbe,
  0x22, 0xda, 0xe7, 0x3e, 0xe9, 0x5f, 0xc0, 0xbd, 0xbb, 0x6b, 0x49, 0xbf,
  0xa4, 0xde, 0xee, 0x3e, 0x51, 0x75, 0x8b, 0xbe, 0x39, 0xa8, 0xd1, 0x3e,
  0xcb, 0x88, 0x3a, 0x3f, 0x8a, 0xe2, 0x4c, 0xbf, 0xba, 0x11, 0x0a, 0xbf,
  0xf5, 0x62, 0xf1, 0xbe, 0x2e, 0x0b, 0x32, 0xbe, 0x01, 0x47, 0x68, 0x3e,
  0xfa, 0xeb, 0xc0, 0xbe, 0xca, 0x72, 0x1a, 0x40, 0x0d, 0xe7, 0x28, 0xbe,
  0x95, 0xfe, 0xb4, 0xbe, 0x15, 0xad, 0x01, 0xbe, 0x6c, 0x94, 0x40, 0xbd,
  0x17, 0x32, 0xb5, 0xbf, 0xf2, 0xeb, 0x45, 0x3f, 0x7a, 0x23, 0x2d, 0xc0,
  0xaf, 0x40, 0x0c, 0x3e, 0xe2, 0x2f, 0xb2, 0xbe, 0x35, 0xc9, 0xd5, 0xbe,
  0x32, 0xbe, 0x98, 0x3d, 0xf7, 0xf5, 0x10, 0x3f, 0x52, 0x9b, 0x87, 0x3f,
  0x77, 0x5e, 0x63, 0x3c, 0xe6, 0xd2, 0xd5, 0x3e, 0x75, 0xe8, 0x67, 0xbe,
  0x36, 0xde, 0xff, 0xff, 0x04, 0x00, 0x00, 0x00, 0x00, 0x08, 0x00, 0x00,
  0x2a, 0x7e, 0x17, 0xbf, 0x1c, 0xad, 0xf3, 0x3e, 0xe6, 0xd5, 0xd7, 0xbe,
  0x77, 0xfd, 0x17, 0xbe, 0x3e, 0xf4, 0x43, 0xbd, 0x0f, 0x24, 0x80, 0x3e,
  0xe6, 0x09, 0x4e, 0x3e, 0x1a, 0xa8, 0x95, 0x3e, 0x26, 0x79, 0xdc, 0x3e,
  0xa9, 0xa6, 0xc4, 0xbe, 0xce, 0x4e, 0x87, 0xbe, 0xd9, 0xeb, 0x92, 0x3e,
  0x0e, 0xf4, 0x83, 0xbe, 0x0e, 0x8c, 0x50, 0x3e, 0x8d, 0xd0, 0x70, 0x3f,
  0x5c, 0x88, 0xec, 0xbe, 0x78, 0xa6, 0x38, 0x3e, 0x6a, 0x80, 0x95, 0xbe,
  0x89, 0x1d, 0x5d, 0xbe, 0x4e, 0x96, 0x95, 0xbe, 0x6b, 0x43, 0xae, 0x3e,
  0xf2, 0x0f, 0xae, 0xbe, 0x56, 0x0b, 0x97, 0xbe, 0x28, 0xc7, 0x25, 0xbe,
  0xc1, 0xf8, 0xe4, 0xbe, 0x86, 0x25, 0x8e, 0xbe, 0xfb, 0x51, 0xe4, 0xbe,
  0xe8, 0x2a, 0x8d, 0x3e, 0x09, 0xeb, 0xd8, 0xbe, 0x64, 0x9c, 0xdf, 0xbe,
  0xac, 0xa8, 0xa2, 0x3d, 0x27, 0x88, 0xc4, 0x3e, 0xa0, 0x31, 0xdc, 0x3e,
  0x3f, 0x78, 0x02, 0x3c, 0x7f, 0xee, 0xd5, 0x3e, 0x8a, 0xca, 0x07, 0x3e,
  0xac, 0xcb, 0x7c, 0xbd, 0xa4, 0xfe, 0x6f, 0x3e, 0xdb, 0xd6, 0x47, 0x3e,
  0x3b, 0x3f, 0xaf, 0xbe, 0x03, 0x74, 0x62, 0xbe, 0x92, 0x92, 0x00, 0xbe,
  0x48, 0x9f, 0xce, 0x3d, 0x34, 0x38, 0x26, 0xbf, 0x25, 0xda, 0xdb, 0x3e,
  0x50, 0x22, 0xc8, 0xbe, 0x7f, 0x69, 0x72, 0x3e, 0x94, 0x88, 0x34, 0x3f,
  0xf6, 0x7d, 0xd3, 0xbd, 0xcd, 0xd9, 0xb8, 0xbe, 0x3f, 0x42, 0xd7, 0x3e,
  0x7c, 0xc2, 0x2e, 0x3d, 0xbc, 0x83, 0x6b, 0x3e, 0x8b, 0xcd, 0x99, 0xbe,
  0xe2, 0xbb, 0xc2, 0xbe, 0x71, 0x04, 0xc9, 0xbe, 0x07, 0x1a, 0x3a, 0x3e,
  0xe8, 0x79, 0x11, 0xbe, 0x7d, 0x83, 0x9c, 0xbe, 0x4b, 0x34, 0xfa, 0x3d,
  0x20, 0x2c, 0xf5, 0xbd, 0x5d, 0x71, 0xf9, 0xbe, 0x47, 0xc6, 0xcf, 0x3d,
  0xb4, 0xbe, 0xac, 0x3e, 0xff, 0x38, 0x63, 0x3c, 0x71, 0xf2, 0x7e, 0x3e,
  0xd8, 0x59, 0xb7, 0xbe, 0x28, 0xe4, 0x5c, 0xbc, 0x3f, 0x2c, 0x91, 0xbe,
  0x23, 0x9c, 0xc7, 0xbf, 0x16, 0x8b, 0x2e, 0x3e, 0x5e, 0xe8, 0xe1, 0xbe,
  0xb5, 0xef, 0x1a, 0xbe, 0xe0, 0xdd, 0xe8, 0x3e, 0x4e, 0x2d, 0x97, 0x3f,
  0x0c, 0xbf, 0xd5, 0xbe, 0xa3, 0x1a, 0xfc, 0x3e, 0xf9, 0x21, 0x66, 0x3e,
  0x4c, 0xab, 0x89, 0xbd, 0xaf, 0x10, 0xdb, 0x3e, 0x68, 0x84, 0xd8, 0x3e,
  0xa0, 0x16, 0xc6, 0xbe, 0xa6, 0x09, 0x07, 0x3f, 0xe5, 0xde, 0x25, 0xbd,
  0x3f, 0x5b, 0x51, 0x3f, 0xed, 0x27, 0x59, 0x3c, 0xa3, 0x8c, 0x02, 0xbf,
  0xb5, 0x22, 0x9d, 0x3e, 0x4d, 0x4f, 0xee, 0x3d, 0xb9, 0x2d, 0x3c, 0x3d,
  0x0f, 0xf0, 0x03, 0x3d, 0x4d, 0xd0, 0x4f, 0xbe, 0xc9, 0x9c, 0xab, 0xbd,
  0x30, 0x98, 0xcb, 0xbd, 0xcf, 0xeb, 0x45, 0xbf, 0x27, 0x2c, 0x95, 0xbd,
  0xdc, 0x71, 0x58, 0x3e, 0x1d, 0x10, 0x94, 0x3e, 0x70, 0xab, 0x5e, 0xbf,
  0x82, 0xde, 0x30, 0x3e, 0xe0, 0x8c, 0x55, 0xbf, 0x29, 0x77, 0x98, 0x3e,
  0xee, 0x1d, 0xd8, 0x3e, 0x44, 0x39, 0xa8, 0xbe, 0xa5, 0x07, 0xdc, 0xbe,
  0x06, 0x9c, 0xa4, 0xbe, 0xa0, 0xcd, 0xdc, 0x3d, 0x76, 0xf9, 0x9b, 0x3f,
  0xef, 0xf3, 0xa7, 0xbf, 0x5b, 0x49, 0x88, 0xbe, 0x8e, 0xf2, 0xb3, 0x3e,
  0x4c, 0xdd, 0x83, 0x3e, 0x93, 0x8a, 0x4d, 0xbf, 0x58, 0x51, 0x20, 0xbf,
  0xbb, 0xcc, 0xa6, 0xbd, 0x9f, 0x4d, 0xcb, 0x3d, 0xba, 0x28, 0xcb, 0x3e,
  0x30, 0x42, 0x1f, 0x3e, 0xb5, 0x55, 0xea, 0xbe, 0x53, 0x0d, 0x68, 0xbf,
  0x4c, 0xd1, 0x46, 0x3e, 0xe3, 0x7d, 0xe5, 0xbe, 0x4f, 0x18, 0x51, 0xbe,
  0x51, 0xe4, 0xb1, 0xbe, 0xd1, 0x78, 0x0f, 0xbe, 0xe5, 0x23, 0x97, 0x3e,
  0x1f, 0x5b, 0x64, 0xbf, 0xc4, 0x23, 0x5e, 0xbe, 0x25, 0x1d, 0x0c, 0x3e,
  0x06, 0x3e, 0xaa, 0x3e, 0xd3, 0xe1, 0xe2, 0xbe, 0xfd, 0x4f, 0xac, 0xbe,
  0x14, 0x41, 0x3a, 0x3e, 0x3f, 0x84, 0x87, 0xbe, 0x92, 0xec, 0x7b, 0x3e,
  0xf3, 0x27, 0xa5, 0xbe, 0x8f, 0x15, 0xb6, 0x3e, 0x2f, 0xf7, 0x8a, 0x3b,
  0x47, 0x4e, 0xea, 0xbd, 0x95, 0x26, 0xc0, 0xbd, 0x70, 0x1c, 0x33, 0x3e,
  0x0a, 0xaf, 0x3d, 0x3e, 0x1b, 0x8d, 0xe7, 0x3e, 0xd3, 0x39, 0xbe, 0xbe,
  0xac, 0xcd, 0xac, 0x3e, 0xc1, 0xf1, 0x05, 0xbf, 0x3d, 0xcf, 0xb5, 0x3e,
  0x26, 0xd9, 0x00, 0xbe, 0xcf, 0x96, 0xee, 0xbe, 0x8a, 0x53, 0x50, 0x3e,
  0x6d, 0xa4, 0x9d, 0x3d, 0x71, 0x0c, 0x92, 0x3e, 0x73, 0xcb, 0x9f, 0xbe,
  0x3c, 0x28, 0x96, 0xbd, 0xce, 0xcb, 0x0c, 0xbe, 0x7e, 0x81, 0xdc, 0x3e,
  0x7c, 0x6f, 0xff, 0xbe, 0x0c, 0x5d, 0xcb, 0x3d, 0xcb, 0x95, 0x2b, 0xbf,
  0x85, 0x97, 0x10, 0x3f, 0x05, 0x47, 0x9e, 0x3d, 0xd2, 0x52, 0x12, 0x3e,
  0x0b, 0x26, 0x5d, 0xbe, 0x29, 0xd9, 0xe8, 0x3e, 0x59, 0x9b, 0x9f, 0x3d,
  0xe5, 0x75, 0xd8, 0x3c, 0x12, 0x90, 0xbd, 0x3a, 0xb0, 0xfa, 0xa0, 0x3d,
  0xc5, 0xd5, 0x28, 0x3e, 0xed, 0x92, 0x41, 0xbc, 0xda, 0x97, 0x17, 0x3f,
  0x85, 0x7f, 0xe1, 0x3e, 0x67, 0x09, 0x03, 0xbf, 0xfb, 0xb9, 0x25, 0xbe,
  0x51, 0xe0, 0xff, 0xbd, 0x78, 0xfb, 0x33, 0x3e, 0x2f, 0x61, 0x13, 0x3e,
  0x4d, 0x73, 0xef, 0xbe, 0xf5, 0xd3, 0x9c, 0xbe, 0xc2, 0xc0, 0xb7, 0xbe,
  0x17, 0x22, 0xd7, 0x3e, 0x44, 0xba, 0x88, 0xbd, 0x96, 0xf7, 0xc3, 0xbd,
  0x36, 0x04, 0xf6, 0x3d, 0xbe, 0x48, 0x19, 0xbe, 0xa3, 0xbc, 0x11, 0x3e,
  0xec, 0x6e, 0x66, 0x3e, 0x37, 0xa3, 0xf6, 0xbc, 0xc7, 0x71, 0xb1, 0x3e,
  0x11, 0x1f, 0x59, 0x3f, 0xaf, 0x8f, 0x70, 0x3e, 0x25, 0x09, 0xb0, 0xbe,
  0xea, 0xb2, 0x87, 0xbe, 0xb0, 0xc4, 0x94, 0x3c, 0x31, 0x82, 0x7d, 0xbf,
  0x9f, 0xf9, 0xb8, 0x3e, 0x97, 0x01, 0x39, 0x3e, 0x22, 0xa1, 0x63, 0x3e,
  0x9f, 0xe0, 0xcb, 0x3c, 0xc2, 0xf1, 0xd1, 0xbd, 0xb7, 0xb1, 0x9c, 0x3e,
  0x1c, 0xd8, 0x34, 0xbd, 0xac, 0x23, 0xa7, 0x3e, 0x10, 0x62, 0x8e, 0x3e,
  0x1b, 0xd6, 0x47, 0xbe, 0x73, 0xff, 0xa4, 0x3e, 0x5b, 0xf5, 0x3c, 0xbe,
  0x9f, 0xf8, 0x23, 0xbf, 0xb6, 0x97, 0x9b, 0x3e, 0xf0, 0x51, 0x91, 0x3e,
  0xfe, 0xde, 0x28, 0xbb, 0x2f, 0xa8, 0xcb, 0x3e, 0x46, 0x9b, 0x84, 0x3c,
  0xf8, 0xf5, 0x09, 0x3f, 0xa4, 0x99, 0x15, 0xbf, 0xa0, 0x19, 0x4b, 0xbf,
  0x30, 0x4f, 0x81, 0x3e, 0x1f, 0x4d, 0x02, 0x3e, 0x24, 0x57, 0xfc, 0x3d,
  0xb4, 0xe7, 0x13, 0xbc, 0x24, 0xc2, 0x7e, 0xbe, 0x05, 0x60, 0x05, 0x3f,
  0x53, 0x77, 0xe2, 0x3c, 0x38, 0x92, 0xfc, 0x3d, 0xe6, 0x58, 0xa1, 0x3e,
  0x77, 0xb8, 0xda, 0x3e, 0x1a, 0x32, 0xdc, 0x3e, 0x50, 0x63, 0xb8, 0x3e,
  0xe3, 0x2d, 0x92, 0x3e, 0xfc, 0x57, 0xcd, 0xbc, 0x23, 0xf3, 0x38, 0x3e,
  0x50, 0xd5, 0x8c, 0xbe, 0x78, 0xc8, 0xc6, 0x3e, 0xa0, 0xc9, 0x14, 0x3e,
  0xec, 0x01, 0xb7, 0xbe, 0xbd, 0xfe, 0x47, 0x3e, 0xa1, 0x71, 0x82, 0xba,
  0xb0, 0xe2, 0xcf, 0x3d, 0x53, 0xeb, 0xa8, 0x3e, 0xa2, 0x04, 0x60, 0xbe,
  0x7d, 0x69, 0x16, 0x3e, 0x0c, 0x5e, 0x39, 0x3d, 0x6e, 0x62, 0x5f, 0x3e,
  0xad, 0x42, 0x9e, 0x3e, 0x7d, 0xdb, 0x9c, 0x3e, 0xe1, 0x4f, 0x7d, 0x3a,
  0x4a, 0xb5, 0x7b, 0x3d, 0xec, 0x05, 0x06, 0xbe, 0x17, 0x27, 0xc1, 0x3e,
  0x95, 0xfb, 0xfd, 0xbe, 0xbe, 0x96, 0x01, 0x3b, 0x6b, 0x8b, 0xa8, 0xbe,
  0xec, 0xbd, 0xc5, 0xbe, 0x95, 0x42, 0xeb, 0xbe, 0xdb, 0x2d, 0xef, 0xbe,
  0x1a, 0x8f, 0x8b, 0x3d, 0x44, 0xb0, 0x03, 0xbf, 0x95, 0x0a, 0x01, 0xbf,
  0xc3, 0xb2, 0x02, 0x3f, 0x06, 0x8e, 0x54, 0x3e, 0x8b, 0x7d, 0xa0, 0x3e,
  0xb1, 0xe3, 0x44, 0xbe, 0xe5, 0x92, 0xbf, 0x3d, 0xb8, 0x49, 0x88, 0xbd,
  0x56, 0x21, 0xaf, 0x3e, 0xd1, 0x21, 0xfd, 0xbe, 0x6d, 0x22, 0xe3, 0x3e,
  0x5e, 0x64, 0xe2, 0x3e, 0x62, 0xc8, 0xe9, 0x3e, 0xce, 0xf6, 0xb3, 0x3e,
  0x89, 0xf6, 0xea, 0xbe, 0x68, 0xd6, 0x25, 0xbc, 0x67, 0x05, 0x72, 0x3e,
  0xad, 0xd0, 0xa5, 0x3e, 0xc3, 0x1b, 0x90, 0x3d, 0xdb, 0x84, 0x94, 0x3d,
  0x8e, 0x90, 0x9a, 0x3e, 0x40, 0x08, 0x6d, 0x3e, 0xd0, 0xa3, 0x1d, 0xbe,
  0xa3, 0xf6, 0x94, 0xbe, 0xbb, 0x74, 0xb3, 0x3d, 0xaf, 0xcf, 0x3d, 0x3d,
  0x40, 0x0f, 0x54, 0x3e, 0xd7, 0x39, 0xb2, 0x3e, 0x38, 0x07, 0x17, 0xbe,
  0xe7, 0x83, 0x09, 0xbe, 0x9f, 0x01, 0xed, 0xbe, 0x1e, 0x85, 0x96, 0x3e,
  0xb4, 0x3d, 0x71, 0x3c, 0xb0, 0x72, 0xbd, 0xbe, 0xaa, 0x7b, 0xb0, 0x3e,
  0x53, 0xdc, 0xb8, 0x3e, 0x57, 0x41, 0xa4, 0x3e, 0x14, 0x83, 0xac, 0xbe,
  0x2c, 0x6f, 0x2e, 0x3e, 0xd2, 0xee, 0xa1, 0xbd, 0x4c, 0x22, 0xaf, 0xbe,
  0xf7, 0x20, 0xab, 0xbe, 0xef, 0xf3, 0x8a, 0x3e, 0xda, 0x22, 0x9d, 0xbd,
  0xd2, 0xfa, 0xa9, 0x3e, 0x14, 0x29, 0xca, 0xbd, 0x29, 0x8a, 0xe1, 0xbe,
  0xca, 0xb5, 0x17, 0xbd, 0x7d, 0x2f, 0x4d, 0xbe, 0x18, 0x5b, 0x07, 0xbd,
  0xfe, 0x0f, 0xf9, 0xbe, 0x88, 0xf2, 0xa4, 0xbe, 0x73, 0xb7, 0xfb, 0xbd,
  0xd2, 0xc6, 0x7f, 0x3d, 0x35, 0x9c, 0x1c, 0x3e, 0xf5, 0xb4, 0x77, 0xbd,
  0xd9, 0x08, 0xf7, 0xbc, 0xd2, 0x9d, 0xdc, 0x3e, 0xf0, 0x8a, 0xe4, 0x3e,
  0xc5, 0xc2, 0x37, 0x3e, 0x38, 0xa8, 0x92, 0x3e, 0x1c, 0xff, 0x5a, 0x3e,
  0x4a, 0x69, 0x38, 0xbd, 0x41, 0x91, 0x89, 0x3e, 0xb7, 0x7b, 0xea, 0x3e,
  0x6b, 0x32, 0xa6, 0x3e, 0x83, 0x5c, 0x0a, 0xbe, 0x7d, 0xe5, 0x0a, 0xbf,
  0xf2, 0x55, 0xc6, 0xbd, 0x75, 0xa1, 0xe1, 0xba, 0xa5, 0x44, 0xa4, 0xbe,
  0x3c, 0xf9, 0x03, 0xbc, 0x37, 0xb1, 0x66, 0xbe, 0x7e, 0x81, 0x26, 0x3f,
  0x6d, 0x7f, 0xae, 0x3d, 0xde, 0xcb, 0xd1, 0x3e, 0xcc, 0xc0, 0x88, 0x3e,
  0x9c, 0x85, 0x18, 0xbe, 0xd3, 0x2e, 0x85, 0xbe, 0x56, 0xb8, 0xd4, 0x3d,
  0x54, 0x1b, 0xa6, 0xbe, 0xe3, 0x42, 0x15, 0x3f, 0x39, 0x3f, 0x17, 0xbf,
  0x23, 0xc9, 0xd5, 0xbf, 0x0e, 0x96, 0xec, 0x3d, 0xe1, 0x03, 0x65, 0x3e,
  0x89, 0x79, 0xc5, 0x3e, 0xf3, 0xab, 0x95, 0x3e, 0xcc, 0x26, 0xd0, 0xbc,
  0x9e, 0x17, 0x88, 0x3c, 0xa2, 0xa9, 0x74, 0x3e, 0xc2, 0x1a, 0xcd, 0x3e,
  0x5d, 0xef, 0xf6, 0xbd, 0xe7, 0x8b, 0x60, 0xbf, 0x76, 0x88, 0xd4, 0xbe,
  0x0c, 0x7e, 0x6a, 0x3c, 0x13, 0xea, 0x5c, 0xbc, 0xde, 0xb9, 0xe7, 0x3d,
  0x69, 0xa6, 0xae, 0x3d, 0x4d, 0xbd, 0xaf, 0xbe, 0x7b, 0x01, 0x7f, 0x3e,
  0xc0, 0xf0, 0xd4, 0x3c, 0x2d, 0x59, 0x6a, 0x3e, 0x16, 0x38, 0x39, 0xbd,
  0x56, 0xd3, 0x26, 0xbe, 0xba, 0x78, 0x39, 0x3e, 0x56, 0x09, 0x7c, 0x3d,
  0xd4, 0x11, 0xc1, 0x3e, 0xdb, 0x7f, 0x69, 0xbe, 0xb6, 0x76, 0xb5, 0x3c,
  0x84, 0x1b, 0x05, 0x3e, 0x7a, 0x9f, 0x8f, 0xbe, 0xff, 0xbc, 0xe5, 0xbc,
  0xba, 0xb8, 0x68, 0x3e, 0xd9, 0x15, 0xc2, 0xbe, 0x6d, 0x02, 0x79, 0x3e,
  0x20, 0x0c, 0x95, 0xbe, 0xf3, 0x0a, 0xc9, 0x3e, 0x64, 0xe3, 0x25, 0x3f,
  0xaa, 0x59, 0x06, 0x3f, 0x00, 0x87, 0x8c, 0xbd, 0xf7, 0x3b, 0xc9, 0x3e,
  0x2c, 0x37, 0x8b, 0x3d, 0x13, 0x36, 0x1d, 0xbe, 0xe5, 0x24, 0x18, 0x3e,
  0xfb, 0xd8, 0xa4, 0xbe, 0x11, 0xde, 0xa9, 0xbe, 0xc8, 0x49, 0xd3, 0xbe,
  0x3a, 0xdb, 0xb5, 0xbe, 0xf3, 0xe9, 0x45, 0xbe, 0x4c, 0x7a, 0xc4, 0x3e,
  0xa7, 0x62, 0x7e, 0xbe, 0x18, 0x69, 0x63, 0x3e, 0xec, 0x82, 0xe6, 0xbe,
  0x34, 0x0f, 0x7f, 0xbd, 0x57, 0xdc, 0xd5, 0x3e, 0x30, 0xe8, 0x4d, 0xbe,
  0xbe, 0xb3, 0x99, 0x3e, 0x80, 0x3c, 0x32, 0x3e, 0x08, 0xd5, 0x94, 0xbe,
  0x59, 0x91, 0x89, 0xbe, 0x10, 0x17, 0x5b, 0x3e, 0x36, 0xd8, 0xd2, 0x3e,
  0x77, 0xbf, 0x76, 0x3d, 0xa4, 0xa1, 0x87, 0x3d, 0x1a, 0xa2, 0xd2, 0xbd,
  0xfb, 0xe6, 0x94, 0x3d, 0xab, 0x1a, 0x80, 0xbe, 0x1a, 0x92, 0x90, 0xbe,
  0xf5, 0xf9, 0xa3, 0x3e, 0x80, 0xfa, 0x8c, 0x3e, 0x9d, 0xac, 0x4b, 0x3d,
  0x9e, 0x3b, 0x9a, 0x3d, 0x01, 0xc9, 0x5c, 0x3e, 0x78, 0xb7, 0x64, 0xbd,
  0x0b, 0x37, 0x81, 0xbe, 0xea, 0x61, 0xbe, 0x3e, 0xa3, 0xb3, 0xd9, 0x3e,
  0xc7, 0x94, 0x85, 0x3e, 0x6c, 0x5b, 0x82, 0xbc, 0x01, 0x8f, 0x1f, 0x3e,
  0xb4, 0xdd, 0x41, 0xbd, 0xf3, 0xe0, 0xf2, 0x3e, 0xde, 0x1b, 0x4f, 0xbe,
  0xd2, 0xe7, 0xf2, 0xbd, 0x52, 0xca, 0x7c, 0x3e, 0xf3, 0xb8, 0x0e, 0x3d,
  0x47, 0xf3, 0xcf, 0x3e, 0xaa, 0xac, 0xc6, 0xbe, 0x1d, 0xd0, 0xe3, 0x3e,
  0xa8, 0xc1, 0x18, 0x3e, 0x5c, 0x9e, 0x0c, 0xbe, 0x74, 0x45, 0xb4, 0xbe,
  0x18, 0xc7, 0x4e, 0xbc, 0x3e, 0xc8, 0xa6, 0x3e, 0xdc, 0x35, 0x99, 0xbe,
  0x17, 0x1d, 0xbc, 0xbd, 0x59, 0xd9, 0x34, 0x3e, 0xfd, 0x85, 0x16, 0x3d,
  0xf1, 0xf7, 0xa9, 0xbe, 0x55, 0xad, 0x32, 0x3e, 0x72, 0x4d, 0xd9, 0x3e,
  0x79, 0x89, 0x97, 0x3e, 0x8c, 0xea, 0x5e, 0x3e, 0x4a, 0xa3, 0x9e, 0xbe,
  0x49, 0x70, 0x3d, 0x3e, 0xc7, 0x5a, 0x85, 0x3e, 0x8d, 0xb3, 0xbc, 0x3d,
  0x40, 0xfb, 0xea, 0xbc, 0xda, 0xeb, 0x08, 0xbf, 0x41, 0xbb, 0x0b, 0x3e,
  0xd8, 0x7e, 0xe4, 0x3e, 0x55, 0x76, 0x81, 0x3d, 0xb7, 0x23, 0xf0, 0xbc,
  0xeb, 0xd5, 0xf4, 0x3e, 0xb6, 0x39, 0x05, 0x3f, 0x2c, 0x4b, 0x98, 0x3d,
  0xd5, 0x64, 0x76, 0xbd, 0xc9, 0xed, 0x42, 0xbe, 0x33, 0xcf, 0x05, 0x3f,
  0x5b, 0xf9, 0xce, 0xbd, 0x0c, 0x25, 0x45, 0xbe, 0x14, 0xa4, 0x9c, 0x3d,
  0x31, 0x54, 0xad, 0xbd, 0xa1, 0x09, 0x24, 0x3f, 0x67, 0xc1, 0xc8, 0x3e,
  0x0e, 0x84, 0x73, 0xbe, 0x17, 0x39, 0x82, 0x3e, 0x7f, 0x0a, 0x0d, 0xbf,
  0xf1, 0x9a, 0x27, 0xbe, 0x8b, 0xaf, 0x4a, 0xbd, 0xbd, 0x3c, 0x86, 0x3d,
  0x06, 0x7c, 0xfa, 0x3e, 0x9b, 0xc9, 0xa2, 0xbd, 0x25, 0x0f, 0x20, 0xbe,
  0xae, 0xa2, 0xdd, 0xbd, 0x08, 0x9a, 0xd3, 0x3e, 0x5a, 0xd0, 0x01, 0x3d,
  0x95, 0xe9, 0xbc, 0x3e, 0xd6, 0x6c, 0xd9, 0x3e, 0xc9, 0x2f, 0x89, 0xbe,
  0xd3, 0x39, 0x5b, 0xbe, 0x74, 0x47, 0x6a, 0x3e, 0xa9, 0xc2, 0x92, 0x3d,
  0x70, 0x1b, 0x71, 0x3e, 0x7b, 0x72, 0x0d, 0xbe, 0xcc, 0x6d, 0xad, 0xbd,
  0x3d, 0x0a, 0x9e, 0xbe, 0x7c, 0x07, 0xac, 0xbe, 0x85, 0x73, 0xbe, 0x3d,
  0x8e, 0xa1, 0xc1, 0xbe, 0x58, 0x82, 0x68, 0x3e, 0x00, 0xe9, 0xbb, 0xbd,
  0x86, 0x31, 0x29, 0x3f, 0x61, 0xf6, 0x42, 0x3f, 0x08, 0xea, 0x55, 0xbd,
  0x7c, 0x6f, 0x96, 0xbd, 0xa5, 0x65, 0x91, 0x3e, 0xa6, 0xa3, 0x0a, 0xbf,
  0xdd, 0x09, 0xa8, 0x3d, 0x9b, 0x6a, 0xa4, 0x3e, 0xaf, 0x47, 0x44, 0xbe,
  0x07, 0x22, 0x20, 0xbe, 0xdb, 0x0e, 0xa4, 0x3e, 0xfa, 0xfe, 0x48, 0x3e,
  0x97, 0x48, 0x16, 0x3f, 0x1c, 0x3c, 0x8b, 0xbe, 0x73, 0x15, 0xdf, 0x3d,
  0x46, 0x83, 0x76, 0xbe, 0x53, 0xe0, 0xd2, 0xbe, 0x97, 0x73, 0x89, 0x3e,
  0xe0, 0xa4, 0xc2, 0x3e, 0xf4, 0x9c, 0x95, 0x3e, 0xf9, 0xed, 0x2c, 0xbe,
  0xa2, 0x18, 0x92, 0xbe, 0xd2, 0xc6, 0x25, 0x3e, 0x42, 0xe6, 0xff, 0xff,
  0x04, 0x00, 0x00, 0x00, 0x00, 0x03, 0x00, 0x00, 0xc0, 0x73, 0xe7, 0xbf,
  0x7b, 0xf1, 0x57, 0x3f, 0x05, 0x1f, 0x52, 0xc0, 0x81, 0xa4, 0x53, 0x3e,
  0x94, 0x2f, 0xad, 0xbe, 0x20, 0xa0, 0x61, 0x3e, 0x00, 0x9b, 0xa3, 0x3f,
  0xa0, 0xad, 0xcb, 0xbf, 0xd0, 0x89, 0x90, 0xbf, 0x51, 0xf9, 0xaf, 0x3e,
  0x7e, 0x28, 0xa1, 0x3e, 0x0b, 0x19, 0x26, 0xbe, 0x5a, 0x7d, 0x18, 0x3f,
  0x6e, 0xc7, 0xce, 0xbf, 0xcd, 0xef, 0x8b, 0xbf, 0x27, 0xbb, 0x2d, 0xbe,
  0x3f, 0xd0, 0xd7, 0xbe, 0x30, 0x4e, 0xf3, 0x3c, 0xde, 0xfd, 0x10, 0xc0,
  0xfd, 0xd9, 0x50, 0x3e, 0x9f, 0xb5, 0xb9, 0xbe, 0xed, 0xad, 0x07, 0xbd,
  0x6f, 0x37, 0x01, 0x3f, 0x46, 0x51, 0xed, 0x3e, 0xe4, 0xe7, 0xd6, 0x3e,
  0xb1, 0x0a, 0x89, 0x3e, 0x61, 0x48, 0x5c, 0xbf, 0x62, 0xc6, 0x1e, 0xbe,
  0xeb, 0xd0, 0xac, 0xbe, 0x50, 0x5e, 0x23, 0x3d, 0xbe, 0xdd, 0xac, 0xbf,
  0x6a, 0x14, 0x51, 0x3f, 0xf2, 0x5d, 0xe7, 0xbe, 0x7d, 0x4b, 0xc8, 0xbe,
  0x25, 0x4c, 0x6b, 0xbd, 0xe0, 0x94, 0x8f, 0xbd, 0x2e, 0xff, 0x7e, 0x3f,
  0x9c, 0x5e, 0xa3, 0xbf, 0xd8, 0x00, 0x4a, 0x3f, 0x79, 0x08, 0x53, 0x3c,
  0xf6, 0xb2, 0x4a, 0x3e, 0xd2, 0x06, 0xb3, 0x3e, 0x12, 0xac, 0xbd, 0xbf,
  0x41, 0x8d, 0x6d, 0xbe, 0x37, 0x40, 0x9f, 0xbf, 0x5d, 0x8b, 0xd7, 0xbe,
  0x80, 0x41, 0x51, 0x3c, 0x61, 0x58, 0x97, 0xbe, 0x74, 0x2e, 0xc6, 0xbf,
  0x77, 0x48, 0xc8, 0x3f, 0xa7, 0x7e, 0x61, 0x3e, 0xca, 0x67, 0x8f, 0x3e,
  0x8d, 0x65, 0x1a, 0x3e, 0xbe, 0x92, 0xef, 0xbe, 0xad, 0x64, 0x5c, 0xc0,
  0x27, 0x2e, 0x2f, 0xbe, 0x74, 0xdb, 0x2d, 0x3f, 0x7a, 0xdb, 0x11, 0xbd,
  0x9c, 0x4c, 0x96, 0xbe, 0x67, 0x84, 0x39, 0x3e, 0x40, 0xda, 0x1c, 0xbf,
  0xf9, 0x7b, 0x93, 0xbe, 0xeb, 0xb6, 0x19, 0xc0, 0xda, 0x82, 0x0b, 0x3f,
  0x4b, 0x6f, 0xb0, 0x3e, 0x3f, 0x88, 0xea, 0x3d, 0xf4, 0xc4, 0xd9, 0xbe,
  0xab, 0x8f, 0x9a, 0xbf, 0xdd, 0xa5, 0x25, 0xbf, 0x77, 0x1c, 0xd1, 0xbe,
  0x56, 0x8c, 0x88, 0xbe, 0xfb, 0x55, 0x0c, 0xbe, 0x54, 0x45, 0x35, 0x40,
  0x31, 0xf4, 0xc1, 0xbf, 0x61, 0x35, 0xa0, 0x3f, 0x61, 0xf5, 0xb0, 0xbd,
  0x36, 0x6c, 0x32, 0x3e, 0xec, 0x6e, 0x71, 0xbc, 0x8e, 0xe2, 0x5b, 0x3f,
  0x7c, 0x21, 0x07, 0xbf, 0x15, 0x54, 0x73, 0xbe, 0xbf, 0x31, 0x2e, 0xbd,
  0x10, 0x0d, 0xef, 0xbc, 0xe4, 0x3c, 0xc7, 0x3e, 0xec, 0x14, 0x07, 0x3c,
  0x5b, 0xaa, 0xe8, 0xbe, 0xe3, 0xcb, 0xed, 0x3e, 0xb8, 0x52, 0xb7, 0x3e,
  0x92, 0x2f, 0x24, 0x3d, 0xfc, 0xae, 0x63, 0xbe, 0x8d, 0xd2, 0x2d, 0xbf,
  0x09, 0x9b, 0x0e, 0x3f, 0xfd, 0x0a, 0x34, 0xc0, 0x23, 0x73, 0x67, 0xbd,
  0x8d, 0xf6, 0x54, 0x3e, 0x47, 0x7a, 0xbc, 0x3d, 0x58, 0x63, 0xf0, 0xbf,
  0x6f, 0xff, 0x0a, 0x40, 0x7d, 0xf1, 0x98, 0xbf, 0x89, 0xf2, 0xa7, 0x3e,
  0x8f, 0x33, 0x24, 0x3e, 0x7d, 0x55, 0xc9, 0x3e, 0x87, 0x74, 0x22, 0xbe,
  0x12, 0x0c, 0x9f, 0x3f, 0xb9, 0xcd, 0xca, 0x3e, 0xff, 0x70, 0xff, 0x3e,
  0x15, 0x6e, 0x27, 0x3e, 0x2f, 0xa9, 0x9c, 0xbd, 0x5c, 0x28, 0xc1, 0x3f,
  0x9f, 0x1e, 0x88, 0xbe, 0x25, 0xfa, 0x17, 0x40, 0x6f, 0x8f, 0x22, 0x3e,
  0x87, 0xfa, 0x92, 0xbe, 0x50, 0xff, 0x82, 0x3e, 0x8a, 0x31, 0x07, 0xbf,
  0x48, 0xe6, 0x11, 0x3f, 0x3e, 0x98, 0x9e, 0xbf, 0xc2, 0xfc, 0x2c, 0x3e,
  0x5c, 0x7e, 0x18, 0xbe, 0xef, 0xdb, 0xf2, 0x3e, 0x05, 0xe8, 0x34, 0xbf,
  0xad, 0xbf, 0xea, 0x3d, 0x96, 0xee, 0xd3, 0x3f, 0x20, 0xbd, 0xbc, 0xbe,
  0x2c, 0x22, 0x55, 0xbe, 0x35, 0x6b, 0x68, 0xbe, 0xd9, 0x8b, 0x39, 0xbf,
  0xe5, 0xf0, 0xe5, 0x3e, 0x2d, 0xf8, 0x34, 0x40, 0xa6, 0xed, 0x63, 0xbe,
  0x77, 0xa4, 0x7c, 0xbe, 0x08, 0x44, 0x83, 0x3d, 0x4a, 0x89, 0x86, 0x3e,
  0x89, 0x6e, 0xb0, 0xbe, 0x58, 0xe6, 0x53, 0xc0, 0xbc, 0xd9, 0xa8, 0x3c,
  0x2a, 0xaf, 0x0d, 0x3c, 0xac, 0xd5, 0x86, 0x3e, 0x59, 0x46, 0x2f, 0x3e,
  0xd6, 0xac, 0x22, 0xbf, 0x07, 0xef, 0xff, 0xbe, 0x31, 0x89, 0x44, 0xbe,
  0xdf, 0x44, 0xbb, 0xbe, 0x1e, 0xac, 0x25, 0xbe, 0x48, 0xa1, 0x63, 0x3f,
  0x01, 0x67, 0xef, 0xbf, 0x9e, 0xcb, 0x15, 0x3f, 0x60, 0x05, 0x81, 0xbe,
  0xaa, 0xc9, 0x9a, 0x3e, 0xd2, 0x2f, 0xc7, 0xbe, 0xa2, 0xc6, 0x2f, 0xbf,
  0x35, 0xce, 0x87, 0xbe, 0xad, 0x69, 0x05, 0xc0, 0x53, 0x0a, 0x10, 0x3d,
  0xad, 0x5f, 0xd9, 0x3d, 0xd6, 0x3b, 0xb9, 0xbe, 0xc6, 0xcf, 0x21, 0xbf,
  0x03, 0x89, 0xa9, 0xbe, 0x7c, 0x47, 0xb5, 0x3f, 0xb1, 0xec, 0x17, 0x3f,
  0xbc, 0x3b, 0x31, 0xbe, 0xaf, 0xe1, 0xb7, 0xbe, 0x3f, 0xd4, 0x64, 0xbf,
  0x0b, 0xfd, 0x99, 0x3f, 0x77, 0xaa, 0xa2, 0x3d, 0x3b, 0x04, 0xcb, 0x3d,
  0xb0, 0xd7, 0x00, 0x3f, 0x7a, 0x85, 0x55, 0xbe, 0x08, 0x34, 0x41, 0x3e,
  0x39, 0xef, 0x6d, 0xbe, 0x41, 0x7f, 0x49, 0xbf, 0xec, 0x49, 0x9f, 0xbe,
  0x36, 0xea, 0xe1, 0xbd, 0x7c, 0x61, 0xd3, 0x3e, 0xf6, 0x2d, 0xda, 0x3f,
  0xfd, 0x96, 0x89, 0x3f, 0x6d, 0x01, 0x42, 0xbe, 0xed, 0xe1, 0xf0, 0xbe,
  0x28, 0xf0, 0xc1, 0xbd, 0xd9, 0xe7, 0x4e, 0x3e, 0x07, 0x81, 0xc3, 0xbf,
  0x12, 0x8f, 0x85, 0x3f, 0xd8, 0xf2, 0xa4, 0xbf, 0x10, 0x14, 0xd0, 0xbe,
  0x4d, 0xdf, 0x8e, 0xbe, 0xa4, 0xf3, 0xa4, 0xbe, 0x8e, 0x87, 0x4a, 0x3e,
  0xb4, 0x06, 0xec, 0x3e, 0x7c, 0xd0, 0x84, 0x3f, 0xf0, 0x88, 0x86, 0xbe,
  0x91, 0xe7, 0xba, 0xbe, 0xda, 0x98, 0xb6, 0x3e, 0x4e, 0xe9, 0xff, 0xff,
  0x04, 0x00, 0x00, 0x00, 0x00, 0x08, 0x00, 0x00, 0x0b, 0xd9, 0x42, 0xbf,
  0x84, 0x32, 0x7c, 0x3e, 0x97, 0xd4, 0x7c, 0x3f, 0xbf, 0xa3, 0x04, 0x3f,
  0x06, 0x20, 0xfa, 0x3d, 0xac, 0x15, 0x12, 0xbe, 0x78, 0xc7, 0xf0, 0x3e,
  0x4a, 0x71, 0xaa, 0xbe, 0x9b, 0x2e, 0x41, 0x3e, 0x8d, 0x33, 0x80, 0xbf,
  0x58, 0x95, 0x2d, 0x3e, 0x8e, 0xe2, 0x3c, 0xbd, 0xee, 0xfb, 0x8c, 0xbe,
  0x72, 0x49, 0xeb, 0xbe, 0x5e, 0x3f, 0xab, 0x3e, 0xff, 0xfe, 0x0d, 0x3e,
  0x0a, 0x5c, 0x05, 0xbf, 0x6c, 0x95, 0x88, 0x3e, 0x53, 0x8b, 0xdb, 0xbe,
  0x19, 0xf2, 0x2e, 0xbf, 0x7d, 0xd2, 0xa4, 0x3e, 0x75, 0x31, 0xf4, 0xbc,
  0x72, 0xce, 0xcc, 0xbd, 0xd6, 0x20, 0x9b, 0xbe, 0x13, 0x4f, 0xd4, 0x3e,
  0x14, 0x03, 0xef, 0xbe, 0x93, 0x68, 0x61, 0xbe, 0x6a, 0x49, 0x0d, 0xbe,
  0xad, 0xea, 0x1e, 0x3e, 0x0b, 0x7f, 0xca, 0x3e, 0xd1, 0xf9, 0x78, 0xbe,
  0xa1, 0xfe, 0x41, 0x3e, 0x79, 0xdf, 0x90, 0x3d, 0xfa, 0x5c, 0x82, 0xbe,
  0xdf, 0x0c, 0x74, 0xbe, 0xfe, 0x9b, 0xa3, 0x3e, 0x9b, 0x52, 0x87, 0xbd,
  0xd9, 0x59, 0x98, 0x3e, 0x5f, 0xe5, 0x49, 0x3b, 0x7f, 0xf9, 0xa8, 0x3e,
  0x64, 0xcf, 0x48, 0x3e, 0x04, 0x4a, 0x94, 0xbe, 0x37, 0xc3, 0xbd, 0x3d,
  0x09, 0x1b, 0x24, 0xbe, 0x80, 0xd8, 0x66, 0xbe, 0x55, 0xeb, 0x08, 0xbe,
  0xdb, 0xc5, 0xf2, 0xbd, 0xa3, 0x3a, 0x7b, 0x3e, 0xff, 0xb5, 0xeb, 0x3e,
  0xeb, 0x96, 0x1a, 0x3e, 0x8f, 0x62, 0x2c, 0xbe, 0x86, 0xfa, 0xb4, 0x3e,
  0x4e, 0x56, 0xcb, 0xbd, 0x42, 0x50, 0x17, 0xbf, 0xd9, 0x90, 0x1f, 0x3f,
  0xe8, 0x2d, 0xe0, 0xbd, 0x92, 0x46, 0x47, 0xbf, 0x4e, 0xa5, 0x22, 0xbe,
  0x0c, 0x17, 0x04, 0x3e, 0xa9, 0x8e, 0x14, 0x3e, 0xf6, 0xd0, 0x1f, 0xbe,
  0x18, 0xf4, 0x89, 0x3e, 0x73, 0x61, 0xff, 0x3e, 0x06, 0x6e, 0x67, 0x3c,
  0x5d, 0x02, 0x99, 0xbe, 0x8f, 0xf0, 0x95, 0xbe, 0x8c, 0xd7, 0x04, 0xbe,
  0x29, 0xf0, 0xcd, 0x3d, 0x9c, 0xc3, 0x4b, 0xbe, 0xc7, 0xbd, 0xa6, 0x3e,
  0x8a, 0x5a, 0x50, 0x3e, 0xa0, 0x3c, 0x1c, 0xbe, 0x0f, 0x56, 0xe6, 0x3d,
  0x5f, 0x5c, 0x7f, 0xbb, 0xaf, 0x18, 0x84, 0xbe, 0x98, 0xec, 0x05, 0xbe,
  0x07, 0x28, 0xf4, 0xbe, 0x6e, 0xff, 0x51, 0xbe, 0x49, 0x48, 0x9d, 0x3e,
  0x96, 0x7e, 0xf8, 0x3e, 0x16, 0xf3, 0xb1, 0x3e, 0xde, 0x1c, 0xc3, 0x3e,
  0x63, 0xb4, 0x80, 0x3e, 0x39, 0x7f, 0x00, 0x3e, 0xeb, 0x85, 0x4c, 0x3c,
  0x76, 0x3a, 0xb9, 0x3e, 0xdf, 0x12, 0x75, 0x3e, 0x95, 0xef, 0x01, 0xbe,
  0x37, 0x79, 0xdd, 0xbc, 0x0c, 0xc5, 0x06, 0x3e, 0x96, 0xe3, 0xb5, 0x3e,
  0x86, 0xff, 0xaa, 0x3e, 0xa2, 0x34, 0xe1, 0x3c, 0x74, 0x89, 0xaf, 0x3e,
  0xbd, 0x39, 0x1c, 0x3d, 0x83, 0x5a, 0xff, 0x3c, 0x28, 0xe2, 0x3d, 0xbe,
  0x95, 0x31, 0x9c, 0xbe, 0xcb, 0xce, 0xe7, 0xbc, 0x61, 0x8e, 0x95, 0x3e,
  0x93, 0x81, 0x21, 0x3e, 0xe7, 0x25, 0x98, 0x3e, 0x22, 0x06, 0x32, 0x3d,
  0x16, 0x14, 0xd4, 0x3d, 0x6f, 0x49, 0xb8, 0x3d, 0xeb, 0xca, 0x73, 0xbe,
  0x38, 0xca, 0xca, 0xbe, 0xf1, 0xc1, 0x91, 0x3e, 0x38, 0x45, 0x96, 0x3d,
  0x6f, 0x15, 0xcc, 0x3e, 0xfb, 0x48, 0xbe, 0x3d, 0xc0, 0x5d, 0x8e, 0x3e,
  0x40, 0x2a, 0x21, 0xbe, 0xa4, 0x3e, 0x60, 0x3e, 0x7d, 0x8a, 0x06, 0x3e,
  0xe2, 0x13, 0x94, 0x3e, 0xea, 0xf4, 0xca, 0xbe, 0xb9, 0xf3, 0x68, 0xbd,
  0x1c, 0x08, 0x20, 0x3e, 0x8a, 0x3b, 0x1a, 0xbe, 0x9b, 0x71, 0xb1, 0x3e,
  0x54, 0xe2, 0xea, 0x3d, 0xcb, 0x7a, 0xa3, 0x3e, 0xf1, 0x22, 0x81, 0x3e,
  0x06, 0x8a, 0x81, 0x3e, 0xa7, 0x83, 0x7d, 0xbd, 0xc7, 0x47, 0x07, 0xbe,
  0x61, 0x15, 0x22, 0x39, 0x6e, 0xe3, 0x0e, 0xbe, 0x7e, 0x73, 0x0a, 0x3e,
  0x5f, 0x5d, 0xa5, 0xbe, 0x49, 0xf5, 0xb1, 0x3e, 0xbf, 0xab, 0x4f, 0xbe,
  0xa9, 0x00, 0xea, 0x3e, 0x7d, 0x01, 0x57, 0xbe, 0x41, 0x82, 0x88, 0x3e,
  0x10, 0x14, 0x8e, 0x3e, 0xea, 0x8f, 0x8b, 0xbd, 0xf1, 0xaa, 0x9f, 0xbe,
  0x31, 0x3e, 0xd8, 0xbc, 0x22, 0x2c, 0x80, 0xbf, 0x77, 0x4b, 0x14, 0xbe,
  0x8e, 0xb4, 0x74, 0x3e, 0x0d, 0x99, 0x8c, 0x3d, 0x35, 0x78, 0x69, 0x3e,
  0xe2, 0x7a, 0xd9, 0x3e, 0xb5, 0x83, 0x5e, 0xbd, 0x00, 0x9f, 0x7b, 0x3e,
  0x68, 0x2a, 0xcd, 0x3e, 0xbe, 0x75, 0x4e, 0x3e, 0xb9, 0xb7, 0xce, 0x3e,
  0xb9, 0xa3, 0x91, 0xbe, 0x4a, 0x57, 0xb2, 0xbd, 0x7c, 0x29, 0x0e, 0x3c,
  0xb6, 0x12, 0x09, 0xbe, 0x83, 0x33, 0x96, 0xbd, 0xe0, 0xae, 0x5c, 0xbc,
  0xc2, 0x28, 0xbb, 0x3c, 0xbd, 0xce, 0xa8, 0x3e, 0xba, 0x96, 0xa6, 0x3e,
  0xac, 0xa8, 0xf7, 0x3e, 0xf1, 0x8d, 0xf4, 0x3e, 0x82, 0x3c, 0xf1, 0xbc,
  0xe3, 0x05, 0x14, 0xbe, 0xec, 0x08, 0x15, 0xbe, 0x74, 0xe1, 0x01, 0xbe,
  0x9c, 0x85, 0x3c, 0x3d, 0x9f, 0x14, 0x1f, 0x3e, 0x4a, 0x74, 0xbc, 0x3d,
  0xbd, 0x23, 0x5c, 0x3d, 0x63, 0xc9, 0x81, 0x3e, 0x25, 0x61, 0xa1, 0xbf,
  0xbd, 0x4d, 0x54, 0x3e, 0xc8, 0x4b, 0x0e, 0x3d, 0x02, 0x83, 0x92, 0x3e,
  0x59, 0x70, 0xe1, 0x3e, 0xd8, 0xd4, 0x99, 0xbe, 0xef, 0x3d, 0x6a, 0x3e,
  0x98, 0x52, 0x3d, 0xbe, 0x7e, 0x20, 0x8d, 0x3e, 0xbd, 0x49, 0x0e, 0xbf,
  0x7b, 0x77, 0xa8, 0xbe, 0x0e, 0x62, 0x40, 0x3f, 0x72, 0xaf, 0xf1, 0xbe,
  0xd7, 0x0c, 0xe9, 0xbd, 0x59, 0x14, 0x6d, 0x3e, 0x51, 0x82, 0x29, 0xbe,
  0x85, 0xa3, 0xbd, 0x3e, 0x43, 0xe9, 0x70, 0xbe, 0x6a, 0x0a, 0x0d, 0x3e,
  0x43, 0x96, 0x18, 0x3e, 0x5b, 0xd9, 0x7a, 0xbe, 0xcd, 0x61, 0xc1, 0xbd,
  0x6c, 0xe4, 0xb7, 0x3e, 0xb6, 0xaf, 0x27, 0xbd, 0xa7, 0xe1, 0xb9, 0x3e,
  0x10, 0x58, 0x8f, 0xbe, 0xf1, 0xb6, 0xc4, 0xbe, 0x36, 0x64, 0x6b, 0x3e,
  0x45, 0xe9, 0x14, 0xbd, 0x9d, 0x19, 0x21, 0xbe, 0x54, 0xd6, 0x08, 0x3e,
  0xa3, 0x55, 0x3a, 0xbe, 0xf0, 0x8c, 0xbf, 0x3e, 0x8c, 0xac, 0x94, 0xbe,
  0xa2, 0xc3, 0xcb, 0xbe, 0xe8, 0x2c, 0x14, 0xbe, 0xc8, 0xab, 0xee, 0x3e,
  0x4d, 0x3d, 0xbe, 0x3e, 0x7f, 0x16, 0x97, 0xbe, 0xc5, 0x2d, 0x4a, 0xbe,
  0xf8, 0xc6, 0xd8, 0x3e, 0xe2, 0xd7, 0x6e, 0x3e, 0xb4, 0x9f, 0xc3, 0x3e,
  0x3b, 0xe4, 0x13, 0xbf, 0xc2, 0x4e, 0x1e, 0x3f, 0x52, 0x52, 0xc7, 0x3e,
  0x7b, 0x6d, 0x81, 0xbd, 0x53, 0x64, 0xae, 0x3e, 0x61, 0xf9, 0x82, 0xbe,
  0x29, 0xde, 0x48, 0x3d, 0x02, 0x66, 0x4e, 0xbd, 0x50, 0x91, 0x8b, 0xbe,
  0x90, 0xef, 0x6c, 0xbd, 0x77, 0xdd, 0x94, 0xbe, 0x05, 0xd1, 0xb6, 0x3c,
  0xc0, 0x9a, 0x77, 0x3d, 0xf3, 0xfc, 0x81, 0xbe, 0x6e, 0xb4, 0x9d, 0xbd,
  0x3c, 0x7e, 0x8f, 0xbd, 0xc2, 0x30, 0x8b, 0x3e, 0x1d, 0xce, 0x9f, 0xbe,
  0x03, 0xd1, 0x98, 0x3d, 0xff, 0x51, 0xa8, 0x3e, 0x05, 0x6e, 0x04, 0x3f,
  0xfe, 0x3a, 0x87, 0x3e, 0xce, 0x66, 0xab, 0x3d, 0x0c, 0x9e, 0x6f, 0xbe,
  0xcd, 0x67, 0x4e, 0xbe, 0x24, 0x2f, 0xf0, 0x3d, 0x7d, 0x27, 0xc8, 0x3c,
  0xbe, 0x50, 0xb1, 0x3e, 0x28, 0x4f, 0x6d, 0x3c, 0xd4, 0x8b, 0x8d, 0x3e,
  0x34, 0x2e, 0xc0, 0x3e, 0xe3, 0x1f, 0x95, 0xbd, 0xd0, 0xe7, 0xd3, 0x3d,
  0xbd, 0xec, 0x32, 0xbd, 0xd0, 0xe9, 0xce, 0xbe, 0x2c, 0x3f, 0x9d, 0x3d,
  0x35, 0xca, 0xb3, 0xbc, 0x78, 0x89, 0x0c, 0xbe, 0x35, 0x50, 0x25, 0x3e,
  0xcc, 0x95, 0x90, 0x3e, 0xda, 0x91, 0xa3, 0xbd, 0xfa, 0xfa, 0xc9, 0x3e,
  0x59, 0x6b, 0xc5, 0x3e, 0xcd, 0x7f, 0x0a, 0xbd, 0xae, 0xe0, 0xf8, 0xbc,
  0x22, 0x12, 0x9c, 0x3d, 0xc0, 0x43, 0x6b, 0x3e, 0x2c, 0xd2, 0xa2, 0x3d,
  0xe5, 0x6e, 0x0a, 0xbf, 0x2e, 0x5e, 0x9b, 0xbe, 0xee, 0x74, 0x80, 0x3e,
  0x26, 0x87, 0x23, 0x3e, 0x2c, 0x27, 0x3b, 0x3e, 0x66, 0x31, 0x99, 0xbd,
  0xc4, 0x69, 0xca, 0xbe, 0x8e, 0x0b, 0x7e, 0x3e, 0x0d, 0x09, 0xd1, 0xbe,
  0x75, 0xfe, 0x62, 0x3e, 0x89, 0x7a, 0x08, 0x3f, 0xbb, 0x74, 0x63, 0xbd,
  0x28, 0x1e, 0xca, 0xbe, 0xd6, 0x5a, 0x9e, 0xbd, 0xcd, 0x3a, 0x06, 0x3e,
  0xeb, 0x9d, 0x8b, 0x3e, 0xd3, 0x23, 0x87, 0xbe, 0x21, 0x98, 0x92, 0x3d,
  0x70, 0xd6, 0x3c, 0xbe, 0x00, 0xb1, 0xd5, 0x3e, 0xf4, 0x6a, 0x9b, 0xbe,
  0x7f, 0x8b, 0xdd, 0x3e, 0x91, 0xd2, 0x21, 0xbe, 0x59, 0x63, 0x82, 0x3e,
  0x4c, 0xd5, 0xe7, 0xbd, 0xb3, 0x5a, 0xc3, 0xbd, 0x68, 0x29, 0x44, 0xbf,
  0xb5, 0x31, 0x5b, 0xbe, 0xc8, 0x38, 0x18, 0xbf, 0x24, 0x2b, 0x99, 0xbd,
  0xa6, 0xae, 0x96, 0x3e, 0x92, 0xd0, 0x91, 0x3e, 0x82, 0x80, 0xc7, 0x3d,
  0x03, 0xcf, 0x05, 0xbf, 0xc1, 0x2f, 0xb9, 0x3e, 0x1c, 0xd0, 0x0e, 0xbf,
  0x2f, 0x8f, 0x54, 0x3d, 0x72, 0xac, 0xbc, 0xbe, 0xb4, 0xa9, 0xeb, 0x3e,
  0x22, 0xcb, 0xb2, 0x3e, 0x1b, 0x82, 0x95, 0x3e, 0xa3, 0xff, 0x4c, 0xbf,
  0xeb, 0x27, 0x5b, 0xbf, 0x6b, 0xfd, 0xb0, 0x3e, 0xe4, 0xfc, 0x7e, 0x3e,
  0xa3, 0xf8, 0x85, 0xbc, 0x4a, 0x8c, 0x1b, 0x3e, 0x0c, 0x9b, 0xb4, 0x3c,
  0x65, 0x01, 0x96, 0xbe, 0x96, 0xb2, 0xb7, 0xbe, 0x89, 0x60, 0x14, 0xbe,
  0x0c, 0xdd, 0xd9, 0x3d, 0x24, 0x8e, 0xd3, 0xbd, 0x23, 0x95, 0xa6, 0xbe,
  0x0a, 0x6a, 0x4f, 0x3e, 0x39, 0x68, 0x07, 0x3f, 0xb5, 0x6e, 0xb3, 0xbe,
  0xa8, 0x11, 0x78, 0x3e, 0x7a, 0xdd, 0x8c, 0xba, 0x2f, 0xf1, 0x16, 0xbf,
  0x61, 0x9b, 0x16, 0x3e, 0x1f, 0x32, 0xdd, 0xbe, 0x82, 0xc1, 0x45, 0xbe,
  0x22, 0xd8, 0xbc, 0xbd, 0xcd, 0x56, 0x25, 0x3d, 0x61, 0x10, 0xa6, 0x3e,
  0x88, 0x6a, 0xb8, 0x3e, 0x08, 0xe9, 0x2a, 0xbe, 0xe7, 0xb9, 0xeb, 0xbe,
  0x42, 0xb2, 0xb7, 0x3e, 0x81, 0x43, 0x85, 0xbe, 0xa4, 0x23, 0xdf, 0xbd,
  0xc6, 0x59, 0xa5, 0xbd, 0x72, 0x05, 0x38, 0x3f, 0x6a, 0x30, 0x4b, 0xbf,
  0x67, 0x74, 0x8d, 0xbe, 0xa1, 0xbc, 0x86, 0x3e, 0x3d, 0x9f, 0xdf, 0x3d,
  0x26, 0xdc, 0x8b, 0x3c, 0x6f, 0x26, 0x84, 0xbe, 0x6d, 0xaf, 0xa4, 0x3e,
  0x7a, 0xba, 0x9c, 0xbb, 0x2e, 0x74, 0x27, 0x3e, 0x9b, 0xc0, 0xdb, 0xbe,
  0xeb, 0xd6, 0xbb, 0x3e, 0x11, 0x46, 0x7d, 0xbe, 0xb6, 0xae, 0xcb, 0x3e,
  0x4e, 0x75, 0xa5, 0x3e, 0x65, 0x6f, 0x9f, 0x3e, 0x66, 0x5f, 0x70, 0xbe,
  0xbb, 0x78, 0x89, 0xbe, 0x75, 0x3e, 0x81, 0x3e, 0x1c, 0x64, 0xfa, 0xbe,
  0x57, 0x78, 0x9d, 0x3e, 0xf7, 0xe6, 0xc9, 0xbe, 0x48, 0x18, 0x52, 0x3e,
  0x54, 0xd6, 0x9c, 0xbe, 0x12, 0x33, 0xf5, 0x3e, 0x65, 0x54, 0xa3, 0x3e,
  0xc3, 0x35, 0x78, 0x3e, 0xbe, 0xae, 0x44, 0xbe, 0x75, 0x11, 0xa9, 0xbe,
  0xf3, 0x68, 0xb3, 0xbe, 0xbf, 0x70, 0x83, 0xbe, 0x90, 0xca, 0xf6, 0xbd,
  0x13, 0x67, 0xba, 0x3e, 0x05, 0xed, 0x5f, 0x3e, 0x15, 0xd3, 0x98, 0xbe,
  0x52, 0xf4, 0x19, 0xbe, 0x68, 0x02, 0x59, 0x3e, 0xca, 0x32, 0x60, 0x3b,
  0x3c, 0x06, 0xbb, 0x3e, 0xed, 0x0b, 0xd8, 0x3e, 0xa1, 0x6e, 0x36, 0xbf,
  0xfe, 0x38, 0x0f, 0x3e, 0x31, 0x74, 0xde, 0xbd, 0x9d, 0xc0, 0xf4, 0x3d,
  0xd1, 0x6e, 0xbb, 0xbd, 0x17, 0xae, 0x1d, 0xbe, 0x24, 0xab, 0x93, 0x3e,
  0xf9, 0x3c, 0xe0, 0x3e, 0xac, 0xb9, 0x4d, 0x3e, 0x9c, 0xa2, 0x07, 0x3e,
  0x30, 0xde, 0x89, 0x3e, 0xd2, 0x3d, 0xdb, 0xbe, 0xcb, 0xeb, 0xc1, 0x3e,
  0x25, 0x7f, 0x93, 0x3b, 0xee, 0xab, 0x2c, 0xbe, 0x5a, 0x1d, 0x9e, 0x3e,
  0x7b, 0xf4, 0x9f, 0x3d, 0x32, 0x06, 0x33, 0xbd, 0xba, 0x4f, 0x53, 0x3d,
  0x8d, 0x75, 0x1b, 0x3d, 0x52, 0xf2, 0xfc, 0xbd, 0xf0, 0x6f, 0xec, 0x3e,
  0xeb, 0xdf, 0x50, 0x3d, 0x1e, 0x26, 0x86, 0xbe, 0x36, 0x86, 0x32, 0xbc,
  0x75, 0xd4, 0xbf, 0xbe, 0xe7, 0x22, 0x9c, 0xbe, 0xf9, 0x2c, 0x09, 0xbe,
  0x7b, 0xb1, 0x44, 0xbf, 0xa4, 0x88, 0xb2, 0x3e, 0x3a, 0x21, 0x5d, 0x3e,
  0x1a, 0xd7, 0x9c, 0x3e, 0x4e, 0x79, 0x91, 0x3e, 0x83, 0xf0, 0x53, 0xbd,
  0x2f, 0x85, 0x35, 0x3d, 0x70, 0x86, 0xb3, 0x3e, 0xb4, 0x3a, 0x83, 0x3e,
  0xec, 0xd9, 0xa8, 0x3e, 0x61, 0xb5, 0xb5, 0xbe, 0x67, 0x5a, 0xaf, 0x3e,
  0x2e, 0x7f, 0x9b, 0xbe, 0xd0, 0x77, 0xe0, 0xbe, 0x7d, 0x73, 0x9a, 0xbe,
  0x3c, 0x36, 0x4f, 0xbe, 0xb8, 0x89, 0xd2, 0x3c, 0x6f, 0x9d, 0x9f, 0xbd,
  0xf6, 0x4c, 0xa2, 0x3e, 0x32, 0x5c, 0x41, 0x3e, 0xd7, 0x5e, 0x6a, 0x3e,
  0x80, 0x78, 0x88, 0x3e, 0xad, 0xdd, 0x60, 0xbe, 0xcb, 0xe1, 0xb8, 0xbe,
  0x0b, 0x55, 0xc0, 0xbd, 0x98, 0x58, 0xf0, 0x3d, 0x9b, 0xab, 0x7e, 0x3c,
  0xfc, 0x64, 0x2f, 0x3e, 0xb9, 0xb6, 0xc2, 0xbb, 0x64, 0xdf, 0xdd, 0xbd,
  0xf5, 0x5d, 0x97, 0xbe, 0x6e, 0x7b, 0x9a, 0x3e, 0x1c, 0xb6, 0x65, 0xbc,
  0x5e, 0xb6, 0x7f, 0x3e, 0x01, 0xe7, 0xb2, 0x3e, 0x73, 0x8e, 0xff, 0x3d,
  0x18, 0x0f, 0x8c, 0x3d, 0xc1, 0xd3, 0x83, 0xbe, 0x35, 0x6a, 0x02, 0xbf,
  0x82, 0x3f, 0x2b, 0xbe, 0x88, 0xd4, 0x1b, 0x3e, 0xe0, 0x1e, 0x86, 0x3e,
  0xca, 0xa3, 0x04, 0x3d, 0xdc, 0x4a, 0x93, 0x3d, 0xb7, 0xee, 0x94, 0x3e,
  0x5d, 0xd9, 0x2f, 0xbe, 0x29, 0x83, 0xb9, 0x3e, 0xe5, 0x68, 0x02, 0xbd,
  0xff, 0x90, 0x30, 0xbe, 0xd3, 0xae, 0x07, 0xbf, 0x60, 0x7a, 0x19, 0xbf,
  0x28, 0x68, 0xfe, 0x3e, 0x1f, 0x4a, 0xce, 0xbe, 0x67, 0x1a, 0x31, 0xbd,
  0x15, 0x24, 0x7a, 0x3e, 0x03, 0x4f, 0x24, 0xbe, 0xeb, 0x1a, 0x8d, 0x3f,
  0x9a, 0xdf, 0xbf, 0x3e, 0x50, 0x61, 0xc9, 0xbe, 0x88, 0xaf, 0x86, 0x3e,
  0x36, 0xf9, 0xc2, 0xbd, 0xc3, 0xfa, 0x8c, 0x3e, 0xe7, 0xa9, 0x59, 0x3d,
  0xd5, 0x7b, 0xe2, 0x3d, 0x2c, 0x77, 0x15, 0xbe, 0x0f, 0xb8, 0xc3, 0x3e,
  0x3e, 0xdf, 0xf3, 0xbe, 0xf6, 0xae, 0x28, 0xbf, 0xc9, 0x41, 0x50, 0x3e,
  0xb2, 0xf3, 0xd2, 0x3e, 0x22, 0x05, 0xc6, 0xbe, 0xfa, 0x59, 0x7a, 0x3e,
  0xbc, 0xc6, 0x3c, 0xbe, 0xf0, 0x2a, 0xb8, 0xbe, 0xaa, 0x74, 0x87, 0x3e,
  0x73, 0x2e, 0xe6, 0xbe, 0x64, 0x0f, 0xb2, 0x3d, 0x46, 0xbe, 0x39, 0x3e,
  0x62, 0xb3, 0xdb, 0x3e, 0x5b, 0xbf, 0x74, 0xbe, 0x8a, 0xd9, 0xf0, 0xbe,
  0xed, 0xe1, 0x33, 0xbe, 0x9d, 0x28, 0xfb, 0xbe, 0x11, 0x0c, 0x55, 0x3e,
  0x4a, 0x2d, 0x92, 0x3e, 0xf8, 0x06, 0x8c, 0x3e, 0x9c, 0x6f, 0x38, 0x3e,
  0xcc, 0x08, 0xb4, 0xbe, 0x1c, 0xcd, 0x71, 0x3e, 0xcd, 0xd3, 0xd2, 0x3e,
  0xf3, 0xdb, 0xb7, 0x3e, 0x34, 0x0c, 0x91, 0x3e, 0xde, 0x54, 0xf4, 0xbd,
  0x93, 0xa4, 0x65, 0x3c, 0xd1, 0x87, 0xf7, 0xbd, 0xb3, 0xba, 0x8b, 0xbd,
  0x3c, 0x4b, 0x2f, 0x3e, 0x00, 0x4e, 0x62, 0x3c, 0xe5, 0x38, 0x00, 0xbf,
  0xc1, 0x73, 0x29, 0x3e, 0xdd, 0x8f, 0xd9, 0x3e, 0xa8, 0x59, 0x7a, 0x3e,
  0x05, 0x1a, 0xc4, 0x3e, 0xe0, 0xbf, 0x9a, 0x3e, 0x2d, 0xd1, 0x92, 0xbe,
  0xd5, 0xbc, 0x8d, 0x3d, 0x7c, 0xb4, 0x32, 0x3e, 0x7d, 0x23, 0xe3, 0xbc,
  0xac, 0x8d, 0x5b, 0xbe, 0x5a, 0xf1, 0xff, 0xff, 0x04, 0x00, 0x00, 0x00,
  0x00, 0x0c, 0x00, 0x00, 0xac, 0x2f, 0x64, 0xbe, 0x99, 0xc5, 0x55, 0x3e,
  0x01, 0xe2, 0x67, 0x3e, 0xa8, 0x32, 0x23, 0x3e, 0x10, 0xf6, 0x37, 0x3e,
  0x38, 0xbb, 0xfd, 0xbd, 0xd0, 0x4a, 0x22, 0xbd, 0xc4, 0xb5, 0xde, 0xbb,
  0x21, 0x72, 0x32, 0x3e, 0x60, 0x62, 0xa9, 0xbd, 0x83, 0x2a, 0x90, 0x3e,
  0x87, 0x90, 0x81, 0xbd, 0x1e, 0xed, 0x9e, 0xbe, 0x0d, 0xb5, 0x7a, 0x3d,
  0x7d, 0x1a, 0x2a, 0x3e, 0x9d, 0x3b, 0x65, 0xbd, 0x0b, 0x8d, 0x47, 0x3e,
  0x05, 0xa4, 0x92, 0x3d, 0xd4, 0xdd, 0x00, 0x3e, 0x58, 0xd8, 0x56, 0x3f,
  0xb0, 0xd1, 0xb4, 0x3e, 0x7c, 0x46, 0x63, 0xbb, 0x02, 0xc8, 0x99, 0xbe,
  0x7f, 0x2f, 0x55, 0xbe, 0x14, 0x76, 0xcc, 0x3e, 0x50, 0xa8, 0xd3, 0xbe,
  0xe9, 0x1d, 0xea, 0xbd, 0x71, 0x6d, 0xaf, 0xbe, 0xff, 0x7f, 0x2a, 0x3e,
  0xa7, 0x15, 0x92, 0x3e, 0x25, 0x11, 0x0d, 0xbf, 0x03, 0x6a, 0x4d, 0x3e,
  0x2c, 0x7b, 0xb1, 0xbd, 0x4a, 0x69, 0x09, 0x3f, 0x23, 0xa3, 0x9d, 0xbe,
  0x48, 0x4b, 0xb3, 0x3d, 0xb8, 0x67, 0xb7, 0xbe, 0xb0, 0x68, 0x66, 0x3d,
  0x5f, 0x72, 0x0d, 0xbe, 0x69, 0xea, 0x14, 0x3e, 0xae, 0xdf, 0x07, 0xbf,
  0xa0, 0xfe, 0x75, 0x3f, 0x32, 0xf0, 0x04, 0xbf, 0xae, 0xa2, 0x96, 0xbe,
  0xd1, 0x71, 0x86, 0x3e, 0xd6, 0x4b, 0x61, 0x3e, 0xe4, 0x3a, 0xc4, 0xbd,
  0x94, 0x52, 0x56, 0x3d, 0xcb, 0xa6, 0xd8, 0xbe, 0xcb, 0x92, 0x89, 0xbc,
  0x81, 0xcc, 0x3a, 0xbe, 0x19, 0x11, 0x96, 0xbe, 0x9b, 0x68, 0x0d, 0xbf,
  0xfe, 0xe8, 0xdd, 0x3d, 0x43, 0x19, 0x38, 0xbe, 0x53, 0x13, 0xe8, 0xbd,
  0x10, 0xd1, 0xdc, 0x3e, 0xb0, 0x52, 0xea, 0x3e, 0xc5, 0x77, 0xba, 0xbe,
  0x4b, 0x58, 0xf1, 0xbd, 0x01, 0x1c, 0xbf, 0xbd, 0xa8, 0xcd, 0x90, 0x3e,
  0x4e, 0xfd, 0xa7, 0x3e, 0xaf, 0x62, 0x07, 0x3e, 0x18, 0x39, 0x12, 0x3f,
  0x1c, 0x53, 0xe0, 0xbe, 0xef, 0x60, 0x50, 0x3e, 0xe3, 0x19, 0x9e, 0x3e,
  0x2f, 0x98, 0x4e, 0xbe, 0xba, 0xcc, 0x68, 0x3e, 0xf5, 0xac, 0x51, 0xbe,
  0x96, 0xd7, 0x9e, 0xbe, 0xf7, 0x06, 0x05, 0xbf, 0x9f, 0xb9, 0x34, 0xbf,
  0x61, 0xa9, 0x6a, 0x3d, 0x0f, 0x18, 0x31, 0xbe, 0xb0, 0xa9, 0x4e, 0x3e,
  0x44, 0x6b, 0x1e, 0x3e, 0x7b, 0xd5, 0xb0, 0x3e, 0xf8, 0x79, 0x4d, 0x3e,
  0xbd, 0x3d, 0x7e, 0xbe, 0xaf, 0x79, 0xc5, 0x3c, 0x19, 0xd4, 0x6a, 0xbe,
  0x4a, 0xf6, 0x43, 0x3e, 0x2d, 0x82, 0x54, 0xbf, 0x3d, 0x01, 0x8a, 0xbd,
  0x8d, 0xaa, 0x5a, 0x3e, 0x18, 0x75, 0xad, 0x3d, 0x32, 0x09, 0x40, 0x3d,
  0x15, 0x5a, 0x5e, 0xbe, 0x5b, 0x25, 0xad, 0x3e, 0xa5, 0x85, 0x2a, 0x3e,
  0x5c, 0xba, 0x31, 0x3e, 0x63, 0x94, 0x8f, 0xbe, 0xc7, 0xaf, 0x94, 0x3e,
  0x51, 0xe6, 0x8f, 0x3d, 0x9d, 0xca, 0x94, 0xbe, 0xec, 0xb7, 0xb6, 0xbd,
  0x68, 0xb3, 0x23, 0x3d, 0xfe, 0xdc, 0xe3, 0x3d, 0x40, 0xef, 0x56, 0x3e,
  0xac, 0xb8, 0xd4, 0x3e, 0x5a, 0xdb, 0x39, 0x3d, 0x58, 0x4e, 0xc7, 0x3e,
  0xb6, 0x3a, 0x04, 0xbe, 0x9a, 0x24, 0x6c, 0xbe, 0x3d, 0xcd, 0x8b, 0xbe,
  0xf7, 0x4d, 0xae, 0xbe, 0xea, 0x26, 0xf4, 0xbd, 0xcc, 0x61, 0x74, 0xbe,
  0x4c, 0x00, 0x64, 0x3e, 0xfa, 0xf5, 0x52, 0x3e, 0x53, 0x78, 0x9c, 0x3e,
  0x0b, 0x80, 0xca, 0xbe, 0x22, 0x9f, 0x7a, 0x3e, 0x07, 0x94, 0x9f, 0xbe,
  0x4f, 0xb9, 0x4b, 0xbd, 0xbc, 0x78, 0xb5, 0xbc, 0xe7, 0x36, 0x09, 0xbe,
  0x6b, 0x7f, 0xa1, 0x3e, 0xf5, 0x3a, 0x87, 0x3e, 0xbd, 0xf6, 0x25, 0xbe,
  0x55, 0xd5, 0x47, 0x3e, 0x4f, 0x0f, 0x89, 0x3e, 0xd0, 0x9e, 0x99, 0x3e,
  0x9e, 0x57, 0x00, 0xbd, 0xb8, 0x7c, 0x34, 0xbd, 0xf4, 0x1b, 0xbf, 0xbd,
  0x7c, 0x0c, 0x9b, 0x3d, 0xee, 0xe7, 0xe2, 0x3d, 0x1d, 0x9c, 0x3e, 0xbd,
  0x07, 0xd6, 0xb0, 0xbe, 0x1e, 0x32, 0x6b, 0xbe, 0xa7, 0x1a, 0xb9, 0xbe,
  0x23, 0xbf, 0x9e, 0x3e, 0x3b, 0xb3, 0xbf, 0x3d, 0x61, 0x4c, 0x54, 0xbe,
  0x19, 0x46, 0x0d, 0x3e, 0x4b, 0x03, 0x33, 0x3e, 0x1c, 0x1b, 0xaf, 0xbe,
  0xad, 0x52, 0xed, 0x3d, 0x9e, 0x7e, 0x13, 0xbf, 0xd9, 0x91, 0x09, 0x3f,
  0x43, 0x9c, 0x1a, 0x3e, 0x2d, 0x90, 0xc5, 0x3e, 0x73, 0xd9, 0x26, 0xbe,
  0x57, 0xf5, 0x7c, 0xbf, 0x99, 0xf7, 0xfe, 0x3e, 0xa4, 0xa5, 0x67, 0xbc,
  0xbc, 0x68, 0x04, 0xbc, 0x83, 0x8a, 0xc9, 0xbe, 0xa1, 0xf8, 0xb8, 0xbd,
  0xee, 0x2c, 0x8d, 0x3e, 0xf8, 0xee, 0xf3, 0xbe, 0x5f, 0x89, 0xc4, 0x3a,
  0xee, 0x2a, 0xa4, 0x3e, 0x36, 0x87, 0xa0, 0xbd, 0xe9, 0x22, 0xc0, 0x3e,
  0x00, 0x84, 0x6c, 0x3e, 0xf0, 0x73, 0xf5, 0x3d, 0x87, 0x44, 0xfe, 0x3b,
  0xca, 0x25, 0x94, 0x3e, 0x34, 0xed, 0x8e, 0xbc, 0xd8, 0xa1, 0xca, 0x3e,
  0x51, 0x81, 0x10, 0x3e, 0x34, 0x42, 0xcd, 0x3d, 0x42, 0xe2, 0x96, 0x3e,
  0xbe, 0x16, 0xe6, 0xbc, 0x6e, 0xb6, 0xcb, 0x3d, 0x89, 0xc6, 0x3e, 0xbe,
  0x29, 0x84, 0x01, 0xbc, 0x54, 0xa7, 0x8a, 0x3e, 0xcd, 0x80, 0xee, 0x3e,
  0xcf, 0x6a, 0xcf, 0x3e, 0x68, 0x0e, 0xd2, 0xbe, 0xcf, 0x90, 0x88, 0x3e,
  0xbb, 0xbe, 0x98, 0x3e, 0xab, 0x44, 0x8b, 0x39, 0xe6, 0x88, 0x5c, 0x3e,
  0xa9, 0xb9, 0xd6, 0x3e, 0xce, 0x84, 0x90, 0xbe, 0x19, 0x2f, 0xdd, 0xbe,
  0x8b, 0x81, 0x0d, 0xbf, 0x16, 0xf4, 0x82, 0x3d, 0x3b, 0x5e, 0xd2, 0xbe,
  0x48, 0xd4, 0xe4, 0xbe, 0x84, 0xe0, 0xcd, 0x3e, 0x12, 0xc2, 0x67, 0x3d,
  0x02, 0xf2, 0x53, 0x3e, 0x89, 0xd3, 0x22, 0x3e, 0x8c, 0x7e, 0x53, 0xbe,
  0x0b, 0x87, 0xc9, 0xbd, 0x82, 0x37, 0x03, 0x3e, 0x90, 0x69, 0x29, 0xbc,
  0x13, 0x1a, 0x5d, 0x3e, 0x92, 0xe0, 0xa4, 0xbe, 0xda, 0xf5, 0xf6, 0x3d,
  0xa3, 0x37, 0xca, 0x3e, 0xb1, 0xe3, 0x3f, 0xbe, 0xfe, 0xed, 0xa1, 0x3e,
  0x13, 0xc4, 0xcd, 0x3e, 0xaf, 0x16, 0x1f, 0xbe, 0x3f, 0x7f, 0x79, 0xbe,
  0x5a, 0xbb, 0x73, 0xbe, 0x06, 0x3a, 0x04, 0xbf, 0x3e, 0xd8, 0xb6, 0x3e,
  0x33, 0x81, 0xbd, 0xbd, 0xab, 0xf4, 0x73, 0x3d, 0x1c, 0x23, 0x5a, 0x3e,
  0xf9, 0x48, 0xb4, 0x3e, 0xae, 0xf7, 0x04, 0x3b, 0x7e, 0xe6, 0xf5, 0xbe,
  0x09, 0x6c, 0x8b, 0xbe, 0x48, 0xae, 0xab, 0x3e, 0xf3, 0xcc, 0x65, 0x3e,
  0xa3, 0x0a, 0xe3, 0xbe, 0xcb, 0xb5, 0x95, 0xbc, 0x33, 0xb1, 0xec, 0xbd,
  0xc9, 0x9a, 0x0e, 0xbd, 0xed, 0x41, 0x3b, 0xbe, 0xb9, 0xd2, 0xd8, 0x3e,
  0x4d, 0xa7, 0x27, 0xbe, 0x25, 0x92, 0xd5, 0xbe, 0x40, 0x23, 0x30, 0x3e,
  0x75, 0xd3, 0xf7, 0x3c, 0xcd, 0xa1, 0xdd, 0xbc, 0xbd, 0xa4, 0xfb, 0xbd,
  0x85, 0xea, 0x2b, 0x3d, 0x0b, 0xcc, 0x2f, 0xbd, 0xea, 0xa0, 0xd9, 0x3d,
  0x0d, 0x62, 0x02, 0xbf, 0x1b, 0x2d, 0x76, 0x3e, 0xf4, 0xfa, 0x22, 0x3e,
  0x5e, 0x22, 0x9e, 0xbe, 0x7d, 0x63, 0xa2, 0x3e, 0x28, 0x8c, 0xd0, 0xbe,
  0x65, 0x01, 0xb4, 0xbc, 0x1e, 0x72, 0xed, 0x3d, 0xbb, 0x95, 0x43, 0x3e,
  0xa6, 0x8d, 0x36, 0x3e, 0xc7, 0x08, 0x93, 0x3e, 0x4b, 0x00, 0x19, 0xbf,
  0x56, 0xa3, 0xaf, 0xbe, 0x4e, 0x61, 0x5a, 0xbd, 0xf5, 0x6e, 0x8a, 0xbd,
  0x6c, 0x81, 0x3d, 0x3e, 0x60, 0x08, 0x98, 0x3e, 0xdf, 0xdf, 0xbf, 0xbd,
  0xb0, 0x81, 0x76, 0x3e, 0x29, 0x3c, 0xc7, 0x3e, 0x1c, 0x23, 0xee, 0xbe,
  0xa3, 0xc6, 0x39, 0x3e, 0xb2, 0x23, 0x49, 0x3e, 0x15, 0x6d, 0xa5, 0xbe,
  0xc7, 0x6f, 0x25, 0x3e, 0xc1, 0xa9, 0xf2, 0xbe, 0xe5, 0xa4, 0x10, 0xbe,
  0x2b, 0x4b, 0x86, 0xbe, 0x16, 0x28, 0x72, 0x3e, 0x7e, 0x09, 0x0d, 0x3e,
  0x10, 0xac, 0xf3, 0x3d, 0xa3, 0xb0, 0xae, 0x3d, 0xa6, 0xbc, 0xb4, 0xbe,
  0x45, 0xde, 0x95, 0xbe, 0x39, 0x63, 0x8e, 0x3e, 0xd8, 0x3e, 0x81, 0x3e,
  0x87, 0xc1, 0x03, 0xbe, 0x48, 0xec, 0x07, 0x3e, 0x3c, 0x43, 0x76, 0xbe,
  0x73, 0xc8, 0xc8, 0xbe, 0x24, 0x08, 0x32, 0x3e, 0xa9, 0xda, 0xe6, 0xbd,
  0x5c, 0x13, 0x01, 0xbf, 0xf5, 0xed, 0x0d, 0x3f, 0xb7, 0xda, 0x2c, 0x3d,
  0x7f, 0x4c, 0x69, 0x3e, 0xdc, 0xf1, 0xb2, 0x3e, 0x47, 0x17, 0x23, 0x3d,
  0x08, 0x4d, 0xb8, 0xbd, 0x0c, 0xb1, 0x88, 0xbe, 0xbd, 0x2e, 0x48, 0x3e,
  0xbd, 0xb9, 0xba, 0x3e, 0xbc, 0x45, 0x30, 0x3e, 0xb6, 0xd5, 0x81, 0x3e,
  0x8b, 0x98, 0x62, 0x3e, 0x95, 0xf0, 0xed, 0x3e, 0x64, 0x8e, 0x34, 0xbb,
  0xce, 0x10, 0xc3, 0xbe, 0xb8, 0xe7, 0xa2, 0xbe, 0x27, 0x6a, 0xfc, 0xbe,
  0x56, 0x1c, 0x52, 0xbe, 0xdd, 0x8e, 0x84, 0xbd, 0x2b, 0x2a, 0xf8, 0xbd,
  0xb7, 0x6d, 0x69, 0xbd, 0x8a, 0xb5, 0x23, 0x3d, 0xc9, 0x5e, 0x0d, 0x3d,
  0x74, 0x1b, 0xa4, 0x3c, 0x76, 0xfc, 0x98, 0x3e, 0x6d, 0x6c, 0x6f, 0xbe,
  0xaa, 0xb2, 0x21, 0xbd, 0x23, 0x85, 0x2e, 0xbe, 0xf6, 0xf0, 0x7c, 0x3d,
  0xca, 0x05, 0x3f, 0xbe, 0x3e, 0xcd, 0x97, 0x3e, 0x91, 0x30, 0x75, 0x3e,
  0xed, 0xdb, 0xeb, 0x3e, 0xc5, 0x98, 0x3e, 0x3f, 0xaa, 0x67, 0x50, 0x3f,
  0x36, 0xe4, 0x82, 0x3e, 0xa2, 0x48, 0x5b, 0xbe, 0x4d, 0x3f, 0x89, 0x3e,
  0x93, 0x9d, 0xa0, 0x3e, 0x92, 0xaf, 0xf9, 0xbc, 0xcd, 0x9c, 0x0b, 0xbf,
  0x1f, 0xa2, 0x97, 0x3e, 0xec, 0x71, 0x54, 0x3e, 0x16, 0x39, 0xc5, 0xbe,
  0x46, 0xc9, 0x89, 0x3e, 0xfd, 0xc9, 0xc5, 0xbc, 0xbd, 0x93, 0x2f, 0x3e,
  0xea, 0x85, 0xa1, 0xbe, 0x88, 0x8d, 0xf0, 0x3e, 0xce, 0x82, 0x8b, 0xbe,
  0xab, 0x7c, 0x14, 0xbd, 0x2a, 0xb3, 0x1c, 0x3d, 0x49, 0xd7, 0xf9, 0x3e,
  0x48, 0x67, 0x02, 0xbf, 0x95, 0x0c, 0xc1, 0xbd, 0x44, 0x9f, 0x9a, 0xbd,
  0xcc, 0xc9, 0xda, 0xbe, 0x53, 0xd8, 0xb8, 0xbd, 0x4a, 0xb9, 0xd7, 0x3e,
  0xba, 0x44, 0xf5, 0x3e, 0x96, 0x82, 0xcf, 0xbc, 0x8e, 0x0c, 0xb3, 0xbe,
  0x54, 0x26, 0xd1, 0x3d, 0x01, 0x67, 0xcb, 0xbe, 0x43, 0xc9, 0xf5, 0xbe,
  0xc0, 0x92, 0xae, 0x3d, 0x6e, 0x50, 0x20, 0xbf, 0xc5, 0x8c, 0xa3, 0x3e,
  0x1d, 0xb1, 0xd6, 0x3e, 0x93, 0x23, 0x67, 0x3d, 0x15, 0xcf, 0xe6, 0xbe,
  0x68, 0xf4, 0xa9, 0x3e, 0x4b, 0x23, 0xc8, 0x3e, 0xa7, 0x9b, 0x4b, 0x3e,
  0x7b, 0xd6, 0x0f, 0xbe, 0x3f, 0x1f, 0xba, 0x3d, 0x0e, 0x69, 0xe9, 0xbd,
  0xfe, 0x86, 0x9f, 0xbd, 0x50, 0x6d, 0x87, 0x3b, 0x60, 0xf0, 0x8c, 0x3e,
  0xdc, 0xa7, 0x86, 0x3e, 0x28, 0xc6, 0x99, 0xbe, 0x10, 0x54, 0x0e, 0x3e,
  0x77, 0xba, 0xbc, 0x3d, 0xae, 0xbf, 0xc6, 0x3b, 0x82, 0x08, 0xab, 0xbd,
  0x7e, 0x2f, 0x47, 0xbe, 0x22, 0x7d, 0x5b, 0x3e, 0xc3, 0xd5, 0x6e, 0xbf,
  0xe5, 0x16, 0xb6, 0xbd, 0x14, 0xeb, 0xc8, 0xbd, 0x28, 0x66, 0x1f, 0x3f,
  0xad, 0x3b, 0x08, 0x3c, 0x2b, 0x44, 0x08, 0x3e, 0x57, 0x4d, 0x7e, 0xbe,
  0x64, 0x5a, 0x11, 0xbf, 0xe3, 0x00, 0xed, 0x3d, 0xf5, 0x2f, 0xdf, 0x3e,
  0x5a, 0x8f, 0x80, 0xbe, 0x36, 0x5e, 0x02, 0x3f, 0x51, 0xd1, 0x40, 0xbe,
  0x79, 0x6b, 0x0a, 0xbe, 0xfc, 0x77, 0x8d, 0xbe, 0x11, 0x97, 0xab, 0xbe,
  0x86, 0x26, 0xe1, 0x3d, 0x79, 0x9c, 0xb3, 0xbd, 0xd1, 0xb5, 0x95, 0x3e,
  0xfb, 0x24, 0x95, 0x3d, 0x67, 0xff, 0xaf, 0xbc, 0x2a, 0x6c, 0x15, 0xbf,
  0x6b, 0xc2, 0xf6, 0x3e, 0xb3, 0xee, 0x70, 0x3e, 0x07, 0xe9, 0xae, 0xbe,
  0x9b, 0xa1, 0xab, 0xbe, 0x28, 0xff, 0xd8, 0xbd, 0x40, 0x47, 0x5d, 0xbe,
  0x58, 0x0a, 0x23, 0xbd, 0x85, 0xe3, 0x14, 0x3f, 0xea, 0xc4, 0x62, 0xbd,
  0x40, 0xea, 0xeb, 0x3e, 0x25, 0xe7, 0x52, 0x3f, 0xa5, 0x76, 0xce, 0xbe,
  0x2c, 0x17, 0xe5, 0x3d, 0xfb, 0x08, 0xce, 0x3e, 0xff, 0x20, 0x14, 0x3e,
  0xb3, 0x8b, 0x25, 0x3f, 0xf1, 0xb3, 0xbb, 0x3e, 0xd8, 0x26, 0x02, 0x3f,
  0x94, 0x5b, 0x14, 0x3f, 0x4e, 0xf5, 0xef, 0x3e, 0xd4, 0xa5, 0x83, 0xc0,
  0x45, 0xcf, 0x0f, 0x3f, 0x9c, 0xf0, 0x09, 0xbe, 0xca, 0x68, 0xee, 0xbe,
  0xc5, 0x4e, 0x15, 0x3e, 0xe4, 0x26, 0xbf, 0xbe, 0x67, 0x04, 0x34, 0x3e,
  0xb6, 0x3e, 0x64, 0x3e, 0x07, 0xa6, 0x93, 0xbe, 0x81, 0x76, 0xdd, 0x3c,
  0x9a, 0x00, 0x39, 0xbd, 0xe4, 0xa2, 0xe3, 0xb9, 0x1e, 0x4c, 0xcb, 0xbe,
  0xb2, 0x08, 0x64, 0xbe, 0x72, 0x99, 0x5e, 0xbf, 0x37, 0x88, 0xb4, 0xbe,
  0xa2, 0x75, 0xcd, 0xbe, 0x1c, 0x78, 0x0f, 0x3d, 0x0b, 0x00, 0x1d, 0x3e,
  0x7f, 0xeb, 0x86, 0x3e, 0x70, 0xd7, 0x82, 0xbd, 0xaf, 0x7c, 0x0a, 0xbe,
  0x5e, 0x38, 0x86, 0xbf, 0xe5, 0xa7, 0xda, 0xbd, 0xea, 0x33, 0xe6, 0x3e,
  0x02, 0x71, 0xcc, 0xbd, 0xa6, 0x22, 0xef, 0xbb, 0x2c, 0x42, 0x0e, 0x3f,
  0x25, 0xe3, 0xd9, 0x3c, 0xd8, 0x93, 0xad, 0x3e, 0x39, 0xb6, 0x87, 0x3e,
  0x14, 0x82, 0xf6, 0x3e, 0x85, 0x0e, 0x71, 0xbe, 0xbb, 0x94, 0x34, 0x3f,
  0x4f, 0xda, 0x8d, 0x3c, 0x01, 0xe6, 0x14, 0xbe, 0x11, 0x19, 0x06, 0xbe,
  0xae, 0x7c, 0x8d, 0xbe, 0xa0, 0x0c, 0xd3, 0x3e, 0x81, 0x08, 0xa6, 0xba,
  0x26, 0x0f, 0xf0, 0x3c, 0x24, 0xf5, 0x2a, 0x3e, 0x6e, 0x64, 0x22, 0x3e,
  0x06, 0x7f, 0x8d, 0x3e, 0x13, 0x9e, 0xc6, 0xbe, 0x65, 0x41, 0x7b, 0x3e,
  0x27, 0x79, 0x31, 0xbe, 0x79, 0xf7, 0x36, 0xbd, 0xcd, 0x6d, 0x8d, 0xbe,
  0x3b, 0xb7, 0x25, 0xbe, 0x41, 0xc8, 0x29, 0x3d, 0xf3, 0xa2, 0x93, 0x3e,
  0x69, 0xbd, 0x54, 0xbd, 0xc1, 0xf6, 0xc9, 0xbe, 0x4b, 0xd0, 0x22, 0x3e,
  0x36, 0x50, 0xc8, 0x3e, 0xd0, 0xdd, 0xa8, 0xbe, 0x96, 0xa5, 0xe9, 0x3e,
  0xb5, 0xf2, 0x37, 0xbd, 0xe1, 0x38, 0xbd, 0x3d, 0xe4, 0x42, 0x5c, 0x3e,
  0xe6, 0xbc, 0x8b, 0xbf, 0x40, 0x56, 0xec, 0xbe, 0x50, 0xc0, 0xe5, 0xbe,
  0x12, 0x37, 0x1a, 0x3f, 0xa8, 0xcc, 0xfb, 0xbe, 0x06, 0x4a, 0x14, 0xbe,
  0x56, 0xf2, 0x8c, 0x3c, 0xa8, 0xba, 0x51, 0x3e, 0xe7, 0x36, 0x02, 0x3d,
  0x06, 0xcd, 0xa5, 0x3d, 0x73, 0xa1, 0xb8, 0x3e, 0x63, 0x9f, 0x42, 0x3e,
  0x34, 0x96, 0x09, 0xbf, 0x0d, 0x4f, 0xa8, 0x3e, 0x6c, 0xe6, 0x37, 0xbe,
  0x3c, 0x7f, 0x23, 0x3f, 0x77, 0x0b, 0x27, 0xbf, 0x97, 0x1c, 0x0d, 0x3f,
  0xec, 0xba, 0x95, 0xbd, 0x8e, 0xf9, 0x0c, 0xbe, 0x13, 0x0c, 0x99, 0x3e,
  0x52, 0x29, 0xa5, 0x3e, 0x86, 0xb0, 0x51, 0x3d, 0x76, 0xd9, 0xaa, 0xbe,
  0x62, 0x0c, 0x44, 0x3e, 0x8c, 0x2d, 0x4d, 0xbf, 0x78, 0x42, 0x67, 0x3b,
  0xa9, 0xd0, 0xbb, 0x3e, 0xac, 0x77, 0x82, 0x3e, 0x5d, 0x4f, 0x22, 0xbd,
  0xc4, 0x17, 0x88, 0xbe, 0x3d, 0x1a, 0xdb, 0x3d, 0x27, 0x44, 0xca, 0xbe,
  0x75, 0x28, 0xbd, 0x3e, 0x9c, 0x99, 0xae, 0x3c, 0x66, 0xd1, 0x7f, 0xbe,
  0xd1, 0x03, 0x39, 0xbe, 0xa0, 0x3f, 0x1e, 0xbf, 0x5c, 0x29, 0x65, 0xbe,
  0xbe, 0x8f, 0xd5, 0xbe, 0x52, 0x9e, 0x8b, 0xbf, 0x8a, 0xfc, 0xe4, 0xbc,
  0xa4, 0x15, 0x52, 0x3e, 0x47, 0x6a, 0x92, 0xbd, 0x6a, 0xd8, 0x67, 0x3e,
  0x00, 0x68, 0xb2, 0x3d, 0x1e, 0xd2, 0xb5, 0x3d, 0x60, 0x5c, 0x5c, 0xbe,
  0x4e, 0xc4, 0xee, 0x3d, 0x03, 0x92, 0x96, 0x3d, 0xfa, 0x46, 0x2d, 0xbe,
  0xa0, 0x3f, 0xa2, 0x3d, 0x43, 0x45, 0x8c, 0x3e, 0x83, 0x5f, 0x10, 0xbd,
  0xaa, 0x49, 0xd8, 0xbd, 0xf9, 0x4f, 0xf0, 0x3d, 0xce, 0x22, 0xf1, 0x3d,
  0xc9, 0xac, 0x32, 0x3d, 0x8d, 0x92, 0xec, 0x3d, 0x54, 0xd1, 0xef, 0xbd,
  0x59, 0x75, 0x57, 0xbf, 0x01, 0xe2, 0xb0, 0xbe, 0xab, 0xa2, 0x2f, 0xbd,
  0x64, 0x8d, 0x35, 0xbe, 0x5c, 0x2e, 0x16, 0xbf, 0xb3, 0x7e, 0x1f, 0x3f,
  0x08, 0xa0, 0xbb, 0x3e, 0x1a, 0x3e, 0x10, 0xbe, 0x23, 0xe0, 0x58, 0xbe,
  0x80, 0xf5, 0xb5, 0x3e, 0xe2, 0x5f, 0x59, 0xbe, 0xd9, 0x17, 0x95, 0xbd,
  0xb5, 0x5d, 0xae, 0x3e, 0x96, 0xb3, 0x65, 0x3d, 0x48, 0x99, 0xa7, 0x3d,
  0x5b, 0x4e, 0x39, 0x3d, 0x6c, 0x1c, 0xc6, 0xbe, 0xac, 0x9f, 0x2e, 0xbf,
  0xa2, 0xeb, 0x81, 0xbd, 0xea, 0x20, 0x83, 0xbe, 0x82, 0x66, 0x96, 0xbd,
  0x1b, 0x43, 0xe8, 0x3e, 0x55, 0x94, 0xba, 0xbd, 0x20, 0x32, 0x9a, 0x3e,
  0xea, 0xd4, 0x9b, 0x3e, 0x3c, 0x2f, 0xba, 0xbe, 0x27, 0x92, 0x82, 0x3a,
  0x20, 0x0b, 0xbf, 0xbe, 0xe2, 0x01, 0xd0, 0x3e, 0xbc, 0x43, 0xcb, 0x3e,
  0x56, 0x8f, 0x08, 0xbe, 0xe2, 0xbf, 0x1a, 0x3e, 0xe2, 0x65, 0x5b, 0x3e,
  0x57, 0x6d, 0x43, 0xbe, 0x82, 0x7c, 0x7d, 0xbe, 0x26, 0x57, 0x5b, 0x3e,
  0x05, 0x08, 0x62, 0xbe, 0x32, 0x97, 0xbd, 0xbc, 0x8b, 0xeb, 0xe4, 0xbe,
  0xae, 0x49, 0x6b, 0x3d, 0x98, 0x6c, 0xad, 0x3e, 0x6b, 0x39, 0xe3, 0xbd,
  0xb3, 0x00, 0x4d, 0x3e, 0x52, 0xad, 0x81, 0xbe, 0x6b, 0x72, 0x8b, 0x3e,
  0xf3, 0x5d, 0x0a, 0xbe, 0x37, 0xeb, 0xbf, 0xbd, 0x7f, 0xa6, 0x52, 0xbe,
  0xc0, 0x0e, 0xd4, 0x3e, 0x04, 0x3e, 0xbb, 0xbe, 0x37, 0x19, 0x97, 0x3e,
  0xdd, 0xf4, 0x44, 0x3d, 0x16, 0x03, 0xb5, 0x3e, 0xfe, 0x58, 0xca, 0xbe,
  0x77, 0x5c, 0xa1, 0x3d, 0x81, 0x9e, 0xc6, 0xbe, 0xfe, 0x7c, 0xca, 0xbe,
  0x9c, 0xa6, 0x61, 0xbe, 0x73, 0x1c, 0x57, 0xbe, 0x54, 0xd6, 0x47, 0x3e,
  0x28, 0xe7, 0x2f, 0x3f, 0x45, 0x4e, 0x4d, 0xbf, 0xd5, 0xf5, 0xb8, 0xbe,
  0xc0, 0x26, 0x60, 0x3e, 0xf4, 0xd0, 0x2f, 0x3f, 0x68, 0x4b, 0x23, 0xbf,
  0x9f, 0xea, 0x27, 0xbf, 0x50, 0x00, 0xd8, 0x3e, 0xe8, 0xca, 0xb6, 0x3e,
  0x43, 0xba, 0xa1, 0x3e, 0x26, 0xa4, 0xa6, 0xbd, 0xfd, 0xcd, 0xa8, 0x3e,
  0x21, 0xf7, 0x0c, 0x3f, 0xaf, 0x0d, 0x9a, 0x3e, 0xc8, 0xef, 0x19, 0x3e,
  0xb4, 0x66, 0xd8, 0xbd, 0x89, 0xae, 0x78, 0xbd, 0x95, 0xf3, 0x50, 0xbf,
  0x44, 0xd0, 0x0d, 0xbe, 0xf3, 0x86, 0xd8, 0x3d, 0xb9, 0x29, 0x36, 0xbf,
  0xf2, 0x41, 0x98, 0xbe, 0xcc, 0x20, 0xd2, 0xbe, 0x58, 0x4a, 0xb1, 0xbe,
  0x2c, 0x00, 0x87, 0xbe, 0x66, 0x65, 0x28, 0x3f, 0xaa, 0x1e, 0x63, 0x3e,
  0x8a, 0x0d, 0x9c, 0xbc, 0x49, 0xba, 0xaf, 0x3d, 0x68, 0x78, 0xa1, 0x3e,
  0xe7, 0xd3, 0x0c, 0x3d, 0x31, 0x56, 0x6b, 0xbe, 0xca, 0x47, 0xb2, 0x3e,
  0x16, 0xd0, 0x55, 0x3e, 0x9f, 0x80, 0xf1, 0x3d, 0x40, 0x21, 0x6a, 0x3e,
  0xc9, 0x0d, 0x00, 0xbe, 0xa4, 0x93, 0xa4, 0x3e, 0xb1, 0x86, 0x87, 0xbe,
  0x85, 0x84, 0x4c, 0x3e, 0x8e, 0xfe, 0x87, 0xbe, 0xb8, 0x08, 0xaf, 0x3d,
  0xfe, 0x41, 0x7c, 0x3e, 0xd1, 0x67, 0x51, 0x3f, 0xc0, 0x55, 0x92, 0x3e,
  0xb3, 0xf5, 0xc9, 0x3e, 0xe3, 0xa0, 0x85, 0x3e, 0xee, 0x28, 0xa4, 0x3e,
  0xf9, 0x24, 0x57, 0xbe, 0x05, 0x4a, 0xc2, 0xbe, 0x53, 0x59, 0x63, 0xbf,
  0xb5, 0x8d, 0xa6, 0xbd, 0xd5, 0x4b, 0x7b, 0xbe, 0x3e, 0x2a, 0x90, 0xbe,
  0xa0, 0xfb, 0x0a, 0x3d, 0x67, 0x9e, 0x8b, 0xbd, 0x28, 0xff, 0x6b, 0xbf,
  0x82, 0xef, 0x48, 0x3e, 0x1e, 0xd5, 0x80, 0x3c, 0x7a, 0x31, 0x9e, 0xbe,
  0x6d, 0xf6, 0x80, 0x3e, 0xac, 0xe4, 0x23, 0x3e, 0xe0, 0x64, 0x87, 0x3e,
  0x7a, 0x77, 0xc0, 0xbe, 0x3e, 0xf5, 0x8a, 0x3e, 0x31, 0x18, 0xb1, 0xbf,
  0x14, 0x6b, 0x77, 0xbe, 0x40, 0x81, 0xf6, 0x3e, 0xa6, 0x63, 0x0d, 0x3e,
  0x66, 0x2c, 0x66, 0x3e, 0xe6, 0xda, 0xfe, 0x3e, 0x1b, 0x9a, 0x90, 0xbb,
  0x31, 0x57, 0x39, 0x3e, 0x68, 0x0f, 0xc9, 0x3d, 0x1a, 0x1c, 0xf5, 0x3d,
  0x2e, 0x37, 0x5b, 0xbe, 0x7f, 0xc3, 0xd2, 0xbe, 0xd6, 0xfc, 0x5d, 0xbd,
  0x32, 0x7e, 0x10, 0xbe, 0xd7, 0x34, 0x22, 0x3e, 0x7c, 0x14, 0x95, 0xbd,
  0x4a, 0xec, 0x7f, 0xbc, 0xe8, 0x9f, 0xce, 0xbe, 0x8b, 0x3e, 0x86, 0x3e,
  0x77, 0xb3, 0xa1, 0x3e, 0x6c, 0x2e, 0x44, 0xbe, 0x24, 0x6b, 0x8c, 0xbe,
  0xe2, 0x23, 0x89, 0x3c, 0xa1, 0x78, 0xed, 0x3e, 0x7c, 0x11, 0x2c, 0xbf,
  0xa5, 0x96, 0xed, 0xbe, 0xc5, 0x1a, 0xa6, 0xbe, 0xf1, 0x72, 0x48, 0xbe,
  0x27, 0x7f, 0x4b, 0x3e, 0x32, 0x37, 0x97, 0x3e, 0x68, 0xdd, 0x11, 0x3c,
  0x9c, 0x32, 0x01, 0xbf, 0x82, 0x91, 0x15, 0xbe, 0xcc, 0xed, 0x95, 0x3e,
  0x75, 0x01, 0x24, 0x3e, 0x14, 0x9f, 0x11, 0x3e, 0x24, 0x1b, 0x04, 0xbe,
  0x04, 0x1d, 0x6b, 0x3e, 0xbd, 0xcc, 0x08, 0x3e, 0x7e, 0x4a, 0x61, 0x3d,
  0x4d, 0x95, 0x26, 0xbd, 0x91, 0xd3, 0x90, 0xbe, 0x8b, 0x30, 0x24, 0xbf,
  0x36, 0x1d, 0x61, 0xbe, 0x88, 0xc5, 0x11, 0xbe, 0x8e, 0xc7, 0x5e, 0x3e,
  0xbb, 0xb8, 0xa4, 0xbe, 0x4f, 0xab, 0x66, 0x3e, 0xee, 0xcd, 0x5b, 0xbd,
  0xe1, 0x68, 0x93, 0x3d, 0xe6, 0x22, 0x10, 0x3f, 0x3a, 0x7f, 0x57, 0x3e,
  0x8f, 0x71, 0x78, 0x3e, 0x37, 0xa1, 0xa2, 0xbe, 0xda, 0xd2, 0x0d, 0x3f,
  0xa7, 0xbe, 0xcb, 0x3e, 0xbc, 0xe5, 0x69, 0xbe, 0xfa, 0x27, 0xb4, 0xbe,
  0x4b, 0x6c, 0x48, 0xbe, 0x84, 0x3f, 0xb3, 0x3d, 0xeb, 0x1a, 0xde, 0xbd,
  0x76, 0xbd, 0xb0, 0xbd, 0xe4, 0xf3, 0x9c, 0x3e, 0xba, 0xc9, 0x8e, 0xbe,
  0x3c, 0xd7, 0xe1, 0x3e, 0xc6, 0x89, 0xb3, 0xbe, 0xec, 0x81, 0x19, 0x3f,
  0x1a, 0xe4, 0x4e, 0x3d, 0xc3, 0x55, 0x53, 0xbc, 0xef, 0x6a, 0xf4, 0x3e,
  0xc1, 0x68, 0x39, 0x3e, 0x6d, 0x4e, 0xe8, 0x3d, 0xc2, 0x8e, 0x8f, 0x3d,
  0xea, 0x21, 0x96, 0xbe, 0x33, 0x28, 0x51, 0x3d, 0x18, 0x3a, 0xb7, 0x3d,
  0xdc, 0x4e, 0x91, 0x3e, 0x7d, 0xe3, 0xfd, 0xbc, 0xb9, 0x9f, 0x00, 0x3f,
  0x00, 0xd9, 0xad, 0x3d, 0x8c, 0xb1, 0x1f, 0xbe, 0x63, 0x56, 0x03, 0xbf,
  0xdf, 0x91, 0x9b, 0x3e, 0x57, 0xf0, 0xca, 0x3e, 0xff, 0xb2, 0x45, 0xbe,
  0xad, 0x85, 0xf5, 0xbe, 0xc6, 0xd3, 0x17, 0xbf, 0x11, 0x51, 0xd4, 0xbe,
  0x96, 0x3b, 0x6e, 0x3e, 0x23, 0xac, 0x56, 0xbe, 0xe9, 0x96, 0xb1, 0x3d,
  0xc0, 0x72, 0xde, 0xbe, 0xfc, 0x96, 0xd7, 0x3d, 0x99, 0x40, 0x99, 0x3e,
  0xf6, 0xd0, 0xe0, 0x3c, 0x02, 0x52, 0x39, 0x3e, 0x78, 0x17, 0x9b, 0xbf,
  0x7f, 0xf6, 0x46, 0xbf, 0x3e, 0x38, 0x54, 0x3e, 0xe6, 0x59, 0x0e, 0xbf,
  0x9c, 0xbf, 0x5c, 0xbe, 0xf4, 0xd9, 0xd4, 0x3e, 0x06, 0x93, 0x71, 0xbe,
  0xef, 0xaa, 0x88, 0x3e, 0x56, 0xb8, 0x76, 0x3f, 0xb1, 0x1d, 0x4f, 0x3e,
  0xc9, 0xdf, 0xe3, 0x3e, 0x47, 0x1b, 0xf6, 0x3e, 0x8b, 0xfb, 0x8a, 0xbe,
  0x84, 0x71, 0xa6, 0xbe, 0x6f, 0xf6, 0x03, 0xbd, 0x17, 0x34, 0x90, 0x3e,
  0xac, 0xea, 0x0c, 0x3f, 0xae, 0xf6, 0xbb, 0x3e, 0x62, 0x98, 0x99, 0xbe,
  0x1a, 0x77, 0x88, 0xbd, 0x8a, 0x11, 0xcb, 0xbe, 0xe9, 0xa4, 0x15, 0xbe,
  0xe8, 0x39, 0x9a, 0xbe, 0x66, 0xfd, 0xff, 0xff, 0x04, 0x00, 0x00, 0x00,
  0x0c, 0x00, 0x00, 0x00, 0xff, 0xff, 0xff, 0xff, 0x7d, 0x00, 0x00, 0x00,
  0x06, 0x00, 0x00, 0x00, 0x1c, 0xed, 0xff, 0xff, 0x20, 0xed, 0xff, 0xff,
  0x0f, 0x00, 0x00, 0x00, 0x4d, 0x4c, 0x49, 0x52, 0x20, 0x43, 0x6f, 0x6e,
  0x76, 0x65, 0x72, 0x74, 0x65, 0x64, 0x2e, 0x00, 0x01, 0x00, 0x00, 0x00,
  0x14, 0x00, 0x00, 0x00, 0x00, 0x00, 0x0e, 0x00, 0x18, 0x00, 0x14, 0x00,
  0x10, 0x00, 0x0c, 0x00, 0x08, 0x00, 0x04, 0x00, 0x0e, 0x00, 0x00, 0x00,
  0x14, 0x00, 0x00, 0x00, 0x1c, 0x00, 0x00, 0x00, 0x18, 0x04, 0x00, 0x00,
  0x1c, 0x04, 0x00, 0x00, 0x20, 0x04, 0x00, 0x00, 0x04, 0x00, 0x00, 0x00,
  0x6d, 0x61, 0x69, 0x6e, 0x00, 0x00, 0x00, 0x00, 0x11, 0x00, 0x00, 0x00,
  0xd0, 0x03, 0x00, 0x00, 0x6c, 0x03, 0x00, 0x00, 0x34, 0x03, 0x00, 0x00,
  0xe0, 0x02, 0x00, 0x00, 0xa4, 0x02, 0x00, 0x00, 0x74, 0x02, 0x00, 0x00,
  0x38, 0x02, 0x00, 0x00, 0xf0, 0x01, 0x00, 0x00, 0xb8, 0x01, 0x00, 0x00,
  0x90, 0x01, 0x00, 0x00, 0x54, 0x01, 0x00, 0x00, 0x18, 0x01, 0x00, 0x00,
  0xe0, 0x00, 0x00, 0x00, 0xa4, 0x00, 0x00, 0x00, 0x70, 0x00, 0x00, 0x00,
  0x38, 0x00, 0x00, 0x00, 0x04, 0x00, 0x00, 0x00, 0xe2, 0xfc, 0xff, 0xff,
  0x14, 0x00, 0x00, 0x00, 0x00, 0x00, 0x00, 0x09, 0x14, 0x00, 0x00, 0x00,
  0x18, 0x00, 0x00, 0x00, 0x08, 0x00, 0x00, 0x00, 0x36, 0xfe, 0xff, 0xff,
  0x00, 0x00, 0x80, 0x3f, 0x01, 0x00, 0x00, 0x00, 0x24, 0x00, 0x00, 0x00,
  0x01, 0x00, 0x00, 0x00, 0x23, 0x00, 0x00, 0x00, 0x12, 0xfd, 0xff, 0xff,
  0x14, 0x00, 0x00, 0x00, 0x00, 0x00, 0x00, 0x08, 0x10, 0x00, 0x00, 0x00,
  0x14, 0x00, 0x00, 0x00, 0x03, 0x00, 0x00, 0x00, 0x04, 0xee, 0xff, 0xff,
  0x01, 0x00, 0x00, 0x00, 0x23, 0x00, 0x00, 0x00, 0x03, 0x00, 0x00, 0x00,
  0x22, 0x00, 0x00, 0x00, 0x07, 0x00, 0x00, 0x00, 0x13, 0x00, 0x00, 0x00,
  0x46, 0xfd, 0xff, 0xff, 0x14, 0x00, 0x00, 0x00, 0x00, 0x00, 0x00, 0x1b,
  0x10, 0x00, 0x00, 0x00, 0x14, 0x00, 0x00, 0x00, 0x07, 0x00, 0x00, 0x00,
  0x38, 0xee, 0xff, 0xff, 0x01, 0x00, 0x00, 0x00, 0x22, 0x00, 0x00, 0x00,
  0x02, 0x00, 0x00, 0x00, 0x21, 0x00, 0x00, 0x00, 0x0c, 0x00, 0x00, 0x00,
  0x76, 0xfd, 0xff, 0xff, 0x14, 0x00, 0x00, 0x00, 0x00, 0x00, 0x00, 0x08,
  0x14, 0x00, 0x00, 0x00, 0x18, 0x00, 0x00, 0x00, 0x03, 0x00, 0x00, 0x00,
  0xea, 0xfd, 0xff, 0xff, 0x00, 0x00, 0x01, 0x01, 0x01, 0x00, 0x00, 0x00,
  0x21, 0x00, 0x00, 0x00, 0x03, 0x00, 0x00, 0x00, 0x20, 0x00, 0x00, 0x00,
  0x02, 0x00, 0x00, 0x00, 0x12, 0x00, 0x00, 0x00, 0xae, 0xfd, 0xff, 0xff,
  0x14, 0x00, 0x00, 0x00, 0x00, 0x00, 0x00, 0x0a, 0x14, 0x00, 0x00, 0x00,
  0x18, 0x00, 0x00, 0x00, 0x06, 0x00, 0x00, 0x00, 0x02, 0xff, 0xff, 0xff,
  0xff, 0xff, 0xff, 0xff, 0x01, 0x00, 0x00, 0x00, 0x20, 0x00, 0x00, 0x00,
  0x02, 0x00, 0x00, 0x00, 0x1f, 0x00, 0x00, 0x00, 0x1d, 0x00, 0x00, 0x00,
  0xe2, 0xfd, 0xff, 0xff, 0x14, 0x00, 0x00, 0x00, 0x00, 0x00, 0x00, 0x08,
  0x14, 0x00, 0x00, 0x00, 0x18, 0x00, 0x00, 0x00, 0x03, 0x00, 0x00, 0x00,
  0x56, 0xfe, 0xff, 0xff, 0x00, 0x00, 0x01, 0x01, 0x01, 0x00, 0x00, 0x00,
  0x1f, 0x00, 0x00, 0x00, 0x03, 0x00, 0x00, 0x00, 0x1e, 0x00, 0x00, 0x00,
  0x03, 0x00, 0x00, 0x00, 0x0e, 0x00, 0x00, 0x00, 0x1a, 0xfe, 0xff, 0xff,
  0x14, 0x00, 0x00, 0x00, 0x00, 0x00, 0x00, 0x08, 0x14, 0x00, 0x00, 0x00,
  0x18, 0x00, 0x00, 0x00, 0x03, 0x00, 0x00, 0x00, 0x8e, 0xfe, 0xff, 0xff,
  0x00, 0x00, 0x01, 0x01, 0x01, 0x00, 0x00, 0x00, 0x1e, 0x00, 0x00, 0x00,
  0x03, 0x00, 0x00, 0x00, 0x00, 0x00, 0x00, 0x00, 0x04, 0x00, 0x00, 0x00,
  0x0f, 0x00, 0x00, 0x00, 0x82, 0xfe, 0xff, 0xff, 0x0c, 0x00, 0x00, 0x00,
  0x10, 0x00, 0x00, 0x00, 0x02, 0x00, 0x00, 0x00, 0x01, 0x00, 0x00, 0x00,
  0x1d, 0x00, 0x00, 0x00, 0x02, 0x00, 0x00, 0x00, 0x19, 0x00, 0x00, 0x00,
  0x1c, 0x00, 0x00, 0x00, 0x76, 0xfe, 0xff, 0xff, 0x14, 0x00, 0x00, 0x00,
  0x00, 0x00, 0x00, 0x0a, 0x10, 0x00, 0x00, 0x00, 0x14, 0x00, 0x00, 0x00,
  0x06, 0x00, 0x00, 0x00, 0x68, 0xef, 0xff, 0xff, 0x01, 0x00, 0x00, 0x00,
  0x1c, 0x00, 0x00, 0x00, 0x03, 0x00, 0x00, 0x00, 0x1b, 0x00, 0x00, 0x00,
  0x09, 0x00, 0x00, 0x00, 0x08, 0x00, 0x00, 0x00, 0xaa, 0xfe, 0xff, 0xff,
  0x1c, 0x00, 0x00, 0x00, 0x00, 0x00, 0x00, 0x20, 0x1c, 0x00, 0x00, 0x00,
  0x20, 0x00, 0x00, 0x00, 0x05, 0x00, 0x00, 0x00, 0x00, 0x00, 0x06, 0x00,
  0x08, 0x00, 0x04, 0x00, 0x06, 0x00, 0x00, 0x00, 0x01, 0x00, 0x00, 0x00,
  0x01, 0x00, 0x00, 0x00, 0x1b, 0x00, 0x00, 0x00, 0x04, 0x00, 0x00, 0x00,
  0x1a, 0x00, 0x00, 0x00, 0x0b, 0x00, 0x00, 0x00, 0x0a, 0x00, 0x00, 0x00,
  0x0a, 0x00, 0x00, 0x00, 0xee, 0xfe, 0xff, 0xff, 0x1c, 0x00, 0x00, 0x00,
  0x00, 0x00, 0x00, 0x37, 0x1c, 0x00, 0x00, 0x00, 0x20, 0x00, 0x00, 0x00,
  0x04, 0x00, 0x00, 0x00, 0x00, 0x00, 0x06, 0x00, 0x08, 0x00, 0x07, 0x00,
  0x06, 0x00, 0x00, 0x00, 0x00, 0x00, 0x00, 0x02, 0x01, 0x00, 0x00, 0x00,
  0x1a, 0x00, 0x00, 0x00, 0x01, 0x00, 0x00, 0x00, 0x18, 0x00, 0x00, 0x00,
  0xc6, 0xfe, 0xff, 0xff, 0x10, 0x00, 0x00, 0x00, 0x00, 0x00, 0x00, 0x34,
  0x0c, 0x00, 0x00, 0x00, 0x10, 0x00, 0x00, 0x00, 0x14, 0xf0, 0xff, 0xff,
  0x01, 0x00, 0x00, 0x00, 0x19, 0x00, 0x00, 0x00, 0x02, 0x00, 0x00, 0x00,
  0x18, 0x00, 0x00, 0x00, 0x0d, 0x00, 0x00, 0x00, 0x52, 0xff, 0xff, 0xff,
  0x14, 0x00, 0x00, 0x00, 0x00, 0x00, 0x00, 0x08, 0x14, 0x00, 0x00, 0x00,
  0x18, 0x00, 0x00, 0x00, 0x03, 0x00, 0x00, 0x00, 0xc6, 0xff, 0xff, 0xff,
  0x00, 0x00, 0x01, 0x01, 0x01, 0x00, 0x00, 0x00, 0x18, 0x00, 0x00, 0x00,
  0x03, 0x00, 0x00, 0x00, 0x17, 0x00, 0x00, 0x00, 0x05, 0x00, 0x00, 0x00,
  0x11, 0x00, 0x00, 0x00, 0x8a, 0xff, 0xff, 0xff, 0x20, 0x00, 0x00, 0x00,
  0x00, 0x00, 0x00, 0x08, 0x20, 0x00, 0x00, 0x00, 0x24, 0x00, 0x00, 0x00,
  0x03, 0x00, 0x00, 0x00, 0x00, 0x00, 0x0a, 0x00, 0x08, 0x00, 0x07, 0x00,
  0x00, 0x00, 0x06, 0x00, 0x0a, 0x00, 0x00, 0x00, 0x00, 0x00, 0x01, 0x01,
  0x01, 0x00, 0x00, 0x00, 0x17, 0x00, 0x00, 0x00, 0x03, 0x00, 0x00, 0x00,
  0x16, 0x00, 0x00, 0x00, 0x06, 0x00, 0x00, 0x00, 0x10, 0x00, 0x00, 0x00,
  0x00, 0x00, 0x0a, 0x00, 0x10, 0x00, 0x0c, 0x00, 0x08, 0x00, 0x04, 0x00,
  0x0a, 0x00, 0x00, 0x00, 0x0c, 0x00, 0x00, 0x00, 0x10, 0x00, 0x00, 0x00,
  0x02, 0x00, 0x00, 0x00, 0x01, 0x00, 0x00, 0x00, 0x16, 0x00, 0x00, 0x00,
  0x02, 0x00, 0x00, 0x00, 0x15, 0x00, 0x00, 0x00, 0x01, 0x00, 0x00, 0x00,
  0x00, 0x00, 0x0e, 0x00, 0x1a, 0x00, 0x14, 0x00, 0x10, 0x00, 0x0c, 0x00,
  0x0b, 0x00, 0x04, 0x00, 0x0e, 0x00, 0x00, 0x00, 0x24, 0x00, 0x00, 0x00,
  0x00, 0x00, 0x00, 0x05, 0x34, 0x00, 0x00, 0x00, 0x38, 0x00, 0x00, 0x00,
  0x01, 0x00, 0x00, 0x00, 0x00, 0x00, 0x0e, 0x00, 0x18, 0x00, 0x17, 0x00,
  0x10, 0x00, 0x0c, 0x00, 0x08, 0x00, 0x04, 0x00, 0x0e, 0x00, 0x00, 0x00,
  0x01, 0x00, 0x00, 0x00, 0x01, 0x00, 0x00, 0x00, 0x01, 0x00, 0x00, 0x00,
  0x01, 0x00, 0x00, 0x00, 0x00, 0x00, 0x00, 0x01, 0x01, 0x00, 0x00, 0x00,
  0x15, 0x00, 0x00, 0x00, 0x01, 0x00, 0x00, 0x00, 0x14, 0x00, 0x00, 0x00,
  0x00, 0x00, 0x0e, 0x00, 0x14, 0x00, 0x00, 0x00, 0x10, 0x00, 0x0c, 0x00,
  0x0b, 0x00, 0x04, 0x00, 0x0e, 0x00, 0x00, 0x00, 0x10, 0x00, 0x00, 0x00,
  0x00, 0x00, 0x00, 0x34, 0x0c, 0x00, 0x00, 0x00, 0x10, 0x00, 0x00, 0x00,
  0x5c, 0xf1, 0xff, 0xff, 0x01, 0x00, 0x00, 0x00, 0x14, 0x00, 0x00, 0x00,
  0x02, 0x00, 0x00, 0x00, 0x00, 0x00, 0x00, 0x00, 0x0c, 0x00, 0x00, 0x00,
  0x01, 0x00, 0x00, 0x00, 0x24, 0x00, 0x00, 0x00, 0x01, 0x00, 0x00, 0x00,
  0x00, 0x00, 0x00, 0x00, 0x25, 0x00, 0x00, 0x00, 0x4c, 0x0e, 0x00, 0x00,
  0xf4, 0x0d, 0x00, 0x00, 0x9c, 0x0d, 0x00, 0x00, 0x44, 0x0d, 0x00, 0x00,
  0x04, 0x0d, 0x00, 0x00, 0xc4, 0x0c, 0x00, 0x00, 0x84, 0x0c, 0x00, 0x00,
  0x44, 0x0c, 0x00, 0x00, 0x04, 0x0c, 0x00, 0x00, 0xc4, 0x0b, 0x00, 0x00,
  0x84, 0x0b, 0x00, 0x00, 0x40, 0x0b, 0x00, 0x00, 0x00, 0x0b, 0x00, 0x00,
  0xa0, 0x0a, 0x00, 0x00, 0x44, 0x0a, 0x00, 0x00, 0xec, 0x09, 0x00, 0x00,
  0x90, 0x09, 0x00, 0x00, 0x34, 0x09, 0x00, 0x00, 0xd8, 0x08, 0x00, 0x00,
  0x7c, 0x08, 0x00, 0x00, 0xf4, 0x07, 0x00, 0x00, 0x78, 0x07, 0x00, 0x00,
  0xfc, 0x06, 0x00, 0x00, 0x58, 0x06, 0x00, 0x00, 0xb4, 0x05, 0x00, 0x00,
  0x34, 0x05, 0x00, 0x00, 0xd8, 0x04, 0x00, 0x00, 0x74, 0x04, 0x00, 0x00,
  0x18, 0x04, 0x00, 0x00, 0xa0, 0x03, 0x00, 0x00, 0x04, 0x03, 0x00, 0x00,
  0x60, 0x02, 0x00, 0x00, 0xf4, 0x01, 0x00, 0x00, 0x50, 0x01, 0x00, 0x00,
  0xe0, 0x00, 0x00, 0x00, 0x60, 0x00, 0x00, 0x00, 0x04, 0x00, 0x00, 0x00,
  0x5e, 0xf2, 0xff, 0xff, 0x00, 0x00, 0x00, 0x01, 0x14, 0x00, 0x00, 0x00,
  0x1c, 0x00, 0x00, 0x00, 0x1c, 0x00, 0x00, 0x00, 0x25, 0x00, 0x00, 0x00,
  0x34, 0x00, 0x00, 0x00, 0x02, 0x00, 0x00, 0x00, 0xff, 0xff, 0xff, 0xff,
  0x0c, 0x00, 0x00, 0x00, 0x44, 0xf2, 0xff, 0xff, 0x1b, 0x00, 0x00, 0x00,
  0x53, 0x74, 0x61, 0x74, 0x65, 0x66, 0x75, 0x6c, 0x50, 0x61, 0x72, 0x74,
  0x69, 0x74, 0x69, 0x6f, 0x6e, 0x65, 0x64, 0x43, 0x61, 0x6c, 0x6c, 0x5f,
  0x31, 0x3a, 0x30, 0x00, 0x02, 0x00, 0x00, 0x00, 0x01, 0x00, 0x00, 0x00,
  0x0c, 0x00, 0x00, 0x00, 0xb6, 0xf2, 0xff, 0xff, 0x00, 0x00, 0x00, 0x01,
  0x14, 0x00, 0x00, 0x00, 0x1c, 0x00, 0x00, 0x00, 0x1c, 0x00, 0x00, 0x00,
  0x24, 0x00, 0x00, 0x00, 0x58, 0x00, 0x00, 0x00, 0x02, 0x00, 0x00, 0x00,
  0xff, 0xff, 0xff, 0xff, 0x0c, 0x00, 0x00, 0x00, 0x9c, 0xf2, 0xff, 0xff,
  0x3c, 0x00, 0x00, 0x00, 0x66, 0x75, 0x6e, 0x63, 0x74, 0x69, 0x6f, 0x6e,
  0x61, 0x6c, 0x5f, 0x31, 0x2f, 0x64, 0x65, 0x6e, 0x73, 0x65, 0x5f, 0x35,
  0x5f, 0x31, 0x2f, 0x4d, 0x61, 0x74, 0x4d, 0x75, 0x6c, 0x3b, 0x66, 0x75,
  0x6e, 0x63, 0x74, 0x69, 0x6f, 0x6e, 0x61, 0x6c, 0x5f, 0x31, 0x2f, 0x64,
  0x65, 0x6e, 0x73, 0x65, 0x5f, 0x35, 0x5f, 0x31, 0x2f, 0x42, 0x69, 0x61,
  0x73, 0x41, 0x64, 0x64, 0x00, 0x00, 0x00, 0x00, 0x02, 0x00, 0x00, 0x00,
  0x01, 0x00, 0x00, 0x00, 0x0c, 0x00, 0x00, 0x00, 0x32, 0xf3, 0xff, 0xff,
  0x00, 0x00, 0x00, 0x01, 0x14, 0x00, 0x00, 0x00, 0x1c, 0x00, 0x00, 0x00,
  0x1c, 0x00, 0x00, 0x00, 0x23, 0x00, 0x00, 0x00, 0x48, 0x00, 0x00, 0x00,
  0x02, 0x00, 0x00, 0x00, 0xff, 0xff, 0xff, 0xff, 0x18, 0x00, 0x00, 0x00,
  0x18, 0xf3, 0xff, 0xff, 0x2c, 0x00, 0x00, 0x00, 0x66, 0x75, 0x6e, 0x63,
  0x74, 0x69, 0x6f, 0x6e, 0x61, 0x6c, 0x5f, 0x31, 0x2f, 0x67, 0x6c, 0x6f,
  0x62, 0x61, 0x6c, 0x5f, 0x61, 0x76, 0x65, 0x72, 0x61, 0x67, 0x65, 0x5f,
  0x70, 0x6f, 0x6f, 0x6c, 0x69, 0x6e, 0x67, 0x31, 0x64, 0x5f, 0x31, 0x2f,
  0x4d, 0x65, 0x61, 0x6e, 0x00, 0x00, 0x00, 0x00, 0x02, 0x00, 0x00, 0x00,
  0x01, 0x00, 0x00, 0x00, 0x18, 0x00, 0x00, 0x00, 0x9e, 0xf3, 0xff, 0xff,
  0x00, 0x00, 0x00, 0x01, 0x14, 0x00, 0x00, 0x00, 0x20, 0x00, 0x00, 0x00,
  0x20, 0x00, 0x00, 0x00, 0x22, 0x00, 0x00, 0x00, 0x78, 0x00, 0x00, 0x00,
  0x03, 0x00, 0x00, 0x00, 0xff, 0xff, 0xff, 0xff, 0x7d, 0x00, 0x00, 0x00,
  0x18, 0x00, 0x00, 0x00, 0x88, 0xf3, 0xff, 0xff, 0x58, 0x00, 0x00, 0x00,
  0x66, 0x75, 0x6e, 0x63, 0x74, 0x69, 0x6f, 0x6e, 0x61, 0x6c, 0x5f, 0x31,
  0x2f, 0x64, 0x65, 0x6e, 0x73, 0x65, 0x5f, 0x34, 0x5f, 0x31, 0x2f, 0x4d,
  0x61, 0x74, 0x4d, 0x75, 0x6c, 0x3b, 0x66, 0x75, 0x6e, 0x63, 0x74, 0x69,
  0x6f, 0x6e, 0x61, 0x6c, 0x5f, 0x31, 0x2f, 0x64, 0x65, 0x6e, 0x73, 0x65,
  0x5f, 0x34, 0x5f, 0x31, 0x2f, 0x52, 0x65, 0x6c, 0x75, 0x3b, 0x66, 0x75,
  0x6e, 0x63, 0x74, 0x69, 0x6f, 0x6e, 0x61, 0x6c, 0x5f, 0x31, 0x2f, 0x64,
  0x65, 0x6e, 0x73, 0x65, 0x5f, 0x34, 0x5f, 0x31, 0x2f, 0x42, 0x69, 0x61,
  0x73, 0x41, 0x64, 0x64, 0x00, 0x00, 0x00, 0x00, 0x03, 0x00, 0x00, 0x00,
  0x01, 0x00, 0x00, 0x00, 0x7d, 0x00, 0x00, 0x00, 0x18, 0x00, 0x00, 0x00,
  0x3e, 0xf4, 0xff, 0xff, 0x00, 0x00, 0x00, 0x01, 0x14, 0x00, 0x00, 0x00,
  0x20, 0x00, 0x00, 0x00, 0x20, 0x00, 0x00, 0x00, 0x21, 0x00, 0x00, 0x00,
  0x40, 0x00, 0x00, 0x00, 0x03, 0x00, 0x00, 0x00, 0xff, 0xff, 0xff, 0xff,
  0x7d, 0x00, 0x00, 0x00, 0x20, 0x00, 0x00, 0x00, 0x28, 0xf4, 0xff, 0xff,
  0x21, 0x00, 0x00, 0x00, 0x66, 0x75, 0x6e, 0x63, 0x74, 0x69, 0x6f, 0x6e,
  0x61, 0x6c, 0x5f, 0x31, 0x2f, 0x63, 0x6f, 0x6e, 0x63, 0x61, 0x74, 0x65,
  0x6e, 0x61, 0x74, 0x65, 0x5f, 0x31, 0x2f, 0x63, 0x6f, 0x6e, 0x63, 0x61,
  0x74, 0x00, 0x00, 0x00, 0x03, 0x00, 0x00, 0x00, 0x01, 0x00, 0x00, 0x00,
  0x7d, 0x00, 0x00, 0x00, 0x20, 0x00, 0x00, 0x00, 0xa6, 0xf4, 0xff, 0xff,
  0x00, 0x00, 0x00, 0x01, 0x14, 0x00, 0x00, 0x00, 0x20, 0x00, 0x00, 0x00,
  0x20, 0x00, 0x00, 0x00, 0x20, 0x00, 0x00, 0x00, 0x78, 0x00, 0x00, 0x00,
  0x03, 0x00, 0x00, 0x00, 0xff, 0xff, 0xff, 0xff, 0x7d, 0x00, 0x00, 0x00,
  0x10, 0x00, 0x00, 0x00, 0x90, 0xf4, 0xff, 0xff, 0x58, 0x00, 0x00, 0x00,
  0x66, 0x75, 0x6e, 0x63, 0x74, 0x69, 0x6f, 0x6e, 0x61, 0x6c, 0x5f, 0x31,
  0x2f, 0x64, 0x65, 0x6e, 0x73, 0x65, 0x5f, 0x31, 0x5f, 0x32, 0x2f, 0x4d,
  0x61, 0x74, 0x4d, 0x75, 0x6c, 0x3b, 0x66, 0x75, 0x6e, 0x63, 0x74, 0x69,
  0x6f, 0x6e, 0x61, 0x6c, 0x5f, 0x31, 0x2f, 0x64, 0x65, 0x6e, 0x73, 0x65,
  0x5f, 0x31, 0x5f, 0x32, 0x2f, 0x52, 0x65, 0x6c, 0x75, 0x3b, 0x66, 0x75,
  0x6e, 0x63, 0x74, 0x69, 0x6f, 0x6e, 0x61, 0x6c, 0x5f, 0x31, 0x2f, 0x64,
  0x65, 0x6e, 0x73, 0x65, 0x5f, 0x31, 0x5f, 0x32, 0x2f, 0x42, 0x69, 0x61,
  0x73, 0x41, 0x64, 0x64, 0x00, 0x00, 0x00, 0x00, 0x03, 0x00, 0x00, 0x00,
  0x01, 0x00, 0x00, 0x00, 0x7d, 0x00, 0x00, 0x00, 0x10, 0x00, 0x00, 0x00,
  0x46, 0xf5, 0xff, 0xff, 0x00, 0x00, 0x00, 0x01, 0x14, 0x00, 0x00, 0x00,
  0x20, 0x00, 0x00, 0x00, 0x20, 0x00, 0x00, 0x00, 0x1f, 0x00, 0x00, 0x00,
  0x70, 0x00, 0x00, 0x00, 0x03, 0x00, 0x00, 0x00, 0xff, 0xff, 0xff, 0xff,
  0x7d, 0x00, 0x00, 0x00, 0x20, 0x00, 0x00, 0x00, 0x30, 0xf5, 0xff, 0xff,
  0x52, 0x00, 0x00, 0x00, 0x66, 0x75, 0x6e, 0x63, 0x74, 0x69, 0x6f, 0x6e,
  0x61, 0x6c, 0x5f, 0x31, 0x2f, 0x64, 0x65, 0x6e, 0x73, 0x65, 0x5f, 0x31,
  0x2f, 0x4d, 0x61, 0x74, 0x4d, 0x75, 0x6c, 0x3b, 0x66, 0x75, 0x6e, 0x63,
  0x74, 0x69, 0x6f, 0x6e, 0x61, 0x6c, 0x5f, 0x31, 0x2f, 0x64, 0x65, 0x6e,
  0x73, 0x65, 0x5f, 0x31, 0x2f, 0x52, 0x65, 0x6c, 0x75, 0x3b, 0x66, 0x75,
  0x6e, 0x63, 0x74, 0x69, 0x6f, 0x6e, 0x61, 0x6c, 0x5f, 0x31, 0x2f, 0x64,
  0x65, 0x6e, 0x73, 0x65, 0x5f, 0x31, 0x2f, 0x42, 0x69, 0x61, 0x73, 0x41,
  0x64, 0x64, 0x00, 0x00, 0x03, 0x00, 0x00, 0x00, 0x01, 0x00, 0x00, 0x00,
  0x7d, 0x00, 0x00, 0x00, 0x20, 0x00, 0x00, 0x00, 0xde, 0xf5, 0xff, 0xff,
  0x00, 0x00, 0x00, 0x01, 0x14, 0x00, 0x00, 0x00, 0x20, 0x00, 0x00, 0x00,
  0x20, 0x00, 0x00, 0x00, 0x1e, 0x00, 0x00, 0x00, 0x4c, 0x00, 0x00, 0x00,
  0x03, 0x00, 0x00, 0x00, 0xff, 0xff, 0xff, 0xff, 0x7d, 0x00, 0x00, 0x00,
  0x10, 0x00, 0x00, 0x00, 0xc8, 0xf5, 0xff, 0xff, 0x2d, 0x00, 0x00, 0x00,
  0x66, 0x75, 0x6e, 0x63, 0x74, 0x69, 0x6f, 0x6e, 0x61, 0x6c, 0x5f, 0x31,
  0x2f, 0x75, 0x70, 0x5f, 0x73, 0x61, 0x6d, 0x70, 0x6c, 0x69, 0x6e, 0x67,
  0x31, 0x64, 0x5f, 0x31, 0x2f, 0x52, 0x65, 0x70, 0x65, 0x61, 0x74, 0x2f,
  0x52, 0x65, 0x73, 0x68, 0x61, 0x70, 0x65, 0x5f, 0x31, 0x00, 0x00, 0x00,
  0x03, 0x00, 0x00, 0x00, 0x01, 0x00, 0x00, 0x00, 0x7d, 0x00, 0x00, 0x00,
  0x10, 0x00, 0x00, 0x00, 0xa6, 0xf6, 0xff, 0xff, 0x00, 0x00, 0x00, 0x01,
  0x14, 0x00, 0x00, 0x00, 0x14, 0x00, 0x00, 0x00, 0x1d, 0x00, 0x00, 0x00,
  0x00, 0x00, 0x00, 0x02, 0x38, 0x00, 0x00, 0x00, 0x2c, 0xf6, 0xff, 0xff,
  0x2a, 0x00, 0x00, 0x00, 0x66, 0x75, 0x6e, 0x63, 0x74, 0x69, 0x6f, 0x6e,
  0x61, 0x6c, 0x5f, 0x31, 0x2f, 0x75, 0x70, 0x5f, 0x73, 0x61, 0x6d, 0x70,
  0x6c, 0x69, 0x6e, 0x67, 0x31, 0x64, 0x5f, 0x31, 0x2f, 0x52, 0x65, 0x70,
  0x65, 0x61, 0x74, 0x2f, 0x63, 0x6f, 0x6e, 0x63, 0x61, 0x74, 0x00, 0x00,
  0x01, 0x00, 0x00, 0x00, 0x03, 0x00, 0x00, 0x00, 0xfe, 0xf6, 0xff, 0xff,
  0x00, 0x00, 0x00, 0x01, 0x14, 0x00, 0x00, 0x00, 0x14, 0x00, 0x00, 0x00,
  0x1c, 0x00, 0x00, 0x00, 0x00, 0x00, 0x00, 0x02, 0x40, 0x00, 0x00, 0x00,
  0x84, 0xf6, 0xff, 0xff, 0x31, 0x00, 0x00, 0x00, 0x66, 0x75, 0x6e, 0x63,
  0x74, 0x69, 0x6f, 0x6e, 0x61, 0x6c, 0x5f, 0x31, 0x2f, 0x75, 0x70, 0x5f,
  0x73, 0x61, 0x6d, 0x70, 0x6c, 0x69, 0x6e, 0x67, 0x31, 0x64, 0x5f, 0x31,
  0x2f, 0x52, 0x65, 0x70, 0x65, 0x61, 0x74, 0x2f, 0x73, 0x74, 0x72, 0x69,
  0x64, 0x65, 0x64, 0x5f, 0x73, 0x6c, 0x69, 0x63, 0x65, 0x00, 0x00, 0x00,
  0x01, 0x00, 0x00, 0x00, 0x01, 0x00, 0x00, 0x00, 0x5e, 0xf7, 0xff, 0xff,
  0x00, 0x00, 0x00, 0x01, 0x14, 0x00, 0x00, 0x00, 0x14, 0x00, 0x00, 0x00,
  0x1b, 0x00, 0x00, 0x00, 0x00, 0x00, 0x00, 0x02, 0x38, 0x00, 0x00, 0x00,
  0xe4, 0xf6, 0xff, 0xff, 0x29, 0x00, 0x00, 0x00, 0x66, 0x75, 0x6e, 0x63,
  0x74, 0x69, 0x6f, 0x6e, 0x61, 0x6c, 0x5f, 0x31, 0x2f, 0x75, 0x70, 0x5f,
  0x73, 0x61, 0x6d, 0x70, 0x6c, 0x69, 0x6e, 0x67, 0x31, 0x64, 0x5f, 0x31,
  0x2f, 0x52, 0x65, 0x70, 0x65, 0x61, 0x74, 0x2f, 0x53, 0x68, 0x61, 0x70,
  0x65, 0x00, 0x00, 0x00, 0x01, 0x00, 0x00, 0x00, 0x03, 0x00, 0x00, 0x00,
  0x62, 0xf7, 0xff, 0xff, 0x00, 0x00, 0x00, 0x01, 0x14, 0x00, 0x00, 0x00,
  0x24, 0x00, 0x00, 0x00, 0x24, 0x00, 0x00, 0x00, 0x1a, 0x00, 0x00, 0x00,
  0x50, 0x00, 0x00, 0x00, 0x04, 0x00, 0x00, 0x00, 0xff, 0xff, 0xff, 0xff,
  0x7d, 0x00, 0x00, 0x00, 0x01, 0x00, 0x00, 0x00, 0x10, 0x00, 0x00, 0x00,
  0x50, 0xf7, 0xff, 0xff, 0x2e, 0x00, 0x00, 0x00, 0x66, 0x75, 0x6e, 0x63,
  0x74, 0x69, 0x6f, 0x6e, 0x61, 0x6c, 0x5f, 0x31, 0x2f, 0x75, 0x70, 0x5f,
  0x73, 0x61, 0x6d, 0x70, 0x6c, 0x69, 0x6e, 0x67, 0x31, 0x64, 0x5f, 0x31,
  0x2f, 0x52, 0x65, 0x70, 0x65, 0x61, 0x74, 0x2f, 0x45, 0x78, 0x70, 0x61,
  0x6e, 0x64, 0x44, 0x69, 0x6d, 0x73, 0x00, 0x00, 0x04, 0x00, 0x00, 0x00,
  0x01, 0x00, 0x00, 0x00, 0x7d, 0x00, 0x00, 0x00, 0x01, 0x00, 0x00, 0x00,
  0x10, 0x00, 0x00, 0x00, 0xde, 0xf7, 0xff, 0xff, 0x00, 0x00, 0x00, 0x01,
  0x14, 0x00, 0x00, 0x00, 0x20, 0x00, 0x00, 0x00, 0x20, 0x00, 0x00, 0x00,
  0x19, 0x00, 0x00, 0x00, 0x78, 0x00, 0x00, 0x00, 0x03, 0x00, 0x00, 0x00,
  0xff, 0xff, 0xff, 0xff, 0x7d, 0x00, 0x00, 0x00, 0x10, 0x00, 0x00, 0x00,
  0xc8, 0xf7, 0xff, 0xff, 0x58, 0x00, 0x00, 0x00, 0x66, 0x75, 0x6e, 0x63,
  0x74, 0x69, 0x6f, 0x6e, 0x61, 0x6c, 0x5f, 0x31, 0x2f, 0x64, 0x65, 0x6e,
  0x73, 0x65, 0x5f, 0x33, 0x5f, 0x31, 0x2f, 0x4d, 0x61, 0x74, 0x4d, 0x75,
  0x6c, 0x3b, 0x66, 0x75, 0x6e, 0x63, 0x74, 0x69, 0x6f, 0x6e, 0x61, 0x6c,
  0x5f, 0x31, 0x2f, 0x64, 0x65, 0x6e, 0x73, 0x65, 0x5f, 0x33, 0x5f, 0x31,
  0x2f, 0x52, 0x65, 0x6c, 0x75, 0x3b, 0x66, 0x75, 0x6e, 0x63, 0x74, 0x69,
  0x6f, 0x6e, 0x61, 0x6c, 0x5f, 0x31, 0x2f, 0x64, 0x65, 0x6e, 0x73, 0x65,
  0x5f, 0x33, 0x5f, 0x31, 0x2f, 0x42, 0x69, 0x61, 0x73, 0x41, 0x64, 0x64,
  0x00, 0x00, 0x00, 0x00, 0x03, 0x00, 0x00, 0x00, 0x01, 0x00, 0x00, 0x00,
  0x7d, 0x00, 0x00, 0x00, 0x10, 0x00, 0x00, 0x00, 0x7e, 0xf8, 0xff, 0xff,
  0x00, 0x00, 0x00, 0x01, 0x14, 0x00, 0x00, 0x00, 0x20, 0x00, 0x00, 0x00,
  0x20, 0x00, 0x00, 0x00, 0x18, 0x00, 0x00, 0x00, 0x78, 0x00, 0x00, 0x00,
  0x03, 0x00, 0x00, 0x00, 0xff, 0xff, 0xff, 0xff, 0x7d, 0x00, 0x00, 0x00,
  0x20, 0x00, 0x00, 0x00, 0x68, 0xf8, 0xff, 0xff, 0x58, 0x00, 0x00, 0x00,
  0x66, 0x75, 0x6e, 0x63, 0x74, 0x69, 0x6f, 0x6e, 0x61, 0x6c, 0x5f, 0x31,
  0x2f, 0x64, 0x65, 0x6e, 0x73, 0x65, 0x5f, 0x32, 0x5f, 0x31, 0x2f, 0x4d,
  0x61, 0x74, 0x4d, 0x75, 0x6c, 0x3b, 0x66, 0x75, 0x6e, 0x63, 0x74, 0x69,
  0x6f, 0x6e, 0x61, 0x6c, 0x5f, 0x31, 0x2f, 0x64, 0x65, 0x6e, 0x73, 0x65,
  0x5f, 0x32, 0x5f, 0x31, 0x2f, 0x52, 0x65, 0x6c, 0x75, 0x3b, 0x66, 0x75,
  0x6e, 0x63, 0x74, 0x69, 0x6f, 0x6e, 0x61, 0x6c, 0x5f, 0x31, 0x2f, 0x64,
  0x65, 0x6e, 0x73, 0x65, 0x5f, 0x32, 0x5f, 0x31, 0x2f, 0x42, 0x69, 0x61,
  0x73, 0x41, 0x64, 0x64, 0x00, 0x00, 0x00, 0x00, 0x03, 0x00, 0x00, 0x00,
  0x01, 0x00, 0x00, 0x00, 0x7d, 0x00, 0x00, 0x00, 0x20, 0x00, 0x00, 0x00,
  0x1e, 0xf9, 0xff, 0xff, 0x00, 0x00, 0x00, 0x01, 0x14, 0x00, 0x00, 0x00,
  0x20, 0x00, 0x00, 0x00, 0x20, 0x00, 0x00, 0x00, 0x17, 0x00, 0x00, 0x00,
  0x50, 0x00, 0x00, 0x00, 0x03, 0x00, 0x00, 0x00, 0xff, 0xff, 0xff, 0xff,
  0x7d, 0x00, 0x00, 0x00, 0x06, 0x00, 0x00, 0x00, 0x08, 0xf9, 0xff, 0xff,
  0x32, 0x00, 0x00, 0x00, 0x66, 0x75, 0x6e, 0x63, 0x74, 0x69, 0x6f, 0x6e,
  0x61, 0x6c, 0x5f, 0x31, 0x2f, 0x61, 0x76, 0x65, 0x72, 0x61, 0x67, 0x65,
  0x5f, 0x70, 0x6f, 0x6f, 0x6c, 0x69, 0x6e, 0x67, 0x31, 0x64, 0x5f, 0x31,
  0x2f, 0x41, 0x76, 0x67, 0x50, 0x6f, 0x6f, 0x6c, 0x31, 0x44, 0x2f, 0x53,
  0x71, 0x75, 0x65, 0x65, 0x7a, 0x65, 0x00, 0x00, 0x03, 0x00, 0x00, 0x00,
  0x01, 0x00, 0x00, 0x00, 0x7d, 0x00, 0x00, 0x00, 0x06, 0x00, 0x00, 0x00,
  0x96, 0xf9, 0xff, 0xff, 0x00, 0x00, 0x00, 0x01, 0x14, 0x00, 0x00, 0x00,
  0x24, 0x00, 0x00, 0x00, 0x24, 0x00, 0x00, 0x00, 0x16, 0x00, 0x00, 0x00,
  0x4c, 0x00, 0x00, 0x00, 0x04, 0x00, 0x00, 0x00, 0xff, 0xff, 0xff, 0xff,
  0x01, 0x00, 0x00, 0x00, 0x7d, 0x00, 0x00, 0x00, 0x06, 0x00, 0x00, 0x00,
  0x84, 0xf9, 0xff, 0xff, 0x2a, 0x00, 0x00, 0x00, 0x66, 0x75, 0x6e, 0x63,
  0x74, 0x69, 0x6f, 0x6e, 0x61, 0x6c, 0x5f, 0x31, 0x2f, 0x61, 0x76, 0x65,
  0x72, 0x61, 0x67, 0x65, 0x5f, 0x70, 0x6f, 0x6f, 0x6c, 0x69, 0x6e, 0x67,
  0x31, 0x64, 0x5f, 0x31, 0x2f, 0x41, 0x76, 0x67, 0x50, 0x6f, 0x6f, 0x6c,
  0x31, 0x44, 0x00, 0x00, 0x04, 0x00, 0x00, 0x00, 0x01, 0x00, 0x00, 0x00,
  0x01, 0x00, 0x00, 0x00, 0x7d, 0x00, 0x00, 0x00, 0x06, 0x00, 0x00, 0x00,
  0x0e, 0xfa, 0xff, 0xff, 0x00, 0x00, 0x00, 0x01, 0x14, 0x00, 0x00, 0x00,
  0x24, 0x00, 0x00, 0x00, 0x24, 0x00, 0x00, 0x00, 0x15, 0x00, 0x00, 0x00,
  0x58, 0x00, 0x00, 0x00, 0x04, 0x00, 0x00, 0x00, 0xff, 0xff, 0xff, 0xff,
  0x01, 0x00, 0x00, 0x00, 0x7d, 0x00, 0x00, 0x00, 0x06, 0x00, 0x00, 0x00,
  0xfc, 0xf9, 0xff, 0xff, 0x35, 0x00, 0x00, 0x00, 0x66, 0x75, 0x6e, 0x63,
  0x74, 0x69, 0x6f, 0x6e, 0x61, 0x6c, 0x5f, 0x31, 0x2f, 0x61, 0x76, 0x65,
  0x72, 0x61, 0x67, 0x65, 0x5f, 0x70, 0x6f, 0x6f, 0x6c, 0x69, 0x6e, 0x67,
  0x31, 0x64, 0x5f, 0x31, 0x2f, 0x41, 0x76, 0x67, 0x50, 0x6f, 0x6f, 0x6c,
  0x31, 0x44, 0x2f, 0x45, 0x78, 0x70, 0x61, 0x6e, 0x64, 0x44, 0x69, 0x6d,
  0x73, 0x00, 0x00, 0x00, 0x04, 0x00, 0x00, 0x00, 0x01, 0x00, 0x00, 0x00,
  0x01, 0x00, 0x00, 0x00, 0x7d, 0x00, 0x00, 0x00, 0x06, 0x00, 0x00, 0x00,
  0x3a, 0xfb, 0xff, 0xff, 0x00, 0x00, 0x00, 0x01, 0x10, 0x00, 0x00, 0x00,
  0x10, 0x00, 0x00, 0x00, 0x14, 0x00, 0x00, 0x00, 0x3c, 0x00, 0x00, 0x00,
  0x68, 0xfa, 0xff, 0xff, 0x2d, 0x00, 0x00, 0x00, 0x66, 0x75, 0x6e, 0x63,
  0x74, 0x69, 0x6f, 0x6e, 0x61, 0x6c, 0x5f, 0x31, 0x2f, 0x64, 0x65, 0x6e,
  0x73, 0x65, 0x5f, 0x35, 0x5f, 0x31, 0x2f, 0x42, 0x69, 0x61, 0x73, 0x41,
  0x64, 0x64, 0x2f, 0x52, 0x65, 0x61, 0x64, 0x56, 0x61, 0x72, 0x69, 0x61,
  0x62, 0x6c, 0x65, 0x4f, 0x70, 0x00, 0x00, 0x00, 0x01, 0x00, 0x00, 0x00,
  0x0c, 0x00, 0x00, 0x00, 0x92, 0xfb, 0xff, 0xff, 0x00, 0x00, 0x00, 0x01,
  0x10, 0x00, 0x00, 0x00, 0x10, 0x00, 0x00, 0x00, 0x13, 0x00, 0x00, 0x00,
  0x3c, 0x00, 0x00, 0x00, 0xc0, 0xfa, 0xff, 0xff, 0x2d, 0x00, 0x00, 0x00,
  0x66, 0x75, 0x6e, 0x63, 0x74, 0x69, 0x6f, 0x6e, 0x61, 0x6c, 0x5f, 0x31,
  0x2f, 0x64, 0x65, 0x6e, 0x73, 0x65, 0x5f, 0x34, 0x5f, 0x31, 0x2f, 0x42,
  0x69, 0x61, 0x73, 0x41, 0x64, 0x64, 0x2f, 0x52, 0x65, 0x61, 0x64, 0x56,
  0x61, 0x72, 0x69, 0x61, 0x62, 0x6c, 0x65, 0x4f, 0x70, 0x00, 0x00, 0x00,
  0x01, 0x00, 0x00, 0x00, 0x18, 0x00, 0x00, 0x00, 0xea, 0xfb, 0xff, 0xff,
  0x00, 0x00, 0x00, 0x01, 0x10, 0x00, 0x00, 0x00, 0x10, 0x00, 0x00, 0x00,
  0x12, 0x00, 0x00, 0x00, 0x3c, 0x00, 0x00, 0x00, 0x18, 0xfb, 0xff, 0xff,
  0x2d, 0x00, 0x00, 0x00, 0x66, 0x75, 0x6e, 0x63, 0x74, 0x69, 0x6f, 0x6e,
  0x61, 0x6c, 0x5f, 0x31, 0x2f, 0x64, 0x65, 0x6e, 0x73, 0x65, 0x5f, 0x33,
  0x5f, 0x31, 0x2f, 0x42, 0x69, 0x61, 0x73, 0x41, 0x64, 0x64, 0x2f, 0x52,
  0x65, 0x61, 0x64, 0x56, 0x61, 0x72, 0x69, 0x61, 0x62, 0x6c, 0x65, 0x4f,
  0x70, 0x00, 0x00, 0x00, 0x01, 0x00, 0x00, 0x00, 0x10, 0x00, 0x00, 0x00,
  0x42, 0xfc, 0xff, 0xff, 0x00, 0x00, 0x00, 0x01, 0x10, 0x00, 0x00, 0x00,
  0x10, 0x00, 0x00, 0x00, 0x11, 0x00, 0x00, 0x00, 0x3c, 0x00, 0x00, 0x00,
  0x70, 0xfb, 0xff, 0xff, 0x2d, 0x00, 0x00, 0x00, 0x66, 0x75, 0x6e, 0x63,
  0x74, 0x69, 0x6f, 0x6e, 0x61, 0x6c, 0x5f, 0x31, 0x2f, 0x64, 0x65, 0x6e,
  0x73, 0x65, 0x5f, 0x32, 0x5f, 0x31, 0x2f, 0x42, 0x69, 0x61, 0x73, 0x41,
  0x64, 0x64, 0x2f, 0x52, 0x65, 0x61, 0x64, 0x56, 0x61, 0x72, 0x69, 0x61,
  0x62, 0x6c, 0x65, 0x4f, 0x70, 0x00, 0x00, 0x00, 0x01, 0x00, 0x00, 0x00,
  0x20, 0x00, 0x00, 0x00, 0x9a, 0xfc, 0xff, 0xff, 0x00, 0x00, 0x00, 0x01,
  0x10, 0x00, 0x00, 0x00, 0x10, 0x00, 0x00, 0x00, 0x10, 0x00, 0x00, 0x00,
  0x38, 0x00, 0x00, 0x00, 0xc8, 0xfb, 0xff, 0xff, 0x2b, 0x00, 0x00, 0x00,
  0x66, 0x75, 0x6e, 0x63, 0x74, 0x69, 0x6f, 0x6e, 0x61, 0x6c, 0x5f, 0x31,
  0x2f, 0x64, 0x65, 0x6e, 0x73, 0x65, 0x5f, 0x31, 0x2f, 0x42, 0x69, 0x61,
  0x73, 0x41, 0x64, 0x64, 0x2f, 0x52, 0x65, 0x61, 0x64, 0x56, 0x61, 0x72,
  0x69, 0x61, 0x62, 0x6c, 0x65, 0x4f, 0x70, 0x00, 0x01, 0x00, 0x00, 0x00,
  0x20, 0x00, 0x00, 0x00, 0xee, 0xfc, 0xff, 0xff, 0x00, 0x00, 0x00, 0x01,
  0x10, 0x00, 0x00, 0x00, 0x10, 0x00, 0x00, 0x00, 0x0f, 0x00, 0x00, 0x00,
  0x3c, 0x00, 0x00, 0x00, 0x1c, 0xfc, 0xff, 0xff, 0x2d, 0x00, 0x00, 0x00,
  0x66, 0x75, 0x6e, 0x63, 0x74, 0x69, 0x6f, 0x6e, 0x61, 0x6c, 0x5f, 0x31,
  0x2f, 0x64, 0x65, 0x6e, 0x73, 0x65, 0x5f, 0x31, 0x5f, 0x32, 0x2f, 0x42,
  0x69, 0x61, 0x73, 0x41, 0x64, 0x64, 0x2f, 0x52, 0x65, 0x61, 0x64, 0x56,
  0x61, 0x72, 0x69, 0x61, 0x62, 0x6c, 0x65, 0x4f, 0x70, 0x00, 0x00, 0x00,
  0x01, 0x00, 0x00, 0x00, 0x10, 0x00, 0x00, 0x00, 0xf2, 0xfc, 0xff, 0xff,
  0x00, 0x00, 0x00, 0x01, 0x14, 0x00, 0x00, 0x00, 0x14, 0x00, 0x00, 0x00,
  0x0e, 0x00, 0x00, 0x00, 0x00, 0x00, 0x00, 0x02, 0x40, 0x00, 0x00, 0x00,
  0x78, 0xfc, 0xff, 0xff, 0x32, 0x00, 0x00, 0x00, 0x66, 0x75, 0x6e, 0x63,
  0x74, 0x69, 0x6f, 0x6e, 0x61, 0x6c, 0x5f, 0x31, 0x2f, 0x75, 0x70, 0x5f,
  0x73, 0x61, 0x6d, 0x70, 0x6c, 0x69, 0x6e, 0x67, 0x31, 0x64, 0x5f, 0x31,
  0x2f, 0x52, 0x65, 0x70, 0x65, 0x61, 0x74, 0x2f, 0x45, 0x78, 0x70, 0x61,
  0x6e, 0x64, 0x44, 0x69, 0x6d, 0x73, 0x2f, 0x64, 0x69, 0x6d, 0x00, 0x00,
  0x00, 0x00, 0x00, 0x00, 0x4e, 0xfd, 0xff, 0xff, 0x00, 0x00, 0x00, 0x01,
  0x14, 0x00, 0x00, 0x00, 0x14, 0x00, 0x00, 0x00, 0x0b, 0x00, 0x00, 0x00,
  0x00, 0x00, 0x00, 0x02, 0x20, 0x00, 0x00, 0x00, 0xd4, 0xfc, 0xff, 0xff,
  0x10, 0x00, 0x00, 0x00, 0x61, 0x72, 0x69, 0x74, 0x68, 0x2e, 0x63, 0x6f,
  0x6e, 0x73, 0x74, 0x61, 0x6e, 0x74, 0x31, 0x31, 0x00, 0x00, 0x00, 0x00,
  0x00, 0x00, 0x00, 0x00, 0x8a, 0xfd, 0xff, 0xff, 0x00, 0x00, 0x00, 0x01,
  0x14, 0x00, 0x00, 0x00, 0x14, 0x00, 0x00, 0x00, 0x0c, 0x00, 0x00, 0x00,
  0x00, 0x00, 0x00, 0x02, 0x20, 0x00, 0x00, 0x00, 0x10, 0xfd, 0xff, 0xff,
  0x10, 0x00, 0x00, 0x00, 0x61, 0x72, 0x69, 0x74, 0x68, 0x2e, 0x63, 0x6f,
  0x6e, 0x73, 0x74, 0x61, 0x6e, 0x74, 0x31, 0x30, 0x00, 0x00, 0x00, 0x00,
  0x01, 0x00, 0x00, 0x00, 0x01, 0x00, 0x00, 0x00, 0xca, 0xfd, 0xff, 0xff,
  0x00, 0x00, 0x00, 0x01, 0x14, 0x00, 0x00, 0x00, 0x14, 0x00, 0x00, 0x00,
  0x0b, 0x00, 0x00, 0x00, 0x00, 0x00, 0x00, 0x02, 0x1c, 0x00, 0x00, 0x00,
  0x50, 0xfd, 0xff, 0xff, 0x0f, 0x00, 0x00, 0x00, 0x61, 0x72, 0x69, 0x74,
  0x68, 0x2e, 0x63, 0x6f, 0x6e, 0x73, 0x74, 0x61, 0x6e, 0x74, 0x39, 0x00,
  0x01, 0x00, 0x00, 0x00, 0x01, 0x00, 0x00, 0x00, 0x06, 0xfe, 0xff, 0xff,
  0x00, 0x00, 0x00, 0x01, 0x14, 0x00, 0x00, 0x00, 0x14, 0x00, 0x00, 0x00,
  0x0a, 0x00, 0x00, 0x00, 0x00, 0x00, 0x00, 0x02, 0x1c, 0x00, 0x00, 0x00,
  0x8c, 0xfd, 0xff, 0xff, 0x0f, 0x00, 0x00, 0x00, 0x61, 0x72, 0x69, 0x74,
  0x68, 0x2e, 0x63, 0x6f, 0x6e, 0x73, 0x74, 0x61, 0x6e, 0x74, 0x38, 0x00,
  0x01, 0x00, 0x00, 0x00, 0x01, 0x00, 0x00, 0x00, 0x42, 0xfe, 0xff, 0xff,
  0x00, 0x00, 0x00, 0x01, 0x14, 0x00, 0x00, 0x00, 0x14, 0x00, 0x00, 0x00,
  0x09, 0x00, 0x00, 0x00, 0x00, 0x00, 0x00, 0x02, 0x1c, 0x00, 0x00, 0x00,
  0xc8, 0xfd, 0xff, 0xff, 0x0f, 0x00, 0x00, 0x00, 0x61, 0x72, 0x69, 0x74,
  0x68, 0x2e, 0x63, 0x6f, 0x6e, 0x73, 0x74, 0x61, 0x6e, 0x74, 0x37, 0x00,
  0x01, 0x00, 0x00, 0x00, 0x01, 0x00, 0x00, 0x00, 0xd2, 0xfe, 0xff, 0xff,
  0x00, 0x00, 0x00, 0x01, 0x10, 0x00, 0x00, 0x00, 0x10, 0x00, 0x00, 0x00,
  0x08, 0x00, 0x00, 0x00, 0x1c, 0x00, 0x00, 0x00, 0x00, 0xfe, 0xff, 0xff,
  0x0f, 0x00, 0x00, 0x00, 0x61, 0x72, 0x69, 0x74, 0x68, 0x2e, 0x63, 0x6f,
  0x6e, 0x73, 0x74, 0x61, 0x6e, 0x74, 0x36, 0x00, 0x02, 0x00, 0x00, 0x00,
  0x0c, 0x00, 0x00, 0x00, 0x18, 0x00, 0x00, 0x00, 0x0e, 0xff, 0xff, 0xff,
  0x00, 0x00, 0x00, 0x01, 0x10, 0x00, 0x00, 0x00, 0x10, 0x00, 0x00, 0x00,
  0x07, 0x00, 0x00, 0x00, 0x1c, 0x00, 0x00, 0x00, 0x3c, 0xfe, 0xff, 0xff,
  0x0f, 0x00, 0x00, 0x00, 0x61, 0x72, 0x69, 0x74, 0x68, 0x2e, 0x63, 0x6f,
  0x6e, 0x73, 0x74, 0x61, 0x6e, 0x74, 0x35, 0x00, 0x02, 0x00, 0x00, 0x00,
  0x20, 0x00, 0x00, 0x00, 0x06, 0x00, 0x00, 0x00, 0x4a, 0xff, 0xff, 0xff,
  0x00, 0x00, 0x00, 0x01, 0x10, 0x00, 0x00, 0x00, 0x10, 0x00, 0x00, 0x00,
  0x06, 0x00, 0x00, 0x00, 0x1c, 0x00, 0x00, 0x00, 0x78, 0xfe, 0xff, 0xff,
  0x0f, 0x00, 0x00, 0x00, 0x61, 0x72, 0x69, 0x74, 0x68, 0x2e, 0x63, 0x6f,
  0x6e, 0x73, 0x74, 0x61, 0x6e, 0x74, 0x34, 0x00, 0x02, 0x00, 0x00, 0x00,
  0x10, 0x00, 0x00, 0x00, 0x20, 0x00, 0x00, 0x00, 0x86, 0xff, 0xff, 0xff,
  0x00, 0x00, 0x00, 0x01, 0x10, 0x00, 0x00, 0x00, 0x10, 0x00, 0x00, 0x00,
  0x05, 0x00, 0x00, 0x00, 0x1c, 0x00, 0x00, 0x00, 0xb4, 0xfe, 0xff, 0xff,
  0x0f, 0x00, 0x00, 0x00, 0x61, 0x72, 0x69, 0x74, 0x68, 0x2e, 0x63, 0x6f,
  0x6e, 0x73, 0x74, 0x61, 0x6e, 0x74, 0x33, 0x00, 0x02, 0x00, 0x00, 0x00,
  0x20, 0x00, 0x00, 0x00, 0x06, 0x00, 0x00, 0x00, 0xc2, 0xff, 0xff, 0xff,
  0x00, 0x00, 0x00, 0x01, 0x10, 0x00, 0x00, 0x00, 0x10, 0x00, 0x00, 0x00,
  0x04, 0x00, 0x00, 0x00, 0x1c, 0x00, 0x00, 0x00, 0xf0, 0xfe, 0xff, 0xff,
  0x0f, 0x00, 0x00, 0x00, 0x61, 0x72, 0x69, 0x74, 0x68, 0x2e, 0x63, 0x6f,
  0x6e, 0x73, 0x74, 0x61, 0x6e, 0x74, 0x32, 0x00, 0x02, 0x00, 0x00, 0x00,
  0x10, 0x00, 0x00, 0x00, 0x20, 0x00, 0x00, 0x00, 0x00, 0x00, 0x16, 0x00,
  0x18, 0x00, 0x14, 0x00, 0x00, 0x00, 0x10, 0x00, 0x0c, 0x00, 0x08, 0x00,
  0x00, 0x00, 0x00, 0x00, 0x00, 0x00, 0x07, 0x00, 0x16, 0x00, 0x00, 0x00,
  0x00, 0x00, 0x00, 0x01, 0x10, 0x00, 0x00, 0x00, 0x10, 0x00, 0x00, 0x00,
  0x03, 0x00, 0x00, 0x00, 0x1c, 0x00, 0x00, 0x00, 0x44, 0xff, 0xff, 0xff,
  0x0f, 0x00, 0x00, 0x00, 0x61, 0x72, 0x69, 0x74, 0x68, 0x2e, 0x63, 0x6f,
  0x6e, 0x73, 0x74, 0x61, 0x6e, 0x74, 0x31, 0x00, 0x02, 0x00, 0x00, 0x00,
  0x18, 0x00, 0x00, 0x00, 0x20, 0x00, 0x00, 0x00, 0x00, 0x00, 0x16, 0x00,
  0x1c, 0x00, 0x18, 0x00, 0x17, 0x00, 0x10, 0x00, 0x0c, 0x00, 0x08, 0x00,
  0x00, 0x00, 0x00, 0x00, 0x00, 0x00, 0x07, 0x00, 0x16, 0x00, 0x00, 0x00,
  0x00, 0x00, 0x00, 0x01, 0x14, 0x00, 0x00, 0x00, 0x14, 0x00, 0x00, 0x00,
  0x02, 0x00, 0x00, 0x00, 0x00, 0x00, 0x00, 0x02, 0x1c, 0x00, 0x00, 0x00,
  0x9c, 0xff, 0xff, 0xff, 0x0e, 0x00, 0x00, 0x00, 0x61, 0x72, 0x69, 0x74,
  0x68, 0x2e, 0x63, 0x6f, 0x6e, 0x73, 0x74, 0x61, 0x6e, 0x74, 0x00, 0x00,
  0x01, 0x00, 0x00, 0x00, 0x03, 0x00, 0x00, 0x00, 0x00, 0x00, 0x16, 0x00,
  0x1c, 0x00, 0x18, 0x00, 0x00, 0x00, 0x14, 0x00, 0x10, 0x00, 0x0c, 0x00,
  0x00, 0x00, 0x00, 0x00, 0x08, 0x00, 0x07, 0x00, 0x16, 0x00, 0x00, 0x00,
  0x00, 0x00, 0x00, 0x01, 0x14, 0x00, 0x00, 0x00, 0x24, 0x00, 0x00, 0x00,
  0x24, 0x00, 0x00, 0x00, 0x01, 0x00, 0x00, 0x00, 0x40, 0x00, 0x00, 0x00,
  0x03, 0x00, 0x00, 0x00, 0xff, 0xff, 0xff, 0xff, 0x7d, 0x00, 0x00, 0x00,
  0x06, 0x00, 0x00, 0x00, 0x04, 0x00, 0x04, 0x00, 0x04, 0x00, 0x00, 0x00,
  0x1e, 0x00, 0x00, 0x00, 0x73, 0x65, 0x72, 0x76, 0x69, 0x6e, 0x67, 0x5f,
  0x64, 0x65, 0x66, 0x61, 0x75, 0x6c, 0x74, 0x5f, 0x6b, 0x65, 0x72, 0x61,
  0x73, 0x5f, 0x74, 0x65, 0x6e, 0x73, 0x6f, 0x72, 0x3a, 0x30, 0x00, 0x00,
  0x03, 0x00, 0x00, 0x00, 0x01, 0x00, 0x00, 0x00, 0x7d, 0x00, 0x00, 0x00,
  0x06, 0x00, 0x00, 0x00, 0x09, 0x00, 0x00, 0x00, 0xa0, 0x00, 0x00, 0x00,
  0x84, 0x00, 0x00, 0x00, 0x74, 0x00, 0x00, 0x00, 0x60, 0x00, 0x00, 0x00,
  0x44, 0x00, 0x00, 0x00, 0x34, 0x00, 0x00, 0x00, 0x24, 0x00, 0x00, 0x00,
