unsigned char Handshake_0603_2044_tflite[] = {
  0x1c, 0x00, 0x00, 0x00, 0x54, 0x46, 0x4c, 0x33, 0x14, 0x00, 0x20, 0x00,
  0x1c, 0x00, 0x18, 0x00, 0x14, 0x00, 0x10, 0x00, 0x0c, 0x00, 0x00, 0x00,
  0x08, 0x00, 0x04, 0x00, 0x14, 0x00, 0x00, 0x00, 0x1c, 0x00, 0x00, 0x00,
  0x98, 0x00, 0x00, 0x00, 0xf0, 0x00, 0x00, 0x00, 0x98, 0x14, 0x00, 0x00,
  0xa8, 0x14, 0x00, 0x00, 0xa0, 0x1b, 0x00, 0x00, 0x03, 0x00, 0x00, 0x00,
  0x01, 0x00, 0x00, 0x00, 0x10, 0x00, 0x00, 0x00, 0x00, 0x00, 0x0a, 0x00,
  0x10, 0x00, 0x0c, 0x00, 0x08, 0x00, 0x04, 0x00, 0x0a, 0x00, 0x00, 0x00,
  0x0c, 0x00, 0x00, 0x00, 0x1c, 0x00, 0x00, 0x00, 0x3c, 0x00, 0x00, 0x00,
  0x0f, 0x00, 0x00, 0x00, 0x73, 0x65, 0x72, 0x76, 0x69, 0x6e, 0x67, 0x5f,
  0x64, 0x65, 0x66, 0x61, 0x75, 0x6c, 0x74, 0x00, 0x01, 0x00, 0x00, 0x00,
  0x04, 0x00, 0x00, 0x00, 0x90, 0xff, 0xff, 0xff, 0x0c, 0x00, 0x00, 0x00,
  0x04, 0x00, 0x00, 0x00, 0x08, 0x00, 0x00, 0x00, 0x6f, 0x75, 0x74, 0x70,
  0x75, 0x74, 0x5f, 0x30, 0x00, 0x00, 0x00, 0x00, 0x01, 0x00, 0x00, 0x00,
  0x04, 0x00, 0x00, 0x00, 0x5a, 0xeb, 0xff, 0xff, 0x04, 0x00, 0x00, 0x00,
  0x0c, 0x00, 0x00, 0x00, 0x6b, 0x65, 0x72, 0x61, 0x73, 0x5f, 0x74, 0x65,
  0x6e, 0x73, 0x6f, 0x72, 0x00, 0x00, 0x00, 0x00, 0x02, 0x00, 0x00, 0x00,
  0x34, 0x00, 0x00, 0x00, 0x04, 0x00, 0x00, 0x00, 0xdc, 0xff, 0xff, 0xff,
  0x0f, 0x00, 0x00, 0x00, 0x04, 0x00, 0x00, 0x00, 0x13, 0x00, 0x00, 0x00,
  0x43, 0x4f, 0x4e, 0x56, 0x45, 0x52, 0x53, 0x49, 0x4f, 0x4e, 0x5f, 0x4d,
  0x45, 0x54, 0x41, 0x44, 0x41, 0x54, 0x41, 0x00, 0x08, 0x00, 0x0c, 0x00,
  0x08, 0x00, 0x04, 0x00, 0x08, 0x00, 0x00, 0x00, 0x0e, 0x00, 0x00, 0x00,
  0x04, 0x00, 0x00, 0x00, 0x13, 0x00, 0x00, 0x00, 0x6d, 0x69, 0x6e, 0x5f,
  0x72, 0x75, 0x6e, 0x74, 0x69, 0x6d, 0x65, 0x5f, 0x76, 0x65, 0x72, 0x73,
  0x69, 0x6f, 0x6e, 0x00, 0x10, 0x00, 0x00, 0x00, 0xa4, 0x13, 0x00, 0x00,
  0x9c, 0x13, 0x00, 0x00, 0xd4, 0x07, 0x00, 0x00, 0xd4, 0x06, 0x00, 0x00,
  0xb4, 0x06, 0x00, 0x00, 0xa0, 0x06, 0x00, 0x00, 0x54, 0x06, 0x00, 0x00,
  0x7c, 0x05, 0x00, 0x00, 0xbc, 0x00, 0x00, 0x00, 0xb4, 0x00, 0x00, 0x00,
  0xac, 0x00, 0x00, 0x00, 0xa4, 0x00, 0x00, 0x00, 0x9c, 0x00, 0x00, 0x00,
  0x94, 0x00, 0x00, 0x00, 0x74, 0x00, 0x00, 0x00, 0x04, 0x00, 0x00, 0x00,
  0x16, 0xec, 0xff, 0xff, 0x04, 0x00, 0x00, 0x00, 0x60, 0x00, 0x00, 0x00,
  0x10, 0x00, 0x00, 0x00, 0x00, 0x00, 0x00, 0x00, 0x08, 0x00, 0x0e, 0x00,
  0x08, 0x00, 0x04, 0x00, 0x08, 0x00, 0x00, 0x00, 0x10, 0x00, 0x00, 0x00,
  0x24, 0x00, 0x00, 0x00, 0x00, 0x00, 0x06, 0x00, 0x08, 0x00, 0x04, 0x00,
  0x06, 0x00, 0x00, 0x00, 0x04, 0x00, 0x00, 0x00, 0x00, 0x00, 0x00, 0x00,
  0x0c, 0x00, 0x18, 0x00, 0x14, 0x00, 0x10, 0x00, 0x0c, 0x00, 0x04, 0x00,
  0x0c, 0x00, 0x00, 0x00, 0xbe, 0xfa, 0x8f, 0x15, 0xad, 0xf6, 0xe0, 0x58,
  0x02, 0x00, 0x00, 0x00, 0x02, 0x00, 0x00, 0x00, 0x04, 0x00, 0x00, 0x00,
  0x06, 0x00, 0x00, 0x00, 0x32, 0x2e, 0x31, 0x39, 0x2e, 0x30, 0x00, 0x00,
  0x82, 0xec, 0xff, 0xff, 0x04, 0x00, 0x00, 0x00, 0x10, 0x00, 0x00, 0x00,
  0x32, 0x2e, 0x30, 0x2e, 0x30, 0x00, 0x00, 0x00, 0x00, 0x00, 0x00, 0x00,
  0x00, 0x00, 0x00, 0x00, 0x4c, 0xe6, 0xff, 0xff, 0x50, 0xe6, 0xff, 0xff,
  0x54, 0xe6, 0xff, 0xff, 0x58, 0xe6, 0xff, 0xff, 0x5c, 0xe6, 0xff, 0xff,
  0xb2, 0xec, 0xff, 0xff, 0x04, 0x00, 0x00, 0x00, 0xb0, 0x04, 0x00, 0x00,
  0x83, 0xac, 0x13, 0x3f, 0x4f, 0xc8, 0x4a, 0x3f, 0xe6, 0x10, 0xca, 0x3e,
  0x0b, 0xd1, 0xfd, 0xbe, 0x2c, 0xce, 0xbd, 0xbe, 0x1a, 0x24, 0x7b, 0x3d,
  0x73, 0x56, 0x7f, 0xbe, 0x85, 0xbc, 0xc6, 0xbf, 0xc1, 0x27, 0xc9, 0xbe,
  0x35, 0xc6, 0x6c, 0x3d, 0xb3, 0x9e, 0x30, 0xbd, 0x49, 0x47, 0x31, 0x3e,
  0x6d, 0x49, 0x0e, 0x3c, 0x9b, 0x6f, 0xac, 0x3f, 0x58, 0x6b, 0xc3, 0x3e,
  0xe9, 0x3e, 0xef, 0xbe, 0x14, 0x83, 0xc2, 0xbd, 0x7f, 0x2d, 0x57, 0xbd,
  0xc0, 0xbb, 0x5d, 0xbe, 0x14, 0x97, 0x68, 0x3c, 0xd7, 0x55, 0x8a, 0x3d,
  0x43, 0x1c, 0x60, 0xbe, 0x55, 0x92, 0xd1, 0xbd, 0x60, 0x4e, 0x13, 0xbe,
  0x43, 0x5e, 0xe0, 0x3f, 0x32, 0x47, 0xc2, 0x3e, 0x2a, 0x3d, 0x12, 0x3e,
  0x20, 0xc8, 0x8c, 0xbe, 0x58, 0x57, 0xad, 0xbc, 0x3c, 0xc1, 0x36, 0x3e,
  0xb8, 0x60, 0x56, 0x3f, 0xb3, 0x14, 0x2c, 0xbe, 0xeb, 0xe0, 0xe7, 0xbe,
  0xc5, 0x7e, 0x7d, 0xbd, 0xea, 0xb5, 0xe3, 0x3c, 0x28, 0xf4, 0xa9, 0xbc,
  0xf7, 0x72, 0xbc, 0xbd, 0x2c, 0x6e, 0x08, 0x3e, 0x2a, 0x9d, 0xb3, 0xbe,
  0x3a, 0xac, 0x56, 0x3e, 0xa4, 0xb5, 0x28, 0xbe, 0x6c, 0x6c, 0x18, 0xbe,
  0x6f, 0x8a, 0x14, 0x3f, 0xd5, 0xf9, 0x00, 0x3e, 0xce, 0xf1, 0x53, 0x3e,
  0x9e, 0x04, 0xb8, 0x3d, 0xcd, 0x57, 0x82, 0xbe, 0xc8, 0xb6, 0xa9, 0x3e,
  0x81, 0x6d, 0x40, 0xbe, 0xeb, 0x34, 0xf8, 0x3e, 0x5f, 0xf7, 0x8e, 0x3e,
  0x8b, 0x48, 0x93, 0xbe, 0xbe, 0x2f, 0xac, 0xbe, 0x13, 0x35, 0x81, 0x3e,
  0xcb, 0x7b, 0xbc, 0xba, 0x9d, 0x35, 0x93, 0xbd, 0x65, 0x4b, 0x32, 0xbe,
  0x6f, 0x76, 0x2d, 0xbe, 0xbc, 0x58, 0xbc, 0xbe, 0x4f, 0x7c, 0xc5, 0xbe,
  0x28, 0x35, 0x85, 0x3f, 0x30, 0x33, 0x94, 0x3e, 0x53, 0x07, 0x86, 0xbe,
  0x9b, 0x30, 0x84, 0xbc, 0xdb, 0xd8, 0x4f, 0x3d, 0xc8, 0xfd, 0x26, 0xbd,
  0x6b, 0x43, 0x34, 0xbf, 0x42, 0xef, 0x1c, 0xbf, 0xa7, 0x05, 0x90, 0xbe,
  0x95, 0x03, 0xb8, 0x3e, 0x40, 0x2f, 0x08, 0xbd, 0x2a, 0x14, 0x17, 0xbe,
  0xb8, 0xee, 0x87, 0xbe, 0x08, 0xef, 0xa7, 0xbe, 0x75, 0xb7, 0xcd, 0x3d,
  0x2c, 0xa0, 0x6a, 0xbe, 0xb5, 0x1e, 0xc6, 0xbd, 0x2a, 0x87, 0x00, 0xbe,
  0x4d, 0x62, 0x3f, 0x3f, 0x1e, 0x50, 0xa8, 0x3e, 0x17, 0x92, 0x3b, 0xbe,
  0xc7, 0xda, 0x5b, 0xbe, 0xd0, 0xe3, 0x96, 0xbd, 0x90, 0xdd, 0x85, 0xbd,
  0xa2, 0x38, 0xac, 0xbf, 0x22, 0xcd, 0x22, 0xbf, 0x45, 0x89, 0x27, 0xbf,
  0xd7, 0xba, 0xa2, 0xbe, 0x26, 0x83, 0x47, 0x3e, 0x70, 0xb1, 0xd2, 0x3d,
  0x6a, 0xa7, 0x36, 0x3f, 0x11, 0xf3, 0xe0, 0xbd, 0xc6, 0xd1, 0xa5, 0xbe,
  0xb4, 0x80, 0xcb, 0xba, 0x45, 0xba, 0xde, 0x3c, 0x9a, 0x23, 0x03, 0xbe,
  0x11, 0x2c, 0xd8, 0xbe, 0xe2, 0xdb, 0x46, 0x3f, 0x85, 0x0d, 0x81, 0x3d,
  0x86, 0x95, 0xd9, 0x3d, 0xbf, 0x9e, 0xc7, 0xbc, 0x9d, 0x88, 0x38, 0x3e,
  0x00, 0x5e, 0x68, 0xbe, 0x60, 0x41, 0x05, 0x3e, 0x5d, 0x88, 0x93, 0x3e,
  0xec, 0xf9, 0x1c, 0x3e, 0xf6, 0x82, 0x31, 0xbe, 0xdd, 0x79, 0x43, 0xbe,
  0x7a, 0xd3, 0x0e, 0xbf, 0x01, 0xfc, 0x08, 0x3e, 0x59, 0xb1, 0xc8, 0x3e,
  0x38, 0x7f, 0x69, 0x3d, 0x97, 0x28, 0x97, 0x3e, 0x4e, 0x3c, 0x89, 0x3e,
  0xe9, 0x0a, 0xad, 0x3e, 0x17, 0x8d, 0xf0, 0x3d, 0x4b, 0x96, 0xf9, 0xbe,
  0x47, 0xc4, 0xd0, 0x3d, 0xb0, 0x81, 0x82, 0xbe, 0x62, 0x46, 0xc1, 0xbc,
  0xad, 0xde, 0x87, 0x3f, 0xf9, 0x10, 0xc3, 0x3e, 0xf7, 0x8c, 0x55, 0x3d,
  0x83, 0x67, 0x99, 0xbd, 0xba, 0x5a, 0xad, 0xbe, 0x8a, 0x39, 0xc3, 0xbd,
  0x7f, 0x60, 0x24, 0x3f, 0xac, 0x9c, 0x32, 0xbf, 0x05, 0xd8, 0xfe, 0xbb,
  0x81, 0x7e, 0x9d, 0xba, 0x61, 0x41, 0x25, 0xbd, 0x53, 0x1f, 0xdc, 0xbe,
  0x74, 0x19, 0xae, 0x3f, 0x22, 0x98, 0xd0, 0x3d, 0x1f, 0xf4, 0x69, 0xbd,
  0x3b, 0xed, 0xce, 0xbd, 0x2f, 0x74, 0xd2, 0x3e, 0x8c, 0x1c, 0x7c, 0x3e,
  0xfa, 0x6c, 0x60, 0xbf, 0xe8, 0xe4, 0xc4, 0xbe, 0x5d, 0xb0, 0x2f, 0xbf,
  0xee, 0x51, 0xc7, 0xbe, 0x7a, 0x0e, 0xfe, 0x3c, 0xf4, 0xcf, 0x56, 0xbd,
  0x30, 0x28, 0x09, 0x3f, 0xf2, 0xe6, 0x12, 0xbf, 0x2f, 0x15, 0x06, 0x3d,
  0x48, 0x7e, 0xc1, 0x3c, 0xed, 0xe4, 0xeb, 0xbe, 0x7b, 0xf9, 0xac, 0x3c,
  0xe5, 0x80, 0xeb, 0xbe, 0x95, 0x72, 0x1e, 0xbd, 0xec, 0xb4, 0x1b, 0xbf,
  0xc6, 0x67, 0x98, 0xbd, 0x73, 0x48, 0xd9, 0xbc, 0xb0, 0x65, 0xc1, 0xbc,
  0x62, 0xb3, 0x2c, 0x3e, 0x1f, 0xb9, 0x9d, 0x3e, 0xc6, 0x0e, 0x98, 0xbe,
  0x71, 0xa2, 0xa3, 0x3d, 0x64, 0x1f, 0xb4, 0xbe, 0x23, 0x6b, 0xab, 0xbc,
  0xac, 0x48, 0x8f, 0x3a, 0xff, 0x12, 0x2e, 0xbf, 0x91, 0x0f, 0x0c, 0xbf,
  0x96, 0x8e, 0x79, 0x3c, 0xfe, 0x99, 0xbd, 0xbe, 0xcc, 0xe8, 0x4b, 0x3e,
  0x24, 0x76, 0x14, 0x3e, 0x82, 0x0d, 0xda, 0x3e, 0xbc, 0x22, 0xad, 0x3e,
  0xd4, 0x37, 0xc7, 0x3e, 0x5d, 0xef, 0x5c, 0xbe, 0x16, 0xfe, 0x15, 0x3e,
  0xde, 0x2e, 0x8c, 0xbf, 0x58, 0xb4, 0xf8, 0xbe, 0x70, 0xeb, 0x5f, 0xbe,
  0x41, 0x4a, 0xbf, 0xbd, 0xf1, 0x46, 0xe9, 0x3d, 0x04, 0x3c, 0x3a, 0xbe,
  0x41, 0x27, 0x76, 0xbe, 0x6c, 0xe6, 0x85, 0xbe, 0xa8, 0x5d, 0xea, 0xbd,
  0xb8, 0xf5, 0x3c, 0x3d, 0xcb, 0x8d, 0xf2, 0xbe, 0x64, 0x68, 0x87, 0xbe,
  0x94, 0x3b, 0x0a, 0xbf, 0xbe, 0xe4, 0xd3, 0xbe, 0xa3, 0xd8, 0x7b, 0x3e,
  0x0b, 0xc0, 0x04, 0xbc, 0x67, 0x3d, 0xca, 0xbb, 0xe9, 0x52, 0x8b, 0xbe,
  0xa9, 0x98, 0xb5, 0x3f, 0x2e, 0x23, 0x9f, 0xbd, 0x5f, 0x29, 0xbe, 0x3d,
  0xdc, 0x8b, 0x8b, 0xbe, 0xfc, 0xfd, 0x52, 0xbe, 0xbf, 0x82, 0xfc, 0xbd,
  0x2c, 0x49, 0x44, 0x3f, 0x51, 0xcf, 0x4c, 0x3e, 0xc1, 0x17, 0x2d, 0xbd,
  0x25, 0x44, 0x92, 0x3a, 0x10, 0x14, 0xc7, 0x3c, 0x36, 0x2b, 0xf3, 0xbc,
  0x68, 0xf3, 0xd6, 0x3f, 0x09, 0x18, 0x5f, 0x3e, 0x36, 0xb9, 0x5f, 0xbe,
  0x4c, 0x4c, 0x22, 0xbe, 0x2b, 0xce, 0xf5, 0xbd, 0xc9, 0xb1, 0x75, 0x3e,
  0x9e, 0x8a, 0xd0, 0x3e, 0xf4, 0x71, 0xac, 0x3d, 0xc1, 0xb1, 0xa6, 0xbe,
  0x50, 0x86, 0x95, 0x3d, 0x5c, 0x96, 0x2c, 0x3d, 0xa7, 0xc8, 0x01, 0xbc,
  0x00, 0x3e, 0x69, 0x3f, 0x88, 0xf4, 0x62, 0x3e, 0x53, 0x55, 0x35, 0x3d,
  0xfd, 0x47, 0x19, 0xbe, 0x6f, 0x12, 0x8c, 0x3e, 0x67, 0x71, 0x97, 0x3e,
  0x52, 0x9e, 0x58, 0x3c, 0xd6, 0xcd, 0xa2, 0xbe, 0x50, 0x46, 0xc8, 0xbd,
  0x4c, 0xc3, 0xdc, 0xbd, 0x4f, 0x33, 0xb5, 0xbd, 0xf3, 0xc4, 0xba, 0xbd,
  0xfe, 0x33, 0x05, 0x3f, 0x17, 0x8e, 0x04, 0xbf, 0x52, 0x89, 0xc1, 0x3d,
  0x8a, 0x60, 0x1b, 0xbd, 0x6f, 0x25, 0x54, 0x3e, 0x3c, 0x5e, 0x8c, 0xbd,
  0x89, 0x75, 0x5b, 0xbe, 0xd1, 0xf2, 0x73, 0x3e, 0xcd, 0xd3, 0x2c, 0x3e,
  0xc0, 0x50, 0x3b, 0x3e, 0xac, 0x48, 0xf5, 0xbd, 0x54, 0x78, 0x02, 0x3d,
  0xd2, 0x45, 0x20, 0xbf, 0xe3, 0x85, 0xfc, 0xbd, 0x02, 0xd2, 0x9f, 0xbe,
  0x4c, 0xdb, 0x51, 0x3e, 0x8c, 0x18, 0x8d, 0xbe, 0x1e, 0xf8, 0x7d, 0x3e,
  0x88, 0x19, 0x97, 0x3f, 0x81, 0xcb, 0x77, 0xbd, 0x30, 0x93, 0xbb, 0xbc,
  0x0d, 0x73, 0xc2, 0xbe, 0x5d, 0xff, 0x35, 0xbe, 0x05, 0x21, 0x2f, 0xbe,
  0x03, 0xdd, 0xcf, 0xbc, 0x3e, 0x51, 0x91, 0x3e, 0x67, 0xfe, 0x60, 0x3e,
  0x23, 0xfc, 0x02, 0xbd, 0x10, 0x5f, 0x9d, 0xbd, 0xb1, 0x8f, 0xc1, 0x3d,
  0x8d, 0xa5, 0xb1, 0x3e, 0x3a, 0x97, 0xbd, 0x3e, 0xd1, 0x7a, 0xae, 0x3d,
  0xc6, 0xbe, 0x18, 0xbe, 0x90, 0xaa, 0x74, 0x3e, 0x16, 0x64, 0xfc, 0xbc,
  0xe7, 0x95, 0x4f, 0x3e, 0x7d, 0xf5, 0x71, 0xbf, 0x04, 0x22, 0xa0, 0x3c,
  0x45, 0x23, 0x97, 0x3d, 0xd3, 0x13, 0x45, 0xbe, 0x34, 0xc5, 0xa2, 0xbb,
  0x7c, 0xbc, 0x9f, 0xbf, 0x82, 0xa1, 0x55, 0xbd, 0x8b, 0x46, 0x5e, 0x3e,
  0x00, 0x30, 0x9e, 0x3d, 0xf6, 0x8a, 0x2b, 0x3e, 0x51, 0xbd, 0x35, 0x3d,
  0xa5, 0x0d, 0x83, 0xbe, 0x55, 0x4a, 0xe6, 0xbd, 0x9d, 0xc0, 0xa3, 0x3e,
  0x1d, 0xbd, 0x50, 0x3e, 0xbc, 0x03, 0xe3, 0xbe, 0x12, 0x67, 0x24, 0xbe,
  0x05, 0x30, 0xaa, 0x3e, 0xed, 0xdf, 0x59, 0xbe, 0x0e, 0x6c, 0xc1, 0x3e,
  0x6a, 0x02, 0xa0, 0xbd, 0xc0, 0x87, 0x37, 0x3e, 0xc2, 0x3a, 0x90, 0x3e,
  0xa8, 0x0d, 0xf2, 0xbe, 0x39, 0x8d, 0xc7, 0xbe, 0x8c, 0x97, 0xc2, 0xbe,
  0x34, 0x32, 0x66, 0xbe, 0xac, 0x70, 0xb8, 0xbc, 0x8c, 0x7e, 0xe7, 0xbd,
  0xa3, 0x07, 0x6e, 0xbf, 0x26, 0xde, 0x16, 0xbd, 0xe1, 0xf1, 0xa1, 0x3d,
  0x48, 0x1a, 0x6f, 0xbe, 0x41, 0xb6, 0x81, 0x3d, 0x7a, 0x06, 0x82, 0x3c,
  0x6e, 0xf1, 0xff, 0xff, 0x04, 0x00, 0x00, 0x00, 0xc8, 0x00, 0x00, 0x00,
  0x7c, 0x5a, 0x6d, 0x3f, 0x64, 0xfd, 0x55, 0x3f, 0x6c, 0x32, 0xaf, 0xbe,
  0x0c, 0xba, 0x08, 0xbf, 0x0d, 0x2e, 0x30, 0xbf, 0xb6, 0xbd, 0x20, 0xbf,
  0x40, 0xd1, 0x6e, 0x3e, 0xa8, 0xfd, 0x80, 0xbf, 0x7a, 0x8a, 0x1d, 0xbf,
  0x01, 0xb7, 0x20, 0xbf, 0xc3, 0x79, 0xb8, 0x3f, 0xc8, 0x4d, 0x3d, 0xbe,
  0x61, 0xfe, 0x75, 0xbe, 0xf3, 0x23, 0x3c, 0x3e, 0xb1, 0xd7, 0x80, 0x3f,
  0x94, 0x45, 0xc1, 0x3f, 0xae, 0x8e, 0xb9, 0xbe, 0xa7, 0xf0, 0xcd, 0x3d,
  0xee, 0x15, 0x8b, 0xbd, 0x17, 0x67, 0x8f, 0x3f, 0x6c, 0x45, 0xf2, 0xbe,
  0xea, 0x7c, 0x56, 0xbf, 0x34, 0xbd, 0xb0, 0xbe, 0x7c, 0xbc, 0xd9, 0x3e,
  0xa3, 0xbb, 0x7a, 0xbf, 0x98, 0xe7, 0xa5, 0x3f, 0x23, 0x3a, 0x5d, 0x3f,
  0x1b, 0x89, 0xb4, 0x3e, 0x6d, 0x5e, 0xe0, 0xbe, 0xa5, 0x85, 0x0a, 0x3e,
  0x5c, 0x19, 0xee, 0xbe, 0x45, 0xea, 0xb8, 0xbd, 0x52, 0xdf, 0x2e, 0xbf,
  0x77, 0x13, 0xb6, 0x3f, 0x93, 0x76, 0xac, 0xbe, 0x3a, 0x29, 0xab, 0x3f,
  0xbc, 0x59, 0x1c, 0xbf, 0xe8, 0xb6, 0x6b, 0xbe, 0xe1, 0xfa, 0xa4, 0xbe,
  0xf6, 0x67, 0x5d, 0x3f, 0x11, 0x4b, 0x4f, 0x3f, 0xd6, 0x3d, 0xb0, 0xbe,
  0x54, 0xea, 0xb1, 0xbe, 0xe1, 0xa0, 0x98, 0x3f, 0x8b, 0xa7, 0x51, 0x3f,
  0x2d, 0x84, 0x04, 0xbf, 0xc0, 0xfd, 0x40, 0x3f, 0xfc, 0x61, 0x40, 0x3e,
  0x5d, 0xc8, 0x09, 0xbf, 0xf5, 0x65, 0xa0, 0xbc, 0x42, 0xf2, 0xff, 0xff,
  0x04, 0x00, 0x00, 0x00, 0x3c, 0x00, 0x00, 0x00, 0x4d, 0x98, 0x28, 0x3f,
  0x2c, 0xb6, 0xde, 0xbd, 0xa8, 0xa7, 0xfc, 0x3e, 0xd4, 0x2a, 0x8a, 0xbd,
  0x19, 0x17, 0x73, 0xbe, 0x35, 0x1e, 0x01, 0x3f, 0x28, 0x65, 0xd5, 0xbe,
  0xdb, 0xcd, 0x84, 0x3f, 0x85, 0x1e, 0xb0, 0xbd, 0xf6, 0xd6, 0x18, 0xbd,
  0xac, 0x66, 0x37, 0xbf, 0x74, 0x22, 0x00, 0xbf, 0xde, 0x98, 0xb8, 0x3e,
  0x30, 0x78, 0x1c, 0xbf, 0x38, 0x42, 0x89, 0x3d, 0x8a, 0xf2, 0xff, 0xff,
  0x04, 0x00, 0x00, 0x00, 0x04, 0x00, 0x00, 0x00, 0x01, 0x00, 0x00, 0x00,
  0x9a, 0xf2, 0xff, 0xff, 0x04, 0x00, 0x00, 0x00, 0x10, 0x00, 0x00, 0x00,
  0x6a, 0x67, 0xda, 0xbe, 0x63, 0x5c, 0x34, 0xbf, 0x5c, 0xce, 0xfc, 0x3e,
  0x6a, 0x7d, 0xdc, 0x3d, 0xb6, 0xf2, 0xff, 0xff, 0x04, 0x00, 0x00, 0x00,
  0xf0, 0x00, 0x00, 0x00, 0x53, 0x43, 0xba, 0xbe, 0x51, 0x7c, 0x8e, 0xbd,
  0xab, 0x62, 0x99, 0x3e, 0xdb, 0x55, 0xcb, 0xbd, 0xca, 0x0c, 0xc4, 0x3e,
  0x19, 0x75, 0x74, 0xbf, 0x04, 0x22, 0x0a, 0x3f, 0x22, 0x1d, 0x27, 0xbf,
  0x51, 0x0a, 0x04, 0xbf, 0x0a, 0xf9, 0x13, 0xbf, 0x47, 0x26, 0x06, 0xbf,
  0xb9, 0x07, 0x03, 0x3f, 0x52, 0xa8, 0xb6, 0xbe, 0x1c, 0x20, 0x0b, 0x3d,
  0xd2, 0x55, 0xdd, 0xbe, 0xe8, 0xf6, 0x3c, 0x3e, 0x8c, 0xc4, 0x70, 0x3e,
  0x50, 0x77, 0x0a, 0xbf, 0x29, 0x3e, 0x94, 0x3e, 0x3b, 0xb2, 0x65, 0x3e,
  0x0b, 0x40, 0xdd, 0x3c, 0xc4, 0xab, 0xd4, 0x3e, 0x67, 0xad, 0xb9, 0xbe,
  0x29, 0x51, 0x01, 0xbf, 0x6f, 0x45, 0xf7, 0x3c, 0xda, 0xb9, 0xbc, 0xbd,
  0xc0, 0x14, 0x0e, 0x3f, 0xc5, 0x67, 0x08, 0x3f, 0x42, 0xaa, 0x13, 0x3f,
  0xe1, 0x93, 0x9b, 0xbe, 0xe5, 0x07, 0x62, 0x3f, 0x5a, 0xfc, 0xc1, 0xbb,
  0x93, 0xf4, 0x45, 0xbe, 0xed, 0x58, 0xa7, 0xbe, 0xec, 0x7f, 0x88, 0xbf,
  0x8b, 0xfd, 0x7c, 0x3f, 0x1a, 0xac, 0xcc, 0xbe, 0x21, 0xfe, 0x1c, 0x3f,
  0x26, 0x3e, 0xfa, 0xbe, 0x77, 0xaa, 0x9e, 0xbf, 0x9e, 0x48, 0x5f, 0xbf,
  0xea, 0x34, 0x02, 0xbe, 0xfa, 0xac, 0x4c, 0x3f, 0x35, 0xf4, 0x52, 0xbf,
  0x1c, 0x34, 0xbd, 0x3d, 0x4e, 0x3b, 0x18, 0xbf, 0xff, 0x85, 0x27, 0x3f,
  0x89, 0x77, 0x58, 0x3e, 0x0a, 0x70, 0xcd, 0x3e, 0xc5, 0x6d, 0x22, 0x3e,
  0xe6, 0x23, 0x29, 0xbf, 0x0b, 0x8c, 0x41, 0x3d, 0x06, 0x83, 0x3a, 0x3f,
  0xcc, 0xc2, 0xd6, 0x3e, 0xaa, 0x61, 0x20, 0x3e, 0x51, 0xe7, 0x3b, 0xbe,
  0x83, 0x74, 0x61, 0xbf, 0xc8, 0x37, 0x14, 0xbf, 0xc4, 0x1e, 0xa1, 0xbe,
  0xe8, 0x82, 0xd6, 0x3e, 0xb2, 0xf3, 0xff, 0xff, 0x04, 0x00, 0x00, 0x00,
  0xb8, 0x0b, 0x00, 0x00, 0x2b, 0x3d, 0x8f, 0x3e, 0x7d, 0x82, 0xba, 0xbc,
  0x7f, 0xd0, 0x48, 0xbe, 0xde, 0x1f, 0x2d, 0xbe, 0x6d, 0xa2, 0x67, 0x3d,
  0x40, 0x45, 0xce, 0xbd, 0xab, 0xb1, 0x28, 0xbe, 0x23, 0x13, 0xbd, 0xbe,
  0x48, 0x80, 0x80, 0xbe, 0x16, 0x1f, 0x3c, 0xbd, 0x82, 0x19, 0x82, 0x3e,
  0xcc, 0xde, 0x29, 0xbf, 0xb6, 0xb2, 0xcb, 0x3d, 0xdf, 0x49, 0x50, 0x3e,
  0xb1, 0xc1, 0xe2, 0xbd, 0x37, 0x69, 0x45, 0x3f, 0x80, 0x04, 0xee, 0xbe,
  0x84, 0x0f, 0xdb, 0xbc, 0x94, 0xa9, 0x15, 0x3e, 0xe9, 0x6f, 0xf3, 0x3e,
  0x2e, 0xad, 0x8a, 0xbe, 0x61, 0x7a, 0x3f, 0xbe, 0x9c, 0x20, 0x53, 0x3c,
  0x61, 0x22, 0xac, 0xbe, 0x8b, 0x04, 0x57, 0x3c, 0x9b, 0xeb, 0x3e, 0x3e,
  0xdc, 0x59, 0xd2, 0x3d, 0xe4, 0x95, 0x80, 0x3d, 0x14, 0xa1, 0x3d, 0xbf,
  0x5a, 0x7c, 0x9e, 0xbe, 0x99, 0x40, 0x2c, 0xbe, 0xb3, 0x29, 0x94, 0xbe,
  0x34, 0xb4, 0x6f, 0x3c, 0x9f, 0xa8, 0x20, 0x3f, 0xd4, 0xb2, 0x2d, 0xbd,
  0x33, 0x65, 0x0a, 0x3f, 0x58, 0xe2, 0xbe, 0xbd, 0xcc, 0x24, 0xe2, 0xbd,
  0x46, 0x56, 0x9b, 0x3e, 0x6f, 0x91, 0x79, 0x3e, 0x1d, 0x7b, 0x3b, 0x3e,
  0x90, 0xf6, 0xd6, 0x3c, 0x38, 0x01, 0x96, 0x3d, 0xf0, 0x69, 0x99, 0x3e,
  0x86, 0x99, 0x03, 0x3f, 0xca, 0x06, 0xb1, 0xbe, 0x7c, 0x5c, 0x0f, 0x3e,
  0x2e, 0xea, 0xa3, 0x3d, 0xec, 0xa3, 0x9a, 0xbe, 0xd2, 0xc2, 0x0a, 0xbf,
  0x2c, 0x42, 0xa1, 0xbe, 0x6e, 0xec, 0xb4, 0xbd, 0x86, 0x57, 0x24, 0xbe,
  0x85, 0x03, 0xf2, 0x3d, 0x32, 0x6c, 0xe9, 0x3d, 0xf2, 0xa0, 0xaf, 0x3d,
  0xa9, 0x65, 0xb8, 0x3d, 0x54, 0xa1, 0xea, 0xbc, 0x6c, 0x18, 0x91, 0x3e,
  0x14, 0xd7, 0x19, 0x3e, 0x9a, 0x33, 0xba, 0x3a, 0x7b, 0x3a, 0x50, 0xbe,
  0xba, 0x63, 0xa1, 0xba, 0xf3, 0x71, 0xc7, 0xbe, 0xa4, 0xc2, 0xd3, 0x3e,
  0x5f, 0x07, 0x58, 0x3e, 0xe6, 0x5a, 0x0c, 0x3e, 0x24, 0x7c, 0x8e, 0xbc,
  0x6b, 0x75, 0x5d, 0xbe, 0x38, 0xa4, 0x5d, 0xbd, 0x3b, 0x87, 0xc4, 0xbe,
  0xf2, 0x93, 0x96, 0x3e, 0x5f, 0xf4, 0xcc, 0xbe, 0xfb, 0x4b, 0xb9, 0xbd,
  0x9e, 0xe3, 0xff, 0xbd, 0xf1, 0x8b, 0xdf, 0x3d, 0x2b, 0xf1, 0x9f, 0xbc,
  0x59, 0x8c, 0x1d, 0x3e, 0x01, 0xea, 0x78, 0xbd, 0xf4, 0xa7, 0x01, 0x3d,
  0xff, 0xf5, 0xb5, 0xbe, 0x81, 0x32, 0x0f, 0x3e, 0x95, 0x93, 0x86, 0xbe,
  0xe9, 0x9b, 0x52, 0x3e, 0x6b, 0x54, 0x8e, 0x3e, 0x6c, 0x3e, 0x3d, 0x3d,
  0x33, 0x5a, 0x9a, 0xbe, 0x80, 0x6c, 0x78, 0x3d, 0x0a, 0x3f, 0x72, 0x3e,
  0x6d, 0x49, 0xd0, 0x3d, 0xd5, 0x15, 0x8d, 0x3e, 0x19, 0xb0, 0x85, 0xbe,
  0x1b, 0x7c, 0x9a, 0xbc, 0xf0, 0xd7, 0x7b, 0x3e, 0x3c, 0xd6, 0x94, 0x3e,
  0x82, 0xdf, 0x8f, 0x3e, 0x19, 0x5c, 0xb5, 0xbe, 0x06, 0xfa, 0xd9, 0xbd,
  0xaf, 0x66, 0x00, 0x3e, 0x68, 0x69, 0xc8, 0xbd, 0x0c, 0xfd, 0x6a, 0xbe,
  0x51, 0x21, 0x40, 0x3c, 0x96, 0x89, 0x63, 0x3e, 0xc3, 0x79, 0x4e, 0xbe,
  0x4e, 0x53, 0xfc, 0x3b, 0x3f, 0x90, 0x0e, 0x3e, 0x97, 0x5d, 0x79, 0x3e,
  0xc7, 0x7b, 0x23, 0x3c, 0x9c, 0x6d, 0x8b, 0xbe, 0xa9, 0xbd, 0xb8, 0x3b,
  0xfb, 0x97, 0x81, 0xbd, 0x39, 0xe9, 0x1f, 0x3d, 0x69, 0x16, 0xed, 0xbd,
  0xec, 0xea, 0x0b, 0x3d, 0xb3, 0xe9, 0xa1, 0x3e, 0x5b, 0x4a, 0x60, 0x3e,
  0x84, 0xa4, 0x2d, 0xbe, 0x4f, 0x08, 0xed, 0xbd, 0x84, 0xc0, 0x2d, 0x3e,
  0x65, 0x38, 0x6c, 0x3e, 0xf8, 0x6f, 0xef, 0xbd, 0xb9, 0x34, 0xe7, 0xbd,
  0x47, 0xbd, 0x96, 0xbc, 0x30, 0x62, 0xa0, 0x3e, 0x6c, 0x31, 0x3f, 0xbe,
  0x1c, 0x77, 0xa6, 0x3e, 0x5f, 0x68, 0x8f, 0x3e, 0x56, 0x94, 0xab, 0x3c,
  0x44, 0xdb, 0x86, 0x3e, 0x16, 0xaa, 0x7b, 0x3d, 0x05, 0x49, 0x4a, 0x3d,
  0xd7, 0x7c, 0xfc, 0x3d, 0x50, 0x71, 0xb3, 0xbb, 0xf9, 0x03, 0xb6, 0xbb,
  0x13, 0x4c, 0xc7, 0xbe, 0x56, 0xda, 0xf4, 0x3d, 0x7c, 0x40, 0x0c, 0xbe,
  0x52, 0x5d, 0x0f, 0xbe, 0x98, 0x59, 0x09, 0x3e, 0x2d, 0x58, 0xf9, 0xbd,
  0xae, 0xa5, 0x2f, 0xbd, 0x10, 0xcd, 0x6b, 0xbe, 0x33, 0xd8, 0x8e, 0xbe,
  0x1c, 0x63, 0x26, 0x3e, 0x63, 0x96, 0x5f, 0xbc, 0xa0, 0xdc, 0x06, 0x3e,
  0x78, 0x13, 0x66, 0x3e, 0xc7, 0x9c, 0x24, 0x3e, 0x27, 0x76, 0x63, 0xbc,
  0x25, 0xa9, 0xde, 0xbb, 0x80, 0x51, 0x61, 0xbd, 0x65, 0x50, 0x06, 0xbe,
  0x50, 0x68, 0x9c, 0x3d, 0x80, 0x6f, 0x29, 0xbe, 0xee, 0x7e, 0xa3, 0xbe,
  0x32, 0xc2, 0xbb, 0x3d, 0x3e, 0x97, 0x92, 0xbe, 0x42, 0x05, 0xd0, 0xbe,
  0xdb, 0xa7, 0x8e, 0x3c, 0x4e, 0x02, 0xb6, 0xbe, 0x2b, 0x53, 0x94, 0xbd,
  0x9e, 0xc4, 0x41, 0xbe, 0x0d, 0x8b, 0x71, 0x3e, 0x6b, 0xd6, 0xc0, 0xbe,
  0x3c, 0xdf, 0x00, 0x3e, 0xa0, 0xe6, 0x8e, 0x3d, 0xb6, 0xe8, 0xcd, 0x3d,
  0x8f, 0x58, 0x6d, 0x3d, 0xff, 0xaa, 0x11, 0x3e, 0x1d, 0xbc, 0x1a, 0x3d,
  0x84, 0x42, 0x02, 0x3e, 0xfa, 0x3f, 0x6b, 0x3e, 0x3d, 0xbc, 0x2c, 0xbe,
  0xdb, 0x7d, 0x86, 0xbd, 0xed, 0x1f, 0x83, 0x3e, 0x25, 0xd5, 0x04, 0x3e,
  0x50, 0x3e, 0x12, 0xbe, 0xad, 0xa2, 0x79, 0xbe, 0x70, 0xa2, 0xdf, 0x3d,
  0xed, 0xe4, 0x2f, 0x3e, 0xb0, 0x19, 0x3d, 0xbe, 0xdd, 0xb9, 0x88, 0x3e,
  0x73, 0x47, 0x77, 0x3d, 0xba, 0x6a, 0xc5, 0xbe, 0xfc, 0x00, 0xe7, 0xbe,
  0xde, 0x35, 0x01, 0x3c, 0xaf, 0x9c, 0x20, 0xbc, 0x6b, 0x57, 0xa6, 0x3e,
  0x94, 0xf3, 0xdf, 0x3d, 0xe2, 0xa7, 0x65, 0xbe, 0x65, 0xc7, 0xaa, 0xbe,
  0x6b, 0x85, 0x97, 0xbe, 0x10, 0xee, 0xac, 0x3b, 0x91, 0xc1, 0x9f, 0x3d,
  0x15, 0xa7, 0x3e, 0xbe, 0x3c, 0x21, 0x5d, 0x3e, 0xc9, 0x0f, 0x04, 0xbd,
  0xc7, 0xee, 0x75, 0x3e, 0x76, 0xb6, 0xd0, 0x3c, 0xa7, 0xd0, 0xbf, 0x3d,
  0x94, 0x71, 0xbd, 0x3a, 0x81, 0xac, 0x70, 0xbe, 0xf1, 0x87, 0xb8, 0x3e,
  0x57, 0x29, 0xd6, 0x3e, 0x54, 0xe5, 0x8d, 0xbe, 0x9a, 0xdb, 0x91, 0x3e,
  0xad, 0xa5, 0x10, 0xbe, 0xf5, 0xde, 0x08, 0xbe, 0x6d, 0xbb, 0x95, 0xbd,
  0xa5, 0xfc, 0x72, 0x3e, 0x09, 0xaa, 0xa0, 0x3e, 0x9a, 0x1a, 0xa8, 0x3e,
  0xfb, 0xcf, 0x59, 0x3d, 0x5d, 0xfe, 0xd9, 0x3e, 0xc1, 0xaa, 0xbc, 0x3c,
  0x09, 0x82, 0x30, 0x3e, 0xfb, 0xf6, 0x6e, 0xbe, 0xb0, 0x48, 0x53, 0x3e,
  0xba, 0x05, 0x13, 0x3e, 0x9d, 0x2f, 0x86, 0xbe, 0x25, 0x91, 0x41, 0x3e,
  0x9f, 0xd0, 0x5b, 0x3e, 0x29, 0x66, 0x80, 0xbb, 0x37, 0xc9, 0x03, 0xbe,
  0x90, 0x52, 0xe5, 0x3d, 0xf4, 0xc9, 0x91, 0xbe, 0xcd, 0x29, 0x84, 0x3d,
  0x04, 0x1a, 0x2a, 0x3e, 0x5b, 0x97, 0xf9, 0xbd, 0x88, 0x47, 0xd6, 0x3e,
  0xa3, 0x7b, 0x0f, 0xbe, 0x88, 0x82, 0xd6, 0x3e, 0xb1, 0x30, 0xb3, 0x3e,
  0xa4, 0x54, 0xbb, 0x3e, 0xdc, 0xad, 0xf9, 0x3d, 0xf3, 0x0d, 0x9e, 0x3d,
  0x11, 0x8c, 0xa2, 0x3d, 0x0a, 0x7a, 0xf9, 0x38, 0xe0, 0x9b, 0x8d, 0x3e,
  0xe0, 0x66, 0x00, 0xbe, 0x34, 0x25, 0xd5, 0xbe, 0x07, 0x35, 0x82, 0x3d,
  0xed, 0x0e, 0xc3, 0x3b, 0x12, 0x45, 0x5d, 0x3d, 0x92, 0x1c, 0xc9, 0xbd,
  0x6d, 0x03, 0xa3, 0xbd, 0xf0, 0x2e, 0x66, 0x3e, 0x94, 0x1c, 0x87, 0x3e,
  0x86, 0x8e, 0x62, 0x3e, 0x34, 0xd1, 0x13, 0xbb, 0x6e, 0xd6, 0xac, 0x3e,
  0xf4, 0x7f, 0xf4, 0x3d, 0x27, 0x67, 0x63, 0xbe, 0x4d, 0xd7, 0x95, 0xbd,
  0x80, 0xc6, 0xb3, 0xbe, 0x82, 0xe5, 0xaf, 0x3d, 0xbe, 0x2c, 0x43, 0x3e,
  0x1e, 0x3b, 0xf0, 0xbe, 0x6e, 0x07, 0x82, 0xbe, 0xaa, 0x80, 0xeb, 0xbd,
  0xb7, 0x2a, 0xa2, 0x3e, 0xc9, 0x57, 0xeb, 0xbe, 0x6e, 0x76, 0x50, 0xbd,
  0xbd, 0xd2, 0x56, 0x3e, 0x0a, 0x2c, 0xc6, 0x3d, 0xc4, 0x71, 0xeb, 0x3e,
  0x5a, 0xa0, 0x49, 0xbd, 0x2a, 0x54, 0x18, 0xbe, 0x8e, 0xcb, 0x37, 0xbd,
  0x53, 0x2b, 0x92, 0x3e, 0x0d, 0xcc, 0xd5, 0xbe, 0x90, 0xcc, 0x5e, 0xbe,
  0x78, 0x41, 0x33, 0x3e, 0xe2, 0xc1, 0x89, 0xbe, 0xb2, 0xeb, 0x07, 0xbf,
  0xc9, 0xef, 0x34, 0x3e, 0x03, 0xa0, 0x78, 0x3e, 0xc4, 0x3d, 0xa4, 0xbd,
  0xbb, 0x67, 0xfc, 0xbe, 0x24, 0x40, 0x02, 0xbe, 0xd4, 0xa6, 0x7d, 0xbd,
  0xe0, 0x2c, 0xf8, 0xbd, 0xca, 0xcb, 0x7c, 0xbe, 0x79, 0x72, 0xe8, 0x3e,
  0x73, 0xb2, 0xda, 0x3d, 0x89, 0x12, 0x17, 0x3d, 0x3e, 0xb5, 0xcd, 0xbd,
  0x7c, 0x78, 0xfa, 0x3d, 0x57, 0x15, 0x06, 0x3e, 0xe4, 0x89, 0x9c, 0x3e,
  0x60, 0x92, 0xba, 0x3e, 0xbd, 0xb9, 0x7c, 0x3e, 0x73, 0xf7, 0x47, 0xbd,
  0xd5, 0xfc, 0x6c, 0x3d, 0xe3, 0xda, 0xa5, 0x3e, 0xcb, 0xa4, 0x3e, 0xbe,
  0xbb, 0xeb, 0xae, 0x3d, 0x23, 0xe2, 0x41, 0x3e, 0x59, 0x01, 0xf9, 0xbe,
  0x8b, 0xb3, 0xba, 0xbe, 0x47, 0x62, 0x8c, 0xbe, 0xf1, 0x1f, 0xe0, 0x3d,
  0x41, 0xae, 0x52, 0x3e, 0xe4, 0x0b, 0xb4, 0xbd, 0x75, 0xde, 0xac, 0x3d,
  0x8b, 0x40, 0x52, 0x3d, 0x04, 0x59, 0x9a, 0x3e, 0xb4, 0xb3, 0x0a, 0xbe,
  0x24, 0xd5, 0x81, 0xbd, 0xe2, 0x49, 0x2f, 0xbe, 0xaa, 0xad, 0x7b, 0xbe,
  0x2e, 0xe5, 0x7a, 0x3e, 0x4a, 0x3d, 0x74, 0xbe, 0xdb, 0x66, 0xc8, 0x3c,
  0xea, 0x4e, 0x42, 0x3e, 0x71, 0x7f, 0x5a, 0x3e, 0x58, 0x0d, 0xab, 0x3e,
  0x53, 0xb2, 0x40, 0x3e, 0xd3, 0xa7, 0x82, 0x3e, 0xee, 0x79, 0xf6, 0x3d,
  0x9f, 0x83, 0xe1, 0xbd, 0x15, 0x0d, 0x80, 0xbe, 0x1d, 0x2f, 0x85, 0xbe,
  0xc8, 0x61, 0xcb, 0xbe, 0xc2, 0x12, 0x7b, 0x3d, 0xf5, 0xc9, 0xf2, 0xbd,
  0xa2, 0xbf, 0xcb, 0xbc, 0xc6, 0xf9, 0x66, 0xbe, 0x38, 0x72, 0x48, 0xbd,
  0xf5, 0x5c, 0x14, 0x3e, 0x15, 0xc4, 0xb7, 0xbc, 0x7c, 0xe2, 0x99, 0x3e,
  0x53, 0x19, 0x74, 0xbd, 0xec, 0x92, 0x3c, 0xbe, 0x22, 0x42, 0x2b, 0x3e,
  0x80, 0x30, 0x10, 0x3e, 0xe9, 0xfa, 0x18, 0x3e, 0xa3, 0xa4, 0x2a, 0xbe,
  0x46, 0x95, 0xbf, 0x3d, 0x66, 0xdb, 0x92, 0xbd, 0x1c, 0xc8, 0x43, 0x3e,
  0xfa, 0x1a, 0x2c, 0x3e, 0x07, 0xc4, 0x10, 0x3e, 0x9d, 0x32, 0x8d, 0xbe,
  0x21, 0x9f, 0xd9, 0x3d, 0x32, 0x5b, 0xaa, 0x3e, 0xe6, 0x3f, 0x32, 0xbe,
  0xfd, 0xf8, 0x3b, 0xbe, 0x07, 0x5f, 0x4e, 0x3e, 0x24, 0x5c, 0x8a, 0x3d,
  0x09, 0x0f, 0x1b, 0xbd, 0x8f, 0xb9, 0xd5, 0x3e, 0xa7, 0x0e, 0x8f, 0xbe,
  0x3c, 0x4c, 0x07, 0xbf, 0xa5, 0x40, 0x95, 0xbe, 0x15, 0xdf, 0x77, 0xbe,
  0x04, 0xb1, 0x75, 0xbe, 0xec, 0xa3, 0x42, 0xbe, 0x5e, 0xb8, 0xe5, 0xbd,
  0xf2, 0xaa, 0xec, 0x3d, 0xcf, 0x03, 0x50, 0x3e, 0xba, 0xb3, 0x5b, 0x3e,
  0x08, 0xf2, 0x89, 0xbe, 0xaf, 0x1e, 0xbf, 0xbe, 0x2b, 0x33, 0xe4, 0x3e,
  0x8d, 0x79, 0x8a, 0x3e, 0xde, 0x6f, 0xf3, 0xbe, 0x98, 0x32, 0x5f, 0x3e,
  0x0d, 0xb3, 0x65, 0xbc, 0xd6, 0x03, 0xa1, 0x3e, 0x54, 0x9e, 0x07, 0x3e,
  0x29, 0x50, 0x8f, 0xbd, 0x39, 0x62, 0xb2, 0xbe, 0xee, 0xf6, 0x9a, 0x3e,
  0xa3, 0x25, 0xb2, 0x3e, 0xe2, 0x8b, 0x71, 0x3e, 0x46, 0x91, 0x84, 0x3e,
  0xd0, 0xb2, 0xb4, 0x3e, 0x56, 0x00, 0x6d, 0xbe, 0x02, 0x99, 0x8e, 0x3e,
  0x74, 0x71, 0xe3, 0xbc, 0x9f, 0x3f, 0x87, 0x3e, 0x06, 0x55, 0x30, 0xbe,
  0x3a, 0xa6, 0x9b, 0x3e, 0xb5, 0x19, 0x3d, 0xbd, 0xc7, 0x3b, 0x5b, 0x3e,
  0x36, 0x68, 0x9f, 0x3d, 0x18, 0x2d, 0xae, 0xbd, 0xcf, 0x27, 0xad, 0xbc,
  0xb4, 0xb0, 0xc6, 0x3d, 0x84, 0xce, 0x93, 0x3e, 0xeb, 0xa3, 0x62, 0xbe,
  0xab, 0xd6, 0xfa, 0x3d, 0xd4, 0x8f, 0x3a, 0x3e, 0xa5, 0xb0, 0x92, 0x3e,
  0xc2, 0x71, 0xd8, 0xbd, 0x87, 0x64, 0x2b, 0xbe, 0x25, 0xb1, 0x9e, 0xbd,
  0xb7, 0xcc, 0xc4, 0xbd, 0xf4, 0x2e, 0x1a, 0x3e, 0xeb, 0x38, 0x79, 0x3e,
  0xc5, 0x51, 0x54, 0x3e, 0x35, 0x53, 0x0a, 0xbe, 0xc9, 0xee, 0x0e, 0x3b,
  0x91, 0xbd, 0x83, 0xbe, 0x3a, 0xf4, 0x8a, 0x3e, 0xba, 0xc8, 0x77, 0xbe,
  0x24, 0x9d, 0x6b, 0x3e, 0xb5, 0x80, 0x18, 0xbe, 0x5f, 0x88, 0x2f, 0x3e,
  0xe8, 0x36, 0xd8, 0xbd, 0xf8, 0x94, 0x5e, 0x3e, 0xf1, 0xdc, 0x3e, 0x3d,
  0xf6, 0xbc, 0x65, 0x3d, 0x7c, 0xeb, 0xc4, 0xba, 0xc5, 0xc8, 0xda, 0x3d,
  0xb9, 0xde, 0x23, 0x3e, 0x4e, 0x2a, 0x76, 0xbd, 0xcc, 0xab, 0xa8, 0x3d,
  0x47, 0x07, 0xc9, 0x3d, 0x1d, 0x62, 0x42, 0xbe, 0x0f, 0x12, 0x0a, 0xbe,
  0x0b, 0x51, 0x83, 0xbe, 0x5c, 0xbc, 0x84, 0xbe, 0xb4, 0x14, 0x4d, 0xbe,
  0x96, 0x01, 0x98, 0xbd, 0xe6, 0xdf, 0x53, 0x3d, 0xca, 0x7c, 0x9c, 0xbe,
  0x6b, 0x9f, 0x39, 0xbe, 0x30, 0x98, 0xe5, 0xbd, 0xd8, 0x56, 0xdc, 0x3d,
  0x86, 0x4b, 0x08, 0xbe, 0x67, 0x53, 0x67, 0xbe, 0xf6, 0x95, 0x64, 0xbe,
  0x61, 0x51, 0x44, 0x3e, 0x14, 0x87, 0x37, 0xbe, 0x80, 0x77, 0x03, 0xbe,
  0x54, 0x05, 0xc9, 0xbd, 0x1d, 0x1a, 0xec, 0x3d, 0x1b, 0xb2, 0x17, 0xbe,
  0x73, 0xd4, 0x23, 0xbe, 0x7b, 0xf2, 0x64, 0xbe, 0xdf, 0x74, 0x96, 0xbd,
  0xff, 0xa3, 0x55, 0x3e, 0xe6, 0x89, 0x55, 0x3e, 0x72, 0xbc, 0x5d, 0xbe,
  0xa7, 0xe0, 0x7e, 0xbe, 0x06, 0xef, 0x1a, 0xbe, 0x3d, 0x16, 0x26, 0x3e,
  0xfd, 0x6a, 0x30, 0xbe, 0xa2, 0xb8, 0x16, 0x3c, 0x5e, 0x46, 0xce, 0xba,
  0x93, 0x0a, 0x12, 0xbe, 0x49, 0x4e, 0xa2, 0xbe, 0xe5, 0x8c, 0x06, 0x3b,
  0x99, 0x4d, 0x59, 0xbe, 0xaa, 0xee, 0x57, 0x3e, 0xdc, 0xb5, 0x58, 0xbe,
  0x24, 0xbc, 0xac, 0xbd, 0x72, 0x7e, 0x24, 0x3e, 0xd0, 0x74, 0x40, 0x3e,
  0xf6, 0xc8, 0x12, 0x3e, 0xd8, 0x5f, 0xb5, 0xbb, 0x4e, 0x22, 0x73, 0xbe,
  0x29, 0xd0, 0x5b, 0xbe, 0x59, 0x7b, 0x87, 0x3e, 0x40, 0xb7, 0x24, 0xbd,
  0xc8, 0x8f, 0xe2, 0xbd, 0x79, 0xd5, 0x94, 0xbe, 0xec, 0x44, 0x8b, 0x3d,
  0xe7, 0x43, 0x19, 0xbe, 0x08, 0xc1, 0xb6, 0x3e, 0x92, 0x64, 0x6f, 0x3c,
  0x7a, 0xd0, 0xad, 0xbd, 0x9e, 0xe9, 0x09, 0x3e, 0x55, 0x5c, 0x7a, 0xbe,
  0x47, 0x84, 0x80, 0xbe, 0xac, 0x02, 0x84, 0x3c, 0x81, 0x48, 0x04, 0xbc,
  0x0c, 0xbe, 0x8b, 0x3e, 0x54, 0x69, 0x3d, 0x3e, 0x3b, 0x61, 0x6a, 0x3e,
  0xc6, 0xff, 0x02, 0xbe, 0xf5, 0x4c, 0x59, 0xbd, 0xab, 0xc1, 0x58, 0xbe,
  0x2b, 0xd4, 0x0d, 0x3e, 0xc9, 0x9d, 0xe5, 0xbe, 0x35, 0xf7, 0x97, 0x3e,
  0x81, 0x3e, 0x0a, 0x3e, 0x8f, 0x73, 0x82, 0xbe, 0xf9, 0xaa, 0xa8, 0xbe,
  0x96, 0x81, 0xf9, 0xbd, 0xa4, 0x9c, 0x37, 0xbe, 0xbe, 0x4e, 0x47, 0xbe,
  0x52, 0x4b, 0x77, 0x3e, 0xee, 0xab, 0x9d, 0xbc, 0xe0, 0xde, 0xb4, 0xbd,
  0xe8, 0x83, 0xde, 0xbc, 0xb1, 0xe0, 0x9b, 0xbc, 0xdb, 0x04, 0x45, 0x3e,
  0xde, 0xdf, 0x12, 0xbe, 0x16, 0xe7, 0xf9, 0xbd, 0x79, 0xde, 0x37, 0x3d,
  0x14, 0x33, 0x60, 0x3e, 0xfa, 0x7b, 0x10, 0x3e, 0xbe, 0x7c, 0x88, 0x3e,
  0xa5, 0x8f, 0x81, 0xbe, 0x0d, 0xec, 0x65, 0x3d, 0x0b, 0xfd, 0x8a, 0xbe,
  0x58, 0x10, 0xa8, 0xbe, 0x4a, 0x12, 0x63, 0x3e, 0x43, 0x93, 0xda, 0xbd,
  0xd5, 0x56, 0x87, 0x3e, 0x9c, 0x6a, 0x8b, 0xbe, 0xf4, 0xe4, 0x8f, 0x3d,
  0x7d, 0x6d, 0x4d, 0x3b, 0x96, 0x08, 0x97, 0xbd, 0xe7, 0x23, 0x7d, 0x3e,
  0x22, 0x07, 0x7c, 0x3d, 0xab, 0x5a, 0xfe, 0x3c, 0x5c, 0x09, 0xfa, 0x3d,
  0x85, 0xb8, 0x48, 0x3e, 0x99, 0xcf, 0xaf, 0x3e, 0xec, 0x0f, 0x42, 0xbe,
  0x43, 0x6d, 0xe0, 0x3d, 0xbc, 0xd0, 0x3a, 0x3e, 0x05, 0xb2, 0xcb, 0xbd,
  0xec, 0x64, 0xd0, 0xbd, 0xfb, 0x78, 0x2d, 0x3d, 0x77, 0x2b, 0x2f, 0x3e,
  0x24, 0x2c, 0x85, 0x3d, 0x7d, 0x25, 0x60, 0x3e, 0x7c, 0x2b, 0x97, 0x3b,
  0x32, 0x27, 0x47, 0x3e, 0x41, 0x0b, 0x33, 0x3c, 0x8e, 0x50, 0x18, 0x3e,
  0xa5, 0x40, 0x8e, 0x3e, 0xc2, 0x6c, 0x26, 0xbe, 0x92, 0x54, 0x5d, 0x3e,
  0x74, 0x3b, 0x88, 0x3e, 0xe1, 0x91, 0xb8, 0x3d, 0x72, 0x51, 0x8c, 0x3d,
  0x55, 0x58, 0x8c, 0x3e, 0xbf, 0x58, 0x51, 0x3e, 0x70, 0x4b, 0xa6, 0xbe,
  0x67, 0x9c, 0x2d, 0xbe, 0x56, 0x69, 0xa6, 0xbe, 0xf7, 0x9b, 0x9e, 0x3e,
  0x21, 0xd8, 0x28, 0xbe, 0xb8, 0x2a, 0x96, 0xbb, 0x84, 0xf8, 0x19, 0x3e,
  0x11, 0x36, 0x8d, 0xbd, 0xe0, 0x57, 0x3e, 0x3e, 0x5d, 0x90, 0xd3, 0xbe,
  0x5c, 0x36, 0xc0, 0x3c, 0x08, 0xf3, 0x26, 0x3e, 0x79, 0x21, 0xdb, 0xbe,
  0x2c, 0x41, 0xa4, 0x3e, 0xef, 0xba, 0x1c, 0x3d, 0x90, 0x27, 0xc3, 0x3b,
  0xa0, 0xef, 0xaf, 0xbd, 0x4a, 0xf3, 0x0c, 0xbf, 0x4a, 0x61, 0x49, 0xbe,
  0x5b, 0x74, 0x4d, 0x3e, 0xd7, 0x51, 0x20, 0xbf, 0x10, 0x7f, 0x4d, 0xbe,
  0x4d, 0x10, 0xbc, 0xbb, 0xd7, 0x02, 0xf2, 0xbe, 0xb2, 0x15, 0xc9, 0xbe,
  0xd4, 0xcd, 0xdf, 0xbd, 0x74, 0x42, 0xfd, 0x3e, 0x25, 0xd8, 0x04, 0xbf,
  0x27, 0x8e, 0x8c, 0x3e, 0x41, 0x75, 0x8a, 0xbe, 0xaf, 0x08, 0x9c, 0x3e,
  0xbf, 0xd7, 0x0a, 0xbf, 0x2e, 0x16, 0xe4, 0x3d, 0x7e, 0xc5, 0xe2, 0xbd,
  0xd8, 0xb5, 0xc0, 0x3e, 0x9a, 0xab, 0xa7, 0xbd, 0x19, 0xcd, 0xb0, 0x3d,
  0x74, 0xb9, 0x0d, 0xbf, 0x6a, 0xbb, 0x87, 0x3e, 0xe4, 0xa5, 0xc3, 0xbe,
  0x2e, 0x9d, 0x7b, 0x3d, 0x72, 0x40, 0x16, 0xbf, 0x41, 0x1b, 0x1a, 0x3e,
  0xb7, 0x62, 0xb8, 0xbd, 0xf8, 0xaa, 0xa1, 0xbe, 0x32, 0xc0, 0x99, 0xbd,
  0x5e, 0xbf, 0x80, 0xbe, 0x25, 0x2c, 0x5a, 0xbe, 0x7f, 0x90, 0x17, 0xbe,
  0x8c, 0x09, 0x05, 0xbf, 0x14, 0xef, 0xeb, 0x3c, 0x33, 0xc7, 0x89, 0xbe,
  0x6b, 0x06, 0x8a, 0x3e, 0x8d, 0x8e, 0xfc, 0xbd, 0xd3, 0x4c, 0xab, 0xbd,
  0x3c, 0x1d, 0x62, 0xbd, 0x85, 0x49, 0x10, 0x3e, 0x08, 0xe9, 0x6d, 0x3c,
  0x3d, 0xdf, 0x5e, 0xbe, 0x17, 0x81, 0x0b, 0xbd, 0xde, 0xa4, 0x88, 0x3e,
  0x5d, 0xed, 0xf2, 0x3e, 0x61, 0xdf, 0xc0, 0xbe, 0x57, 0x5f, 0xd7, 0xbd,
  0xfb, 0x45, 0x8b, 0xbd, 0x6e, 0x08, 0xcd, 0xbe, 0x54, 0x2d, 0xef, 0x3e,
  0x87, 0xa9, 0xf0, 0xbd, 0xb9, 0x47, 0xbc, 0xbe, 0x2e, 0x03, 0xf0, 0x3d,
  0x06, 0x65, 0x21, 0xbe, 0x55, 0x1d, 0xc7, 0x3e, 0xf4, 0xf7, 0xa6, 0xbe,
  0xed, 0xf9, 0xd1, 0xbe, 0x15, 0x4f, 0x8e, 0xbe, 0x4c, 0xe9, 0x02, 0x3e,
  0xb0, 0x77, 0x6b, 0x3e, 0xf4, 0xde, 0x41, 0xbe, 0x68, 0x11, 0x89, 0x3e,
  0x85, 0x6b, 0xa5, 0xbe, 0xf6, 0x84, 0x52, 0x3d, 0x60, 0x6f, 0xa2, 0x3d,
  0x3e, 0x7a, 0x87, 0x3e, 0xc9, 0x58, 0x90, 0x3e, 0x45, 0x36, 0xf4, 0xbd,
  0xa3, 0x0a, 0x54, 0xbe, 0xbb, 0x59, 0x11, 0x3e, 0x89, 0x3d, 0xb4, 0xbd,
  0xf2, 0x08, 0x78, 0x3e, 0xa7, 0x63, 0xd8, 0x3e, 0x57, 0x4e, 0x44, 0xbe,
  0x39, 0x7c, 0xff, 0x3e, 0xf0, 0xa1, 0x70, 0x3d, 0xc4, 0xda, 0x5d, 0xbe,
  0x51, 0x30, 0x02, 0xbe, 0x23, 0xb3, 0x7e, 0x3e, 0xbb, 0x7b, 0x33, 0xbe,
  0xbc, 0xe6, 0x71, 0x3d, 0x89, 0xb9, 0x6c, 0x3e, 0xa4, 0x71, 0x49, 0x3e,
  0x40, 0x1c, 0x4b, 0xbd, 0x08, 0x8b, 0x97, 0xbd, 0x72, 0x3e, 0x13, 0xbe,
  0x80, 0xc0, 0xab, 0xbd, 0x9a, 0x39, 0x4b, 0xbe, 0x0b, 0x5e, 0x04, 0xbe,
  0xb4, 0x40, 0x53, 0xbe, 0xf9, 0x76, 0xa1, 0x3d, 0xce, 0x5a, 0x89, 0xbe,
  0xfe, 0x8a, 0x12, 0x3e, 0x6f, 0x8c, 0x3b, 0x3e, 0x43, 0x10, 0x68, 0x3e,
  0xf1, 0x90, 0x0c, 0xbe, 0xa4, 0x21, 0xa8, 0x3e, 0x64, 0x4a, 0xa3, 0x3d,
  0x80, 0xb7, 0x88, 0x3e, 0x57, 0x22, 0xc9, 0xbd, 0x37, 0xde, 0x05, 0x3e,
  0x6d, 0xaf, 0x7c, 0xbd, 0x20, 0x31, 0x62, 0xbd, 0xf9, 0xd1, 0x98, 0xbe,
  0xaa, 0x80, 0x3a, 0x3e, 0x31, 0xb2, 0x27, 0x3c, 0xbe, 0xb2, 0x4a, 0xbe,
  0x0d, 0x7e, 0xb2, 0x3c, 0xec, 0x59, 0x1b, 0xbe, 0x64, 0x1a, 0x2d, 0xbd,
  0x73, 0x53, 0x6a, 0x3e, 0x61, 0xaf, 0xd1, 0x3d, 0xe5, 0x99, 0x23, 0xbe,
  0x04, 0xe6, 0x8f, 0x3d, 0x41, 0xa5, 0x7d, 0xbe, 0xe4, 0xb8, 0x09, 0xbe,
  0x21, 0x10, 0xad, 0xbb, 0xef, 0xa2, 0x61, 0xbe, 0x55, 0x15, 0x87, 0xbd,
  0x72, 0x36, 0x44, 0x3e, 0xa2, 0x4c, 0x0c, 0x3e, 0xa5, 0x79, 0x87, 0x3e,
  0x57, 0xf9, 0xa8, 0xbc, 0xdf, 0x13, 0x82, 0x3e, 0x35, 0xd0, 0x78, 0xbe,
  0x81, 0x4b, 0x83, 0x3e, 0xcc, 0xfb, 0xd2, 0xbc, 0x01, 0x00, 0x7e, 0x3e,
  0xe8, 0xcd, 0xa2, 0xbe, 0xf4, 0x77, 0x7f, 0xbd, 0xcb, 0xca, 0xfa, 0x3e,
  0x4c, 0x10, 0x6f, 0xbe, 0x36, 0xfc, 0x39, 0xbe, 0xa4, 0x64, 0x22, 0x3e,
  0x7e, 0xce, 0xa0, 0xbd, 0x69, 0x6e, 0x29, 0x3d, 0x63, 0x60, 0xe9, 0x3d,
  0xc6, 0x83, 0xb3, 0x3d, 0x74, 0x20, 0xb7, 0xbe, 0xe5, 0x45, 0x71, 0x3b,
  0x8b, 0xb6, 0x69, 0x3e, 0xaf, 0x4c, 0x96, 0xbe, 0xcd, 0x71, 0x05, 0xbe,
  0x20, 0xba, 0x4d, 0xbe, 0xf2, 0xa7, 0x0a, 0xbe, 0x95, 0x28, 0x34, 0x3e,
  0xd9, 0x0c, 0xee, 0xbc, 0xe3, 0x5a, 0x32, 0xbd, 0x3d, 0x50, 0xad, 0x3c,
  0xdf, 0x6b, 0xb6, 0xbb, 0xc1, 0xf5, 0x16, 0xbe, 0x77, 0xde, 0x82, 0x3d,
  0x17, 0xe2, 0x4b, 0xbd, 0x7a, 0x0f, 0xad, 0xbe, 0xda, 0xcc, 0xa0, 0xbd,
  0x4a, 0xbc, 0x88, 0x3e, 0xc9, 0xbd, 0x76, 0x3d, 0xa9, 0xe4, 0xd6, 0x3c,
  0x2f, 0x0f, 0xbd, 0xbe, 0x94, 0xe3, 0x76, 0xbe, 0xb4, 0xed, 0xf8, 0xbd,
  0x62, 0x50, 0xf9, 0x3d, 0x96, 0x39, 0x91, 0xbe, 0x25, 0xc7, 0xce, 0xbc,
  0x90, 0xa1, 0x75, 0xbe, 0xcc, 0xec, 0x97, 0xbe, 0x88, 0x6d, 0xaa, 0xbc,
  0xea, 0x23, 0x11, 0xbe, 0xb7, 0x40, 0xae, 0xbe, 0x6c, 0x74, 0x31, 0x3d,
  0x2a, 0xe8, 0x98, 0x3e, 0x16, 0xa2, 0x2c, 0x3e, 0xd8, 0x0b, 0x05, 0xbe,
  0x25, 0x36, 0x8f, 0xbc, 0xa0, 0xcc, 0x0b, 0xbe, 0x6f, 0x30, 0x1b, 0x3e,
  0xaf, 0x80, 0x69, 0xbe, 0xb9, 0x9a, 0x10, 0xbe, 0xd6, 0xc0, 0x78, 0x3e,
  0x48, 0x19, 0x12, 0xbc, 0xf0, 0x94, 0x18, 0xbd, 0xe9, 0x81, 0x6a, 0x3d,
  0xb0, 0x7b, 0x62, 0xbe, 0xcd, 0x33, 0x23, 0xbe, 0x0c, 0x81, 0x2f, 0xbe,
  0xf7, 0xda, 0xb7, 0xbe, 0xdc, 0x33, 0xdf, 0x3c, 0xdd, 0x79, 0xc2, 0xbe,
  0x94, 0xa4, 0x55, 0xbe, 0x24, 0xf9, 0xff, 0xff, 0x28, 0xf9, 0xff, 0xff,
  0x0f, 0x00, 0x00, 0x00, 0x4d, 0x4c, 0x49, 0x52, 0x20, 0x43, 0x6f, 0x6e,
  0x76, 0x65, 0x72, 0x74, 0x65, 0x64, 0x2e, 0x00, 0x01, 0x00, 0x00, 0x00,
  0x14, 0x00, 0x00, 0x00, 0x00, 0x00, 0x0e, 0x00, 0x18, 0x00, 0x14, 0x00,
  0x10, 0x00, 0x0c, 0x00, 0x08, 0x00, 0x04, 0x00, 0x0e, 0x00, 0x00, 0x00,
  0x14, 0x00, 0x00, 0x00, 0x1c, 0x00, 0x00, 0x00, 0x5c, 0x01, 0x00, 0x00,
  0x60, 0x01, 0x00, 0x00, 0x64, 0x01, 0x00, 0x00, 0x04, 0x00, 0x00, 0x00,
  0x6d, 0x61, 0x69, 0x6e, 0x00, 0x00, 0x00, 0x00, 0x05, 0x00, 0x00, 0x00,
  0x00, 0x01, 0x00, 0x00, 0xb8, 0x00, 0x00, 0x00, 0x84, 0x00, 0x00, 0x00,
  0x40, 0x00, 0x00, 0x00, 0x04, 0x00, 0x00, 0x00, 0x96, 0xff, 0xff, 0xff,
  0x1c, 0x00, 0x00, 0x00, 0x00, 0x00, 0x00, 0x09, 0x1c, 0x00, 0x00, 0x00,
  0x20, 0x00, 0x00, 0x00, 0x02, 0x00, 0x00, 0x00, 0x00, 0x00, 0x06, 0x00,
  0x08, 0x00, 0x04, 0x00, 0x06, 0x00, 0x00, 0x00, 0x00, 0x00, 0x80, 0x3f,
  0x01, 0x00, 0x00, 0x00, 0x0c, 0x00, 0x00, 0x00, 0x01, 0x00, 0x00, 0x00,
  0x0b, 0x00, 0x00, 0x00, 0x5a, 0xff, 0xff, 0xff, 0x10, 0x00, 0x00, 0x00,
  0x00, 0x00, 0x00, 0x08, 0x0c, 0x00, 0x00, 0x00, 0x10, 0x00, 0x00, 0x00,
  0xe0, 0xf9, 0xff, 0xff, 0x01, 0x00, 0x00, 0x00, 0x0b, 0x00, 0x00, 0x00,
  0x03, 0x00, 0x00, 0x00, 0x0a, 0x00, 0x00, 0x00, 0x02, 0x00, 0x00, 0x00,
  0x03, 0x00, 0x00, 0x00, 0x00, 0x00, 0x0e, 0x00, 0x18, 0x00, 0x14, 0x00,
  0x10, 0x00, 0x0c, 0x00, 0x0b, 0x00, 0x04, 0x00, 0x0e, 0x00, 0x00, 0x00,
  0x14, 0x00, 0x00, 0x00, 0x00, 0x00, 0x00, 0x1b, 0x10, 0x00, 0x00, 0x00,
  0x14, 0x00, 0x00, 0x00, 0x01, 0x00, 0x00, 0x00, 0x24, 0xfa, 0xff, 0xff,
  0x01, 0x00, 0x00, 0x00, 0x0a, 0x00, 0x00, 0x00, 0x02, 0x00, 0x00, 0x00,
  0x09, 0x00, 0x00, 0x00, 0x04, 0x00, 0x00, 0x00, 0xca, 0xff, 0xff, 0xff,
  0x10, 0x00, 0x00, 0x00, 0x00, 0x00, 0x00, 0x08, 0x10, 0x00, 0x00, 0x00,
  0x14, 0x00, 0x00, 0x00, 0xba, 0xff, 0xff, 0xff, 0x00, 0x00, 0x01, 0x01,
  0x01, 0x00, 0x00, 0x00, 0x09, 0x00, 0x00, 0x00, 0x03, 0x00, 0x00, 0x00,
  0x08, 0x00, 0x00, 0x00, 0x01, 0x00, 0x00, 0x00, 0x05, 0x00, 0x00, 0x00,
  0x00, 0x00, 0x0e, 0x00, 0x16, 0x00, 0x00, 0x00, 0x10, 0x00, 0x0c, 0x00,
  0x0b, 0x00, 0x04, 0x00, 0x0e, 0x00, 0x00, 0x00, 0x1c, 0x00, 0x00, 0x00,
  0x00, 0x00, 0x00, 0x08, 0x1c, 0x00, 0x00, 0x00, 0x20, 0x00, 0x00, 0x00,
  0x00, 0x00, 0x0a, 0x00, 0x08, 0x00, 0x07, 0x00, 0x00, 0x00, 0x06, 0x00,
  0x0a, 0x00, 0x00, 0x00, 0x00, 0x00, 0x01, 0x01, 0x01, 0x00, 0x00, 0x00,
  0x08, 0x00, 0x00, 0x00, 0x03, 0x00, 0x00, 0x00, 0x00, 0x00, 0x00, 0x00,
  0x07, 0x00, 0x00, 0x00, 0x06, 0x00, 0x00, 0x00, 0x01, 0x00, 0x00, 0x00,
  0x0c, 0x00, 0x00, 0x00, 0x01, 0x00, 0x00, 0x00, 0x00, 0x00, 0x00, 0x00,
  0x0d, 0x00, 0x00, 0x00, 0x00, 0x05, 0x00, 0x00, 0xa8, 0x04, 0x00, 0x00,
  0x50, 0x04, 0x00, 0x00, 0x14, 0x04, 0x00, 0x00, 0xa8, 0x03, 0x00, 0x00,
  0x34, 0x03, 0x00, 0x00, 0xdc, 0x02, 0x00, 0x00, 0x90, 0x02, 0x00, 0x00,
  0xf4, 0x01, 0x00, 0x00, 0x50, 0x01, 0x00, 0x00, 0xe0, 0x00, 0x00, 0x00,
  0x60, 0x00, 0x00, 0x00, 0x04, 0x00, 0x00, 0x00, 0x4a, 0xfb, 0xff, 0xff,
  0x00, 0x00, 0x00, 0x01, 0x14, 0x00, 0x00, 0x00, 0x1c, 0x00, 0x00, 0x00,
  0x1c, 0x00, 0x00, 0x00, 0x0d, 0x00, 0x00, 0x00, 0x34, 0x00, 0x00, 0x00,
  0x02, 0x00, 0x00, 0x00, 0xff, 0xff, 0xff, 0xff, 0x04, 0x00, 0x00, 0x00,
  0x30, 0xfb, 0xff, 0xff, 0x1b, 0x00, 0x00, 0x00, 0x53, 0x74, 0x61, 0x74,
  0x65, 0x66, 0x75, 0x6c, 0x50, 0x61, 0x72, 0x74, 0x69, 0x74, 0x69, 0x6f,
  0x6e, 0x65, 0x64, 0x43, 0x61, 0x6c, 0x6c, 0x5f, 0x31, 0x3a, 0x30, 0x00,
  0x02, 0x00, 0x00, 0x00, 0x01, 0x00, 0x00, 0x00, 0x04, 0x00, 0x00, 0x00,
  0xa2, 0xfb, 0xff, 0xff, 0x00, 0x00, 0x00, 0x01, 0x14, 0x00, 0x00, 0x00,
  0x1c, 0x00, 0x00, 0x00, 0x1c, 0x00, 0x00, 0x00, 0x0c, 0x00, 0x00, 0x00,
  0x58, 0x00, 0x00, 0x00, 0x02, 0x00, 0x00, 0x00, 0xff, 0xff, 0xff, 0xff,
  0x04, 0x00, 0x00, 0x00, 0x88, 0xfb, 0xff, 0xff, 0x3c, 0x00, 0x00, 0x00,
  0x73, 0x65, 0x71, 0x75, 0x65, 0x6e, 0x74, 0x69, 0x61, 0x6c, 0x5f, 0x31,
  0x2f, 0x64, 0x65, 0x6e, 0x73, 0x65, 0x5f, 0x32, 0x5f, 0x31, 0x2f, 0x4d,
  0x61, 0x74, 0x4d, 0x75, 0x6c, 0x3b, 0x73, 0x65, 0x71, 0x75, 0x65, 0x6e,
  0x74, 0x69, 0x61, 0x6c, 0x5f, 0x31, 0x2f, 0x64, 0x65, 0x6e, 0x73, 0x65,
  0x5f, 0x32, 0x5f, 0x31, 0x2f, 0x42, 0x69, 0x61, 0x73, 0x41, 0x64, 0x64,
  0x00, 0x00, 0x00, 0x00, 0x02, 0x00, 0x00, 0x00, 0x01, 0x00, 0x00, 0x00,
  0x04, 0x00, 0x00, 0x00, 0x1e, 0xfc, 0xff, 0xff, 0x00, 0x00, 0x00, 0x01,
  0x14, 0x00, 0x00, 0x00, 0x1c, 0x00, 0x00, 0x00, 0x1c, 0x00, 0x00, 0x00,
  0x0b, 0x00, 0x00, 0x00, 0x48, 0x00, 0x00, 0x00, 0x02, 0x00, 0x00, 0x00,
  0xff, 0xff, 0xff, 0xff, 0x0f, 0x00, 0x00, 0x00, 0x04, 0xfc, 0xff, 0xff,
  0x2c, 0x00, 0x00, 0x00, 0x73, 0x65, 0x71, 0x75, 0x65, 0x6e, 0x74, 0x69,
  0x61, 0x6c, 0x5f, 0x31, 0x2f, 0x67, 0x6c, 0x6f, 0x62, 0x61, 0x6c, 0x5f,
  0x61, 0x76, 0x65, 0x72, 0x61, 0x67, 0x65, 0x5f, 0x70, 0x6f, 0x6f, 0x6c,
  0x69, 0x6e, 0x67, 0x31, 0x64, 0x5f, 0x31, 0x2f, 0x4d, 0x65, 0x61, 0x6e,
  0x00, 0x00, 0x00, 0x00, 0x02, 0x00, 0x00, 0x00, 0x01, 0x00, 0x00, 0x00,
  0x0f, 0x00, 0x00, 0x00, 0x8a, 0xfc, 0xff, 0xff, 0x00, 0x00, 0x00, 0x01,
  0x14, 0x00, 0x00, 0x00, 0x20, 0x00, 0x00, 0x00, 0x20, 0x00, 0x00, 0x00,
  0x0a, 0x00, 0x00, 0x00, 0x78, 0x00, 0x00, 0x00, 0x03, 0x00, 0x00, 0x00,
  0xff, 0xff, 0xff, 0xff, 0x2c, 0x01, 0x00, 0x00, 0x0f, 0x00, 0x00, 0x00,
  0x74, 0xfc, 0xff, 0xff, 0x58, 0x00, 0x00, 0x00, 0x73, 0x65, 0x71, 0x75,
  0x65, 0x6e, 0x74, 0x69, 0x61, 0x6c, 0x5f, 0x31, 0x2f, 0x64, 0x65, 0x6e,
  0x73, 0x65, 0x5f, 0x31, 0x5f, 0x32, 0x2f, 0x4d, 0x61, 0x74, 0x4d, 0x75,
  0x6c, 0x3b, 0x73, 0x65, 0x71, 0x75, 0x65, 0x6e, 0x74, 0x69, 0x61, 0x6c,
  0x5f, 0x31, 0x2f, 0x64, 0x65, 0x6e, 0x73, 0x65, 0x5f, 0x31, 0x5f, 0x32,
  0x2f, 0x52, 0x65, 0x6c, 0x75, 0x3b, 0x73, 0x65, 0x71, 0x75, 0x65, 0x6e,
  0x74, 0x69, 0x61, 0x6c, 0x5f, 0x31, 0x2f, 0x64, 0x65, 0x6e, 0x73, 0x65,
  0x5f, 0x31, 0x5f, 0x32, 0x2f, 0x42, 0x69, 0x61, 0x73, 0x41, 0x64, 0x64,
  0x00, 0x00, 0x00, 0x00, 0x03, 0x00, 0x00, 0x00, 0x01, 0x00, 0x00, 0x00,
  0x2c, 0x01, 0x00, 0x00, 0x0f, 0x00, 0x00, 0x00, 0x2a, 0xfd, 0xff, 0xff,
  0x00, 0x00, 0x00, 0x01, 0x14, 0x00, 0x00, 0x00, 0x20, 0x00, 0x00, 0x00,
  0x20, 0x00, 0x00, 0x00, 0x09, 0x00, 0x00, 0x00, 0x70, 0x00, 0x00, 0x00,
  0x03, 0x00, 0x00, 0x00, 0xff, 0xff, 0xff, 0xff, 0x2c, 0x01, 0x00, 0x00,
  0x32, 0x00, 0x00, 0x00, 0x14, 0xfd, 0xff, 0xff, 0x52, 0x00, 0x00, 0x00,
  0x73, 0x65, 0x71, 0x75, 0x65, 0x6e, 0x74, 0x69, 0x61, 0x6c, 0x5f, 0x31,
  0x2f, 0x64, 0x65, 0x6e, 0x73, 0x65, 0x5f, 0x31, 0x2f, 0x4d, 0x61, 0x74,
  0x4d, 0x75, 0x6c, 0x3b, 0x73, 0x65, 0x71, 0x75, 0x65, 0x6e, 0x74, 0x69,
  0x61, 0x6c, 0x5f, 0x31, 0x2f, 0x64, 0x65, 0x6e, 0x73, 0x65, 0x5f, 0x31,
  0x2f, 0x52, 0x65, 0x6c, 0x75, 0x3b, 0x73, 0x65, 0x71, 0x75, 0x65, 0x6e,
  0x74, 0x69, 0x61, 0x6c, 0x5f, 0x31, 0x2f, 0x64, 0x65, 0x6e, 0x73, 0x65,
  0x5f, 0x31, 0x2f, 0x42, 0x69, 0x61, 0x73, 0x41, 0x64, 0x64, 0x00, 0x00,
  0x03, 0x00, 0x00, 0x00, 0x01, 0x00, 0x00, 0x00, 0x2c, 0x01, 0x00, 0x00,
  0x32, 0x00, 0x00, 0x00, 0x16, 0xfe, 0xff, 0xff, 0x00, 0x00, 0x00, 0x01,
  0x10, 0x00, 0x00, 0x00, 0x10, 0x00, 0x00, 0x00, 0x08, 0x00, 0x00, 0x00,
  0x28, 0x00, 0x00, 0x00, 0x98, 0xfd, 0xff, 0xff, 0x1b, 0x00, 0x00, 0x00,
  0x73, 0x65, 0x71, 0x75, 0x65, 0x6e, 0x74, 0x69, 0x61, 0x6c, 0x5f, 0x31,
  0x2f, 0x64, 0x65, 0x6e, 0x73, 0x65, 0x5f, 0x31, 0x2f, 0x4d, 0x61, 0x74,
  0x4d, 0x75, 0x6c, 0x00, 0x02, 0x00, 0x00, 0x00, 0x32, 0x00, 0x00, 0x00,
  0x06, 0x00, 0x00, 0x00, 0x5e, 0xfe, 0xff, 0xff, 0x00, 0x00, 0x00, 0x01,
  0x10, 0x00, 0x00, 0x00, 0x10, 0x00, 0x00, 0x00, 0x07, 0x00, 0x00, 0x00,
  0x38, 0x00, 0x00, 0x00, 0xe0, 0xfd, 0xff, 0xff, 0x2b, 0x00, 0x00, 0x00,
  0x73, 0x65, 0x71, 0x75, 0x65, 0x6e, 0x74, 0x69, 0x61, 0x6c, 0x5f, 0x31,
  0x2f, 0x64, 0x65, 0x6e, 0x73, 0x65, 0x5f, 0x31, 0x2f, 0x42, 0x69, 0x61,
  0x73, 0x41, 0x64, 0x64, 0x2f, 0x52, 0x65, 0x61, 0x64, 0x56, 0x61, 0x72,
  0x69, 0x61, 0x62, 0x6c, 0x65, 0x4f, 0x70, 0x00, 0x01, 0x00, 0x00, 0x00,
  0x32, 0x00, 0x00, 0x00, 0xb2, 0xfe, 0xff, 0xff, 0x00, 0x00, 0x00, 0x01,
  0x10, 0x00, 0x00, 0x00, 0x10, 0x00, 0x00, 0x00, 0x06, 0x00, 0x00, 0x00,
  0x3c, 0x00, 0x00, 0x00, 0x34, 0xfe, 0xff, 0xff, 0x2d, 0x00, 0x00, 0x00,
  0x73, 0x65, 0x71, 0x75, 0x65, 0x6e, 0x74, 0x69, 0x61, 0x6c, 0x5f, 0x31,
  0x2f, 0x64, 0x65, 0x6e, 0x73, 0x65, 0x5f, 0x31, 0x5f, 0x32, 0x2f, 0x42,
  0x69, 0x61, 0x73, 0x41, 0x64, 0x64, 0x2f, 0x52, 0x65, 0x61, 0x64, 0x56,
  0x61, 0x72, 0x69, 0x61, 0x62, 0x6c, 0x65, 0x4f, 0x70, 0x00, 0x00, 0x00,
  0x01, 0x00, 0x00, 0x00, 0x0f, 0x00, 0x00, 0x00, 0x00, 0x00, 0x16, 0x00,
  0x1c, 0x00, 0x18, 0x00, 0x17, 0x00, 0x10, 0x00, 0x0c, 0x00, 0x08, 0x00,
  0x00, 0x00, 0x00, 0x00, 0x00, 0x00, 0x07, 0x00, 0x16, 0x00, 0x00, 0x00,
  0x00, 0x00, 0x00, 0x01, 0x14, 0x00, 0x00, 0x00, 0x14, 0x00, 0x00, 0x00,
  0x05, 0x00, 0x00, 0x00, 0x00, 0x00, 0x00, 0x02, 0x4c, 0x00, 0x00, 0x00,
  0xa8, 0xfe, 0xff, 0xff, 0x3e, 0x00, 0x00, 0x00, 0x73, 0x65, 0x71, 0x75,
  0x65, 0x6e, 0x74, 0x69, 0x61, 0x6c, 0x5f, 0x31, 0x2f, 0x67, 0x6c, 0x6f,
  0x62, 0x61, 0x6c, 0x5f, 0x61, 0x76, 0x65, 0x72, 0x61, 0x67, 0x65, 0x5f,
  0x70, 0x6f, 0x6f, 0x6c, 0x69, 0x6e, 0x67, 0x31, 0x64, 0x5f, 0x31, 0x2f,
  0x4d, 0x65, 0x61, 0x6e, 0x2f, 0x72, 0x65, 0x64, 0x75, 0x63, 0x74, 0x69,
  0x6f, 0x6e, 0x5f, 0x69, 0x6e, 0x64, 0x69, 0x63, 0x65, 0x73, 0x00, 0x00,
  0x00, 0x00, 0x00, 0x00, 0x8a, 0xff, 0xff, 0xff, 0x00, 0x00, 0x00, 0x01,
  0x10, 0x00, 0x00, 0x00, 0x10, 0x00, 0x00, 0x00, 0x04, 0x00, 0x00, 0x00,
  0x1c, 0x00, 0x00, 0x00, 0x0c, 0xff, 0xff, 0xff, 0x0f, 0x00, 0x00, 0x00,
  0x61, 0x72, 0x69, 0x74, 0x68, 0x2e, 0x63, 0x6f, 0x6e, 0x73, 0x74, 0x61,
  0x6e, 0x74, 0x32, 0x00, 0x01, 0x00, 0x00, 0x00, 0x04, 0x00, 0x00, 0x00,
  0xc2, 0xff, 0xff, 0xff, 0x00, 0x00, 0x00, 0x01, 0x10, 0x00, 0x00, 0x00,
  0x10, 0x00, 0x00, 0x00, 0x03, 0x00, 0x00, 0x00, 0x1c, 0x00, 0x00, 0x00,
  0x44, 0xff, 0xff, 0xff, 0x0f, 0x00, 0x00, 0x00, 0x61, 0x72, 0x69, 0x74,
  0x68, 0x2e, 0x63, 0x6f, 0x6e, 0x73, 0x74, 0x61, 0x6e, 0x74, 0x31, 0x00,
  0x02, 0x00, 0x00, 0x00, 0x04, 0x00, 0x00, 0x00, 0x0f, 0x00, 0x00, 0x00,
  0x00, 0x00, 0x16, 0x00, 0x18, 0x00, 0x14, 0x00, 0x00, 0x00, 0x10, 0x00,
  0x0c, 0x00, 0x08, 0x00, 0x00, 0x00, 0x00, 0x00, 0x00, 0x00, 0x07, 0x00,
  0x16, 0x00, 0x00, 0x00, 0x00, 0x00, 0x00, 0x01, 0x10, 0x00, 0x00, 0x00,
  0x10, 0x00, 0x00, 0x00, 0x02, 0x00, 0x00, 0x00, 0x1c, 0x00, 0x00, 0x00,
  0x98, 0xff, 0xff, 0xff, 0x0e, 0x00, 0x00, 0x00, 0x61, 0x72, 0x69, 0x74,
  0x68, 0x2e, 0x63, 0x6f, 0x6e, 0x73, 0x74, 0x61, 0x6e, 0x74, 0x00, 0x00,
  0x02, 0x00, 0x00, 0x00, 0x0f, 0x00, 0x00, 0x00, 0x32, 0x00, 0x00, 0x00,
  0x00, 0x00, 0x16, 0x00, 0x1c, 0x00, 0x18, 0x00, 0x00, 0x00, 0x14, 0x00,
  0x10, 0x00, 0x0c, 0x00, 0x00, 0x00, 0x00, 0x00, 0x08, 0x00, 0x07, 0x00,
  0x16, 0x00, 0x00, 0x00, 0x00, 0x00, 0x00, 0x01, 0x14, 0x00, 0x00, 0x00,
  0x24, 0x00, 0x00, 0x00, 0x24, 0x00, 0x00, 0x00, 0x01, 0x00, 0x00, 0x00,
  0x40, 0x00, 0x00, 0x00, 0x03, 0x00, 0x00, 0x00, 0xff, 0xff, 0xff, 0xff,
  0x2c, 0x01, 0x00, 0x00, 0x06, 0x00, 0x00, 0x00, 0x04, 0x00, 0x04, 0x00,
  0x04, 0x00, 0x00, 0x00, 0x1e, 0x00, 0x00, 0x00, 0x73, 0x65, 0x72, 0x76,
  0x69, 0x6e, 0x67, 0x5f, 0x64, 0x65, 0x66, 0x61, 0x75, 0x6c, 0x74, 0x5f,
  0x6b, 0x65, 0x72, 0x61, 0x73, 0x5f, 0x74, 0x65, 0x6e, 0x73, 0x6f, 0x72,
  0x3a, 0x30, 0x00, 0x00, 0x03, 0x00, 0x00, 0x00, 0x01, 0x00, 0x00, 0x00,
  0x2c, 0x01, 0x00, 0x00, 0x06, 0x00, 0x00, 0x00, 0x03, 0x00, 0x00, 0x00,
  0x3c, 0x00, 0x00, 0x00, 0x20, 0x00, 0x00, 0x00, 0x04, 0x00, 0x00, 0x00,
  0xf4, 0xff, 0xff, 0xff, 0x19, 0x00, 0x00, 0x00, 0x00, 0x00, 0x00, 0x19,
  0x0c, 0x00, 0x0c, 0x00, 0x0b, 0x00, 0x00, 0x00, 0x00, 0x00, 0x04, 0x00,
  0x0c, 0x00, 0x00, 0x00, 0x28, 0x00, 0x00, 0x00, 0x00, 0x00, 0x00, 0x28,
  0x0c, 0x00, 0x10, 0x00, 0x0f, 0x00, 0x00, 0x00, 0x08, 0x00, 0x04, 0x00,
  0x0c, 0x00, 0x00, 0x00, 0x09, 0x00, 0x00, 0x00, 0x05, 0x00, 0x00, 0x00,
  0x00, 0x00, 0x00, 0x09
};
unsigned int Handshake_0603_2044_tflite_len = 7204;
