unsigned char Handshake_0603_2146_tflite[] = {
  0x1c, 0x00, 0x00, 0x00, 0x54, 0x46, 0x4c, 0x33, 0x14, 0x00, 0x20, 0x00,
  0x1c, 0x00, 0x18, 0x00, 0x14, 0x00, 0x10, 0x00, 0x0c, 0x00, 0x00, 0x00,
  0x08, 0x00, 0x04, 0x00, 0x14, 0x00, 0x00, 0x00, 0x1c, 0x00, 0x00, 0x00,
  0x98, 0x00, 0x00, 0x00, 0xf0, 0x00, 0x00, 0x00, 0x98, 0x14, 0x00, 0x00,
  0xa8, 0x14, 0x00, 0x00, 0xa0, 0x1b, 0x00, 0x00, 0x03, 0x00, 0x00, 0x00,
  0x01, 0x00, 0x00, 0x00, 0x10, 0x00, 0x00, 0x00, 0x00, 0x00, 0x0a, 0x00,
  0x10, 0x00, 0x0c, 0x00, 0x08, 0x00, 0x04, 0x00, 0x0a, 0x00, 0x00, 0x00,
  0x0c, 0x00, 0x00, 0x00, 0x1c, 0x00, 0x00, 0x00, 0x3c, 0x00, 0x00, 0x00,
  0x0f, 0x00, 0x00, 0x00, 0x73, 0x65, 0x72, 0x76, 0x69, 0x6e, 0x67, 0x5f,
  0x64, 0x65, 0x66, 0x61, 0x75, 0x6c, 0x74, 0x00, 0x01, 0x00, 0x00, 0x00,
  0x04, 0x00, 0x00, 0x00, 0x90, 0xff, 0xff, 0xff, 0x0c, 0x00, 0x00, 0x00,
  0x04, 0x00, 0x00, 0x00, 0x08, 0x00, 0x00, 0x00, 0x6f, 0x75, 0x74, 0x70,
  0x75, 0x74, 0x5f, 0x30, 0x00, 0x00, 0x00, 0x00, 0x01, 0x00, 0x00, 0x00,
  0x04, 0x00, 0x00, 0x00, 0x5a, 0xeb, 0xff, 0xff, 0x04, 0x00, 0x00, 0x00,
  0x0c, 0x00, 0x00, 0x00, 0x6b, 0x65, 0x72, 0x61, 0x73, 0x5f, 0x74, 0x65,
  0x6e, 0x73, 0x6f, 0x72, 0x00, 0x00, 0x00, 0x00, 0x02, 0x00, 0x00, 0x00,
  0x34, 0x00, 0x00, 0x00, 0x04, 0x00, 0x00, 0x00, 0xdc, 0xff, 0xff, 0xff,
  0x0f, 0x00, 0x00, 0x00, 0x04, 0x00, 0x00, 0x00, 0x13, 0x00, 0x00, 0x00,
  0x43, 0x4f, 0x4e, 0x56, 0x45, 0x52, 0x53, 0x49, 0x4f, 0x4e, 0x5f, 0x4d,
  0x45, 0x54, 0x41, 0x44, 0x41, 0x54, 0x41, 0x00, 0x08, 0x00, 0x0c, 0x00,
  0x08, 0x00, 0x04, 0x00, 0x08, 0x00, 0x00, 0x00, 0x0e, 0x00, 0x00, 0x00,
  0x04, 0x00, 0x00, 0x00, 0x13, 0x00, 0x00, 0x00, 0x6d, 0x69, 0x6e, 0x5f,
  0x72, 0x75, 0x6e, 0x74, 0x69, 0x6d, 0x65, 0x5f, 0x76, 0x65, 0x72, 0x73,
  0x69, 0x6f, 0x6e, 0x00, 0x10, 0x00, 0x00, 0x00, 0xa4, 0x13, 0x00, 0x00,
  0x9c, 0x13, 0x00, 0x00, 0xd4, 0x07, 0x00, 0x00, 0xd4, 0x06, 0x00, 0x00,
  0xb4, 0x06, 0x00, 0x00, 0xa0, 0x06, 0x00, 0x00, 0x54, 0x06, 0x00, 0x00,
  0x7c, 0x05, 0x00, 0x00, 0xbc, 0x00, 0x00, 0x00, 0xb4, 0x00, 0x00, 0x00,
  0xac, 0x00, 0x00, 0x00, 0xa4, 0x00, 0x00, 0x00, 0x9c, 0x00, 0x00, 0x00,
  0x94, 0x00, 0x00, 0x00, 0x74, 0x00, 0x00, 0x00, 0x04, 0x00, 0x00, 0x00,
  0x16, 0xec, 0xff, 0xff, 0x04, 0x00, 0x00, 0x00, 0x60, 0x00, 0x00, 0x00,
  0x10, 0x00, 0x00, 0x00, 0x00, 0x00, 0x00, 0x00, 0x08, 0x00, 0x0e, 0x00,
  0x08, 0x00, 0x04, 0x00, 0x08, 0x00, 0x00, 0x00, 0x10, 0x00, 0x00, 0x00,
  0x24, 0x00, 0x00, 0x00, 0x00, 0x00, 0x06, 0x00, 0x08, 0x00, 0x04, 0x00,
  0x06, 0x00, 0x00, 0x00, 0x04, 0x00, 0x00, 0x00, 0x00, 0x00, 0x00, 0x00,
  0x0c, 0x00, 0x18, 0x00, 0x14, 0x00, 0x10, 0x00, 0x0c, 0x00, 0x04, 0x00,
  0x0c, 0x00, 0x00, 0x00, 0x88, 0xfb, 0x5e, 0x4c, 0x81, 0x59, 0x36, 0x80,
  0x02, 0x00, 0x00, 0x00, 0x02, 0x00, 0x00, 0x00, 0x04, 0x00, 0x00, 0x00,
  0x06, 0x00, 0x00, 0x00, 0x32, 0x2e, 0x31, 0x39, 0x2e, 0x30, 0x00, 0x00,
  0x82, 0xec, 0xff, 0xff, 0x04, 0x00, 0x00, 0x00, 0x10, 0x00, 0x00, 0x00,
  0x32, 0x2e, 0x30, 0x2e, 0x30, 0x00, 0x00, 0x00, 0x00, 0x00, 0x00, 0x00,
  0x00, 0x00, 0x00, 0x00, 0x4c, 0xe6, 0xff, 0xff, 0x50, 0xe6, 0xff, 0xff,
  0x54, 0xe6, 0xff, 0xff, 0x58, 0xe6, 0xff, 0xff, 0x5c, 0xe6, 0xff, 0xff,
  0xb2, 0xec, 0xff, 0xff, 0x04, 0x00, 0x00, 0x00, 0xb0, 0x04, 0x00, 0x00,
  0x89, 0xcc, 0x52, 0xbc, 0x63, 0xa3, 0x84, 0x3f, 0xe9, 0x59, 0xa7, 0xbe,
  0x39, 0xb3, 0xde, 0xbe, 0x6c, 0x47, 0x60, 0xbe, 0x47, 0xc3, 0x93, 0x3e,
  0x84, 0x2b, 0x50, 0xbe, 0x46, 0x5d, 0xbe, 0xbe, 0x10, 0x5c, 0xe7, 0x3d,
  0x38, 0x2f, 0xf5, 0xbe, 0x2a, 0x5e, 0x52, 0xbd, 0x3f, 0xd9, 0x69, 0xbe,
  0xdf, 0x46, 0xff, 0xbe, 0x83, 0x43, 0x18, 0xbf, 0x6e, 0xf5, 0xc9, 0xbe,
  0xf4, 0xf5, 0xb9, 0xbe, 0xb3, 0x5b, 0x31, 0xbe, 0x98, 0x4f, 0x88, 0xbe,
  0x05, 0xd8, 0x1b, 0xbf, 0x57, 0xef, 0xd1, 0xbe, 0x90, 0x22, 0xa8, 0xbe,
  0xd9, 0xfb, 0x7b, 0xbe, 0x98, 0xdd, 0x00, 0x3e, 0xaa, 0x7d, 0x3c, 0x3e,
  0x91, 0x2b, 0xcb, 0xbd, 0x72, 0xe4, 0xc0, 0xbe, 0x86, 0x3e, 0x92, 0xbd,
  0xbf, 0xc6, 0x1d, 0xbe, 0x4a, 0x56, 0xd4, 0x3e, 0xd4, 0xf8, 0xa7, 0xbe,
  0xd4, 0x32, 0x9d, 0xbe, 0xb2, 0x4d, 0xb8, 0xbd, 0x84, 0x31, 0x24, 0xbd,
  0x6d, 0xd0, 0x97, 0x3e, 0xdc, 0x0b, 0xd9, 0x3d, 0xa2, 0x59, 0x08, 0x3e,
  0xbe, 0x09, 0x43, 0x3f, 0x6d, 0xf8, 0x52, 0x3f, 0x22, 0x62, 0x71, 0x3e,
  0xde, 0x8a, 0x99, 0x39, 0x1b, 0xf4, 0xe8, 0x3e, 0x88, 0xaf, 0x2e, 0xbe,
  0x5e, 0x84, 0x35, 0xbe, 0x35, 0xa5, 0xa1, 0x3d, 0x88, 0x9a, 0x26, 0xbe,
  0xb3, 0x9b, 0xca, 0x3d, 0xd9, 0xf6, 0xe3, 0x3d, 0xbf, 0x69, 0x84, 0x3e,
  0x98, 0x1f, 0x99, 0x3b, 0x73, 0x9a, 0x60, 0x3e, 0x88, 0x32, 0x09, 0x3e,
  0xcb, 0xd6, 0xb6, 0x3e, 0x13, 0x45, 0x59, 0x3d, 0x25, 0xa4, 0x26, 0x3d,
  0x87, 0x38, 0x91, 0x3e, 0xde, 0x1b, 0x94, 0x3e, 0x2c, 0xd2, 0x89, 0x3e,
  0xea, 0x77, 0x8f, 0x3e, 0x19, 0xb9, 0x79, 0xbd, 0xbe, 0x5a, 0xd5, 0x3d,
  0xd8, 0xd6, 0xd1, 0x3e, 0x4e, 0x6e, 0x6f, 0x3e, 0xdb, 0xff, 0x15, 0x3c,
  0x87, 0x81, 0x2f, 0xbd, 0x96, 0xa1, 0x12, 0xbe, 0x4a, 0x30, 0x96, 0x3e,
  0x17, 0x60, 0x98, 0x3f, 0x60, 0x65, 0x1b, 0xbe, 0x35, 0x16, 0x17, 0x3f,
  0xcf, 0xa3, 0x82, 0x3e, 0x07, 0xa3, 0x19, 0xbe, 0xcc, 0xe1, 0x9e, 0x3d,
  0xad, 0x1b, 0xd9, 0xbe, 0x43, 0x29, 0x08, 0xbf, 0x1b, 0x19, 0x8c, 0x3c,
  0xef, 0xb0, 0xba, 0xbd, 0xf8, 0x9c, 0x52, 0x3d, 0xdb, 0xaf, 0xcb, 0xbe,
  0x25, 0x7c, 0xb6, 0x3e, 0xe9, 0x49, 0x81, 0xbe, 0x15, 0xdd, 0xe8, 0xbe,
  0xce, 0xf5, 0xac, 0x3e, 0xed, 0x35, 0xf5, 0xbe, 0xfe, 0x96, 0x83, 0x3d,
  0x75, 0xea, 0xb2, 0x3c, 0xfb, 0x42, 0xfd, 0x3d, 0xc4, 0x15, 0x07, 0xbf,
  0x6e, 0x48, 0xe5, 0x3d, 0xa3, 0x52, 0x5c, 0xbe, 0x4d, 0xef, 0x95, 0xbe,
  0x68, 0x2d, 0x35, 0x3f, 0x58, 0xe3, 0x6f, 0x3e, 0xb9, 0x0c, 0x8a, 0x3e,
  0x6c, 0x02, 0xf5, 0x3c, 0xf8, 0xd7, 0xa6, 0xbe, 0xfa, 0x9f, 0xb9, 0xbe,
  0x40, 0xa9, 0x8d, 0xbd, 0x0a, 0x2f, 0xe4, 0x3e, 0x58, 0x3b, 0x99, 0xbd,
  0x27, 0x8f, 0x8a, 0x3e, 0x8b, 0x8e, 0x0a, 0x3e, 0x19, 0x84, 0x83, 0x3e,
  0x1f, 0x20, 0x20, 0xbf, 0x24, 0x15, 0xd3, 0x3e, 0xa6, 0xe9, 0xdc, 0xbd,
  0x27, 0xab, 0xb2, 0x3d, 0x77, 0xb8, 0x40, 0x3d, 0x1f, 0xd9, 0x8e, 0xbd,
  0xfd, 0x2f, 0x89, 0xbf, 0x75, 0x46, 0x2e, 0xbf, 0x72, 0xbc, 0xab, 0xbd,
  0xf2, 0xd1, 0xa0, 0xbe, 0xb4, 0x37, 0x30, 0x3e, 0x99, 0xdc, 0x16, 0x3e,
  0xbb, 0x5a, 0xfc, 0xbe, 0xbe, 0x1a, 0x7d, 0xbe, 0xb2, 0x3f, 0xf2, 0xbd,
  0xf6, 0x17, 0x33, 0xbd, 0x84, 0xa9, 0x28, 0xbc, 0x2b, 0x6d, 0x36, 0xbe,
  0x24, 0x08, 0x10, 0x3f, 0xe5, 0xdb, 0xe8, 0x3d, 0xf6, 0x14, 0x70, 0x3e,
  0x44, 0x12, 0x11, 0xbf, 0x8b, 0x4c, 0x11, 0xbe, 0x4b, 0xa6, 0xd2, 0xbc,
  0x43, 0xe8, 0x3f, 0xbe, 0x0d, 0x62, 0x19, 0xbe, 0xf5, 0xe6, 0xa4, 0x3c,
  0x7c, 0x91, 0x0b, 0x3b, 0x47, 0xbd, 0x95, 0x3c, 0xb6, 0x4f, 0xb1, 0xbe,
  0xa2, 0x3f, 0xa2, 0x3e, 0x7b, 0xea, 0x47, 0xbe, 0x59, 0xd8, 0x2a, 0xbe,
  0x4c, 0x95, 0x54, 0x3e, 0xe9, 0x4c, 0xd0, 0xbe, 0x82, 0x76, 0x02, 0x3d,
  0x2d, 0xaa, 0x98, 0x3f, 0xd4, 0x93, 0x20, 0x3f, 0x9c, 0x3c, 0x87, 0xbe,
  0x6e, 0x29, 0xb0, 0x3c, 0x54, 0x92, 0xa6, 0x3c, 0x29, 0xad, 0x12, 0xbe,
  0xe3, 0x6a, 0xe5, 0xbe, 0xc6, 0x72, 0x4f, 0xbd, 0xb6, 0xed, 0x00, 0x3f,
  0x38, 0xdd, 0x0d, 0x3d, 0x9b, 0xde, 0x59, 0xbe, 0x92, 0xa3, 0xe1, 0xbd,
  0xa9, 0x1f, 0x11, 0xbf, 0xaa, 0x5f, 0xfc, 0xbe, 0xb7, 0xd7, 0x46, 0xbc,
  0x51, 0xff, 0xa4, 0xbc, 0x95, 0x25, 0x75, 0xbe, 0xe1, 0xa2, 0xcb, 0x3d,
  0xeb, 0x21, 0x81, 0xbf, 0xe5, 0xf2, 0xe4, 0xbe, 0xdb, 0xe0, 0x1e, 0xbf,
  0x3e, 0x90, 0xcc, 0xbe, 0xfb, 0x73, 0x8a, 0x3d, 0xe1, 0x79, 0xb7, 0x3a,
  0xf8, 0x8e, 0x63, 0xbe, 0x3b, 0xbe, 0x4c, 0x3f, 0x74, 0x92, 0x05, 0x3f,
  0xdd, 0x9c, 0x1d, 0x3e, 0xc7, 0x4e, 0xb7, 0xbe, 0x3d, 0x72, 0xe8, 0x3d,
  0x93, 0x23, 0xc4, 0xbe, 0x85, 0x3b, 0xcc, 0x3d, 0x46, 0x36, 0x94, 0xbd,
  0x71, 0x0e, 0xcd, 0x3e, 0xd3, 0x75, 0x8c, 0x3e, 0x70, 0x56, 0x8a, 0x3e,
  0xbf, 0xbb, 0x64, 0xbf, 0x31, 0x7d, 0x3e, 0xbe, 0x82, 0x56, 0x84, 0x3e,
  0x64, 0xc1, 0x1e, 0xbe, 0x23, 0x2c, 0x92, 0xbe, 0xbe, 0x64, 0x0c, 0xbe,
  0xfa, 0x96, 0xc4, 0x3d, 0xa9, 0xa3, 0x67, 0x3e, 0x1d, 0xf4, 0xc0, 0xbd,
  0x8d, 0x36, 0x8e, 0x3d, 0x82, 0xf2, 0x45, 0xbb, 0x68, 0x03, 0x4b, 0xbe,
  0xee, 0xd2, 0x85, 0x3f, 0xfb, 0xb9, 0x0e, 0x3f, 0x33, 0x77, 0x96, 0xbe,
  0xb9, 0xd4, 0x58, 0x3e, 0xcd, 0xa2, 0x9f, 0x3e, 0x7b, 0xfb, 0x40, 0xbe,
  0x61, 0xfe, 0x18, 0xbf, 0x40, 0x16, 0x9f, 0xbe, 0x54, 0x38, 0x7d, 0x3d,
  0x40, 0x07, 0x76, 0x3e, 0xde, 0x68, 0x41, 0xbe, 0x60, 0xa9, 0x92, 0xbe,
  0x13, 0x0e, 0x0b, 0x3f, 0x9b, 0x96, 0xe6, 0x3e, 0x22, 0x7e, 0xad, 0x3d,
  0xf7, 0xa6, 0x7f, 0xbd, 0x89, 0x9e, 0x88, 0x3e, 0x5b, 0xe3, 0x13, 0x3e,
  0x78, 0xb5, 0xde, 0xbd, 0x2c, 0xa5, 0xe0, 0xbd, 0x57, 0x10, 0xea, 0x3d,
  0x84, 0x14, 0x41, 0x3e, 0x37, 0x3b, 0x1d, 0x3e, 0x44, 0x61, 0x93, 0x3e,
  0x96, 0x9d, 0x10, 0xbf, 0x56, 0x92, 0xa2, 0xbe, 0x14, 0x9f, 0x16, 0xbe,
  0x37, 0x4e, 0x4a, 0xbd, 0xb7, 0x27, 0xb5, 0x3e, 0x21, 0x86, 0xc2, 0xbe,
  0x25, 0x08, 0x33, 0xbf, 0x9f, 0x3c, 0x3a, 0xbf, 0xc4, 0x85, 0xb0, 0x3e,
  0xd4, 0x3d, 0xa1, 0x3e, 0x13, 0x23, 0xf2, 0xbc, 0xe4, 0x07, 0xe1, 0xbd,
  0xec, 0x96, 0x29, 0xbf, 0x30, 0x30, 0x97, 0x3e, 0x35, 0xe2, 0x6e, 0xbe,
  0x18, 0x9d, 0x56, 0x3e, 0xe1, 0x60, 0x36, 0x3e, 0xc1, 0xb9, 0x25, 0x3e,
  0x2e, 0x5e, 0xc0, 0x3c, 0x71, 0x4b, 0xc0, 0xbe, 0x37, 0x97, 0x33, 0x3e,
  0x64, 0xc0, 0xc8, 0xbd, 0x7f, 0xed, 0x84, 0xbe, 0x8d, 0x72, 0xa1, 0xbe,
  0x58, 0xb5, 0x1f, 0x3f, 0xfa, 0x0e, 0x10, 0xbe, 0x9e, 0xd3, 0x1a, 0x3e,
  0xe2, 0x3f, 0x1a, 0x3d, 0xb6, 0x85, 0xf5, 0xb9, 0x17, 0x3a, 0x83, 0xbe,
  0x41, 0x22, 0x44, 0xbb, 0x67, 0xe0, 0x20, 0xbe, 0x83, 0xa8, 0x6b, 0xbe,
  0xe9, 0xff, 0x10, 0xbf, 0x0e, 0x74, 0xaa, 0x3c, 0x13, 0x48, 0xa0, 0x3e,
  0x70, 0x38, 0xce, 0xbd, 0x3d, 0x15, 0x03, 0x3e, 0x5b, 0x00, 0x14, 0x3e,
  0x5c, 0xd9, 0x3f, 0x3e, 0x22, 0x4f, 0xdb, 0x3d, 0x8a, 0xdb, 0x3c, 0xbe,
  0x11, 0xf4, 0x40, 0x3f, 0xba, 0x2d, 0xbf, 0xbe, 0xd7, 0x1c, 0xf1, 0x3e,
  0x12, 0x38, 0x68, 0x3e, 0xe5, 0x4d, 0xff, 0xbd, 0x6a, 0xaf, 0x8b, 0x3d,
  0x05, 0x33, 0xf8, 0xbe, 0x0b, 0x39, 0x16, 0xbf, 0x02, 0x04, 0x0b, 0x3e,
  0x3b, 0xd4, 0xd6, 0xbd, 0x97, 0xd6, 0xac, 0x3d, 0xc4, 0x28, 0x99, 0x3e,
  0x21, 0x9a, 0xdf, 0x3e, 0x1f, 0x49, 0xd0, 0xbd, 0xc2, 0xf3, 0x22, 0x3d,
  0x44, 0xdd, 0x6d, 0xbe, 0xc9, 0xe5, 0x3d, 0x3e, 0xe6, 0xb7, 0x56, 0xbc,
  0x02, 0x0d, 0x3a, 0x3e, 0x99, 0x5a, 0x38, 0x3d, 0x58, 0x6b, 0x04, 0xbf,
  0xbd, 0x00, 0x8f, 0xbe, 0xc9, 0x58, 0xe2, 0x3d, 0x02, 0xa4, 0x52, 0xbe,
  0xce, 0xbe, 0x0e, 0xbf, 0x12, 0xe2, 0x5d, 0xbe, 0x05, 0x0d, 0xf6, 0x3d,
  0x9b, 0xb2, 0x84, 0x3e, 0xfe, 0x0b, 0x46, 0x3d, 0x63, 0x8d, 0x9d, 0xbe,
  0xf5, 0x4f, 0x2d, 0x3d, 0x60, 0x19, 0xcd, 0xbe, 0x3a, 0xfe, 0xaa, 0xbe,
  0x5f, 0x7a, 0x6e, 0x3d, 0x17, 0x1f, 0x82, 0x3d, 0x9a, 0x4d, 0x08, 0x3f,
  0x49, 0x82, 0x97, 0x3e, 0xa2, 0xb7, 0xa4, 0xbe, 0xac, 0xd3, 0x13, 0xbf,
  0x62, 0x14, 0xb9, 0x3e, 0x68, 0x16, 0xc0, 0xbc, 0xc9, 0x15, 0x34, 0x3e,
  0x38, 0xc2, 0x37, 0x3e, 0x96, 0x48, 0xbc, 0xbd, 0xa1, 0xab, 0xb6, 0x3e,
  0x94, 0x8c, 0xbd, 0x3d, 0x46, 0x14, 0x42, 0xbe, 0xb4, 0xc0, 0x63, 0xbe,
  0x6e, 0xf1, 0xff, 0xff, 0x04, 0x00, 0x00, 0x00, 0xc8, 0x00, 0x00, 0x00,
  0xdb, 0xd0, 0x05, 0xbf, 0xbc, 0x46, 0x1d, 0xbf, 0x84, 0x0a, 0x94, 0xbf,
  0x5f, 0x55, 0x36, 0x3e, 0xd5, 0x92, 0x7c, 0x3f, 0x8a, 0x52, 0x47, 0xbf,
  0x7d, 0x35, 0xde, 0x3e, 0x22, 0x88, 0x1a, 0xbe, 0xee, 0xf2, 0x07, 0xbf,
  0x5d, 0xb1, 0x2d, 0xbe, 0xb1, 0x16, 0x02, 0xbf, 0x74, 0xae, 0x58, 0x3f,
  0xed, 0xb6, 0xc7, 0xbe, 0x8d, 0xfc, 0xd2, 0x3e, 0x89, 0x0a, 0x03, 0x3f,
  0x85, 0xf7, 0x6b, 0x3f, 0x1c, 0x2d, 0x23, 0x3f, 0x97, 0x47, 0xf0, 0xbe,
  0x77, 0x31, 0x2b, 0x3f, 0x0c, 0x0f, 0x40, 0xbf, 0xd3, 0x3e, 0xb1, 0x3d,
  0x09, 0xd5, 0x3a, 0x3f, 0x8a, 0xc6, 0xf6, 0x3d, 0xc5, 0xb2, 0x19, 0xbf,
  0x5d, 0x99, 0x8f, 0xbf, 0xf7, 0x23, 0x56, 0x3f, 0x35, 0x78, 0x81, 0xbe,
  0x21, 0x86, 0x9c, 0xbe, 0xf9, 0x5f, 0x5f, 0x3e, 0x2f, 0xd5, 0x97, 0x3f,
  0x0b, 0xda, 0x8e, 0x3d, 0x57, 0xee, 0xb5, 0x3e, 0x10, 0x33, 0x9c, 0xbf,
  0xa8, 0xa6, 0xe9, 0xbe, 0x1f, 0x25, 0xb0, 0xbe, 0xf2, 0x4f, 0xab, 0x3f,
  0xc4, 0xd4, 0x67, 0xbf, 0xd8, 0xc8, 0x5c, 0xbf, 0x3e, 0x46, 0x1e, 0xbf,
  0xc3, 0xf5, 0x40, 0x3f, 0x74, 0xb6, 0x8c, 0xbe, 0x9a, 0x0b, 0x03, 0xbf,
  0x56, 0xd7, 0x76, 0x3f, 0x41, 0x2d, 0x60, 0x3f, 0x0a, 0x0a, 0xd2, 0xbe,
  0x10, 0x67, 0x60, 0x3e, 0x08, 0x73, 0xac, 0xbd, 0xf4, 0x10, 0xad, 0xbe,
  0xe1, 0xce, 0x18, 0x3f, 0xd9, 0x82, 0x5a, 0xbf, 0x42, 0xf2, 0xff, 0xff,
  0x04, 0x00, 0x00, 0x00, 0x3c, 0x00, 0x00, 0x00, 0x43, 0x52, 0x43, 0xbf,
  0xcd, 0xbc, 0xc2, 0x3d, 0x27, 0xbb, 0x7b, 0x3f, 0x99, 0x9f, 0x1b, 0xbc,
  0xdb, 0x99, 0x8d, 0x3c, 0xf5, 0x65, 0x18, 0xbf, 0xb0, 0xf2, 0xb1, 0xbe,
  0xbe, 0x1d, 0xfe, 0x3e, 0xce, 0x63, 0x00, 0x3f, 0xf1, 0xbc, 0x2e, 0xbf,
  0xe9, 0x65, 0x01, 0xbf, 0x54, 0x6b, 0x29, 0xbf, 0x7c, 0xb1, 0x20, 0x3f,
  0xa3, 0x2c, 0x14, 0x3f, 0x9d, 0x54, 0x01, 0x3f, 0x8a, 0xf2, 0xff, 0xff,
  0x04, 0x00, 0x00, 0x00, 0x04, 0x00, 0x00, 0x00, 0x01, 0x00, 0x00, 0x00,
  0x9a, 0xf2, 0xff, 0xff, 0x04, 0x00, 0x00, 0x00, 0x10, 0x00, 0x00, 0x00,
  0xc3, 0x57, 0xcb, 0xbe, 0xba, 0x45, 0xac, 0xbe, 0x12, 0x4f, 0x88, 0x3e,
  0x0e, 0xf1, 0x0a, 0x3d, 0xb6, 0xf2, 0xff, 0xff, 0x04, 0x00, 0x00, 0x00,
  0xf0, 0x00, 0x00, 0x00, 0x66, 0x08, 0xff, 0x3e, 0xad, 0x1d, 0x23, 0xbd,
  0x5b, 0x78, 0xa3, 0x3d, 0x38, 0xc1, 0xe3, 0xbe, 0x02, 0x87, 0x3e, 0xbe,
  0x45, 0xee, 0x82, 0x3c, 0x16, 0x85, 0x11, 0xbf, 0xd2, 0x3c, 0x30, 0xbf,
  0x24, 0x25, 0x5b, 0xbf, 0x0a, 0x40, 0x02, 0x3f, 0x4d, 0x5e, 0x32, 0x3e,
  0x02, 0xaa, 0xad, 0x3e, 0x45, 0x9b, 0x7b, 0xbe, 0xb9, 0x96, 0x05, 0x3f,
  0x4c, 0xce, 0x6d, 0xbf, 0xc8, 0x66, 0x2a, 0x3f, 0xaf, 0x4b, 0xcd, 0x3e,
  0xf8, 0x7f, 0x87, 0x3f, 0xdf, 0xa8, 0xe6, 0x3e, 0x79, 0xd2, 0xfe, 0x3e,
  0x8c, 0x8f, 0x14, 0xbc, 0x96, 0x13, 0x05, 0x3f, 0xfa, 0xc5, 0x25, 0xbf,
  0x0c, 0xd0, 0x18, 0x3e, 0xd0, 0xb5, 0xd4, 0xbd, 0x3c, 0xfa, 0x5f, 0x3f,
  0xbd, 0x8d, 0xbe, 0x3e, 0x43, 0xf2, 0xf6, 0xbe, 0x42, 0xb5, 0x8a, 0xbe,
  0x5d, 0xce, 0x09, 0xbf, 0x0c, 0x7c, 0x12, 0xbf, 0xeb, 0xda, 0xaf, 0xbe,
  0x25, 0x51, 0x7b, 0x3f, 0x98, 0xf1, 0x0b, 0xbe, 0x60, 0xb2, 0x37, 0xbf,
  0xe1, 0x8c, 0x71, 0xbf, 0x3d, 0xe8, 0xbb, 0xbe, 0xe6, 0xa3, 0xca, 0xbe,
  0x0d, 0x13, 0x61, 0xbe, 0xd3, 0x70, 0x01, 0xbf, 0x0a, 0xa5, 0xee, 0xbe,
  0x76, 0x6d, 0x97, 0x3e, 0x20, 0xc1, 0xde, 0x3e, 0x92, 0x87, 0xa4, 0xbf,
  0x73, 0x6a, 0x0f, 0x3e, 0x14, 0x6b, 0x6e, 0xbf, 0x45, 0x1f, 0x04, 0x3f,
  0x25, 0xa7, 0xce, 0xbf, 0x8c, 0x37, 0xce, 0xbe, 0x89, 0x38, 0xf4, 0x3e,
  0x7f, 0x4c, 0x3f, 0xbd, 0xd6, 0x49, 0xd8, 0x3e, 0xeb, 0x8f, 0xbd, 0xbe,
  0x50, 0xea, 0xf7, 0x3d, 0xb3, 0xc8, 0x8b, 0xbe, 0x07, 0x3b, 0x69, 0xbe,
  0xeb, 0xf9, 0xe7, 0xbe, 0x97, 0x8a, 0x96, 0x3e, 0x1f, 0x8a, 0x9c, 0x3e,
  0x32, 0x08, 0x5f, 0xbe, 0xb2, 0xf3, 0xff, 0xff, 0x04, 0x00, 0x00, 0x00,
  0xb8, 0x0b, 0x00, 0x00, 0x90, 0x32, 0xcc, 0xbd, 0x23, 0xcc, 0x12, 0x3e,
  0x05, 0x3e, 0x9f, 0x3d, 0x01, 0x1b, 0x49, 0xbe, 0x30, 0x01, 0x2c, 0xbc,
  0x58, 0x82, 0xd7, 0x3e, 0xfd, 0xcc, 0xb4, 0xbe, 0x75, 0xa0, 0x6e, 0x3d,
  0x27, 0x59, 0x26, 0xbe, 0x65, 0xe1, 0x1e, 0xbf, 0x0e, 0xc8, 0x7a, 0x3e,
  0xc9, 0x53, 0x43, 0xbf, 0xf8, 0x35, 0x1e, 0x3e, 0x6e, 0xaa, 0x43, 0xbf,
  0x38, 0xc4, 0x7e, 0xbe, 0xef, 0x87, 0x9c, 0x3d, 0xc2, 0x7c, 0xe0, 0xbd,
  0x29, 0xda, 0x8d, 0x3d, 0x2c, 0x90, 0x66, 0x3e, 0x12, 0x64, 0x90, 0x3e,
  0xcd, 0xaa, 0xab, 0xbe, 0x58, 0xf3, 0x6e, 0x3e, 0x4a, 0xa8, 0x9b, 0xbe,
  0xed, 0xbf, 0xb1, 0xbd, 0x3e, 0x83, 0xb7, 0x3d, 0x5f, 0x93, 0x06, 0xbe,
  0x46, 0xf9, 0x3b, 0x3c, 0xe7, 0x3b, 0x11, 0xbf, 0xda, 0xe5, 0x67, 0x3e,
  0x44, 0xd7, 0x15, 0x3e, 0x68, 0xf2, 0x35, 0xbe, 0x19, 0x79, 0xb0, 0xbe,
  0x83, 0x64, 0x89, 0x3e, 0xa2, 0x0d, 0x04, 0x3e, 0x2c, 0x4a, 0x1e, 0x3e,
  0xa6, 0x76, 0x92, 0x3d, 0x7f, 0x9a, 0x91, 0x3e, 0x81, 0x42, 0xed, 0x3e,
  0x18, 0xbd, 0x65, 0x3e, 0x7d, 0xcd, 0xfa, 0xbc, 0xa4, 0xba, 0x30, 0xbc,
  0x0a, 0x86, 0x1b, 0x3e, 0x2d, 0x96, 0x33, 0xbf, 0xa9, 0x85, 0x67, 0xbe,
  0x5b, 0x7e, 0x5a, 0xbe, 0xcf, 0xbc, 0x91, 0xbe, 0xda, 0x09, 0x83, 0x3e,
  0x41, 0x10, 0x3b, 0x3e, 0x16, 0xbb, 0xb1, 0xbe, 0x87, 0xcc, 0xd2, 0x3d,
  0xe4, 0x28, 0x49, 0x3e, 0xef, 0xc5, 0xdd, 0xbe, 0xd6, 0x49, 0x2a, 0x3e,
  0x41, 0xe1, 0x6f, 0x3e, 0x3b, 0x16, 0x44, 0xbd, 0x63, 0x46, 0x2d, 0xbf,
  0x2c, 0x90, 0x87, 0x3e, 0x59, 0x28, 0x09, 0xbe, 0x71, 0x08, 0x87, 0xbe,
  0x50, 0xf6, 0x80, 0xbe, 0x3b, 0x55, 0x5d, 0xbe, 0x2a, 0xc4, 0x86, 0xbd,
  0x13, 0xf9, 0x90, 0x3d, 0xae, 0xdd, 0x78, 0x3d, 0x33, 0xa1, 0xb3, 0x3e,
  0xf3, 0x4a, 0xb8, 0x3e, 0x4d, 0xf7, 0xf4, 0xbd, 0x30, 0x28, 0x35, 0xbd,
  0xbf, 0x8b, 0xa8, 0xbe, 0xdb, 0xa9, 0xdf, 0x3e, 0xa1, 0xb8, 0xc8, 0xbd,
  0x96, 0xf0, 0xbf, 0x3e, 0x01, 0x88, 0xd2, 0xbd, 0xc2, 0xf8, 0xfe, 0x3e,
  0x48, 0x1a, 0x01, 0xbd, 0x8c, 0x3a, 0xa1, 0xbe, 0xcf, 0xec, 0xa9, 0xbe,
  0x36, 0xba, 0x9f, 0xbb, 0xed, 0x48, 0xe5, 0xbd, 0xe8, 0xb1, 0x84, 0xbe,
  0x0a, 0xee, 0x87, 0x3e, 0x11, 0x53, 0xf1, 0x3e, 0x68, 0xf6, 0xa7, 0xbc,
  0xd7, 0x12, 0x92, 0xbb, 0x9c, 0x6f, 0xb6, 0xbe, 0x71, 0x7a, 0x58, 0x3e,
  0xe9, 0x21, 0x92, 0xbe, 0x69, 0x9e, 0xed, 0xbe, 0x37, 0xde, 0x81, 0x3e,
  0x5f, 0x1b, 0xf7, 0x3d, 0xd7, 0x41, 0xe2, 0xbe, 0x5a, 0x7b, 0x7e, 0x3e,
  0x6d, 0x5f, 0x5d, 0x3d, 0xc3, 0xe3, 0x07, 0x3e, 0xad, 0x37, 0x75, 0x3d,
  0x51, 0x0c, 0x6f, 0x3d, 0xcf, 0xa4, 0xe5, 0x3d, 0x26, 0x75, 0xb2, 0xbe,
  0x5b, 0x02, 0x9e, 0xbd, 0x99, 0x5c, 0x92, 0x3e, 0x02, 0xb0, 0x1d, 0xbe,
  0x81, 0xc3, 0xcf, 0xbd, 0x6f, 0x14, 0xee, 0xbe, 0x72, 0x78, 0x0f, 0xbe,
  0x50, 0xd9, 0x61, 0x3e, 0x20, 0x61, 0x72, 0xbf, 0xb4, 0x4f, 0x15, 0x3d,
  0x08, 0xe0, 0x50, 0xbe, 0xa9, 0xc4, 0x71, 0xbe, 0x82, 0x27, 0xb3, 0xbe,
  0x26, 0xca, 0xd3, 0xbe, 0x3c, 0x71, 0x83, 0x3e, 0xad, 0xcc, 0xad, 0xbe,
  0x15, 0x92, 0x65, 0xbd, 0x4e, 0xfb, 0x84, 0x3c, 0x14, 0x91, 0xc1, 0x3e,
  0xa8, 0x03, 0x24, 0x3e, 0xde, 0x64, 0xdd, 0x3d, 0x81, 0x83, 0x5f, 0x3e,
  0xd1, 0x60, 0x19, 0xbf, 0xc0, 0xd8, 0xa6, 0xbd, 0x0c, 0xb7, 0xbc, 0x3e,
  0x3e, 0xe8, 0xdf, 0xbd, 0xfc, 0x4e, 0x5e, 0xbf, 0xc7, 0x57, 0x95, 0xbe,
  0x3b, 0x23, 0xad, 0x3e, 0xc5, 0xc5, 0x43, 0xbe, 0x0e, 0xf2, 0xe0, 0xbe,
  0xaf, 0xdb, 0xd0, 0x3d, 0xf6, 0x1d, 0x00, 0x3f, 0xa3, 0x1a, 0x33, 0xbd,
  0x3b, 0xf0, 0xd8, 0xbd, 0xf0, 0xec, 0x58, 0xbe, 0xff, 0x47, 0x68, 0x3d,
  0xe5, 0x08, 0x18, 0xbf, 0xa8, 0xf5, 0x9d, 0x3e, 0x2b, 0x1e, 0x13, 0xbf,
  0xde, 0x22, 0x7f, 0x3e, 0x9a, 0x28, 0x38, 0x3e, 0xc0, 0x91, 0x60, 0x3e,
  0xfe, 0xd8, 0xde, 0xbd, 0xa3, 0xc4, 0x01, 0xbe, 0x91, 0x47, 0xaa, 0x3e,
  0x14, 0xe3, 0xaf, 0x3e, 0xc8, 0xa7, 0xac, 0xbe, 0x4e, 0x2b, 0x93, 0xbd,
  0xfc, 0xde, 0xad, 0xbe, 0x2f, 0x1d, 0x75, 0xbf, 0x97, 0x78, 0xa2, 0xbc,
  0x4f, 0xd2, 0xdc, 0x3d, 0x5b, 0xa3, 0x66, 0x3e, 0x8a, 0xc4, 0xde, 0x3d,
  0x27, 0x16, 0x01, 0x3e, 0x9a, 0x70, 0x4e, 0xbc, 0xe1, 0xa2, 0x9c, 0xbe,
  0x98, 0x86, 0x65, 0xbe, 0x22, 0xe4, 0x82, 0x3e, 0xfd, 0x36, 0x29, 0xbe,
  0xf1, 0x32, 0x97, 0xbe, 0x26, 0x9d, 0x67, 0x3e, 0xcd, 0x11, 0x12, 0xbe,
  0xc0, 0xe1, 0x51, 0x3d, 0xff, 0x61, 0x7c, 0xbe, 0xa5, 0xc8, 0x6e, 0xbe,
  0x3a, 0x30, 0x6b, 0xbe, 0xbe, 0x7f, 0x9e, 0xbe, 0x77, 0xb0, 0x2a, 0xbe,
  0x83, 0x59, 0x8e, 0x3d, 0x81, 0xc6, 0xd8, 0xbb, 0x40, 0x3e, 0x01, 0xbd,
  0x6d, 0xa7, 0x53, 0x3e, 0x39, 0x34, 0x02, 0xbe, 0x9a, 0xef, 0x15, 0xbd,
  0x95, 0x3e, 0xda, 0x3c, 0xc1, 0xb9, 0x79, 0xbe, 0x42, 0xfa, 0x5c, 0xbd,
  0x11, 0xea, 0x85, 0xbd, 0x23, 0xfd, 0xf0, 0x3c, 0xdb, 0xf3, 0x0f, 0xbe,
  0x2c, 0x5c, 0x81, 0xbe, 0x66, 0xf9, 0x19, 0xbe, 0xbd, 0x59, 0x3b, 0xbd,
  0x25, 0x7d, 0x11, 0xbe, 0xcb, 0xee, 0x0a, 0x3d, 0x3e, 0x47, 0x71, 0x3e,
  0x5f, 0x7e, 0x13, 0xbe, 0xbb, 0x4c, 0x61, 0x3e, 0xc8, 0xd6, 0x66, 0x3d,
  0x1f, 0xeb, 0x8e, 0xbd, 0x22, 0x4f, 0x53, 0x3d, 0xf0, 0x20, 0x77, 0xbe,
  0x12, 0xeb, 0x7b, 0xbe, 0xe9, 0xc3, 0x87, 0xbe, 0x1e, 0x96, 0x9f, 0xbc,
  0x7f, 0xd0, 0x9f, 0xbd, 0x97, 0xb6, 0x7d, 0xbe, 0x28, 0x6d, 0x21, 0xbd,
  0x35, 0xc3, 0x95, 0xbe, 0x24, 0x86, 0x37, 0x3d, 0xbf, 0x07, 0x9a, 0xbc,
  0x2a, 0x17, 0x7c, 0x3d, 0x73, 0xaf, 0x27, 0xbf, 0x1d, 0x48, 0xfd, 0xbe,
  0xe2, 0x14, 0xe2, 0xbd, 0x46, 0xea, 0x40, 0x3d, 0xb8, 0x9f, 0x1a, 0x3d,
  0xc1, 0xbe, 0x51, 0x3d, 0xf7, 0xff, 0x02, 0x3e, 0x17, 0x99, 0x82, 0xbe,
  0xd3, 0x92, 0x0f, 0xbd, 0x04, 0xc7, 0x88, 0xbe, 0x98, 0x0e, 0x05, 0xbe,
  0x98, 0xb7, 0x21, 0xbf, 0x54, 0x9d, 0x94, 0x3e, 0x26, 0x42, 0x74, 0x3e,
  0xab, 0x45, 0x81, 0xbd, 0x2a, 0x41, 0x20, 0xbc, 0x8a, 0x41, 0x32, 0x3e,
  0xf8, 0x63, 0xfa, 0x3c, 0x33, 0x85, 0x12, 0xbe, 0x54, 0x36, 0x93, 0xbe,
  0x31, 0x56, 0xd2, 0xbc, 0x8d, 0xc1, 0x9d, 0x3e, 0x43, 0xd5, 0x3b, 0x3e,
  0xc6, 0x55, 0xdf, 0xbe, 0xd3, 0xef, 0xfe, 0x3e, 0xb9, 0xf9, 0xc2, 0x3d,
  0x2b, 0x57, 0x7d, 0x3e, 0x36, 0x86, 0xa9, 0x3d, 0xc1, 0x0f, 0xbf, 0x3e,
  0x4c, 0x39, 0x58, 0xbd, 0x46, 0xe5, 0x14, 0xbe, 0xbb, 0xdd, 0x97, 0xbe,
  0xbf, 0xcd, 0x3b, 0x3e, 0x42, 0x23, 0x52, 0x3e, 0x50, 0xbc, 0x9d, 0xbd,
  0xa3, 0x3f, 0x24, 0xbf, 0x61, 0x5c, 0xcd, 0x3c, 0xe6, 0x7a, 0x9e, 0xbe,
  0x1a, 0x1e, 0x60, 0xbe, 0xf1, 0x3c, 0xb5, 0x3d, 0x1c, 0xf5, 0x3f, 0xbe,
  0x27, 0x3f, 0x71, 0xbe, 0xd6, 0xc2, 0x00, 0xbd, 0x7a, 0x17, 0x3b, 0x3d,
  0xf1, 0x2e, 0x80, 0xbd, 0x8a, 0x98, 0x37, 0x3e, 0xd3, 0xe7, 0x90, 0x3e,
  0x19, 0xd9, 0x69, 0xbe, 0x75, 0x2b, 0xfc, 0xbe, 0x3c, 0xa4, 0x93, 0xbe,
  0xd7, 0xc1, 0xa8, 0xbd, 0x93, 0x27, 0xad, 0x3e, 0x43, 0x14, 0x83, 0x3e,
  0x3a, 0x63, 0x8c, 0x3d, 0xf7, 0x4e, 0xfb, 0x3d, 0xcf, 0xd7, 0xf4, 0xbd,
  0x79, 0x37, 0x6a, 0x3d, 0x7f, 0x7a, 0x95, 0x3d, 0xd3, 0xc9, 0x4a, 0xbe,
  0x44, 0x4d, 0x28, 0xbe, 0xbd, 0x39, 0x0b, 0x3e, 0x39, 0x07, 0x87, 0x3d,
  0xec, 0x84, 0x62, 0x3b, 0x16, 0x17, 0x16, 0xbd, 0xb5, 0x1c, 0x5a, 0x3e,
  0x6c, 0x2f, 0xb3, 0x3d, 0x8f, 0xe0, 0x3f, 0xbe, 0x1e, 0x85, 0x9a, 0x3e,
  0x41, 0xdd, 0x8e, 0x3e, 0xf4, 0x76, 0x22, 0xbe, 0x10, 0x4a, 0x55, 0xbe,
  0x9c, 0xd7, 0x73, 0x3e, 0xe3, 0x43, 0xb5, 0x3e, 0x05, 0x3a, 0x38, 0xbe,
  0x5d, 0x5b, 0xfd, 0xbe, 0x1d, 0xa6, 0x0b, 0x3e, 0xce, 0xff, 0x1a, 0xbe,
  0x1d, 0x96, 0x88, 0x3d, 0xa2, 0x7d, 0x90, 0xbd, 0x25, 0xb9, 0x4b, 0xbe,
  0x52, 0x98, 0x69, 0xbe, 0x92, 0x5b, 0xb0, 0x3d, 0x45, 0x7c, 0x56, 0x3e,
  0xcd, 0x07, 0x32, 0x3e, 0x5d, 0xec, 0x67, 0xbe, 0x57, 0x35, 0x93, 0xbe,
  0x94, 0x00, 0x40, 0x3d, 0xf7, 0x1c, 0x82, 0x3e, 0x8e, 0x7e, 0x04, 0x3e,
  0xae, 0xd8, 0x81, 0xbd, 0x5e, 0xb1, 0x8e, 0x3d, 0xa3, 0xc9, 0x7c, 0xbe,
  0x2c, 0xe7, 0x9e, 0xbe, 0xae, 0x2a, 0x4d, 0xbd, 0x7b, 0x33, 0x78, 0x3d,
  0xa4, 0x37, 0xe0, 0xbc, 0x03, 0xa4, 0x50, 0x3e, 0x1e, 0x20, 0x1a, 0xbd,
  0x1d, 0x37, 0x3a, 0x3d, 0x12, 0x30, 0x84, 0x3e, 0x31, 0x3b, 0xd0, 0xbd,
  0x36, 0xfd, 0x70, 0x3e, 0x4d, 0xc4, 0xda, 0x3d, 0xa3, 0x08, 0x9e, 0x3e,
  0x92, 0xec, 0x1c, 0xbe, 0x2f, 0x35, 0x01, 0xbe, 0x99, 0xc1, 0x3e, 0xbe,
  0x88, 0x36, 0x5e, 0xbe, 0x05, 0x83, 0x16, 0x3e, 0x48, 0x71, 0x11, 0x3e,
  0xe0, 0xfe, 0xba, 0xbe, 0x85, 0x61, 0x4c, 0x3e, 0xdc, 0xd8, 0x41, 0x3e,
  0x39, 0x40, 0xd9, 0x3c, 0x37, 0x14, 0x88, 0xbe, 0xbb, 0x52, 0x2d, 0xbe,
  0x83, 0x71, 0x5c, 0xbd, 0x27, 0x68, 0xc8, 0xbe, 0x38, 0x34, 0xee, 0x3d,
  0x9a, 0x1f, 0x83, 0xbe, 0xd9, 0x61, 0x26, 0xbe, 0x81, 0x7c, 0x4f, 0x3e,
  0xd4, 0x3b, 0xa5, 0x3d, 0xa7, 0xb9, 0x07, 0x3e, 0x95, 0x8e, 0x80, 0x3d,
  0x0a, 0x3a, 0x6c, 0xbe, 0x42, 0x9e, 0x03, 0xbe, 0x0d, 0x65, 0x9d, 0x3d,
  0x5f, 0x6c, 0xab, 0x3d, 0x9f, 0x90, 0x94, 0x3e, 0x64, 0x1e, 0x79, 0x3e,
  0x45, 0x14, 0x6f, 0x3e, 0xf0, 0xe8, 0x14, 0x3c, 0x09, 0x63, 0x34, 0xbe,
  0x4d, 0x77, 0xb5, 0x3e, 0x16, 0x46, 0xa4, 0xbe, 0x91, 0x79, 0x97, 0xbe,
  0x9a, 0x31, 0x96, 0xbe, 0x60, 0x10, 0xd6, 0x3d, 0xa5, 0x8b, 0xc8, 0xbe,
  0x90, 0x35, 0x90, 0x3e, 0x92, 0x27, 0x12, 0x3d, 0x11, 0x9f, 0xf9, 0xbc,
  0xb2, 0x36, 0xc8, 0xbd, 0xa2, 0x70, 0x43, 0x3e, 0x86, 0x9a, 0x70, 0xbd,
  0x76, 0xfd, 0xb9, 0x3e, 0x5a, 0x86, 0x26, 0x3e, 0x2c, 0x1c, 0x87, 0xbe,
  0xa0, 0xbe, 0xa2, 0xbe, 0x46, 0x94, 0xe6, 0xbe, 0x08, 0x90, 0xe0, 0x3d,
  0x28, 0xb4, 0x79, 0xbe, 0x42, 0x25, 0xb3, 0x3c, 0x7b, 0x43, 0x73, 0xbe,
  0x4a, 0x8a, 0x6a, 0x3e, 0xd6, 0xcb, 0xde, 0xbd, 0x7f, 0x96, 0x28, 0xbd,
  0x72, 0x84, 0xe6, 0x3d, 0x5e, 0x63, 0xb8, 0x3e, 0xe7, 0x7f, 0x5c, 0x3e,
  0xb7, 0x66, 0x19, 0xbd, 0x2b, 0x0d, 0x07, 0x3e, 0x84, 0x5e, 0xb1, 0x3d,
  0x4d, 0x93, 0x41, 0x3e, 0x7a, 0x89, 0x3b, 0x3e, 0x54, 0x5f, 0xd2, 0xbd,
  0xdf, 0xe0, 0xe4, 0xbd, 0xa7, 0xab, 0x26, 0x3e, 0x78, 0xa0, 0xd8, 0xbd,
  0xb1, 0x9a, 0x40, 0xbe, 0x41, 0xf0, 0x6e, 0xbe, 0x85, 0x95, 0x7c, 0x3e,
  0xbe, 0x0a, 0x40, 0x3e, 0xdc, 0x9f, 0x2e, 0xbd, 0x01, 0xa9, 0x24, 0x3e,
  0x50, 0xaf, 0x99, 0xbe, 0xfe, 0x8e, 0x4f, 0xbe, 0x0d, 0xe3, 0xd2, 0xbc,
  0xf8, 0x3e, 0xed, 0xbd, 0xa4, 0xce, 0x0b, 0xbd, 0xf1, 0x79, 0x90, 0x3e,
  0x81, 0x44, 0x68, 0x3d, 0xf1, 0x70, 0x31, 0xbd, 0x0b, 0xbd, 0x80, 0xbe,
  0x2b, 0x37, 0xc7, 0xbc, 0xc2, 0xb7, 0x97, 0xbe, 0x69, 0xdc, 0x16, 0xbd,
  0x6b, 0xbe, 0x00, 0x3e, 0x17, 0xd9, 0x21, 0xbe, 0x54, 0x41, 0x15, 0xbe,
  0xe0, 0x2d, 0xa8, 0x3e, 0xad, 0x7f, 0x05, 0x3f, 0x18, 0xe4, 0xf3, 0xbd,
  0xde, 0xe4, 0xa5, 0xbe, 0xd4, 0xe6, 0x10, 0xbe, 0x76, 0x6d, 0x9b, 0x3d,
  0x84, 0xb9, 0x88, 0x3d, 0xfb, 0x88, 0x17, 0x3e, 0x40, 0xc2, 0x38, 0x3e,
  0xeb, 0x7c, 0x8f, 0xbd, 0xa8, 0x47, 0xf4, 0x3a, 0xae, 0x8b, 0x82, 0x3e,
  0xf7, 0x33, 0xfe, 0x3d, 0x75, 0xd7, 0x5e, 0xbe, 0x0b, 0x4c, 0x0f, 0x3d,
  0x84, 0x53, 0x97, 0x3e, 0x15, 0x2f, 0xca, 0xbe, 0x21, 0x97, 0x2f, 0xbe,
  0xb6, 0xd4, 0x6b, 0xbe, 0xfa, 0xba, 0xd0, 0xbd, 0x7b, 0xce, 0x1b, 0xbe,
  0xb2, 0xcc, 0x30, 0x3e, 0x33, 0xa2, 0xbb, 0x3d, 0x7c, 0xca, 0x57, 0xbd,
  0x77, 0x5f, 0x8f, 0xbe, 0xb7, 0x8e, 0x2e, 0x3e, 0x6a, 0x2a, 0x6c, 0xbe,
  0x60, 0xa5, 0x92, 0x3d, 0xcd, 0xf0, 0xec, 0xbe, 0x63, 0xff, 0xfd, 0xbb,
  0x99, 0xc5, 0x8c, 0x3e, 0x85, 0xf4, 0x0e, 0xbe, 0xc5, 0x97, 0x4f, 0xbe,
  0x48, 0x83, 0xa2, 0xbd, 0xf0, 0x30, 0x91, 0xbe, 0x46, 0x27, 0x10, 0x3e,
  0xfd, 0xc2, 0x8c, 0x3e, 0xe4, 0x41, 0x34, 0x3e, 0x73, 0xea, 0x87, 0x3e,
  0x8e, 0x37, 0x3e, 0xbe, 0x20, 0x6d, 0x80, 0xbe, 0x4b, 0xf8, 0x44, 0x3e,
  0x64, 0xfb, 0xe9, 0xbc, 0x73, 0xc2, 0xdf, 0x3d, 0xea, 0xad, 0x1e, 0x3c,
  0xe1, 0x06, 0xf5, 0x3d, 0x35, 0x6f, 0x86, 0xbe, 0xeb, 0x9a, 0xb5, 0x3e,
  0x67, 0x0a, 0x95, 0xbe, 0x74, 0xec, 0x12, 0x3e, 0xf9, 0xab, 0x0f, 0x3e,
  0xd2, 0x2f, 0x08, 0xbe, 0x38, 0x5b, 0x1e, 0x3e, 0x2b, 0x3e, 0x25, 0x3e,
  0x34, 0xbb, 0x93, 0x3e, 0x51, 0x98, 0x21, 0xbe, 0xa8, 0x18, 0xf7, 0xbd,
  0xe4, 0x7a, 0x3d, 0xbe, 0xaf, 0x67, 0x90, 0x3e, 0xcb, 0x07, 0x26, 0x3e,
  0xeb, 0xd0, 0x07, 0xbe, 0xee, 0xbf, 0x3d, 0x3e, 0xbf, 0x74, 0x30, 0x3b,
  0x7c, 0x3f, 0xde, 0xbc, 0x45, 0x94, 0xce, 0x3e, 0xec, 0x10, 0xc5, 0x3d,
  0x71, 0xcd, 0x81, 0x3e, 0xe1, 0x5a, 0x57, 0xbe, 0x59, 0x24, 0x01, 0x3e,
  0x64, 0xae, 0x00, 0xbe, 0x88, 0x54, 0xbd, 0xbe, 0xd4, 0xd0, 0x92, 0xbe,
  0x9b, 0xb3, 0xea, 0xbd, 0x5b, 0x0e, 0x5d, 0x3e, 0x63, 0xc5, 0x5d, 0x3d,
  0xbb, 0x84, 0xd0, 0x3e, 0xec, 0xf4, 0x7c, 0xbe, 0x6f, 0x25, 0xc1, 0x3e,
  0xce, 0x3a, 0xaf, 0xbd, 0xfc, 0x75, 0xcf, 0xbe, 0x78, 0xbd, 0xbd, 0x3e,
  0x6d, 0x91, 0xe9, 0x3e, 0xa1, 0xf2, 0x22, 0xbe, 0x93, 0xe2, 0x36, 0xbb,
  0x6a, 0x32, 0x5c, 0xbe, 0xa9, 0xa6, 0x83, 0x3b, 0x6c, 0x50, 0x62, 0x3d,
  0x0b, 0x1d, 0xd9, 0xbd, 0xce, 0x62, 0x89, 0x3e, 0xdd, 0x62, 0x33, 0xbe,
  0x63, 0x34, 0x32, 0x3e, 0x6b, 0x1e, 0x96, 0xbb, 0x6f, 0x53, 0x1f, 0x3e,
  0x5c, 0x3f, 0x94, 0xbe, 0x42, 0xcf, 0x3b, 0x3e, 0x2c, 0x63, 0x1b, 0x3e,
  0xdb, 0x46, 0x11, 0x3e, 0xa3, 0x94, 0x32, 0xbc, 0xd5, 0x56, 0x65, 0x3e,
  0x3c, 0x4c, 0x73, 0xbd, 0xe0, 0x80, 0x8f, 0xbe, 0x6f, 0x82, 0x02, 0x3e,
  0x25, 0x49, 0x59, 0x3e, 0xf5, 0xec, 0x85, 0xbe, 0x14, 0x78, 0x30, 0x3e,
  0xae, 0xba, 0x75, 0x3e, 0x55, 0x52, 0x1b, 0x3d, 0xf2, 0x9a, 0x9e, 0x3d,
  0xf2, 0x73, 0x56, 0xbd, 0xa1, 0x15, 0xca, 0xbd, 0xbf, 0xd1, 0x3f, 0xbe,
  0xef, 0xd3, 0x6e, 0xbc, 0x0b, 0x80, 0x41, 0x3c, 0x65, 0x6b, 0xf8, 0xbd,
  0x94, 0x54, 0x92, 0x3d, 0x9c, 0x11, 0xa8, 0xbd, 0x19, 0x8c, 0x1a, 0xbe,
  0x08, 0xf9, 0x16, 0xbe, 0x75, 0x98, 0x84, 0x3e, 0xcb, 0xab, 0xe9, 0xbd,
  0x2c, 0x82, 0xe4, 0x3d, 0x5a, 0x04, 0x93, 0xbd, 0x75, 0xe3, 0xc6, 0xbd,
  0xad, 0x33, 0x09, 0xbf, 0x3d, 0x11, 0x6c, 0xbe, 0xbd, 0x70, 0x20, 0xbd,
  0x84, 0xe7, 0x5a, 0xbe, 0x5b, 0xb4, 0x9c, 0xbd, 0x87, 0xb9, 0xdd, 0xbd,
  0x9b, 0xb9, 0xc5, 0xbd, 0x08, 0x6d, 0xc4, 0x3e, 0xa5, 0x61, 0x36, 0x3f,
  0xd6, 0x75, 0xb9, 0x3e, 0x9c, 0xba, 0x44, 0x3e, 0xab, 0xf6, 0x49, 0xbe,
  0x91, 0x4c, 0xaa, 0xbd, 0x85, 0x46, 0x7c, 0xbe, 0x80, 0x9d, 0x19, 0xbf,
  0x23, 0x0e, 0x53, 0xbd, 0x85, 0x42, 0x99, 0x3e, 0x90, 0xbd, 0x19, 0xbd,
  0x4b, 0x3f, 0x3f, 0x3e, 0x31, 0x52, 0x9c, 0xbd, 0xc0, 0x5d, 0x77, 0xbe,
  0x16, 0xb8, 0x76, 0xbe, 0xd9, 0x73, 0x9b, 0xbe, 0x1e, 0xdd, 0x93, 0x3d,
  0x98, 0xf6, 0x8e, 0x3d, 0x90, 0xef, 0x58, 0x3e, 0xef, 0x5e, 0x8d, 0x3e,
  0xa4, 0x79, 0x27, 0x3d, 0xcd, 0x11, 0x21, 0xbe, 0xa4, 0x63, 0xcf, 0x3e,
  0x6d, 0x66, 0x2a, 0xbd, 0xa5, 0xa0, 0x89, 0xbd, 0xba, 0xee, 0x77, 0x3e,
  0xa8, 0x0e, 0x27, 0x3e, 0x2a, 0x59, 0xf7, 0xbe, 0x38, 0x87, 0x89, 0x3e,
  0x91, 0xc1, 0xd5, 0xbe, 0xab, 0xf7, 0xfe, 0xbd, 0xbd, 0x08, 0xb1, 0xbe,
  0xd6, 0xce, 0xa4, 0x3e, 0x93, 0x8c, 0x91, 0x3e, 0x5f, 0x72, 0xa5, 0xbe,
  0xc0, 0x22, 0x4d, 0xbe, 0x5e, 0x30, 0xc9, 0xbc, 0x97, 0xf4, 0xf9, 0xbd,
  0x86, 0xee, 0x9e, 0x3e, 0x6b, 0x1e, 0x2b, 0x3e, 0x57, 0xac, 0xb8, 0xbe,
  0xf0, 0xef, 0xc5, 0x3d, 0x11, 0xa9, 0x8e, 0xbe, 0xe6, 0xad, 0xb4, 0xbc,
  0xc4, 0xdb, 0x97, 0xbe, 0x61, 0x8f, 0x7b, 0x3e, 0xa9, 0xc3, 0x1f, 0xbf,
  0xa1, 0x7f, 0x60, 0xbe, 0xd6, 0xfa, 0x59, 0x3e, 0x2a, 0xcf, 0xb0, 0xbe,
  0x6a, 0x37, 0x80, 0xbe, 0x54, 0x8a, 0xa3, 0x3e, 0x77, 0xb5, 0xa9, 0x3e,
  0x93, 0xba, 0x5b, 0x3e, 0x41, 0x19, 0x39, 0xbf, 0x94, 0xbc, 0x98, 0x3e,
  0xc4, 0x75, 0x5d, 0xbe, 0x73, 0x43, 0x35, 0xbe, 0x60, 0x97, 0x68, 0xbb,
  0x3c, 0x3d, 0x03, 0xbe, 0xe1, 0xab, 0x81, 0x3e, 0xb1, 0xcd, 0x99, 0xbd,
  0xba, 0x73, 0xa2, 0xbe, 0x4b, 0x0b, 0x63, 0x3e, 0x7d, 0xbe, 0x5c, 0x3d,
  0x78, 0xf8, 0x52, 0x3e, 0x93, 0xff, 0x15, 0xbb, 0x1e, 0x54, 0x12, 0x3e,
  0xcf, 0x4c, 0x98, 0x3e, 0xec, 0xb5, 0x7d, 0x3d, 0x2e, 0x2a, 0x90, 0x3d,
  0xa7, 0xe5, 0xdb, 0xbd, 0x60, 0xfd, 0xc3, 0xbd, 0x4f, 0x06, 0xf8, 0xbd,
  0xdb, 0x7c, 0x28, 0xbd, 0xa5, 0xc0, 0x81, 0xbe, 0xea, 0xa0, 0xae, 0xbd,
  0xd5, 0x99, 0xc8, 0x3a, 0x06, 0x47, 0xc7, 0xbe, 0x15, 0x59, 0x06, 0xbe,
  0xb4, 0x8d, 0x5e, 0xbe, 0x40, 0x9e, 0x69, 0x3e, 0xd7, 0x10, 0x4d, 0x3e,
  0x5d, 0x06, 0x70, 0xbe, 0x40, 0xa7, 0x77, 0xbe, 0xfb, 0x17, 0x00, 0xbe,
  0x84, 0x47, 0x9a, 0xbd, 0x5c, 0xdf, 0x2a, 0xbe, 0xc2, 0xf2, 0x8e, 0x3d,
  0x0f, 0xa1, 0xd3, 0x3e, 0xba, 0x73, 0xe5, 0x3c, 0x4e, 0xb7, 0xc4, 0x3d,
  0x9c, 0xa6, 0x72, 0x3e, 0x08, 0xf4, 0x6d, 0x3e, 0xc7, 0xc0, 0x9c, 0xbe,
  0xcc, 0x22, 0xa3, 0xbe, 0x9f, 0x64, 0x86, 0x3e, 0x58, 0xe7, 0x20, 0xbd,
  0x12, 0x6a, 0x0f, 0xbe, 0x40, 0x61, 0x21, 0xbe, 0xa4, 0xdc, 0x8a, 0x3e,
  0x29, 0x02, 0x13, 0xbe, 0xcb, 0x9f, 0x45, 0xbe, 0x49, 0x40, 0xcd, 0x3e,
  0x72, 0x19, 0xdc, 0x3e, 0x30, 0x3f, 0x9e, 0xbe, 0x0b, 0x82, 0x16, 0x3e,
  0x3d, 0x9c, 0x87, 0x3e, 0xba, 0xfa, 0x9b, 0x3e, 0x63, 0x70, 0x7f, 0x3e,
  0x5d, 0x36, 0x04, 0xbe, 0x5d, 0xd9, 0xba, 0xbe, 0xd8, 0xff, 0x22, 0xbe,
  0x44, 0x48, 0x68, 0x3e, 0x03, 0x8a, 0xc0, 0xbd, 0x83, 0x5e, 0x46, 0x3a,
  0x74, 0x8f, 0xf2, 0x3d, 0xc8, 0x85, 0x4c, 0x3e, 0x44, 0x39, 0x48, 0xb9,
  0xc5, 0xbb, 0xa7, 0xbe, 0x68, 0x01, 0x93, 0x3e, 0xc5, 0x3d, 0x8d, 0x3e,
  0xc0, 0xd6, 0xc0, 0xbd, 0x74, 0xab, 0x43, 0x3d, 0xc1, 0x8f, 0x7a, 0xbd,
  0xe0, 0x52, 0xac, 0xbd, 0xa0, 0x50, 0x69, 0x3e, 0x5e, 0xaa, 0x69, 0xbe,
  0xc4, 0xa5, 0x2e, 0xbe, 0xa6, 0xdd, 0x88, 0xbe, 0x4f, 0xa3, 0xcf, 0xbe,
  0x98, 0x1e, 0x47, 0xbe, 0xdc, 0xf4, 0xba, 0x3d, 0x5d, 0xac, 0xfa, 0xbe,
  0x06, 0x6c, 0xea, 0x3e, 0x15, 0xb0, 0x72, 0xbe, 0x99, 0x08, 0x41, 0xbe,
  0xb6, 0xba, 0x1c, 0x3e, 0x05, 0xcf, 0x16, 0xbe, 0x5b, 0x15, 0x40, 0x3d,
  0x0b, 0x98, 0x94, 0x3e, 0xe3, 0x1a, 0x78, 0xbe, 0x32, 0xbb, 0x79, 0x3e,
  0x00, 0x35, 0x32, 0xbe, 0x28, 0xfd, 0xf1, 0x3b, 0xb4, 0x8b, 0x08, 0xbd,
  0x3e, 0xbf, 0x81, 0xbe, 0x04, 0x86, 0x06, 0xbd, 0x06, 0xa2, 0x1f, 0xbe,
  0x24, 0x80, 0x84, 0x3e, 0xc1, 0x77, 0x15, 0xbe, 0x28, 0x83, 0xea, 0xbd,
  0x6c, 0x37, 0x9a, 0xbe, 0xc7, 0xe0, 0xaa, 0xbe, 0xe9, 0xd0, 0x9f, 0xbd,
  0xc0, 0x1d, 0x1b, 0x3e, 0xb3, 0x63, 0x0c, 0xbd, 0xd0, 0xc2, 0x07, 0xbe,
  0xa2, 0x3f, 0xbd, 0xbd, 0x05, 0xe1, 0x0c, 0xbd, 0x76, 0x19, 0x56, 0xbe,
  0x87, 0x8e, 0x48, 0xbe, 0x74, 0x91, 0xa3, 0xbe, 0x9f, 0x16, 0x87, 0x3e,
  0xb0, 0xd9, 0xc8, 0x3d, 0xf9, 0xce, 0xcf, 0xbe, 0x9d, 0xa8, 0xa0, 0xbe,
  0x79, 0x01, 0x9b, 0x3e, 0x6c, 0x3c, 0x82, 0xbe, 0xf6, 0x3a, 0x31, 0xbe,
  0x0e, 0x47, 0x5d, 0xbe, 0x6c, 0x13, 0xb8, 0xbe, 0x7b, 0x35, 0x6f, 0xbd,
  0xac, 0x9f, 0xd5, 0x3d, 0xf2, 0xa7, 0x54, 0x3e, 0x9e, 0x1d, 0xd2, 0xbd,
  0x3d, 0x70, 0x08, 0xbf, 0x60, 0x9a, 0x71, 0xbe, 0x69, 0x4a, 0xf4, 0x3b,
  0xcb, 0x76, 0x82, 0x3e, 0x87, 0x6c, 0x94, 0xbe, 0xf4, 0x10, 0xc5, 0x3e,
  0xd5, 0xd4, 0xde, 0x3d, 0x41, 0x29, 0xa7, 0xbd, 0x0b, 0x6c, 0xf1, 0xbd,
  0x56, 0x6f, 0x6e, 0x3e, 0x9e, 0xa2, 0xd3, 0x3d, 0xd9, 0xd0, 0xa3, 0x3d,
  0x25, 0x4c, 0x6c, 0xbe, 0xfb, 0x2e, 0x0b, 0x3e, 0x3b, 0x29, 0x9b, 0xbc,
  0x53, 0x01, 0x2d, 0xbe, 0xcc, 0xfb, 0x21, 0xbe, 0x40, 0x34, 0x3b, 0xbb,
  0x24, 0x18, 0x6a, 0x3d, 0x3f, 0x6d, 0x68, 0x3e, 0x0b, 0x86, 0x2f, 0x3e,
  0xd6, 0x1f, 0x0e, 0x3e, 0x11, 0x8a, 0x4d, 0xbe, 0xb4, 0xf0, 0x8e, 0xbd,
  0x02, 0x44, 0xa2, 0xbe, 0xdb, 0x79, 0x89, 0x3d, 0x8e, 0x14, 0xd5, 0xbe,
  0x36, 0x08, 0xc5, 0x3e, 0x6b, 0x64, 0xd1, 0xbd, 0xc1, 0x3f, 0x2c, 0xbe,
  0x3b, 0x3b, 0x4e, 0xbe, 0x86, 0x3d, 0x49, 0xbe, 0xdb, 0x32, 0xb4, 0xbd,
  0xe1, 0x66, 0x7f, 0x3e, 0x9a, 0xfb, 0x8e, 0x3d, 0x48, 0xa4, 0x68, 0xbe,
  0x5d, 0x94, 0xf5, 0xbd, 0x7c, 0x0e, 0x32, 0xbd, 0x9a, 0x93, 0x83, 0xbe,
  0x11, 0x09, 0x41, 0xbe, 0x6f, 0x75, 0x0d, 0xbe, 0xe7, 0xf2, 0x81, 0xbd,
  0x71, 0x83, 0x8a, 0x3e, 0xa1, 0x42, 0x0a, 0xbe, 0x5d, 0xf6, 0x04, 0x3e,
  0x40, 0x87, 0x49, 0x3e, 0xed, 0xd3, 0x1f, 0xbe, 0x38, 0xb8, 0x4c, 0xbe,
  0xab, 0xcd, 0x4e, 0x3e, 0xf6, 0x1a, 0x95, 0x3e, 0xdc, 0x44, 0x7b, 0x3e,
  0x0a, 0xec, 0x91, 0x3e, 0x24, 0xf9, 0xff, 0xff, 0x28, 0xf9, 0xff, 0xff,
  0x0f, 0x00, 0x00, 0x00, 0x4d, 0x4c, 0x49, 0x52, 0x20, 0x43, 0x6f, 0x6e,
  0x76, 0x65, 0x72, 0x74, 0x65, 0x64, 0x2e, 0x00, 0x01, 0x00, 0x00, 0x00,
  0x14, 0x00, 0x00, 0x00, 0x00, 0x00, 0x0e, 0x00, 0x18, 0x00, 0x14, 0x00,
  0x10, 0x00, 0x0c, 0x00, 0x08, 0x00, 0x04, 0x00, 0x0e, 0x00, 0x00, 0x00,
  0x14, 0x00, 0x00, 0x00, 0x1c, 0x00, 0x00, 0x00, 0x5c, 0x01, 0x00, 0x00,
  0x60, 0x01, 0x00, 0x00, 0x64, 0x01, 0x00, 0x00, 0x04, 0x00, 0x00, 0x00,
  0x6d, 0x61, 0x69, 0x6e, 0x00, 0x00, 0x00, 0x00, 0x05, 0x00, 0x00, 0x00,
  0x00, 0x01, 0x00, 0x00, 0xb8, 0x00, 0x00, 0x00, 0x84, 0x00, 0x00, 0x00,
  0x40, 0x00, 0x00, 0x00, 0x04, 0x00, 0x00, 0x00, 0x96, 0xff, 0xff, 0xff,
  0x1c, 0x00, 0x00, 0x00, 0x00, 0x00, 0x00, 0x09, 0x1c, 0x00, 0x00, 0x00,
  0x20, 0x00, 0x00, 0x00, 0x02, 0x00, 0x00, 0x00, 0x00, 0x00, 0x06, 0x00,
  0x08, 0x00, 0x04, 0x00, 0x06, 0x00, 0x00, 0x00, 0x00, 0x00, 0x80, 0x3f,
  0x01, 0x00, 0x00, 0x00, 0x0c, 0x00, 0x00, 0x00, 0x01, 0x00, 0x00, 0x00,
  0x0b, 0x00, 0x00, 0x00, 0x5a, 0xff, 0xff, 0xff, 0x10, 0x00, 0x00, 0x00,
  0x00, 0x00, 0x00, 0x08, 0x0c, 0x00, 0x00, 0x00, 0x10, 0x00, 0x00, 0x00,
  0xe0, 0xf9, 0xff, 0xff, 0x01, 0x00, 0x00, 0x00, 0x0b, 0x00, 0x00, 0x00,
  0x03, 0x00, 0x00, 0x00, 0x0a, 0x00, 0x00, 0x00, 0x02, 0x00, 0x00, 0x00,
  0x03, 0x00, 0x00, 0x00, 0x00, 0x00, 0x0e, 0x00, 0x18, 0x00, 0x14, 0x00,
  0x10, 0x00, 0x0c, 0x00, 0x0b, 0x00, 0x04, 0x00, 0x0e, 0x00, 0x00, 0x00,
  0x14, 0x00, 0x00, 0x00, 0x00, 0x00, 0x00, 0x1b, 0x10, 0x00, 0x00, 0x00,
  0x14, 0x00, 0x00, 0x00, 0x01, 0x00, 0x00, 0x00, 0x24, 0xfa, 0xff, 0xff,
  0x01, 0x00, 0x00, 0x00, 0x0a, 0x00, 0x00, 0x00, 0x02, 0x00, 0x00, 0x00,
  0x09, 0x00, 0x00, 0x00, 0x04, 0x00, 0x00, 0x00, 0xca, 0xff, 0xff, 0xff,
  0x10, 0x00, 0x00, 0x00, 0x00, 0x00, 0x00, 0x08, 0x10, 0x00, 0x00, 0x00,
  0x14, 0x00, 0x00, 0x00, 0xba, 0xff, 0xff, 0xff, 0x00, 0x00, 0x01, 0x01,
  0x01, 0x00, 0x00, 0x00, 0x09, 0x00, 0x00, 0x00, 0x03, 0x00, 0x00, 0x00,
  0x08, 0x00, 0x00, 0x00, 0x01, 0x00, 0x00, 0x00, 0x05, 0x00, 0x00, 0x00,
  0x00, 0x00, 0x0e, 0x00, 0x16, 0x00, 0x00, 0x00, 0x10, 0x00, 0x0c, 0x00,
  0x0b, 0x00, 0x04, 0x00, 0x0e, 0x00, 0x00, 0x00, 0x1c, 0x00, 0x00, 0x00,
  0x00, 0x00, 0x00, 0x08, 0x1c, 0x00, 0x00, 0x00, 0x20, 0x00, 0x00, 0x00,
  0x00, 0x00, 0x0a, 0x00, 0x08, 0x00, 0x07, 0x00, 0x00, 0x00, 0x06, 0x00,
  0x0a, 0x00, 0x00, 0x00, 0x00, 0x00, 0x01, 0x01, 0x01, 0x00, 0x00, 0x00,
  0x08, 0x00, 0x00, 0x00, 0x03, 0x00, 0x00, 0x00, 0x00, 0x00, 0x00, 0x00,
  0x07, 0x00, 0x00, 0x00, 0x06, 0x00, 0x00, 0x00, 0x01, 0x00, 0x00, 0x00,
  0x0c, 0x00, 0x00, 0x00, 0x01, 0x00, 0x00, 0x00, 0x00, 0x00, 0x00, 0x00,
  0x0d, 0x00, 0x00, 0x00, 0x00, 0x05, 0x00, 0x00, 0xa8, 0x04, 0x00, 0x00,
  0x50, 0x04, 0x00, 0x00, 0x14, 0x04, 0x00, 0x00, 0xa8, 0x03, 0x00, 0x00,
  0x34, 0x03, 0x00, 0x00, 0xdc, 0x02, 0x00, 0x00, 0x90, 0x02, 0x00, 0x00,
  0xf4, 0x01, 0x00, 0x00, 0x50, 0x01, 0x00, 0x00, 0xe0, 0x00, 0x00, 0x00,
  0x60, 0x00, 0x00, 0x00, 0x04, 0x00, 0x00, 0x00, 0x4a, 0xfb, 0xff, 0xff,
  0x00, 0x00, 0x00, 0x01, 0x14, 0x00, 0x00, 0x00, 0x1c, 0x00, 0x00, 0x00,
  0x1c, 0x00, 0x00, 0x00, 0x0d, 0x00, 0x00, 0x00, 0x34, 0x00, 0x00, 0x00,
  0x02, 0x00, 0x00, 0x00, 0xff, 0xff, 0xff, 0xff, 0x04, 0x00, 0x00, 0x00,
  0x30, 0xfb, 0xff, 0xff, 0x1b, 0x00, 0x00, 0x00, 0x53, 0x74, 0x61, 0x74,
  0x65, 0x66, 0x75, 0x6c, 0x50, 0x61, 0x72, 0x74, 0x69, 0x74, 0x69, 0x6f,
  0x6e, 0x65, 0x64, 0x43, 0x61, 0x6c, 0x6c, 0x5f, 0x31, 0x3a, 0x30, 0x00,
  0x02, 0x00, 0x00, 0x00, 0x01, 0x00, 0x00, 0x00, 0x04, 0x00, 0x00, 0x00,
  0xa2, 0xfb, 0xff, 0xff, 0x00, 0x00, 0x00, 0x01, 0x14, 0x00, 0x00, 0x00,
  0x1c, 0x00, 0x00, 0x00, 0x1c, 0x00, 0x00, 0x00, 0x0c, 0x00, 0x00, 0x00,
  0x58, 0x00, 0x00, 0x00, 0x02, 0x00, 0x00, 0x00, 0xff, 0xff, 0xff, 0xff,
  0x04, 0x00, 0x00, 0x00, 0x88, 0xfb, 0xff, 0xff, 0x3c, 0x00, 0x00, 0x00,
  0x73, 0x65, 0x71, 0x75, 0x65, 0x6e, 0x74, 0x69, 0x61, 0x6c, 0x5f, 0x31,
  0x2f, 0x64, 0x65, 0x6e, 0x73, 0x65, 0x5f, 0x32, 0x5f, 0x31, 0x2f, 0x4d,
  0x61, 0x74, 0x4d, 0x75, 0x6c, 0x3b, 0x73, 0x65, 0x71, 0x75, 0x65, 0x6e,
  0x74, 0x69, 0x61, 0x6c, 0x5f, 0x31, 0x2f, 0x64, 0x65, 0x6e, 0x73, 0x65,
  0x5f, 0x32, 0x5f, 0x31, 0x2f, 0x42, 0x69, 0x61, 0x73, 0x41, 0x64, 0x64,
  0x00, 0x00, 0x00, 0x00, 0x02, 0x00, 0x00, 0x00, 0x01, 0x00, 0x00, 0x00,
  0x04, 0x00, 0x00, 0x00, 0x1e, 0xfc, 0xff, 0xff, 0x00, 0x00, 0x00, 0x01,
  0x14, 0x00, 0x00, 0x00, 0x1c, 0x00, 0x00, 0x00, 0x1c, 0x00, 0x00, 0x00,
  0x0b, 0x00, 0x00, 0x00, 0x48, 0x00, 0x00, 0x00, 0x02, 0x00, 0x00, 0x00,
  0xff, 0xff, 0xff, 0xff, 0x0f, 0x00, 0x00, 0x00, 0x04, 0xfc, 0xff, 0xff,
  0x2c, 0x00, 0x00, 0x00, 0x73, 0x65, 0x71, 0x75, 0x65, 0x6e, 0x74, 0x69,
  0x61, 0x6c, 0x5f, 0x31, 0x2f, 0x67, 0x6c, 0x6f, 0x62, 0x61, 0x6c, 0x5f,
  0x61, 0x76, 0x65, 0x72, 0x61, 0x67, 0x65, 0x5f, 0x70, 0x6f, 0x6f, 0x6c,
  0x69, 0x6e, 0x67, 0x31, 0x64, 0x5f, 0x31, 0x2f, 0x4d, 0x65, 0x61, 0x6e,
  0x00, 0x00, 0x00, 0x00, 0x02, 0x00, 0x00, 0x00, 0x01, 0x00, 0x00, 0x00,
  0x0f, 0x00, 0x00, 0x00, 0x8a, 0xfc, 0xff, 0xff, 0x00, 0x00, 0x00, 0x01,
  0x14, 0x00, 0x00, 0x00, 0x20, 0x00, 0x00, 0x00, 0x20, 0x00, 0x00, 0x00,
  0x0a, 0x00, 0x00, 0x00, 0x78, 0x00, 0x00, 0x00, 0x03, 0x00, 0x00, 0x00,
  0xff, 0xff, 0xff, 0xff, 0x7d, 0x00, 0x00, 0x00, 0x0f, 0x00, 0x00, 0x00,
  0x74, 0xfc, 0xff, 0xff, 0x58, 0x00, 0x00, 0x00, 0x73, 0x65, 0x71, 0x75,
  0x65, 0x6e, 0x74, 0x69, 0x61, 0x6c, 0x5f, 0x31, 0x2f, 0x64, 0x65, 0x6e,
  0x73, 0x65, 0x5f, 0x31, 0x5f, 0x32, 0x2f, 0x4d, 0x61, 0x74, 0x4d, 0x75,
  0x6c, 0x3b, 0x73, 0x65, 0x71, 0x75, 0x65, 0x6e, 0x74, 0x69, 0x61, 0x6c,
  0x5f, 0x31, 0x2f, 0x64, 0x65, 0x6e, 0x73, 0x65, 0x5f, 0x31, 0x5f, 0x32,
  0x2f, 0x52, 0x65, 0x6c, 0x75, 0x3b, 0x73, 0x65, 0x71, 0x75, 0x65, 0x6e,
  0x74, 0x69, 0x61, 0x6c, 0x5f, 0x31, 0x2f, 0x64, 0x65, 0x6e, 0x73, 0x65,
  0x5f, 0x31, 0x5f, 0x32, 0x2f, 0x42, 0x69, 0x61, 0x73, 0x41, 0x64, 0x64,
  0x00, 0x00, 0x00, 0x00, 0x03, 0x00, 0x00, 0x00, 0x01, 0x00, 0x00, 0x00,
  0x7d, 0x00, 0x00, 0x00, 0x0f, 0x00, 0x00, 0x00, 0x2a, 0xfd, 0xff, 0xff,
  0x00, 0x00, 0x00, 0x01, 0x14, 0x00, 0x00, 0x00, 0x20, 0x00, 0x00, 0x00,
  0x20, 0x00, 0x00, 0x00, 0x09, 0x00, 0x00, 0x00, 0x70, 0x00, 0x00, 0x00,
  0x03, 0x00, 0x00, 0x00, 0xff, 0xff, 0xff, 0xff, 0x7d, 0x00, 0x00, 0x00,
  0x32, 0x00, 0x00, 0x00, 0x14, 0xfd, 0xff, 0xff, 0x52, 0x00, 0x00, 0x00,
  0x73, 0x65, 0x71, 0x75, 0x65, 0x6e, 0x74, 0x69, 0x61, 0x6c, 0x5f, 0x31,
  0x2f, 0x64, 0x65, 0x6e, 0x73, 0x65, 0x5f, 0x31, 0x2f, 0x4d, 0x61, 0x74,
  0x4d, 0x75, 0x6c, 0x3b, 0x73, 0x65, 0x71, 0x75, 0x65, 0x6e, 0x74, 0x69,
  0x61, 0x6c, 0x5f, 0x31, 0x2f, 0x64, 0x65, 0x6e, 0x73, 0x65, 0x5f, 0x31,
  0x2f, 0x52, 0x65, 0x6c, 0x75, 0x3b, 0x73, 0x65, 0x71, 0x75, 0x65, 0x6e,
  0x74, 0x69, 0x61, 0x6c, 0x5f, 0x31, 0x2f, 0x64, 0x65, 0x6e, 0x73, 0x65,
  0x5f, 0x31, 0x2f, 0x42, 0x69, 0x61, 0x73, 0x41, 0x64, 0x64, 0x00, 0x00,
  0x03, 0x00, 0x00, 0x00, 0x01, 0x00, 0x00, 0x00, 0x7d, 0x00, 0x00, 0x00,
  0x32, 0x00, 0x00, 0x00, 0x16, 0xfe, 0xff, 0xff, 0x00, 0x00, 0x00, 0x01,
  0x10, 0x00, 0x00, 0x00, 0x10, 0x00, 0x00, 0x00, 0x08, 0x00, 0x00, 0x00,
  0x28, 0x00, 0x00, 0x00, 0x98, 0xfd, 0xff, 0xff, 0x1b, 0x00, 0x00, 0x00,
  0x73, 0x65, 0x71, 0x75, 0x65, 0x6e, 0x74, 0x69, 0x61, 0x6c, 0x5f, 0x31,
  0x2f, 0x64, 0x65, 0x6e, 0x73, 0x65, 0x5f, 0x31, 0x2f, 0x4d, 0x61, 0x74,
  0x4d, 0x75, 0x6c, 0x00, 0x02, 0x00, 0x00, 0x00, 0x32, 0x00, 0x00, 0x00,
  0x06, 0x00, 0x00, 0x00, 0x5e, 0xfe, 0xff, 0xff, 0x00, 0x00, 0x00, 0x01,
  0x10, 0x00, 0x00, 0x00, 0x10, 0x00, 0x00, 0x00, 0x07, 0x00, 0x00, 0x00,
  0x38, 0x00, 0x00, 0x00, 0xe0, 0xfd, 0xff, 0xff, 0x2b, 0x00, 0x00, 0x00,
  0x73, 0x65, 0x71, 0x75, 0x65, 0x6e, 0x74, 0x69, 0x61, 0x6c, 0x5f, 0x31,
  0x2f, 0x64, 0x65, 0x6e, 0x73, 0x65, 0x5f, 0x31, 0x2f, 0x42, 0x69, 0x61,
  0x73, 0x41, 0x64, 0x64, 0x2f, 0x52, 0x65, 0x61, 0x64, 0x56, 0x61, 0x72,
  0x69, 0x61, 0x62, 0x6c, 0x65, 0x4f, 0x70, 0x00, 0x01, 0x00, 0x00, 0x00,
  0x32, 0x00, 0x00, 0x00, 0xb2, 0xfe, 0xff, 0xff, 0x00, 0x00, 0x00, 0x01,
  0x10, 0x00, 0x00, 0x00, 0x10, 0x00, 0x00, 0x00, 0x06, 0x00, 0x00, 0x00,
  0x3c, 0x00, 0x00, 0x00, 0x34, 0xfe, 0xff, 0xff, 0x2d, 0x00, 0x00, 0x00,
  0x73, 0x65, 0x71, 0x75, 0x65, 0x6e, 0x74, 0x69, 0x61, 0x6c, 0x5f, 0x31,
  0x2f, 0x64, 0x65, 0x6e, 0x73, 0x65, 0x5f, 0x31, 0x5f, 0x32, 0x2f, 0x42,
  0x69, 0x61, 0x73, 0x41, 0x64, 0x64, 0x2f, 0x52, 0x65, 0x61, 0x64, 0x56,
  0x61, 0x72, 0x69, 0x61, 0x62, 0x6c, 0x65, 0x4f, 0x70, 0x00, 0x00, 0x00,
  0x01, 0x00, 0x00, 0x00, 0x0f, 0x00, 0x00, 0x00, 0x00, 0x00, 0x16, 0x00,
  0x1c, 0x00, 0x18, 0x00, 0x17, 0x00, 0x10, 0x00, 0x0c, 0x00, 0x08, 0x00,
  0x00, 0x00, 0x00, 0x00, 0x00, 0x00, 0x07, 0x00, 0x16, 0x00, 0x00, 0x00,
  0x00, 0x00, 0x00, 0x01, 0x14, 0x00, 0x00, 0x00, 0x14, 0x00, 0x00, 0x00,
  0x05, 0x00, 0x00, 0x00, 0x00, 0x00, 0x00, 0x02, 0x4c, 0x00, 0x00, 0x00,
  0xa8, 0xfe, 0xff, 0xff, 0x3e, 0x00, 0x00, 0x00, 0x73, 0x65, 0x71, 0x75,
  0x65, 0x6e, 0x74, 0x69, 0x61, 0x6c, 0x5f, 0x31, 0x2f, 0x67, 0x6c, 0x6f,
  0x62, 0x61, 0x6c, 0x5f, 0x61, 0x76, 0x65, 0x72, 0x61, 0x67, 0x65, 0x5f,
  0x70, 0x6f, 0x6f, 0x6c, 0x69, 0x6e, 0x67, 0x31, 0x64, 0x5f, 0x31, 0x2f,
  0x4d, 0x65, 0x61, 0x6e, 0x2f, 0x72, 0x65, 0x64, 0x75, 0x63, 0x74, 0x69,
  0x6f, 0x6e, 0x5f, 0x69, 0x6e, 0x64, 0x69, 0x63, 0x65, 0x73, 0x00, 0x00,
  0x00, 0x00, 0x00, 0x00, 0x8a, 0xff, 0xff, 0xff, 0x00, 0x00, 0x00, 0x01,
  0x10, 0x00, 0x00, 0x00, 0x10, 0x00, 0x00, 0x00, 0x04, 0x00, 0x00, 0x00,
  0x1c, 0x00, 0x00, 0x00, 0x0c, 0xff, 0xff, 0xff, 0x0f, 0x00, 0x00, 0x00,
  0x61, 0x72, 0x69, 0x74, 0x68, 0x2e, 0x63, 0x6f, 0x6e, 0x73, 0x74, 0x61,
  0x6e, 0x74, 0x32, 0x00, 0x01, 0x00, 0x00, 0x00, 0x04, 0x00, 0x00, 0x00,
  0xc2, 0xff, 0xff, 0xff, 0x00, 0x00, 0x00, 0x01, 0x10, 0x00, 0x00, 0x00,
  0x10, 0x00, 0x00, 0x00, 0x03, 0x00, 0x00, 0x00, 0x1c, 0x00, 0x00, 0x00,
  0x44, 0xff, 0xff, 0xff, 0x0f, 0x00, 0x00, 0x00, 0x61, 0x72, 0x69, 0x74,
  0x68, 0x2e, 0x63, 0x6f, 0x6e, 0x73, 0x74, 0x61, 0x6e, 0x74, 0x31, 0x00,
  0x02, 0x00, 0x00, 0x00, 0x04, 0x00, 0x00, 0x00, 0x0f, 0x00, 0x00, 0x00,
  0x00, 0x00, 0x16, 0x00, 0x18, 0x00, 0x14, 0x00, 0x00, 0x00, 0x10, 0x00,
  0x0c, 0x00, 0x08, 0x00, 0x00, 0x00, 0x00, 0x00, 0x00, 0x00, 0x07, 0x00,
  0x16, 0x00, 0x00, 0x00, 0x00, 0x00, 0x00, 0x01, 0x10, 0x00, 0x00, 0x00,
  0x10, 0x00, 0x00, 0x00, 0x02, 0x00, 0x00, 0x00, 0x1c, 0x00, 0x00, 0x00,
  0x98, 0xff, 0xff, 0xff, 0x0e, 0x00, 0x00, 0x00, 0x61, 0x72, 0x69, 0x74,
  0x68, 0x2e, 0x63, 0x6f, 0x6e, 0x73, 0x74, 0x61, 0x6e, 0x74, 0x00, 0x00,
  0x02, 0x00, 0x00, 0x00, 0x0f, 0x00, 0x00, 0x00, 0x32, 0x00, 0x00, 0x00,
  0x00, 0x00, 0x16, 0x00, 0x1c, 0x00, 0x18, 0x00, 0x00, 0x00, 0x14, 0x00,
  0x10, 0x00, 0x0c, 0x00, 0x00, 0x00, 0x00, 0x00, 0x08, 0x00, 0x07, 0x00,
  0x16, 0x00, 0x00, 0x00, 0x00, 0x00, 0x00, 0x01, 0x14, 0x00, 0x00, 0x00,
  0x24, 0x00, 0x00, 0x00, 0x24, 0x00, 0x00, 0x00, 0x01, 0x00, 0x00, 0x00,
  0x40, 0x00, 0x00, 0x00, 0x03, 0x00, 0x00, 0x00, 0xff, 0xff, 0xff, 0xff,
  0x7d, 0x00, 0x00, 0x00, 0x06, 0x00, 0x00, 0x00, 0x04, 0x00, 0x04, 0x00,
  0x04, 0x00, 0x00, 0x00, 0x1e, 0x00, 0x00, 0x00, 0x73, 0x65, 0x72, 0x76,
  0x69, 0x6e, 0x67, 0x5f, 0x64, 0x65, 0x66, 0x61, 0x75, 0x6c, 0x74, 0x5f,
  0x6b, 0x65, 0x72, 0x61, 0x73, 0x5f, 0x74, 0x65, 0x6e, 0x73, 0x6f, 0x72,
  0x3a, 0x30, 0x00, 0x00, 0x03, 0x00, 0x00, 0x00, 0x01, 0x00, 0x00, 0x00,
  0x7d, 0x00, 0x00, 0x00, 0x06, 0x00, 0x00, 0x00, 0x03, 0x00, 0x00, 0x00,
  0x3c, 0x00, 0x00, 0x00, 0x20, 0x00, 0x00, 0x00, 0x04, 0x00, 0x00, 0x00,
  0xf4, 0xff, 0xff, 0xff, 0x19, 0x00, 0x00, 0x00, 0x00, 0x00, 0x00, 0x19,
  0x0c, 0x00, 0x0c, 0x00, 0x0b, 0x00, 0x00, 0x00, 0x00, 0x00, 0x04, 0x00,
  0x0c, 0x00, 0x00, 0x00, 0x28, 0x00, 0x00, 0x00, 0x00, 0x00, 0x00, 0x28,
  0x0c, 0x00, 0x10, 0x00, 0x0f, 0x00, 0x00, 0x00, 0x08, 0x00, 0x04, 0x00,
  0x0c, 0x00, 0x00, 0x00, 0x09, 0x00, 0x00, 0x00, 0x05, 0x00, 0x00, 0x00,
  0x00, 0x00, 0x00, 0x09
};
unsigned int Handshake_0603_2146_tflite_len = 7204;
