unsigned char Handshake_0603_2237_tflite[] = {
  0x1c, 0x00, 0x00, 0x00, 0x54, 0x46, 0x4c, 0x33, 0x14, 0x00, 0x20, 0x00,
  0x1c, 0x00, 0x18, 0x00, 0x14, 0x00, 0x10, 0x00, 0x0c, 0x00, 0x00, 0x00,
  0x08, 0x00, 0x04, 0x00, 0x14, 0x00, 0x00, 0x00, 0x1c, 0x00, 0x00, 0x00,
  0x98, 0x00, 0x00, 0x00, 0xf0, 0x00, 0x00, 0x00, 0x98, 0x14, 0x00, 0x00,
  0xa8, 0x14, 0x00, 0x00, 0xa0, 0x1b, 0x00, 0x00, 0x03, 0x00, 0x00, 0x00,
  0x01, 0x00, 0x00, 0x00, 0x10, 0x00, 0x00, 0x00, 0x00, 0x00, 0x0a, 0x00,
  0x10, 0x00, 0x0c, 0x00, 0x08, 0x00, 0x04, 0x00, 0x0a, 0x00, 0x00, 0x00,
  0x0c, 0x00, 0x00, 0x00, 0x1c, 0x00, 0x00, 0x00, 0x3c, 0x00, 0x00, 0x00,
  0x0f, 0x00, 0x00, 0x00, 0x73, 0x65, 0x72, 0x76, 0x69, 0x6e, 0x67, 0x5f,
  0x64, 0x65, 0x66, 0x61, 0x75, 0x6c, 0x74, 0x00, 0x01, 0x00, 0x00, 0x00,
  0x04, 0x00, 0x00, 0x00, 0x90, 0xff, 0xff, 0xff, 0x0c, 0x00, 0x00, 0x00,
  0x04, 0x00, 0x00, 0x00, 0x08, 0x00, 0x00, 0x00, 0x6f, 0x75, 0x74, 0x70,
  0x75, 0x74, 0x5f, 0x30, 0x00, 0x00, 0x00, 0x00, 0x01, 0x00, 0x00, 0x00,
  0x04, 0x00, 0x00, 0x00, 0x5a, 0xeb, 0xff, 0xff, 0x04, 0x00, 0x00, 0x00,
  0x0c, 0x00, 0x00, 0x00, 0x6b, 0x65, 0x72, 0x61, 0x73, 0x5f, 0x74, 0x65,
  0x6e, 0x73, 0x6f, 0x72, 0x00, 0x00, 0x00, 0x00, 0x02, 0x00, 0x00, 0x00,
  0x34, 0x00, 0x00, 0x00, 0x04, 0x00, 0x00, 0x00, 0xdc, 0xff, 0xff, 0xff,
  0x0f, 0x00, 0x00, 0x00, 0x04, 0x00, 0x00, 0x00, 0x13, 0x00, 0x00, 0x00,
  0x43, 0x4f, 0x4e, 0x56, 0x45, 0x52, 0x53, 0x49, 0x4f, 0x4e, 0x5f, 0x4d,
  0x45, 0x54, 0x41, 0x44, 0x41, 0x54, 0x41, 0x00, 0x08, 0x00, 0x0c, 0x00,
  0x08, 0x00, 0x04, 0x00, 0x08, 0x00, 0x00, 0x00, 0x0e, 0x00, 0x00, 0x00,
  0x04, 0x00, 0x00, 0x00, 0x13, 0x00, 0x00, 0x00, 0x6d, 0x69, 0x6e, 0x5f,
  0x72, 0x75, 0x6e, 0x74, 0x69, 0x6d, 0x65, 0x5f, 0x76, 0x65, 0x72, 0x73,
  0x69, 0x6f, 0x6e, 0x00, 0x10, 0x00, 0x00, 0x00, 0xa4, 0x13, 0x00, 0x00,
  0x9c, 0x13, 0x00, 0x00, 0xd4, 0x07, 0x00, 0x00, 0xd4, 0x06, 0x00, 0x00,
  0xb4, 0x06, 0x00, 0x00, 0xa0, 0x06, 0x00, 0x00, 0x54, 0x06, 0x00, 0x00,
  0x7c, 0x05, 0x00, 0x00, 0xbc, 0x00, 0x00, 0x00, 0xb4, 0x00, 0x00, 0x00,
  0xac, 0x00, 0x00, 0x00, 0xa4, 0x00, 0x00, 0x00, 0x9c, 0x00, 0x00, 0x00,
  0x94, 0x00, 0x00, 0x00, 0x74, 0x00, 0x00, 0x00, 0x04, 0x00, 0x00, 0x00,
  0x16, 0xec, 0xff, 0xff, 0x04, 0x00, 0x00, 0x00, 0x60, 0x00, 0x00, 0x00,
  0x10, 0x00, 0x00, 0x00, 0x00, 0x00, 0x00, 0x00, 0x08, 0x00, 0x0e, 0x00,
  0x08, 0x00, 0x04, 0x00, 0x08, 0x00, 0x00, 0x00, 0x10, 0x00, 0x00, 0x00,
  0x24, 0x00, 0x00, 0x00, 0x00, 0x00, 0x06, 0x00, 0x08, 0x00, 0x04, 0x00,
  0x06, 0x00, 0x00, 0x00, 0x04, 0x00, 0x00, 0x00, 0x00, 0x00, 0x00, 0x00,
  0x0c, 0x00, 0x18, 0x00, 0x14, 0x00, 0x10, 0x00, 0x0c, 0x00, 0x04, 0x00,
  0x0c, 0x00, 0x00, 0x00, 0x88, 0xfb, 0x5e, 0x4c, 0x81, 0x59, 0x36, 0x80,
  0x02, 0x00, 0x00, 0x00, 0x02, 0x00, 0x00, 0x00, 0x04, 0x00, 0x00, 0x00,
  0x06, 0x00, 0x00, 0x00, 0x32, 0x2e, 0x31, 0x39, 0x2e, 0x30, 0x00, 0x00,
  0x82, 0xec, 0xff, 0xff, 0x04, 0x00, 0x00, 0x00, 0x10, 0x00, 0x00, 0x00,
  0x32, 0x2e, 0x30, 0x2e, 0x30, 0x00, 0x00, 0x00, 0x00, 0x00, 0x00, 0x00,
  0x00, 0x00, 0x00, 0x00, 0x4c, 0xe6, 0xff, 0xff, 0x50, 0xe6, 0xff, 0xff,
  0x54, 0xe6, 0xff, 0xff, 0x58, 0xe6, 0xff, 0xff, 0x5c, 0xe6, 0xff, 0xff,
  0xb2, 0xec, 0xff, 0xff, 0x04, 0x00, 0x00, 0x00, 0xb0, 0x04, 0x00, 0x00,
  0x92, 0x95, 0xad, 0x3e, 0xc8, 0xb9, 0x61, 0x3e, 0xd8, 0x0a, 0x9a, 0x3e,
  0x60, 0x81, 0xc9, 0x3c, 0x80, 0xca, 0xa8, 0xbe, 0x8d, 0xf9, 0x09, 0xbd,
  0xc9, 0x9d, 0xa3, 0x3d, 0xf2, 0x93, 0xe8, 0xbe, 0x24, 0x72, 0x33, 0xbf,
  0x61, 0x56, 0x68, 0xbe, 0x4c, 0xeb, 0x48, 0x3e, 0x16, 0x42, 0x3b, 0xbd,
  0x40, 0xa3, 0xdd, 0xbf, 0x51, 0x42, 0x3f, 0xbe, 0xb1, 0xa5, 0x38, 0xbf,
  0xb0, 0x2f, 0x1e, 0xbd, 0x06, 0xbe, 0x30, 0xbd, 0xf6, 0x81, 0xf3, 0x3d,
  0xf5, 0xf4, 0x30, 0xc0, 0x02, 0x58, 0x8f, 0xbf, 0x46, 0x48, 0xd4, 0xbe,
  0xd7, 0x87, 0x0b, 0x3e, 0xd7, 0xbf, 0x55, 0x3d, 0x44, 0xfb, 0x54, 0xbe,
  0x92, 0xe8, 0xcd, 0xbe, 0xb5, 0xf8, 0x8d, 0xbe, 0x96, 0x9f, 0x71, 0xbf,
  0xa8, 0x1a, 0x9b, 0x3d, 0x84, 0x11, 0xa3, 0x3e, 0x95, 0x05, 0xb2, 0x3d,
  0xc1, 0x09, 0x33, 0xbe, 0xb5, 0x49, 0xd2, 0x3e, 0xba, 0x81, 0x64, 0x3e,
  0x20, 0xdc, 0x44, 0xbe, 0x1c, 0x03, 0x8e, 0x3e, 0x20, 0xa9, 0x81, 0xbd,
  0x8e, 0x8a, 0x52, 0x3f, 0xab, 0xd4, 0x79, 0x3e, 0xe9, 0x18, 0x81, 0x3f,
  0xb8, 0xe5, 0x89, 0xbe, 0x7a, 0x6a, 0x42, 0x3e, 0x2a, 0xaa, 0x82, 0xbe,
  0xcb, 0xae, 0x7d, 0x3f, 0xa4, 0x5a, 0xcc, 0xbe, 0xcb, 0xc8, 0x84, 0xbf,
  0xa9, 0x0e, 0x55, 0x3d, 0x41, 0xec, 0x9f, 0xbd, 0x57, 0x0c, 0xfb, 0x3c,
  0x93, 0x11, 0x51, 0xbf, 0x21, 0x0f, 0xac, 0xbf, 0xa3, 0xd1, 0xb0, 0xbd,
  0x4d, 0xa7, 0x94, 0xbe, 0xcd, 0xed, 0xe3, 0x3c, 0xf5, 0x4b, 0x14, 0xbe,
  0x79, 0xb7, 0xa9, 0xbe, 0xa2, 0x6f, 0x83, 0xbe, 0x82, 0x78, 0x43, 0x3f,
  0xc3, 0x2f, 0xca, 0xbe, 0x8d, 0x21, 0xec, 0x3c, 0xdd, 0xed, 0xb5, 0xbe,
  0xb1, 0x59, 0xa5, 0x3f, 0x7f, 0x13, 0x93, 0x3f, 0x83, 0x64, 0x38, 0xbf,
  0x65, 0xbf, 0x31, 0xbe, 0xe0, 0x51, 0x55, 0xbe, 0x73, 0x0d, 0x0e, 0xbe,
  0xdc, 0xb1, 0x03, 0xbf, 0x92, 0x52, 0x0a, 0x3e, 0xc2, 0x70, 0xb2, 0xbe,
  0x90, 0xed, 0xd0, 0x3d, 0x7a, 0x0f, 0x0d, 0xbe, 0x4c, 0x17, 0x85, 0xbe,
  0xa6, 0x3a, 0x83, 0x3e, 0x0c, 0x44, 0x00, 0xbf, 0x01, 0x00, 0xca, 0xbe,
  0x77, 0x03, 0x2e, 0xbe, 0x8c, 0x21, 0x7c, 0x3e, 0x7e, 0x01, 0xca, 0xbe,
  0x42, 0x96, 0x3a, 0xbe, 0x57, 0xc5, 0xf7, 0xbe, 0xe8, 0x35, 0x01, 0x3f,
  0xd8, 0x5f, 0xf0, 0x3b, 0x8d, 0xd4, 0x13, 0xbd, 0x42, 0xed, 0xa6, 0x3e,
  0xc3, 0x2c, 0x92, 0xbf, 0x66, 0xc1, 0x17, 0xc0, 0xec, 0x37, 0x40, 0xbf,
  0x73, 0x91, 0x9b, 0xbe, 0xcb, 0xee, 0x7a, 0xbe, 0x4a, 0xff, 0x27, 0xbe,
  0x9b, 0x87, 0xb0, 0xbe, 0x88, 0x27, 0x66, 0xbf, 0x4d, 0x9c, 0x23, 0xbe,
  0xb8, 0x13, 0x53, 0xbe, 0x1d, 0x65, 0xa1, 0x3e, 0x1e, 0x68, 0x0f, 0xbd,
  0x37, 0x68, 0x3e, 0x3e, 0xbd, 0xa4, 0xb0, 0x3e, 0x26, 0x39, 0x0f, 0x3f,
  0x85, 0x9d, 0xa4, 0x3e, 0x61, 0xb7, 0xa7, 0x3d, 0xe4, 0x3b, 0xa8, 0xbe,
  0x94, 0x75, 0xe0, 0xbd, 0xf2, 0x07, 0xbb, 0xbd, 0x74, 0x2a, 0x9a, 0xbe,
  0xf4, 0x55, 0x15, 0x3e, 0x62, 0xfc, 0x71, 0x3e, 0x2c, 0x39, 0x9c, 0xbd,
  0x99, 0x0a, 0x7d, 0x3e, 0x29, 0xd8, 0x4d, 0xbf, 0x15, 0x0d, 0x3c, 0x3e,
  0x25, 0xdb, 0x6a, 0xbe, 0xc3, 0x42, 0x57, 0x3e, 0xc4, 0x97, 0xc7, 0xbe,
  0x19, 0x4b, 0x52, 0x3e, 0xac, 0x74, 0xc8, 0x3d, 0x2a, 0x65, 0xdd, 0x3e,
  0x8a, 0x5f, 0x30, 0xbd, 0x9f, 0x91, 0x8b, 0x3d, 0xea, 0xe4, 0x53, 0xbe,
  0xaf, 0xcc, 0x7b, 0x3f, 0xfa, 0x22, 0x3d, 0x3d, 0xea, 0x65, 0x5d, 0x3e,
  0xc1, 0x2f, 0x05, 0xbf, 0xc7, 0xed, 0xcd, 0xbd, 0x81, 0x97, 0xa2, 0x3d,
  0xb9, 0x44, 0x8d, 0xba, 0x6e, 0x09, 0x75, 0x3d, 0x71, 0x6a, 0x85, 0x3e,
  0x9a, 0xa6, 0x8b, 0xbe, 0x2c, 0x6e, 0x67, 0xbe, 0x02, 0x74, 0x81, 0xbe,
  0x70, 0x7b, 0xda, 0xbd, 0x75, 0x1b, 0x23, 0xbd, 0x12, 0x8c, 0x41, 0x3d,
  0xf6, 0x0d, 0x2b, 0x3d, 0xc5, 0x8b, 0xf7, 0xbb, 0xc3, 0x8f, 0x52, 0x3e,
  0x88, 0xa6, 0xce, 0x3e, 0x20, 0x54, 0x49, 0xbe, 0xdc, 0x7a, 0x06, 0x3f,
  0xca, 0xe6, 0x85, 0xbe, 0xe3, 0x93, 0x77, 0xbd, 0x02, 0x3b, 0xea, 0x3c,
  0xd4, 0x90, 0xc7, 0x3e, 0x15, 0x8a, 0x40, 0xbf, 0xa0, 0x0e, 0x52, 0x3e,
  0x46, 0x13, 0xbe, 0xbe, 0x42, 0xc9, 0xb2, 0xbc, 0x18, 0x81, 0x1c, 0x3e,
  0x93, 0x69, 0x22, 0xbe, 0xfc, 0x46, 0x9a, 0x3e, 0xb3, 0x2d, 0x9a, 0x3e,
  0x1f, 0x03, 0x78, 0x3e, 0xaf, 0x4a, 0xd1, 0x3e, 0x4f, 0x0a, 0xac, 0x3e,
  0x82, 0x40, 0x3f, 0xbf, 0x28, 0xd7, 0x00, 0x3f, 0xdd, 0x22, 0x80, 0xbe,
  0x83, 0xc0, 0x2d, 0xbe, 0xd0, 0xdc, 0x70, 0xbd, 0xc3, 0x8c, 0x0b, 0xbe,
  0x7a, 0x1c, 0x94, 0x3e, 0x25, 0x84, 0x71, 0xbe, 0xd5, 0xd3, 0xa7, 0xbe,
  0xf4, 0x08, 0xbe, 0xbe, 0xe5, 0x9a, 0xc3, 0xbe, 0x0d, 0xe6, 0xd5, 0xbe,
  0x83, 0x29, 0x89, 0xbe, 0x54, 0xc1, 0x0f, 0xbf, 0xa6, 0xc3, 0xb2, 0xbf,
  0x56, 0x72, 0x07, 0xbf, 0xc3, 0x29, 0x3e, 0xbe, 0x2e, 0x97, 0xb9, 0x3d,
  0x35, 0xa6, 0x08, 0xbe, 0x1b, 0xbf, 0x4e, 0x3e, 0xfe, 0x52, 0x1b, 0xbd,
  0x79, 0xc8, 0xfa, 0xbd, 0x55, 0x66, 0xcb, 0x3d, 0xf2, 0x72, 0xb6, 0x3d,
  0x1d, 0x0e, 0x0e, 0xbf, 0x47, 0x8b, 0x56, 0x3f, 0x32, 0xeb, 0xb8, 0xbd,
  0xcd, 0x06, 0xb7, 0xbe, 0xb9, 0xdc, 0x92, 0x3d, 0x74, 0xe3, 0xb4, 0x3c,
  0x77, 0xc3, 0x68, 0x3e, 0xd8, 0xd5, 0x4e, 0x3c, 0xa9, 0x6a, 0xc1, 0xbd,
  0xfa, 0x41, 0x19, 0x3e, 0xaa, 0xcf, 0xea, 0xbd, 0x67, 0x69, 0x0b, 0x3e,
  0xd7, 0xea, 0xe3, 0x3f, 0x3d, 0x48, 0xe0, 0x3e, 0x6e, 0x2e, 0x31, 0x3e,
  0xca, 0x89, 0x66, 0x3e, 0x14, 0x08, 0x5d, 0xbe, 0x81, 0x48, 0xa2, 0x3d,
  0x03, 0x6e, 0x31, 0x40, 0xc8, 0x88, 0x9e, 0xbd, 0x35, 0x4a, 0xa7, 0x3e,
  0x5b, 0x92, 0x7e, 0x3e, 0xe7, 0xd8, 0x6b, 0xbe, 0x7b, 0x93, 0xe6, 0xbd,
  0x7c, 0x8d, 0xd2, 0x3e, 0xbb, 0x9a, 0xa3, 0xbe, 0xaa, 0x24, 0x87, 0x3e,
  0xbc, 0x1b, 0x59, 0xbe, 0x8f, 0xbe, 0xa3, 0xbc, 0x86, 0xe8, 0xbb, 0x3e,
  0x82, 0x8b, 0x8a, 0xbe, 0x6b, 0xc4, 0xb1, 0x3f, 0x73, 0x46, 0xb2, 0xbe,
  0xdf, 0x15, 0xdf, 0xbe, 0x21, 0xc0, 0x2e, 0x3e, 0xbd, 0x61, 0x38, 0xbe,
  0xe6, 0xac, 0xb6, 0x3e, 0xed, 0x52, 0x44, 0x3f, 0x49, 0x76, 0xbf, 0xbe,
  0xf7, 0xcb, 0xb5, 0xbe, 0xdc, 0x74, 0x15, 0xbe, 0x6a, 0x5a, 0x06, 0xbd,
  0xfb, 0x7a, 0x70, 0x3f, 0xf5, 0x69, 0x47, 0x3d, 0xd2, 0x68, 0xab, 0xbf,
  0x8e, 0xf9, 0x91, 0xbe, 0x71, 0x81, 0xa8, 0x3d, 0x7f, 0xbe, 0x2e, 0xbe,
  0x3b, 0xea, 0x04, 0xbf, 0x68, 0x7b, 0x5a, 0xc0, 0x57, 0x5f, 0x6e, 0xbe,
  0x95, 0x68, 0x1f, 0x3c, 0xea, 0x88, 0xa2, 0xbd, 0x43, 0xde, 0x04, 0xbd,
  0x5f, 0x24, 0xad, 0xbf, 0x74, 0x27, 0x0b, 0x3d, 0xe3, 0x9f, 0x93, 0x3f,
  0xa2, 0xb8, 0x37, 0x3e, 0xb8, 0x6d, 0x29, 0xbe, 0x90, 0xf1, 0xe4, 0xbd,
  0x1f, 0x6b, 0xe5, 0xbe, 0x93, 0x7c, 0xd2, 0xbe, 0xe9, 0x17, 0x23, 0xbe,
  0x96, 0xe9, 0xd3, 0x3c, 0xdc, 0xe9, 0x68, 0xbd, 0x7f, 0xed, 0xfe, 0xbc,
  0x8e, 0xbd, 0x97, 0xbe, 0x1b, 0x81, 0x41, 0xbf, 0xd4, 0xd7, 0x85, 0xbe,
  0xb0, 0xcc, 0x8d, 0xbe, 0xc6, 0x37, 0x2c, 0x3e, 0x24, 0x0f, 0xa1, 0xbe,
  0x61, 0xa6, 0xaa, 0xbf, 0x52, 0x52, 0xab, 0xbf, 0xff, 0x8b, 0x6a, 0xbf,
  0xe4, 0x9e, 0x2f, 0xbe, 0x22, 0x68, 0xc4, 0xbe, 0x3a, 0x55, 0x92, 0xbd,
  0xf5, 0xdc, 0x80, 0x3d, 0x07, 0xea, 0x87, 0x3f, 0x2f, 0x17, 0x8a, 0xbf,
  0xdf, 0x36, 0x82, 0xbe, 0xf7, 0x5b, 0x4a, 0xbe, 0x16, 0xa6, 0xb3, 0xbe,
  0x81, 0x95, 0xba, 0xbe, 0x1f, 0xd0, 0x82, 0x3f, 0xa0, 0x20, 0x43, 0x3f,
  0x3c, 0xa9, 0xc9, 0xbd, 0xbc, 0xba, 0x39, 0xbd, 0x44, 0x43, 0xba, 0xbd,
  0x6e, 0x65, 0x7f, 0xbf, 0xbc, 0xee, 0x14, 0xbf, 0x50, 0x65, 0x47, 0xbf,
  0x56, 0x48, 0x8b, 0xbe, 0x45, 0x58, 0x88, 0x3e, 0x69, 0x2d, 0x5a, 0xbf,
  0x16, 0xbd, 0xe9, 0x3e, 0xe3, 0xde, 0xc1, 0x3e, 0x87, 0xc9, 0x98, 0xbf,
  0x13, 0x95, 0x35, 0xbf, 0xd1, 0xb3, 0x53, 0xbe, 0xa6, 0x35, 0x18, 0xbf,
  0x2e, 0x9b, 0x42, 0xbf, 0x99, 0x50, 0xe9, 0x3d, 0x32, 0x08, 0xbb, 0x3e,
  0x37, 0x0b, 0xfc, 0x3d, 0xf7, 0x39, 0x7c, 0x3e, 0x80, 0xe6, 0x82, 0xbe,
  0x85, 0xd8, 0xfc, 0xbd, 0x05, 0x76, 0xf3, 0xbc, 0xdd, 0x6a, 0x1c, 0xbf,
  0x7f, 0x3b, 0xb8, 0x3b, 0x8c, 0x76, 0x00, 0x3e, 0x93, 0x93, 0x5b, 0x3e,
  0x99, 0x25, 0xb5, 0x3e, 0xcb, 0xfd, 0x84, 0xbe, 0x53, 0x9a, 0xc0, 0xbf,
  0xc0, 0x8d, 0x40, 0x3e, 0xde, 0xfe, 0x37, 0xbb, 0x78, 0x40, 0x9b, 0xbd,
  0x6e, 0xf1, 0xff, 0xff, 0x04, 0x00, 0x00, 0x00, 0xc8, 0x00, 0x00, 0x00,
  0x7c, 0x58, 0x91, 0x3d, 0xe9, 0x51, 0x39, 0xbf, 0x2f, 0x2d, 0x22, 0x3e,
  0xe9, 0x55, 0xf9, 0xbd, 0xe1, 0x28, 0xa3, 0x3f, 0x66, 0xe5, 0x29, 0xbf,
  0x5a, 0xc0, 0x92, 0xbd, 0x42, 0x09, 0xd4, 0xbf, 0xaf, 0x5f, 0xde, 0xbf,
  0xae, 0xbd, 0x6a, 0x3f, 0x2e, 0x10, 0xcc, 0xbf, 0x24, 0x73, 0xa6, 0xbf,
  0x30, 0x9e, 0x78, 0x3f, 0x02, 0xbe, 0x3b, 0xbe, 0xfe, 0xb8, 0x12, 0x3f,
  0x01, 0xc6, 0x0c, 0x3f, 0xfc, 0x29, 0x21, 0x3e, 0xfe, 0x4c, 0xa2, 0x3f,
  0x40, 0x8e, 0x82, 0x3f, 0xf0, 0xbc, 0xab, 0xbe, 0xa3, 0x71, 0x1a, 0x3e,
  0xa7, 0xd1, 0x3e, 0xc0, 0x1e, 0x58, 0xe4, 0x3f, 0x1e, 0xf5, 0xd7, 0xbe,
  0x66, 0x55, 0x12, 0xbf, 0xc8, 0x99, 0x2a, 0x3f, 0x2c, 0xdc, 0x9a, 0x3f,
  0xc2, 0xbb, 0x8e, 0x3f, 0x48, 0x3e, 0xac, 0xbe, 0xce, 0xda, 0x19, 0xbf,
  0x79, 0x78, 0x12, 0xbd, 0xf4, 0x54, 0x42, 0xbe, 0xc7, 0x11, 0x21, 0xbf,
  0xf3, 0x08, 0x1c, 0x3f, 0x31, 0xaa, 0x7a, 0xbe, 0xe6, 0xef, 0xcf, 0xbe,
  0x55, 0x09, 0x53, 0x3f, 0x1f, 0xda, 0x2e, 0x3d, 0x37, 0x4e, 0x59, 0x3f,
  0x59, 0xf4, 0x4a, 0xbe, 0xbb, 0xf8, 0xf0, 0x3f, 0x13, 0xce, 0x5f, 0x3f,
  0xb5, 0xcf, 0x56, 0x3f, 0xe0, 0x99, 0x70, 0x3d, 0xf6, 0xbe, 0x8b, 0x3f,
  0x91, 0x43, 0xe8, 0x3d, 0x3e, 0x8f, 0x5a, 0xbf, 0xd1, 0xd5, 0x67, 0xbe,
  0xb3, 0x32, 0xa8, 0x3f, 0x13, 0xc7, 0xfc, 0xbd, 0x42, 0xf2, 0xff, 0xff,
  0x04, 0x00, 0x00, 0x00, 0x3c, 0x00, 0x00, 0x00, 0xe0, 0x82, 0x86, 0xbe,
  0x24, 0x4e, 0x0d, 0x3f, 0x75, 0xbc, 0xf5, 0x3e, 0x95, 0xeb, 0xcc, 0x3e,
  0x5d, 0x74, 0xa0, 0xbf, 0xb8, 0x38, 0x1d, 0x3f, 0x0e, 0xfa, 0x39, 0x3f,
  0x6e, 0x6f, 0x36, 0xbf, 0x1c, 0x42, 0xd4, 0x3e, 0x49, 0x4a, 0xd1, 0x3e,
  0xe8, 0xc7, 0xb8, 0x3e, 0x26, 0xe2, 0xb1, 0x3d, 0xc8, 0xa2, 0x28, 0x3f,
  0x12, 0x3d, 0x74, 0x3f, 0xff, 0x31, 0x28, 0x3f, 0x8a, 0xf2, 0xff, 0xff,
  0x04, 0x00, 0x00, 0x00, 0x04, 0x00, 0x00, 0x00, 0x01, 0x00, 0x00, 0x00,
  0x9a, 0xf2, 0xff, 0xff, 0x04, 0x00, 0x00, 0x00, 0x10, 0x00, 0x00, 0x00,
  0x36, 0xbc, 0xbd, 0xbe, 0x2f, 0x81, 0xc1, 0xbe, 0x9a, 0x59, 0xfe, 0x3d,
  0xd2, 0x72, 0x87, 0x3e, 0xb6, 0xf2, 0xff, 0xff, 0x04, 0x00, 0x00, 0x00,
  0xf0, 0x00, 0x00, 0x00, 0x1d, 0x51, 0x8d, 0x3e, 0x77, 0x02, 0x3c, 0xbf,
  0x11, 0xa5, 0xe9, 0xbd, 0xbe, 0x5e, 0x09, 0xbf, 0xff, 0x30, 0x25, 0x3e,
  0x55, 0xdf, 0x4a, 0x3e, 0x1f, 0x93, 0x4d, 0xbf, 0xcf, 0x0e, 0xca, 0x3d,
  0xf5, 0x24, 0x88, 0xbf, 0xa4, 0xfc, 0x2b, 0xbf, 0x6c, 0xe2, 0x98, 0xbe,
  0xf2, 0x8d, 0xc2, 0xbe, 0x4b, 0x24, 0x83, 0xbe, 0x52, 0xf5, 0x6e, 0xbe,
  0xa3, 0xc4, 0xfd, 0x3c, 0xae, 0x2a, 0x86, 0x3c, 0x29, 0x90, 0x0d, 0xbf,
  0x3e, 0x38, 0xb3, 0x3f, 0x65, 0x40, 0xd9, 0xbd, 0xbe, 0xaa, 0x09, 0x3f,
  0x12, 0xcb, 0xc8, 0xbf, 0x3c, 0xd4, 0x0f, 0xc0, 0xcf, 0x90, 0xa8, 0x3d,
  0xc1, 0x39, 0x33, 0x3f, 0xd4, 0x84, 0xb9, 0xbe, 0x6e, 0x56, 0x33, 0xbe,
  0x60, 0x49, 0x7e, 0x3e, 0x45, 0x09, 0xc3, 0x3e, 0x00, 0x34, 0xf0, 0x3e,
  0xa6, 0x80, 0xb1, 0xbf, 0x13, 0xe0, 0x09, 0xbf, 0x34, 0xa4, 0x98, 0x3e,
  0x18, 0x6f, 0xf6, 0xbe, 0x89, 0x1b, 0x8e, 0xbe, 0xb8, 0xe5, 0x83, 0xbe,
  0x95, 0x71, 0x03, 0x3f, 0x62, 0x70, 0x01, 0x40, 0x61, 0x99, 0xa6, 0x3f,
  0x1f, 0xa8, 0xf4, 0x3e, 0xa7, 0xa6, 0x34, 0xbf, 0x29, 0xa7, 0x76, 0xbe,
  0x5f, 0x97, 0xb0, 0x3e, 0xe3, 0xb6, 0x0b, 0xc0, 0xb4, 0xdd, 0xc4, 0x3e,
  0x85, 0x8c, 0xaf, 0x3f, 0xce, 0x57, 0x80, 0xbe, 0x62, 0xb2, 0xaa, 0x3e,
  0x61, 0xda, 0x88, 0xbf, 0x41, 0xdb, 0x89, 0x3e, 0x44, 0x64, 0xa0, 0xbe,
  0xca, 0x57, 0x31, 0xbe, 0x3a, 0x37, 0x36, 0x3f, 0x66, 0xd9, 0xe4, 0xbe,
  0x04, 0x3e, 0x2c, 0xbf, 0x82, 0xd3, 0x65, 0x3f, 0x09, 0x27, 0xfb, 0x3d,
  0x9b, 0x5f, 0x88, 0xbd, 0x03, 0x50, 0xf2, 0x3e, 0x5c, 0x6b, 0xe7, 0xbf,
  0x2f, 0xe9, 0xce, 0x3e, 0xb2, 0xf3, 0xff, 0xff, 0x04, 0x00, 0x00, 0x00,
  0xb8, 0x0b, 0x00, 0x00, 0x82, 0xfc, 0x4e, 0x3e, 0x19, 0xfb, 0x10, 0x3f,
  0xc4, 0xec, 0x1f, 0x3f, 0x7d, 0x33, 0xca, 0x3d, 0xf6, 0xd2, 0x65, 0xbe,
  0x48, 0xfd, 0x78, 0x3d, 0x5e, 0x10, 0x37, 0xbe, 0x8a, 0xb6, 0xf2, 0x3d,
  0xff, 0x31, 0x2a, 0x3f, 0xbe, 0x02, 0xa8, 0xbe, 0xeb, 0xab, 0x62, 0xbe,
  0x89, 0x56, 0x81, 0xbe, 0xec, 0x04, 0x28, 0xbf, 0xae, 0x96, 0x67, 0x3e,
  0xe1, 0x0d, 0xef, 0xbd, 0x45, 0x6f, 0xa2, 0x3e, 0x1f, 0x72, 0x18, 0x3d,
  0x02, 0xc5, 0x7f, 0x3e, 0xd9, 0x61, 0xdc, 0xbe, 0x20, 0x89, 0x22, 0xbe,
  0x29, 0xee, 0xe0, 0x3e, 0xfa, 0xcc, 0xf8, 0xbd, 0x87, 0x51, 0x56, 0x3e,
  0x3e, 0x8c, 0xfb, 0x3e, 0x0c, 0x9f, 0x35, 0x3d, 0x86, 0xe0, 0xd7, 0x3d,
  0xc1, 0xa1, 0x07, 0x3f, 0x7a, 0x5d, 0xcc, 0x3d, 0xe0, 0x62, 0xdf, 0x3d,
  0xda, 0xf7, 0xaa, 0x3e, 0xae, 0x0e, 0x09, 0x3f, 0x90, 0x14, 0xa1, 0x3e,
  0xbd, 0xa2, 0xc0, 0xbe, 0xae, 0xec, 0xd7, 0xbd, 0x4e, 0x73, 0xcf, 0xbc,
  0x2d, 0x1a, 0x73, 0x3d, 0x28, 0x88, 0x9f, 0x3d, 0x65, 0xdc, 0x97, 0xbe,
  0x6f, 0xfd, 0xab, 0xbe, 0x45, 0x04, 0xa7, 0x3d, 0xce, 0x92, 0xa2, 0x3e,
  0xaf, 0x01, 0x90, 0xbe, 0xc7, 0x09, 0xd2, 0x3d, 0xf8, 0x68, 0xc7, 0xbe,
  0x76, 0x0c, 0xf8, 0x3e, 0x7b, 0x3f, 0x88, 0x3d, 0xfe, 0x35, 0x75, 0xbe,
  0xa8, 0x00, 0xb6, 0xbd, 0x02, 0xae, 0xe5, 0x3e, 0xfc, 0x4d, 0x8c, 0x3e,
  0x40, 0xfc, 0xcf, 0xbe, 0xef, 0x03, 0x0f, 0x3e, 0x65, 0x69, 0x81, 0xbe,
  0x04, 0x64, 0x05, 0x3e, 0xf1, 0x62, 0xd4, 0xbd, 0x2f, 0x24, 0xdd, 0x3d,
  0x9a, 0x0c, 0x0d, 0x3d, 0x72, 0x1f, 0x23, 0xbf, 0x2d, 0x25, 0x17, 0xbe,
  0x65, 0x53, 0x22, 0xbe, 0x1e, 0x71, 0x88, 0xbf, 0x34, 0xc6, 0x8f, 0x3e,
  0x2d, 0xb7, 0x1b, 0x3d, 0x3f, 0xb9, 0x52, 0x3e, 0x9e, 0x3a, 0xd2, 0x3e,
  0xef, 0x28, 0xd9, 0xbe, 0x99, 0xf4, 0x7a, 0x3e, 0x88, 0xbf, 0xdc, 0xbe,
  0xe8, 0x1c, 0x87, 0x3e, 0x74, 0x40, 0xd6, 0x3d, 0xc8, 0x25, 0x98, 0x3e,
  0xf1, 0x63, 0x66, 0xbf, 0x4c, 0x0a, 0x0b, 0x3c, 0xed, 0x93, 0xc0, 0xbd,
  0x93, 0x0b, 0xbd, 0x3d, 0x3f, 0x2a, 0xd7, 0x3d, 0xae, 0x0a, 0xd6, 0x3c,
  0xd7, 0x29, 0xbf, 0xbc, 0x33, 0x6a, 0xe9, 0xbd, 0xdd, 0x7a, 0xd2, 0x3c,
  0x57, 0x3a, 0x20, 0x3d, 0x64, 0xec, 0x91, 0xbe, 0x38, 0x08, 0x99, 0xbd,
  0x6a, 0x22, 0x05, 0xbf, 0xee, 0x4e, 0x1d, 0x3e, 0x78, 0x95, 0x76, 0x3d,
  0xc2, 0x3f, 0x23, 0xbd, 0x4f, 0xbb, 0xf0, 0xbe, 0x8c, 0xff, 0x5a, 0x3f,
  0x29, 0x67, 0x14, 0xbf, 0x16, 0x65, 0xc4, 0x3a, 0x79, 0x5f, 0x71, 0x3e,
  0xce, 0x50, 0xec, 0x3e, 0x73, 0x3b, 0x9e, 0x3e, 0x2f, 0x4c, 0x13, 0xbf,
  0xc9, 0x44, 0xa7, 0xbd, 0x9e, 0x50, 0x74, 0x3e, 0xb4, 0x41, 0x57, 0xbe,
  0x44, 0xc5, 0x00, 0x3e, 0x44, 0x98, 0x7a, 0xbe, 0x40, 0xed, 0x25, 0x3e,
  0xcf, 0x44, 0xa1, 0x3c, 0xf8, 0x59, 0xea, 0x3e, 0xf2, 0x5c, 0xad, 0x3e,
  0xc1, 0xd0, 0xa2, 0x3e, 0x7c, 0x10, 0x38, 0xbf, 0x2a, 0xbf, 0xe7, 0xbe,
  0xca, 0x94, 0x0c, 0xbe, 0x17, 0x23, 0xd0, 0x3e, 0xde, 0xdd, 0x9e, 0x3e,
  0xb8, 0x26, 0x6b, 0xba, 0x62, 0xf9, 0x80, 0x3d, 0x14, 0xdd, 0xa8, 0x3d,
  0x5e, 0x19, 0x9f, 0x3e, 0x74, 0x32, 0xe3, 0x3d, 0x27, 0x63, 0x03, 0x3d,
  0x08, 0x06, 0x11, 0xbe, 0x32, 0x93, 0x77, 0x3d, 0x99, 0xda, 0x27, 0x3e,
  0xf8, 0x53, 0xd6, 0xbe, 0x02, 0xe1, 0x02, 0xbf, 0x5a, 0x98, 0x0d, 0x3f,
  0x3d, 0xf1, 0x24, 0x3f, 0xd1, 0x51, 0x86, 0xbf, 0x92, 0x94, 0x9f, 0xbf,
  0x21, 0x4d, 0x64, 0xbe, 0x4a, 0x32, 0xe0, 0x3e, 0xee, 0x11, 0x95, 0xbe,
  0x36, 0x7d, 0x26, 0xbf, 0x64, 0x66, 0x5c, 0xbe, 0xd6, 0x8b, 0x52, 0x3e,
  0x37, 0xb6, 0xc2, 0xbe, 0x75, 0x3e, 0x3e, 0xbf, 0x0d, 0x55, 0xae, 0xbe,
  0x21, 0x8a, 0x82, 0xbe, 0xb0, 0x75, 0xbb, 0xbe, 0x1e, 0x8a, 0x0b, 0x3f,
  0x54, 0xa9, 0x04, 0x3f, 0x73, 0xfd, 0x77, 0x3d, 0xd2, 0x17, 0xc3, 0x3e,
  0x7b, 0x46, 0xaa, 0x3e, 0x94, 0xba, 0x26, 0xbe, 0x0c, 0x7b, 0x8e, 0x3e,
  0x62, 0xde, 0xe8, 0xbe, 0x33, 0xae, 0x03, 0x3f, 0xc1, 0xa6, 0x40, 0x3e,
  0x8b, 0x5b, 0xe0, 0xbe, 0x9a, 0xa5, 0x20, 0xbe, 0x3c, 0xc0, 0xf6, 0x3e,
  0x8a, 0x63, 0x21, 0xbf, 0x2a, 0x3e, 0x6d, 0xbd, 0xd1, 0x71, 0xf5, 0x3d,
  0x9d, 0x3f, 0x10, 0x3e, 0x6a, 0x05, 0x92, 0x3e, 0x74, 0x70, 0xad, 0x3d,
  0x19, 0x9e, 0x0d, 0x3e, 0xe2, 0x46, 0xe3, 0xbc, 0xc5, 0x38, 0x42, 0xbd,
  0x31, 0x02, 0x0f, 0x3e, 0x40, 0xc9, 0x79, 0xbd, 0x77, 0x3d, 0x89, 0xbf,
  0x5a, 0xb8, 0x5a, 0xbe, 0x36, 0x03, 0xd0, 0xbd, 0x77, 0xbe, 0x1d, 0xbd,
  0x43, 0x86, 0xf8, 0x3e, 0x0b, 0x8a, 0xa3, 0x3e, 0x47, 0xc0, 0x9a, 0xbd,
  0x7c, 0x51, 0x7f, 0xbd, 0xf3, 0xbb, 0x2d, 0xbe, 0x35, 0x2a, 0x0a, 0x3d,
  0x4e, 0xaf, 0xaf, 0xbe, 0xa3, 0x0a, 0x4b, 0xbf, 0x80, 0xb0, 0x89, 0xbd,
  0xec, 0x1e, 0xc2, 0xbe, 0xe1, 0xa0, 0x6c, 0x3e, 0x44, 0x85, 0x0c, 0xbe,
  0xc1, 0x81, 0x88, 0x3c, 0xbb, 0xe8, 0x9b, 0x3c, 0xc6, 0x06, 0xa9, 0x3d,
  0x05, 0x36, 0xf6, 0x3d, 0x7f, 0xf2, 0x3a, 0xbe, 0xcb, 0xb5, 0x56, 0x3e,
  0x57, 0x42, 0x8b, 0x3b, 0x23, 0xed, 0x75, 0xbd, 0x9c, 0x72, 0x82, 0x3e,
  0xe7, 0x92, 0xa4, 0xbe, 0x0e, 0x43, 0x3d, 0xbf, 0x2f, 0xc9, 0xa0, 0xbe,
  0x3a, 0x47, 0xa6, 0x3e, 0x37, 0x61, 0x53, 0xbe, 0x2e, 0xe7, 0xdd, 0x3d,
  0xb7, 0x5e, 0x77, 0x3e, 0x9a, 0x7c, 0x32, 0x3e, 0xaf, 0xc1, 0x0f, 0x3e,
  0xe9, 0x7a, 0x1c, 0xbe, 0x49, 0x27, 0x28, 0x3e, 0x8f, 0x1b, 0xe0, 0x3c,
  0x75, 0xbf, 0x2e, 0x3e, 0x4f, 0xc7, 0xa0, 0xbd, 0x6f, 0x78, 0xf4, 0xbc,
  0xa8, 0x67, 0xa3, 0x3d, 0x68, 0xfc, 0x7f, 0x3e, 0x07, 0x67, 0xb1, 0x3d,
  0x99, 0x28, 0x8a, 0x3e, 0xf9, 0x7d, 0xfd, 0xbe, 0xb9, 0x22, 0x9a, 0xbd,
  0x5c, 0x4b, 0xfc, 0x3d, 0xe7, 0x63, 0x8c, 0x3d, 0x3c, 0xb4, 0x23, 0x3f,
  0x0a, 0x96, 0x84, 0xbe, 0xf5, 0xb0, 0xd6, 0xbc, 0xc5, 0x0d, 0x17, 0x3c,
  0x75, 0xd3, 0xe8, 0xbc, 0x28, 0x7b, 0x81, 0xbe, 0x7a, 0xb4, 0xcf, 0xbd,
  0x14, 0x0a, 0xce, 0x3e, 0x9f, 0x1c, 0xe8, 0xbd, 0x35, 0xff, 0x96, 0xbe,
  0x83, 0xf8, 0x1e, 0xbe, 0xeb, 0x77, 0x1e, 0x3e, 0x39, 0x3e, 0x79, 0xbe,
  0x26, 0x8c, 0x8d, 0x3d, 0x37, 0x16, 0x24, 0x3c, 0x3d, 0xda, 0x38, 0x3e,
  0x2c, 0xb0, 0x1c, 0x3d, 0xf5, 0x6d, 0xa4, 0xbc, 0x09, 0x26, 0xe9, 0x3d,
  0xd9, 0x37, 0xdc, 0xbe, 0x87, 0xff, 0x2d, 0xbe, 0x94, 0xaa, 0xdf, 0x3e,
  0xdc, 0x87, 0x1a, 0xbe, 0xfa, 0x55, 0x8e, 0xbe, 0x17, 0x78, 0xa1, 0x3e,
  0x52, 0x01, 0x62, 0x3e, 0x3b, 0x7d, 0x97, 0x3e, 0x1f, 0xc6, 0xda, 0xbc,
  0x5d, 0x37, 0x9f, 0x3d, 0xe8, 0x05, 0x1a, 0x3c, 0x13, 0x77, 0xb0, 0x3e,
  0x44, 0x7b, 0x5b, 0x3d, 0xc6, 0xb9, 0x91, 0xbe, 0x04, 0x1b, 0xbb, 0x3d,
  0x60, 0xb9, 0xe3, 0x3d, 0x80, 0x83, 0x17, 0x3e, 0x18, 0x21, 0x18, 0x3c,
  0x1b, 0xa6, 0x3f, 0x3e, 0x4d, 0x8f, 0xf4, 0xbc, 0x20, 0x73, 0xeb, 0x3d,
  0xc4, 0x9d, 0x99, 0x3d, 0xa2, 0x0e, 0xa0, 0xbe, 0x8a, 0xec, 0x77, 0x3d,
  0xed, 0x74, 0x6a, 0xbd, 0x2a, 0x9e, 0xb2, 0xbe, 0xd7, 0xa9, 0x52, 0xbe,
  0xf9, 0x43, 0x7e, 0xbe, 0x56, 0x5e, 0x2b, 0x3e, 0xed, 0x66, 0x08, 0xbf,
  0x82, 0xf3, 0x61, 0x3e, 0x6e, 0x0e, 0x7c, 0xbe, 0x98, 0xfb, 0x11, 0xbf,
  0x5e, 0x8e, 0x69, 0xbe, 0x71, 0xe0, 0x67, 0xbd, 0x3c, 0x3f, 0x1a, 0xbc,
  0x29, 0x6c, 0x1b, 0xbf, 0xb0, 0x4b, 0x33, 0xbf, 0xf1, 0xa1, 0x02, 0x3f,
  0x56, 0x88, 0x93, 0xbd, 0x19, 0x2a, 0xbb, 0x3e, 0x86, 0xa2, 0xca, 0x3d,
  0xa6, 0x9d, 0x27, 0x3e, 0xc1, 0x8d, 0x3b, 0xbf, 0x5e, 0xa7, 0xe5, 0xbe,
  0x0f, 0xc2, 0xd3, 0x3d, 0xa1, 0x63, 0x76, 0xbe, 0xe4, 0x25, 0xc9, 0x3d,
  0x39, 0xe8, 0x01, 0x3e, 0x3c, 0x33, 0xd4, 0x3d, 0x22, 0xb4, 0x0e, 0x3e,
  0x04, 0xeb, 0x58, 0xbf, 0xc8, 0x83, 0x76, 0x3c, 0x01, 0xe4, 0x0e, 0xbf,
  0x9b, 0x72, 0x12, 0xbd, 0xf8, 0x83, 0xd8, 0x3d, 0x06, 0x07, 0x41, 0x3e,
  0xff, 0xc5, 0x88, 0xbf, 0x9b, 0xef, 0x2a, 0xbf, 0xfb, 0x3a, 0xb5, 0xbe,
  0xfc, 0xc6, 0x41, 0xbf, 0xf9, 0x72, 0xb8, 0x3e, 0x41, 0x89, 0x3c, 0x3e,
  0xec, 0x0a, 0xcc, 0x3e, 0xc9, 0x08, 0xfb, 0xbd, 0xe5, 0xf7, 0x65, 0xbd,
  0x24, 0x55, 0xb0, 0xbf, 0x56, 0xef, 0x82, 0x3e, 0x64, 0xee, 0x1c, 0x3e,
  0xc3, 0x4f, 0x22, 0xbd, 0x9d, 0xb4, 0x35, 0xbe, 0x79, 0x05, 0x65, 0x3d,
  0x3a, 0x32, 0x83, 0x3d, 0x44, 0x04, 0x02, 0xbe, 0xa3, 0x36, 0x20, 0xbf,
  0x7e, 0x79, 0xef, 0xbe, 0x41, 0xd9, 0x9c, 0xbf, 0x8b, 0x6f, 0xaf, 0xbd,
  0x82, 0x05, 0x23, 0xbf, 0xd7, 0xa1, 0x87, 0xbf, 0xdf, 0x6a, 0x8f, 0xbf,
  0x1c, 0xf8, 0x0f, 0x3f, 0x27, 0x91, 0x80, 0x3e, 0x9d, 0x2e, 0x27, 0xbe,
  0xa1, 0xc3, 0x01, 0x3e, 0x01, 0xb3, 0x17, 0x3f, 0x73, 0xba, 0x3f, 0x3d,
  0xe8, 0x8f, 0xef, 0x3e, 0x2b, 0x46, 0xb9, 0x3e, 0x5f, 0xa9, 0x8f, 0xbc,
  0xfd, 0x19, 0x01, 0xbc, 0xcb, 0x19, 0x69, 0x3f, 0x69, 0x8b, 0xf6, 0xbe,
  0x9c, 0x1f, 0xa6, 0xbe, 0x93, 0x6e, 0x28, 0xbf, 0xb5, 0xa1, 0x7f, 0x3e,
  0x88, 0x2b, 0xa2, 0x3e, 0xf0, 0xc7, 0x42, 0x3d, 0x00, 0x7d, 0x91, 0x3e,
  0x49, 0x8e, 0x8a, 0xbe, 0x2b, 0xe0, 0xa8, 0x3d, 0x54, 0x2a, 0x01, 0x3f,
  0x66, 0x45, 0x35, 0xbd, 0x35, 0xae, 0xed, 0xbe, 0x1f, 0x07, 0x6b, 0xbe,
  0x2c, 0x67, 0x48, 0x3e, 0xad, 0x3d, 0xbb, 0x3e, 0x84, 0xd9, 0xff, 0xbd,
  0x3b, 0x67, 0xae, 0xbf, 0x65, 0xec, 0x4a, 0xbf, 0x77, 0xc2, 0x28, 0xbf,
  0xac, 0x45, 0x3a, 0x3f, 0x4b, 0xbb, 0x88, 0xbe, 0xbb, 0x08, 0x2d, 0x3e,
  0xfd, 0x02, 0x21, 0x3f, 0x6e, 0x55, 0x70, 0x3e, 0xd9, 0x54, 0x5e, 0xbf,
  0x50, 0x23, 0x15, 0xbd, 0x8b, 0x29, 0x05, 0xc0, 0xce, 0x88, 0x87, 0x3f,
  0x46, 0xb1, 0x57, 0xbf, 0xac, 0xaa, 0x5a, 0x3e, 0x19, 0xd5, 0xc6, 0xbe,
  0x7b, 0xee, 0x68, 0x3c, 0xfc, 0x07, 0xb0, 0x3e, 0x18, 0x1f, 0x9e, 0x3e,
  0x21, 0xbe, 0x6b, 0x3e, 0x15, 0x7e, 0x81, 0xbe, 0x5a, 0x7a, 0x30, 0xbe,
  0xe0, 0x82, 0x25, 0xbf, 0x8d, 0x5d, 0x22, 0x3e, 0x55, 0xbb, 0x9b, 0xbf,
  0xc2, 0x1b, 0x94, 0xbe, 0xf4, 0xca, 0x08, 0x3f, 0x5f, 0x57, 0x18, 0x3e,
  0x4a, 0xf9, 0x3c, 0x3d, 0xc4, 0xf1, 0x95, 0x3e, 0x7c, 0xd3, 0x09, 0xbf,
  0x3d, 0xe1, 0x85, 0xbd, 0x31, 0x8e, 0x08, 0xbe, 0xd9, 0x23, 0x0e, 0x3f,
  0x82, 0x55, 0x77, 0xbf, 0xd6, 0x62, 0x54, 0xbe, 0x73, 0x75, 0x84, 0x3e,
  0xea, 0x72, 0x2b, 0x3e, 0x72, 0x96, 0xcc, 0x3c, 0x1b, 0x54, 0x89, 0xbe,
  0xc4, 0x32, 0x1e, 0x3e, 0xdc, 0xf0, 0x3a, 0xbe, 0x19, 0xa8, 0x2c, 0x3f,
  0x1e, 0xc5, 0xb8, 0xbe, 0x65, 0x7d, 0x83, 0x3e, 0xca, 0xf2, 0x6d, 0x3e,
  0x5c, 0x9b, 0x87, 0x3e, 0xb4, 0x8e, 0x4d, 0xbe, 0x87, 0x46, 0x2a, 0x3e,
  0xf9, 0xd4, 0x16, 0xbf, 0xfa, 0xa4, 0xa8, 0x3e, 0x0d, 0x17, 0x94, 0x3c,
  0x23, 0xf9, 0x10, 0xbe, 0x1f, 0x5d, 0x29, 0xbe, 0x29, 0x8f, 0x84, 0xbf,
  0xda, 0x90, 0x92, 0x3d, 0xf6, 0x27, 0xcf, 0x3d, 0x38, 0x47, 0x54, 0xbf,
  0x39, 0xab, 0x92, 0xbe, 0x4d, 0x74, 0xf6, 0xbd, 0xa0, 0xd9, 0xed, 0xbd,
  0xda, 0x86, 0x87, 0xbe, 0x44, 0x91, 0x16, 0xbf, 0x29, 0xb8, 0xac, 0x3d,
  0xcd, 0x5a, 0xc6, 0x3d, 0xb6, 0x58, 0x89, 0xbd, 0xb6, 0x7f, 0x1e, 0x3e,
  0xfd, 0xb9, 0x23, 0xbe, 0x39, 0x62, 0x9a, 0x3d, 0x18, 0x6b, 0xd6, 0xbe,
  0xcc, 0x38, 0xb4, 0xbe, 0x29, 0xf9, 0x9f, 0x3d, 0x00, 0x88, 0xbe, 0xbe,
  0x95, 0xe9, 0x7c, 0x3e, 0xf4, 0x37, 0xcf, 0xbe, 0xbf, 0x51, 0x4d, 0x3e,
  0x4e, 0x51, 0xeb, 0xbc, 0xb0, 0xfb, 0xb6, 0xb8, 0x0a, 0x56, 0xa8, 0x3e,
  0xe2, 0xa4, 0xc1, 0xb9, 0x2d, 0x0e, 0xae, 0x3d, 0x42, 0x08, 0x97, 0x3d,
  0x25, 0x39, 0x8d, 0xbf, 0xb8, 0x6f, 0x25, 0x3f, 0x48, 0x7f, 0xe3, 0x3e,
  0xb0, 0x99, 0x06, 0xbf, 0xdf, 0x02, 0x74, 0x3e, 0x09, 0x76, 0xe8, 0xbe,
  0x4a, 0xd6, 0x36, 0x3e, 0xf6, 0x07, 0x82, 0xbc, 0xff, 0x52, 0xdc, 0x3b,
  0x10, 0x10, 0x4a, 0x3e, 0x0e, 0x78, 0x34, 0x3f, 0x60, 0x16, 0x75, 0x3e,
  0x2f, 0xa1, 0x3c, 0x3e, 0x77, 0xb2, 0x67, 0xbe, 0x5c, 0x67, 0x4d, 0xbd,
  0x17, 0xae, 0x10, 0x3e, 0x42, 0x80, 0x54, 0xbe, 0x84, 0x56, 0xcf, 0xbe,
  0x33, 0x89, 0x5c, 0xbe, 0x95, 0x0a, 0x53, 0xbe, 0x29, 0x25, 0x29, 0x3e,
  0xf7, 0x76, 0x6d, 0xbd, 0xd0, 0x5a, 0xa1, 0xbe, 0xf9, 0xee, 0x75, 0x3d,
  0x4c, 0x4e, 0x82, 0x3f, 0x3a, 0x09, 0x3e, 0x3e, 0xd7, 0x94, 0x42, 0xbe,
  0xe5, 0x37, 0x67, 0xbe, 0x98, 0x38, 0x06, 0x3f, 0x6d, 0xfd, 0x39, 0xbd,
  0x3a, 0x40, 0xf9, 0xbe, 0xed, 0xc5, 0x60, 0xbf, 0x36, 0x92, 0x19, 0x3e,
  0x09, 0x02, 0xc8, 0xbe, 0x2d, 0xff, 0x4b, 0xbe, 0x64, 0x32, 0xa8, 0x3d,
  0x0b, 0xc9, 0x2b, 0x3e, 0x06, 0xf5, 0x41, 0x3e, 0x0a, 0xd1, 0x83, 0xbe,
  0xde, 0x91, 0x0f, 0x3d, 0xc9, 0x3f, 0x61, 0x3e, 0x93, 0xb0, 0x82, 0xbf,
  0x13, 0xba, 0x4f, 0x3e, 0xcf, 0xaa, 0xc3, 0xbe, 0xa7, 0x5c, 0x38, 0xbf,
  0x0c, 0x86, 0x4c, 0xbf, 0xf6, 0x48, 0xe4, 0x3d, 0x00, 0x14, 0xf4, 0x3d,
  0x76, 0xee, 0xd5, 0x3e, 0x26, 0x7b, 0x42, 0x3e, 0xe0, 0xbd, 0x8c, 0x3e,
  0x4c, 0x57, 0x10, 0xbe, 0xae, 0xa2, 0x26, 0x3e, 0xcc, 0x01, 0xb3, 0x3d,
  0xab, 0xed, 0x57, 0xbe, 0x36, 0xc7, 0x89, 0xbf, 0x3f, 0xc6, 0x0b, 0xbd,
  0x6d, 0x2c, 0x38, 0x3e, 0x7f, 0xc1, 0x3d, 0x3e, 0x45, 0x04, 0x72, 0xbe,
  0xbf, 0x06, 0x13, 0xbe, 0xe3, 0x21, 0xeb, 0xbd, 0xf9, 0xa0, 0xdb, 0xbd,
  0x10, 0x7b, 0x42, 0x3e, 0x33, 0x93, 0x4c, 0x3e, 0x2a, 0xbd, 0x89, 0x3e,
  0x1e, 0xf5, 0x72, 0xbe, 0x58, 0xf5, 0x27, 0x3f, 0xeb, 0x93, 0xa5, 0x3d,
  0x14, 0xd6, 0xe2, 0xbd, 0xdf, 0xe4, 0x75, 0x3e, 0x96, 0x1f, 0x2e, 0xbe,
  0x10, 0x45, 0xce, 0x3f, 0x33, 0xe9, 0x6d, 0xbf, 0x6d, 0x2c, 0x32, 0x3e,
  0x53, 0x0e, 0x8e, 0x3e, 0xf1, 0x2c, 0xe3, 0x3e, 0x5c, 0x53, 0x94, 0xbe,
  0x04, 0xed, 0xb0, 0xbf, 0x15, 0x05, 0xab, 0x3e, 0xbc, 0x7b, 0x4d, 0xbe,
  0x78, 0xbf, 0x59, 0xbe, 0x67, 0x33, 0x42, 0x3e, 0xfa, 0xcf, 0x7f, 0xbe,
  0x6e, 0x28, 0xdc, 0x3d, 0x2f, 0xae, 0x85, 0xbe, 0x51, 0x73, 0x04, 0xbe,
  0xa9, 0xe0, 0xb2, 0xbe, 0x61, 0x2f, 0xcd, 0x3d, 0xc3, 0x2a, 0x39, 0xbe,
  0x41, 0xf9, 0x71, 0x3c, 0xea, 0x0a, 0x96, 0xbe, 0xd3, 0xce, 0x12, 0xbf,
  0x2d, 0x4c, 0x91, 0xbe, 0x98, 0x75, 0x6e, 0xbd, 0x78, 0xb4, 0x77, 0x3e,
  0xaa, 0xbd, 0x04, 0x3e, 0xd1, 0xe7, 0xfc, 0x3d, 0x78, 0xc5, 0x26, 0xbe,
  0xa3, 0xac, 0xd2, 0xbe, 0xad, 0x82, 0xd8, 0xbd, 0x91, 0x81, 0xe7, 0xbd,
  0xf5, 0xb4, 0x4c, 0x3d, 0x55, 0x05, 0x58, 0xbc, 0x4e, 0xc3, 0x07, 0xbf,
  0xb9, 0x69, 0x87, 0x3d, 0x12, 0x8d, 0xf9, 0x3d, 0x04, 0xf0, 0x47, 0x3c,
  0xfd, 0xd2, 0x39, 0xbd, 0x1b, 0xc4, 0x54, 0xbe, 0xff, 0x0b, 0x90, 0x3e,
  0x55, 0x26, 0x06, 0x3e, 0xce, 0x20, 0x07, 0xbf, 0x16, 0xa9, 0x89, 0x3e,
  0x17, 0xb7, 0x38, 0x3c, 0x0a, 0x6b, 0x2c, 0xbd, 0x3a, 0x66, 0xf7, 0xbd,
  0xf8, 0x29, 0x61, 0x3e, 0x6a, 0x94, 0x93, 0x3e, 0xc4, 0x1a, 0xf1, 0xbe,
  0x9f, 0x99, 0x67, 0xbe, 0xc5, 0xbf, 0x73, 0x3e, 0x4b, 0x70, 0xcf, 0x3e,
  0x93, 0xe7, 0x8f, 0x3e, 0x89, 0x70, 0xa3, 0xbd, 0xcf, 0xdc, 0xad, 0xbd,
  0x7d, 0xf2, 0x2e, 0x3e, 0xbe, 0xaa, 0x86, 0x3e, 0x1d, 0xdc, 0x5f, 0xbd,
  0x5b, 0x9f, 0xa0, 0xbb, 0x95, 0xbb, 0x98, 0x3e, 0xc8, 0x5e, 0xed, 0x3d,
  0x4d, 0xeb, 0x18, 0x3e, 0x38, 0x5f, 0x8c, 0xbd, 0xed, 0xf8, 0x87, 0xbe,
  0xc6, 0xfd, 0xc0, 0x3e, 0x2d, 0x23, 0x49, 0x3e, 0x7f, 0xf2, 0x85, 0x3d,
  0x04, 0x1a, 0x7c, 0x3e, 0x87, 0xd0, 0x8f, 0x3e, 0x88, 0x40, 0x9a, 0xbe,
  0x98, 0xc0, 0x97, 0xbe, 0x53, 0x9b, 0xf3, 0xbd, 0xe2, 0xf5, 0x9d, 0x3e,
  0x17, 0xec, 0x4e, 0x3e, 0xe3, 0x83, 0x0a, 0x3e, 0x77, 0x8d, 0xe8, 0x3c,
  0x21, 0xa4, 0xef, 0x3d, 0x51, 0x07, 0x48, 0xbd, 0x69, 0x98, 0x38, 0xbe,
  0x5b, 0x7d, 0x24, 0xbe, 0xa9, 0x00, 0xe8, 0x3d, 0xf4, 0xfe, 0xac, 0xb9,
  0x0e, 0x4b, 0x44, 0x3c, 0x50, 0xae, 0x15, 0xbe, 0x51, 0xea, 0xc7, 0xbe,
  0x8b, 0x19, 0xae, 0xbd, 0xb8, 0xe1, 0x67, 0x3e, 0x41, 0x58, 0x9f, 0x3a,
  0x78, 0xc2, 0x07, 0xbe, 0xc6, 0xb4, 0x50, 0x3e, 0x27, 0x7c, 0x1e, 0x3e,
  0x78, 0x93, 0x9a, 0x3d, 0x80, 0x07, 0x24, 0xbe, 0xc8, 0x8d, 0x99, 0x3d,
  0x85, 0x13, 0xe9, 0x3d, 0x9f, 0x54, 0xad, 0xbd, 0x3e, 0x84, 0x51, 0x3e,
  0x99, 0x32, 0x24, 0xbe, 0x52, 0xfc, 0x85, 0x3e, 0x59, 0x87, 0xa4, 0x3d,
  0x61, 0x51, 0xcb, 0xbe, 0x70, 0x7f, 0xe9, 0xbd, 0x77, 0x6f, 0x13, 0x3e,
  0x80, 0xe9, 0x46, 0xbe, 0x99, 0x1f, 0xc4, 0x3d, 0x9a, 0x66, 0xa1, 0xbe,
  0x62, 0x5f, 0x4d, 0xbf, 0x82, 0xd7, 0x19, 0xbe, 0x1b, 0x77, 0xed, 0x3d,
  0x30, 0x3a, 0xae, 0xbf, 0xe8, 0xff, 0x33, 0xbe, 0xab, 0xc2, 0x4f, 0x3e,
  0xdc, 0x1f, 0x31, 0xbe, 0x17, 0x9c, 0xdb, 0x3c, 0x66, 0x69, 0x1c, 0xbf,
  0xe7, 0x96, 0x0c, 0xbc, 0xd1, 0x0d, 0x88, 0x3f, 0x79, 0x41, 0x0d, 0x3e,
  0x10, 0x27, 0x2d, 0xbe, 0x2d, 0x6b, 0x75, 0xbe, 0x58, 0xeb, 0x6d, 0xbf,
  0x27, 0xc2, 0x7e, 0xbe, 0x17, 0x78, 0x3d, 0xbf, 0x42, 0xb7, 0x62, 0xbf,
  0xdc, 0xfa, 0xa4, 0xbf, 0xb1, 0x2e, 0x8a, 0xbf, 0x26, 0x1b, 0xb1, 0x3e,
  0x97, 0xba, 0x00, 0x3f, 0x00, 0xb7, 0x10, 0x3d, 0x4a, 0x61, 0x3d, 0xbf,
  0xc7, 0xb9, 0x0e, 0x3e, 0x49, 0x7d, 0x5c, 0xbf, 0xd4, 0x5d, 0xd0, 0xbd,
  0xaf, 0xf1, 0x30, 0x3e, 0x77, 0xf6, 0x1f, 0xbf, 0xe2, 0xf6, 0x30, 0x3e,
  0xee, 0xb1, 0x2a, 0x3e, 0x41, 0x11, 0x31, 0x3e, 0xdc, 0xf0, 0x5a, 0x3e,
  0xc2, 0x94, 0x28, 0xbe, 0x47, 0x7e, 0x28, 0x3d, 0x76, 0x01, 0xa2, 0xbe,
  0x1f, 0x24, 0xba, 0xbe, 0x2c, 0xf8, 0xeb, 0xbd, 0x04, 0xe3, 0x8c, 0xbe,
  0x13, 0x19, 0x4c, 0xbf, 0x7c, 0x5d, 0xb6, 0xbe, 0x72, 0xcc, 0x5e, 0x3e,
  0x6f, 0x04, 0x01, 0xbf, 0x7e, 0xb1, 0x5b, 0x3e, 0x2f, 0x2d, 0x91, 0xbe,
  0x67, 0xae, 0x94, 0x3f, 0xf9, 0xdf, 0x80, 0x3d, 0xf6, 0x5c, 0xbb, 0x3e,
  0x5f, 0xc8, 0x20, 0xbf, 0x3f, 0xe2, 0x57, 0x3f, 0xa2, 0x4d, 0x06, 0xbd,
  0x00, 0x47, 0x1f, 0x3e, 0xe1, 0x79, 0x91, 0x3f, 0xe6, 0xdd, 0x5e, 0xbf,
  0x79, 0x13, 0xf2, 0x3c, 0xba, 0xe5, 0x63, 0xbe, 0x0c, 0xd0, 0xaf, 0xbe,
  0xdb, 0x8b, 0xca, 0x3d, 0x15, 0x9b, 0xdb, 0xbd, 0xad, 0xd4, 0x41, 0xbe,
  0xfd, 0xff, 0x5a, 0xbf, 0x4a, 0x7d, 0x8b, 0x3c, 0x72, 0x64, 0x04, 0xbf,
  0x9f, 0xf9, 0x78, 0xbd, 0xc9, 0xed, 0x97, 0xbd, 0xa8, 0x36, 0x96, 0xbd,
  0xf6, 0x33, 0x19, 0x3f, 0xe1, 0x82, 0x0c, 0xbf, 0x2e, 0x16, 0xa8, 0xbc,
  0x0c, 0xf4, 0x9f, 0x3e, 0xe4, 0x0c, 0x21, 0x3e, 0xf7, 0xd1, 0x34, 0x3e,
  0x1c, 0x71, 0x73, 0x3e, 0xf2, 0x75, 0xee, 0xbe, 0xf3, 0xd9, 0x03, 0x3e,
  0x13, 0xf8, 0x83, 0x3e, 0xe9, 0x73, 0xb5, 0xbe, 0x3e, 0x6e, 0x39, 0x3d,
  0xac, 0x52, 0x43, 0xbf, 0xcb, 0x0e, 0xb6, 0x3e, 0x6f, 0x99, 0xed, 0xbe,
  0xbc, 0x84, 0xb4, 0xbe, 0x09, 0x61, 0x8f, 0xbe, 0x81, 0x06, 0x85, 0x3e,
  0x60, 0x2b, 0x24, 0x3f, 0xac, 0xa1, 0x12, 0xbf, 0x92, 0xc9, 0x0c, 0xbe,
  0xbe, 0xf2, 0xde, 0x3b, 0xd6, 0x65, 0x05, 0xbe, 0x1e, 0xa8, 0xa0, 0xbe,
  0xb8, 0x64, 0x36, 0xbe, 0x75, 0x99, 0xc7, 0xbe, 0xc2, 0x80, 0x70, 0x3c,
  0x59, 0xa9, 0xbf, 0x3e, 0xa8, 0xd5, 0xea, 0x3e, 0xe8, 0x7e, 0xb8, 0xbd,
  0x03, 0x30, 0x9d, 0x3e, 0x7a, 0xd4, 0x27, 0x3f, 0x8b, 0xa3, 0x1d, 0x3f,
  0x4c, 0x59, 0x6f, 0x3e, 0x19, 0x0b, 0x13, 0xbf, 0x7a, 0xe6, 0x96, 0x3e,
  0x39, 0x85, 0xf6, 0xbd, 0x60, 0xac, 0x52, 0xbf, 0x7a, 0x8c, 0x2b, 0xbf,
  0x14, 0xfd, 0x4c, 0x3e, 0x7e, 0xde, 0x0c, 0xbf, 0x2e, 0xeb, 0xe1, 0xbd,
  0x8c, 0x37, 0x18, 0xbe, 0xd0, 0xcd, 0x72, 0xbd, 0x9a, 0xc7, 0xba, 0xbf,
  0x33, 0x1e, 0x6a, 0xbd, 0x17, 0x1f, 0x07, 0xbe, 0x4c, 0x32, 0x72, 0x3e,
  0x88, 0xbd, 0x03, 0xbf, 0xf6, 0x8a, 0x28, 0xbf, 0xb8, 0x80, 0xb0, 0x3d,
  0x11, 0xc2, 0x1c, 0xbf, 0x88, 0x3b, 0x8d, 0x3e, 0xd1, 0xc4, 0xc3, 0x3e,
  0x7f, 0x95, 0x80, 0xbe, 0xf4, 0x20, 0x09, 0x3f, 0x96, 0xde, 0x5c, 0xbc,
  0x54, 0xae, 0x1d, 0xbf, 0x65, 0x41, 0x8a, 0xbe, 0xe5, 0x06, 0xea, 0x3e,
  0xc4, 0x72, 0xb8, 0xbe, 0xbe, 0xc5, 0x28, 0x3e, 0xba, 0x8e, 0x8d, 0xbf,
  0x16, 0x94, 0x5a, 0xbe, 0x2c, 0xa4, 0x8e, 0xbe, 0x9a, 0xbe, 0x5f, 0xbe,
  0x49, 0xc3, 0x55, 0x3e, 0x8f, 0x7e, 0x6a, 0xbd, 0xfd, 0x45, 0xdb, 0x3e,
  0xe5, 0xf7, 0x8e, 0x3e, 0x56, 0x17, 0xb1, 0x3d, 0xd0, 0xff, 0x3a, 0x3e,
  0x13, 0xb6, 0x72, 0xbe, 0xaf, 0x76, 0xb3, 0xbf, 0x7c, 0x16, 0x90, 0xbe,
  0x34, 0x7d, 0x86, 0x3d, 0x1f, 0x46, 0x51, 0x3d, 0x13, 0x13, 0x38, 0xbe,
  0x97, 0x35, 0x44, 0xbe, 0xcb, 0xe4, 0xbb, 0x3f, 0x47, 0xe4, 0x46, 0xbf,
  0x41, 0xcb, 0xc3, 0xbd, 0x53, 0x09, 0x54, 0x3e, 0xc1, 0xba, 0x09, 0x3f,
  0xad, 0x96, 0xc2, 0xbd, 0x62, 0x88, 0x83, 0xbf, 0x6c, 0x21, 0x52, 0x3e,
  0x6d, 0x46, 0xd4, 0xbe, 0xa9, 0xcf, 0x14, 0xbf, 0xdc, 0xeb, 0x42, 0x3e,
  0x23, 0x68, 0x4b, 0xbf, 0x24, 0xf9, 0xff, 0xff, 0x28, 0xf9, 0xff, 0xff,
  0x0f, 0x00, 0x00, 0x00, 0x4d, 0x4c, 0x49, 0x52, 0x20, 0x43, 0x6f, 0x6e,
  0x76, 0x65, 0x72, 0x74, 0x65, 0x64, 0x2e, 0x00, 0x01, 0x00, 0x00, 0x00,
  0x14, 0x00, 0x00, 0x00, 0x00, 0x00, 0x0e, 0x00, 0x18, 0x00, 0x14, 0x00,
  0x10, 0x00, 0x0c, 0x00, 0x08, 0x00, 0x04, 0x00, 0x0e, 0x00, 0x00, 0x00,
  0x14, 0x00, 0x00, 0x00, 0x1c, 0x00, 0x00, 0x00, 0x5c, 0x01, 0x00, 0x00,
  0x60, 0x01, 0x00, 0x00, 0x64, 0x01, 0x00, 0x00, 0x04, 0x00, 0x00, 0x00,
  0x6d, 0x61, 0x69, 0x6e, 0x00, 0x00, 0x00, 0x00, 0x05, 0x00, 0x00, 0x00,
  0x00, 0x01, 0x00, 0x00, 0xb8, 0x00, 0x00, 0x00, 0x84, 0x00, 0x00, 0x00,
  0x40, 0x00, 0x00, 0x00, 0x04, 0x00, 0x00, 0x00, 0x96, 0xff, 0xff, 0xff,
  0x1c, 0x00, 0x00, 0x00, 0x00, 0x00, 0x00, 0x09, 0x1c, 0x00, 0x00, 0x00,
  0x20, 0x00, 0x00, 0x00, 0x02, 0x00, 0x00, 0x00, 0x00, 0x00, 0x06, 0x00,
  0x08, 0x00, 0x04, 0x00, 0x06, 0x00, 0x00, 0x00, 0x00, 0x00, 0x80, 0x3f,
  0x01, 0x00, 0x00, 0x00, 0x0c, 0x00, 0x00, 0x00, 0x01, 0x00, 0x00, 0x00,
  0x0b, 0x00, 0x00, 0x00, 0x5a, 0xff, 0xff, 0xff, 0x10, 0x00, 0x00, 0x00,
  0x00, 0x00, 0x00, 0x08, 0x0c, 0x00, 0x00, 0x00, 0x10, 0x00, 0x00, 0x00,
  0xe0, 0xf9, 0xff, 0xff, 0x01, 0x00, 0x00, 0x00, 0x0b, 0x00, 0x00, 0x00,
  0x03, 0x00, 0x00, 0x00, 0x0a, 0x00, 0x00, 0x00, 0x02, 0x00, 0x00, 0x00,
  0x03, 0x00, 0x00, 0x00, 0x00, 0x00, 0x0e, 0x00, 0x18, 0x00, 0x14, 0x00,
  0x10, 0x00, 0x0c, 0x00, 0x0b, 0x00, 0x04, 0x00, 0x0e, 0x00, 0x00, 0x00,
  0x14, 0x00, 0x00, 0x00, 0x00, 0x00, 0x00, 0x1b, 0x10, 0x00, 0x00, 0x00,
  0x14, 0x00, 0x00, 0x00, 0x01, 0x00, 0x00, 0x00, 0x24, 0xfa, 0xff, 0xff,
  0x01, 0x00, 0x00, 0x00, 0x0a, 0x00, 0x00, 0x00, 0x02, 0x00, 0x00, 0x00,
  0x09, 0x00, 0x00, 0x00, 0x04, 0x00, 0x00, 0x00, 0xca, 0xff, 0xff, 0xff,
  0x10, 0x00, 0x00, 0x00, 0x00, 0x00, 0x00, 0x08, 0x10, 0x00, 0x00, 0x00,
  0x14, 0x00, 0x00, 0x00, 0xba, 0xff, 0xff, 0xff, 0x00, 0x00, 0x01, 0x01,
  0x01, 0x00, 0x00, 0x00, 0x09, 0x00, 0x00, 0x00, 0x03, 0x00, 0x00, 0x00,
  0x08, 0x00, 0x00, 0x00, 0x01, 0x00, 0x00, 0x00, 0x05, 0x00, 0x00, 0x00,
  0x00, 0x00, 0x0e, 0x00, 0x16, 0x00, 0x00, 0x00, 0x10, 0x00, 0x0c, 0x00,
  0x0b, 0x00, 0x04, 0x00, 0x0e, 0x00, 0x00, 0x00, 0x1c, 0x00, 0x00, 0x00,
  0x00, 0x00, 0x00, 0x08, 0x1c, 0x00, 0x00, 0x00, 0x20, 0x00, 0x00, 0x00,
  0x00, 0x00, 0x0a, 0x00, 0x08, 0x00, 0x07, 0x00, 0x00, 0x00, 0x06, 0x00,
  0x0a, 0x00, 0x00, 0x00, 0x00, 0x00, 0x01, 0x01, 0x01, 0x00, 0x00, 0x00,
  0x08, 0x00, 0x00, 0x00, 0x03, 0x00, 0x00, 0x00, 0x00, 0x00, 0x00, 0x00,
  0x07, 0x00, 0x00, 0x00, 0x06, 0x00, 0x00, 0x00, 0x01, 0x00, 0x00, 0x00,
  0x0c, 0x00, 0x00, 0x00, 0x01, 0x00, 0x00, 0x00, 0x00, 0x00, 0x00, 0x00,
  0x0d, 0x00, 0x00, 0x00, 0x00, 0x05, 0x00, 0x00, 0xa8, 0x04, 0x00, 0x00,
  0x50, 0x04, 0x00, 0x00, 0x14, 0x04, 0x00, 0x00, 0xa8, 0x03, 0x00, 0x00,
  0x34, 0x03, 0x00, 0x00, 0xdc, 0x02, 0x00, 0x00, 0x90, 0x02, 0x00, 0x00,
  0xf4, 0x01, 0x00, 0x00, 0x50, 0x01, 0x00, 0x00, 0xe0, 0x00, 0x00, 0x00,
  0x60, 0x00, 0x00, 0x00, 0x04, 0x00, 0x00, 0x00, 0x4a, 0xfb, 0xff, 0xff,
  0x00, 0x00, 0x00, 0x01, 0x14, 0x00, 0x00, 0x00, 0x1c, 0x00, 0x00, 0x00,
  0x1c, 0x00, 0x00, 0x00, 0x0d, 0x00, 0x00, 0x00, 0x34, 0x00, 0x00, 0x00,
  0x02, 0x00, 0x00, 0x00, 0xff, 0xff, 0xff, 0xff, 0x04, 0x00, 0x00, 0x00,
  0x30, 0xfb, 0xff, 0xff, 0x1b, 0x00, 0x00, 0x00, 0x53, 0x74, 0x61, 0x74,
  0x65, 0x66, 0x75, 0x6c, 0x50, 0x61, 0x72, 0x74, 0x69, 0x74, 0x69, 0x6f,
  0x6e, 0x65, 0x64, 0x43, 0x61, 0x6c, 0x6c, 0x5f, 0x31, 0x3a, 0x30, 0x00,
  0x02, 0x00, 0x00, 0x00, 0x01, 0x00, 0x00, 0x00, 0x04, 0x00, 0x00, 0x00,
  0xa2, 0xfb, 0xff, 0xff, 0x00, 0x00, 0x00, 0x01, 0x14, 0x00, 0x00, 0x00,
  0x1c, 0x00, 0x00, 0x00, 0x1c, 0x00, 0x00, 0x00, 0x0c, 0x00, 0x00, 0x00,
  0x58, 0x00, 0x00, 0x00, 0x02, 0x00, 0x00, 0x00, 0xff, 0xff, 0xff, 0xff,
  0x04, 0x00, 0x00, 0x00, 0x88, 0xfb, 0xff, 0xff, 0x3c, 0x00, 0x00, 0x00,
  0x73, 0x65, 0x71, 0x75, 0x65, 0x6e, 0x74, 0x69, 0x61, 0x6c, 0x5f, 0x31,
  0x2f, 0x64, 0x65, 0x6e, 0x73, 0x65, 0x5f, 0x32, 0x5f, 0x31, 0x2f, 0x4d,
  0x61, 0x74, 0x4d, 0x75, 0x6c, 0x3b, 0x73, 0x65, 0x71, 0x75, 0x65, 0x6e,
  0x74, 0x69, 0x61, 0x6c, 0x5f, 0x31, 0x2f, 0x64, 0x65, 0x6e, 0x73, 0x65,
  0x5f, 0x32, 0x5f, 0x31, 0x2f, 0x42, 0x69, 0x61, 0x73, 0x41, 0x64, 0x64,
  0x00, 0x00, 0x00, 0x00, 0x02, 0x00, 0x00, 0x00, 0x01, 0x00, 0x00, 0x00,
  0x04, 0x00, 0x00, 0x00, 0x1e, 0xfc, 0xff, 0xff, 0x00, 0x00, 0x00, 0x01,
  0x14, 0x00, 0x00, 0x00, 0x1c, 0x00, 0x00, 0x00, 0x1c, 0x00, 0x00, 0x00,
  0x0b, 0x00, 0x00, 0x00, 0x48, 0x00, 0x00, 0x00, 0x02, 0x00, 0x00, 0x00,
  0xff, 0xff, 0xff, 0xff, 0x0f, 0x00, 0x00, 0x00, 0x04, 0xfc, 0xff, 0xff,
  0x2c, 0x00, 0x00, 0x00, 0x73, 0x65, 0x71, 0x75, 0x65, 0x6e, 0x74, 0x69,
  0x61, 0x6c, 0x5f, 0x31, 0x2f, 0x67, 0x6c, 0x6f, 0x62, 0x61, 0x6c, 0x5f,
  0x61, 0x76, 0x65, 0x72, 0x61, 0x67, 0x65, 0x5f, 0x70, 0x6f, 0x6f, 0x6c,
  0x69, 0x6e, 0x67, 0x31, 0x64, 0x5f, 0x31, 0x2f, 0x4d, 0x65, 0x61, 0x6e,
  0x00, 0x00, 0x00, 0x00, 0x02, 0x00, 0x00, 0x00, 0x01, 0x00, 0x00, 0x00,
  0x0f, 0x00, 0x00, 0x00, 0x8a, 0xfc, 0xff, 0xff, 0x00, 0x00, 0x00, 0x01,
  0x14, 0x00, 0x00, 0x00, 0x20, 0x00, 0x00, 0x00, 0x20, 0x00, 0x00, 0x00,
  0x0a, 0x00, 0x00, 0x00, 0x78, 0x00, 0x00, 0x00, 0x03, 0x00, 0x00, 0x00,
  0xff, 0xff, 0xff, 0xff, 0x7d, 0x00, 0x00, 0x00, 0x0f, 0x00, 0x00, 0x00,
  0x74, 0xfc, 0xff, 0xff, 0x58, 0x00, 0x00, 0x00, 0x73, 0x65, 0x71, 0x75,
  0x65, 0x6e, 0x74, 0x69, 0x61, 0x6c, 0x5f, 0x31, 0x2f, 0x64, 0x65, 0x6e,
  0x73, 0x65, 0x5f, 0x31, 0x5f, 0x32, 0x2f, 0x4d, 0x61, 0x74, 0x4d, 0x75,
  0x6c, 0x3b, 0x73, 0x65, 0x71, 0x75, 0x65, 0x6e, 0x74, 0x69, 0x61, 0x6c,
  0x5f, 0x31, 0x2f, 0x64, 0x65, 0x6e, 0x73, 0x65, 0x5f, 0x31, 0x5f, 0x32,
  0x2f, 0x52, 0x65, 0x6c, 0x75, 0x3b, 0x73, 0x65, 0x71, 0x75, 0x65, 0x6e,
  0x74, 0x69, 0x61, 0x6c, 0x5f, 0x31, 0x2f, 0x64, 0x65, 0x6e, 0x73, 0x65,
  0x5f, 0x31, 0x5f, 0x32, 0x2f, 0x42, 0x69, 0x61, 0x73, 0x41, 0x64, 0x64,
  0x00, 0x00, 0x00, 0x00, 0x03, 0x00, 0x00, 0x00, 0x01, 0x00, 0x00, 0x00,
  0x7d, 0x00, 0x00, 0x00, 0x0f, 0x00, 0x00, 0x00, 0x2a, 0xfd, 0xff, 0xff,
  0x00, 0x00, 0x00, 0x01, 0x14, 0x00, 0x00, 0x00, 0x20, 0x00, 0x00, 0x00,
  0x20, 0x00, 0x00, 0x00, 0x09, 0x00, 0x00, 0x00, 0x70, 0x00, 0x00, 0x00,
  0x03, 0x00, 0x00, 0x00, 0xff, 0xff, 0xff, 0xff, 0x7d, 0x00, 0x00, 0x00,
  0x32, 0x00, 0x00, 0x00, 0x14, 0xfd, 0xff, 0xff, 0x52, 0x00, 0x00, 0x00,
  0x73, 0x65, 0x71, 0x75, 0x65, 0x6e, 0x74, 0x69, 0x61, 0x6c, 0x5f, 0x31,
  0x2f, 0x64, 0x65, 0x6e, 0x73, 0x65, 0x5f, 0x31, 0x2f, 0x4d, 0x61, 0x74,
  0x4d, 0x75, 0x6c, 0x3b, 0x73, 0x65, 0x71, 0x75, 0x65, 0x6e, 0x74, 0x69,
  0x61, 0x6c, 0x5f, 0x31, 0x2f, 0x64, 0x65, 0x6e, 0x73, 0x65, 0x5f, 0x31,
  0x2f, 0x52, 0x65, 0x6c, 0x75, 0x3b, 0x73, 0x65, 0x71, 0x75, 0x65, 0x6e,
  0x74, 0x69, 0x61, 0x6c, 0x5f, 0x31, 0x2f, 0x64, 0x65, 0x6e, 0x73, 0x65,
  0x5f, 0x31, 0x2f, 0x42, 0x69, 0x61, 0x73, 0x41, 0x64, 0x64, 0x00, 0x00,
  0x03, 0x00, 0x00, 0x00, 0x01, 0x00, 0x00, 0x00, 0x7d, 0x00, 0x00, 0x00,
  0x32, 0x00, 0x00, 0x00, 0x16, 0xfe, 0xff, 0xff, 0x00, 0x00, 0x00, 0x01,
  0x10, 0x00, 0x00, 0x00, 0x10, 0x00, 0x00, 0x00, 0x08, 0x00, 0x00, 0x00,
  0x28, 0x00, 0x00, 0x00, 0x98, 0xfd, 0xff, 0xff, 0x1b, 0x00, 0x00, 0x00,
  0x73, 0x65, 0x71, 0x75, 0x65, 0x6e, 0x74, 0x69, 0x61, 0x6c, 0x5f, 0x31,
  0x2f, 0x64, 0x65, 0x6e, 0x73, 0x65, 0x5f, 0x31, 0x2f, 0x4d, 0x61, 0x74,
  0x4d, 0x75, 0x6c, 0x00, 0x02, 0x00, 0x00, 0x00, 0x32, 0x00, 0x00, 0x00,
  0x06, 0x00, 0x00, 0x00, 0x5e, 0xfe, 0xff, 0xff, 0x00, 0x00, 0x00, 0x01,
  0x10, 0x00, 0x00, 0x00, 0x10, 0x00, 0x00, 0x00, 0x07, 0x00, 0x00, 0x00,
  0x38, 0x00, 0x00, 0x00, 0xe0, 0xfd, 0xff, 0xff, 0x2b, 0x00, 0x00, 0x00,
  0x73, 0x65, 0x71, 0x75, 0x65, 0x6e, 0x74, 0x69, 0x61, 0x6c, 0x5f, 0x31,
  0x2f, 0x64, 0x65, 0x6e, 0x73, 0x65, 0x5f, 0x31, 0x2f, 0x42, 0x69, 0x61,
  0x73, 0x41, 0x64, 0x64, 0x2f, 0x52, 0x65, 0x61, 0x64, 0x56, 0x61, 0x72,
  0x69, 0x61, 0x62, 0x6c, 0x65, 0x4f, 0x70, 0x00, 0x01, 0x00, 0x00, 0x00,
  0x32, 0x00, 0x00, 0x00, 0xb2, 0xfe, 0xff, 0xff, 0x00, 0x00, 0x00, 0x01,
  0x10, 0x00, 0x00, 0x00, 0x10, 0x00, 0x00, 0x00, 0x06, 0x00, 0x00, 0x00,
  0x3c, 0x00, 0x00, 0x00, 0x34, 0xfe, 0xff, 0xff, 0x2d, 0x00, 0x00, 0x00,
  0x73, 0x65, 0x71, 0x75, 0x65, 0x6e, 0x74, 0x69, 0x61, 0x6c, 0x5f, 0x31,
  0x2f, 0x64, 0x65, 0x6e, 0x73, 0x65, 0x5f, 0x31, 0x5f, 0x32, 0x2f, 0x42,
  0x69, 0x61, 0x73, 0x41, 0x64, 0x64, 0x2f, 0x52, 0x65, 0x61, 0x64, 0x56,
  0x61, 0x72, 0x69, 0x61, 0x62, 0x6c, 0x65, 0x4f, 0x70, 0x00, 0x00, 0x00,
  0x01, 0x00, 0x00, 0x00, 0x0f, 0x00, 0x00, 0x00, 0x00, 0x00, 0x16, 0x00,
  0x1c, 0x00, 0x18, 0x00, 0x17, 0x00, 0x10, 0x00, 0x0c, 0x00, 0x08, 0x00,
  0x00, 0x00, 0x00, 0x00, 0x00, 0x00, 0x07, 0x00, 0x16, 0x00, 0x00, 0x00,
  0x00, 0x00, 0x00, 0x01, 0x14, 0x00, 0x00, 0x00, 0x14, 0x00, 0x00, 0x00,
  0x05, 0x00, 0x00, 0x00, 0x00, 0x00, 0x00, 0x02, 0x4c, 0x00, 0x00, 0x00,
  0xa8, 0xfe, 0xff, 0xff, 0x3e, 0x00, 0x00, 0x00, 0x73, 0x65, 0x71, 0x75,
  0x65, 0x6e, 0x74, 0x69, 0x61, 0x6c, 0x5f, 0x31, 0x2f, 0x67, 0x6c, 0x6f,
  0x62, 0x61, 0x6c, 0x5f, 0x61, 0x76, 0x65, 0x72, 0x61, 0x67, 0x65, 0x5f,
  0x70, 0x6f, 0x6f, 0x6c, 0x69, 0x6e, 0x67, 0x31, 0x64, 0x5f, 0x31, 0x2f,
  0x4d, 0x65, 0x61, 0x6e, 0x2f, 0x72, 0x65, 0x64, 0x75, 0x63, 0x74, 0x69,
  0x6f, 0x6e, 0x5f, 0x69, 0x6e, 0x64, 0x69, 0x63, 0x65, 0x73, 0x00, 0x00,
  0x00, 0x00, 0x00, 0x00, 0x8a, 0xff, 0xff, 0xff, 0x00, 0x00, 0x00, 0x01,
  0x10, 0x00, 0x00, 0x00, 0x10, 0x00, 0x00, 0x00, 0x04, 0x00, 0x00, 0x00,
  0x1c, 0x00, 0x00, 0x00, 0x0c, 0xff, 0xff, 0xff, 0x0f, 0x00, 0x00, 0x00,
  0x61, 0x72, 0x69, 0x74, 0x68, 0x2e, 0x63, 0x6f, 0x6e, 0x73, 0x74, 0x61,
  0x6e, 0x74, 0x32, 0x00, 0x01, 0x00, 0x00, 0x00, 0x04, 0x00, 0x00, 0x00,
  0xc2, 0xff, 0xff, 0xff, 0x00, 0x00, 0x00, 0x01, 0x10, 0x00, 0x00, 0x00,
  0x10, 0x00, 0x00, 0x00, 0x03, 0x00, 0x00, 0x00, 0x1c, 0x00, 0x00, 0x00,
  0x44, 0xff, 0xff, 0xff, 0x0f, 0x00, 0x00, 0x00, 0x61, 0x72, 0x69, 0x74,
  0x68, 0x2e, 0x63, 0x6f, 0x6e, 0x73, 0x74, 0x61, 0x6e, 0x74, 0x31, 0x00,
  0x02, 0x00, 0x00, 0x00, 0x04, 0x00, 0x00, 0x00, 0x0f, 0x00, 0x00, 0x00,
  0x00, 0x00, 0x16, 0x00, 0x18, 0x00, 0x14, 0x00, 0x00, 0x00, 0x10, 0x00,
  0x0c, 0x00, 0x08, 0x00, 0x00, 0x00, 0x00, 0x00, 0x00, 0x00, 0x07, 0x00,
  0x16, 0x00, 0x00, 0x00, 0x00, 0x00, 0x00, 0x01, 0x10, 0x00, 0x00, 0x00,
  0x10, 0x00, 0x00, 0x00, 0x02, 0x00, 0x00, 0x00, 0x1c, 0x00, 0x00, 0x00,
  0x98, 0xff, 0xff, 0xff, 0x0e, 0x00, 0x00, 0x00, 0x61, 0x72, 0x69, 0x74,
  0x68, 0x2e, 0x63, 0x6f, 0x6e, 0x73, 0x74, 0x61, 0x6e, 0x74, 0x00, 0x00,
  0x02, 0x00, 0x00, 0x00, 0x0f, 0x00, 0x00, 0x00, 0x32, 0x00, 0x00, 0x00,
  0x00, 0x00, 0x16, 0x00, 0x1c, 0x00, 0x18, 0x00, 0x00, 0x00, 0x14, 0x00,
  0x10, 0x00, 0x0c, 0x00, 0x00, 0x00, 0x00, 0x00, 0x08, 0x00, 0x07, 0x00,
  0x16, 0x00, 0x00, 0x00, 0x00, 0x00, 0x00, 0x01, 0x14, 0x00, 0x00, 0x00,
  0x24, 0x00, 0x00, 0x00, 0x24, 0x00, 0x00, 0x00, 0x01, 0x00, 0x00, 0x00,
  0x40, 0x00, 0x00, 0x00, 0x03, 0x00, 0x00, 0x00, 0xff, 0xff, 0xff, 0xff,
  0x7d, 0x00, 0x00, 0x00, 0x06, 0x00, 0x00, 0x00, 0x04, 0x00, 0x04, 0x00,
  0x04, 0x00, 0x00, 0x00, 0x1e, 0x00, 0x00, 0x00, 0x73, 0x65, 0x72, 0x76,
  0x69, 0x6e, 0x67, 0x5f, 0x64, 0x65, 0x66, 0x61, 0x75, 0x6c, 0x74, 0x5f,
  0x6b, 0x65, 0x72, 0x61, 0x73, 0x5f, 0x74, 0x65, 0x6e, 0x73, 0x6f, 0x72,
  0x3a, 0x30, 0x00, 0x00, 0x03, 0x00, 0x00, 0x00, 0x01, 0x00, 0x00, 0x00,
  0x7d, 0x00, 0x00, 0x00, 0x06, 0x00, 0x00, 0x00, 0x03, 0x00, 0x00, 0x00,
  0x3c, 0x00, 0x00, 0x00, 0x20, 0x00, 0x00, 0x00, 0x04, 0x00, 0x00, 0x00,
  0xf4, 0xff, 0xff, 0xff, 0x19, 0x00, 0x00, 0x00, 0x00, 0x00, 0x00, 0x19,
  0x0c, 0x00, 0x0c, 0x00, 0x0b, 0x00, 0x00, 0x00, 0x00, 0x00, 0x04, 0x00,
  0x0c, 0x00, 0x00, 0x00, 0x28, 0x00, 0x00, 0x00, 0x00, 0x00, 0x00, 0x28,
  0x0c, 0x00, 0x10, 0x00, 0x0f, 0x00, 0x00, 0x00, 0x08, 0x00, 0x04, 0x00,
  0x0c, 0x00, 0x00, 0x00, 0x09, 0x00, 0x00, 0x00, 0x05, 0x00, 0x00, 0x00,
  0x00, 0x00, 0x00, 0x09
};
unsigned int Handshake_0603_2237_tflite_len = 7204;
