unsigned char Handshake_0603_2253_tflite[] = {
  0x1c, 0x00, 0x00, 0x00, 0x54, 0x46, 0x4c, 0x33, 0x14, 0x00, 0x20, 0x00,
  0x1c, 0x00, 0x18, 0x00, 0x14, 0x00, 0x10, 0x00, 0x0c, 0x00, 0x00, 0x00,
  0x08, 0x00, 0x04, 0x00, 0x14, 0x00, 0x00, 0x00, 0x1c, 0x00, 0x00, 0x00,
  0x98, 0x00, 0x00, 0x00, 0xf0, 0x00, 0x00, 0x00, 0x58, 0x15, 0x00, 0x00,
  0x68, 0x15, 0x00, 0x00, 0x60, 0x1c, 0x00, 0x00, 0x03, 0x00, 0x00, 0x00,
  0x01, 0x00, 0x00, 0x00, 0x10, 0x00, 0x00, 0x00, 0x00, 0x00, 0x0a, 0x00,
  0x10, 0x00, 0x0c, 0x00, 0x08, 0x00, 0x04, 0x00, 0x0a, 0x00, 0x00, 0x00,
  0x0c, 0x00, 0x00, 0x00, 0x1c, 0x00, 0x00, 0x00, 0x3c, 0x00, 0x00, 0x00,
  0x0f, 0x00, 0x00, 0x00, 0x73, 0x65, 0x72, 0x76, 0x69, 0x6e, 0x67, 0x5f,
  0x64, 0x65, 0x66, 0x61, 0x75, 0x6c, 0x74, 0x00, 0x01, 0x00, 0x00, 0x00,
  0x04, 0x00, 0x00, 0x00, 0x90, 0xff, 0xff, 0xff, 0x0c, 0x00, 0x00, 0x00,
  0x04, 0x00, 0x00, 0x00, 0x08, 0x00, 0x00, 0x00, 0x6f, 0x75, 0x74, 0x70,
  0x75, 0x74, 0x5f, 0x30, 0x00, 0x00, 0x00, 0x00, 0x01, 0x00, 0x00, 0x00,
  0x04, 0x00, 0x00, 0x00, 0x9a, 0xea, 0xff, 0xff, 0x04, 0x00, 0x00, 0x00,
  0x0c, 0x00, 0x00, 0x00, 0x6b, 0x65, 0x72, 0x61, 0x73, 0x5f, 0x74, 0x65,
  0x6e, 0x73, 0x6f, 0x72, 0x00, 0x00, 0x00, 0x00, 0x02, 0x00, 0x00, 0x00,
  0x34, 0x00, 0x00, 0x00, 0x04, 0x00, 0x00, 0x00, 0xdc, 0xff, 0xff, 0xff,
  0x0f, 0x00, 0x00, 0x00, 0x04, 0x00, 0x00, 0x00, 0x13, 0x00, 0x00, 0x00,
  0x43, 0x4f, 0x4e, 0x56, 0x45, 0x52, 0x53, 0x49, 0x4f, 0x4e, 0x5f, 0x4d,
  0x45, 0x54, 0x41, 0x44, 0x41, 0x54, 0x41, 0x00, 0x08, 0x00, 0x0c, 0x00,
  0x08, 0x00, 0x04, 0x00, 0x08, 0x00, 0x00, 0x00, 0x0e, 0x00, 0x00, 0x00,
  0x04, 0x00, 0x00, 0x00, 0x13, 0x00, 0x00, 0x00, 0x6d, 0x69, 0x6e, 0x5f,
  0x72, 0x75, 0x6e, 0x74, 0x69, 0x6d, 0x65, 0x5f, 0x76, 0x65, 0x72, 0x73,
  0x69, 0x6f, 0x6e, 0x00, 0x10, 0x00, 0x00, 0x00, 0x64, 0x14, 0x00, 0x00,
  0x5c, 0x14, 0x00, 0x00, 0x94, 0x08, 0x00, 0x00, 0xe0, 0x06, 0x00, 0x00,
  0xb4, 0x06, 0x00, 0x00, 0xa0, 0x06, 0x00, 0x00, 0x54, 0x06, 0x00, 0x00,
  0x7c, 0x05, 0x00, 0x00, 0xbc, 0x00, 0x00, 0x00, 0xb4, 0x00, 0x00, 0x00,
  0xac, 0x00, 0x00, 0x00, 0xa4, 0x00, 0x00, 0x00, 0x9c, 0x00, 0x00, 0x00,
  0x94, 0x00, 0x00, 0x00, 0x74, 0x00, 0x00, 0x00, 0x04, 0x00, 0x00, 0x00,
  0x56, 0xeb, 0xff, 0xff, 0x04, 0x00, 0x00, 0x00, 0x60, 0x00, 0x00, 0x00,
  0x10, 0x00, 0x00, 0x00, 0x00, 0x00, 0x00, 0x00, 0x08, 0x00, 0x0e, 0x00,
  0x08, 0x00, 0x04, 0x00, 0x08, 0x00, 0x00, 0x00, 0x10, 0x00, 0x00, 0x00,
  0x24, 0x00, 0x00, 0x00, 0x00, 0x00, 0x06, 0x00, 0x08, 0x00, 0x04, 0x00,
  0x06, 0x00, 0x00, 0x00, 0x04, 0x00, 0x00, 0x00, 0x00, 0x00, 0x00, 0x00,
  0x0c, 0x00, 0x18, 0x00, 0x14, 0x00, 0x10, 0x00, 0x0c, 0x00, 0x04, 0x00,
  0x0c, 0x00, 0x00, 0x00, 0xea, 0x78, 0x83, 0xaa, 0xa6, 0x8c, 0xf0, 0x92,
  0x02, 0x00, 0x00, 0x00, 0x02, 0x00, 0x00, 0x00, 0x04, 0x00, 0x00, 0x00,
  0x06, 0x00, 0x00, 0x00, 0x32, 0x2e, 0x31, 0x39, 0x2e, 0x30, 0x00, 0x00,
  0xc2, 0xeb, 0xff, 0xff, 0x04, 0x00, 0x00, 0x00, 0x10, 0x00, 0x00, 0x00,
  0x32, 0x2e, 0x30, 0x2e, 0x30, 0x00, 0x00, 0x00, 0x00, 0x00, 0x00, 0x00,
  0x00, 0x00, 0x00, 0x00, 0x8c, 0xe5, 0xff, 0xff, 0x90, 0xe5, 0xff, 0xff,
  0x94, 0xe5, 0xff, 0xff, 0x98, 0xe5, 0xff, 0xff, 0x9c, 0xe5, 0xff, 0xff,
  0xf2, 0xeb, 0xff, 0xff, 0x04, 0x00, 0x00, 0x00, 0xb0, 0x04, 0x00, 0x00,
  0x26, 0x65, 0x9e, 0xbe, 0x4a, 0x02, 0x29, 0xc0, 0x14, 0xfe, 0x72, 0xbe,
  0x04, 0x89, 0x13, 0xbd, 0x4d, 0xc9, 0x6d, 0x3e, 0x34, 0xe6, 0x35, 0xbd,
  0x11, 0x27, 0x4a, 0xbf, 0x9b, 0xb2, 0x05, 0x40, 0xbc, 0x9f, 0x79, 0xbf,
  0x8f, 0xa8, 0x94, 0xbd, 0x1e, 0x82, 0xd1, 0xbe, 0x5c, 0x6e, 0x11, 0x3d,
  0x89, 0x9d, 0x4e, 0x3d, 0xab, 0x24, 0x11, 0xbf, 0x8c, 0x5e, 0xb0, 0xbf,
  0xbd, 0xb2, 0x6d, 0x3f, 0xd8, 0x56, 0xad, 0x3d, 0x62, 0x21, 0xdb, 0x3e,
  0x75, 0x92, 0xc4, 0x3f, 0x1a, 0x4a, 0xac, 0xbe, 0x21, 0x11, 0x9d, 0xbe,
  0x0a, 0xbe, 0x10, 0x3f, 0x32, 0x8e, 0xe5, 0x3e, 0xc8, 0x7d, 0x0e, 0xbe,
  0x8c, 0xbf, 0x7a, 0x3e, 0x9e, 0xc6, 0x37, 0xc0, 0x40, 0xe6, 0x1e, 0xc0,
  0xbe, 0xb4, 0xa1, 0xbe, 0x81, 0xb3, 0xed, 0xbc, 0x46, 0xb6, 0x81, 0xbd,
  0x93, 0x41, 0x1b, 0x40, 0xda, 0x35, 0x8f, 0xbf, 0xd4, 0x6a, 0xc9, 0x3e,
  0x9d, 0x3f, 0x4b, 0x3f, 0x50, 0x0b, 0x24, 0xbd, 0x13, 0x0b, 0x9c, 0xbd,
  0xef, 0x96, 0x2c, 0x40, 0x12, 0xe9, 0x3c, 0x3d, 0x0e, 0xb9, 0x6b, 0x3f,
  0xf4, 0x45, 0x50, 0xbe, 0xc2, 0x77, 0xa1, 0x3e, 0xe6, 0xc1, 0x9f, 0x3e,
  0x1b, 0x73, 0x88, 0xbf, 0x16, 0xa8, 0x5b, 0xbe, 0xf0, 0x69, 0x2e, 0x3f,
  0x2c, 0xcc, 0xc0, 0x3e, 0xb0, 0x65, 0xf6, 0xbd, 0x1b, 0x7e, 0x32, 0x3e,
  0x87, 0xfd, 0xda, 0x3e, 0xc9, 0xf0, 0xcc, 0x3f, 0x3f, 0xdf, 0xfc, 0x3e,
  0x6e, 0x90, 0xb6, 0x3e, 0x35, 0x71, 0xfc, 0xbd, 0x6f, 0xd8, 0xd4, 0xbd,
  0x90, 0x74, 0xf9, 0xbe, 0x4a, 0x54, 0xb6, 0x3d, 0x62, 0x36, 0x14, 0xbf,
  0x5f, 0x3f, 0xca, 0x3e, 0xf0, 0x68, 0x7d, 0xbd, 0x7a, 0x2c, 0xac, 0x3e,
  0xaa, 0x8f, 0xc5, 0xbf, 0x74, 0x5c, 0xad, 0x3f, 0x4f, 0xbc, 0x06, 0xbe,
  0xb1, 0x1e, 0x8b, 0xbe, 0xa1, 0x35, 0xd8, 0xbe, 0x6b, 0x6a, 0x3c, 0xbf,
  0x5a, 0xec, 0xf3, 0x3d, 0xf1, 0x60, 0x0f, 0x40, 0x7d, 0x08, 0x79, 0x3f,
  0x32, 0x1c, 0x2a, 0xbd, 0x85, 0x98, 0xa4, 0x3e, 0x1f, 0x39, 0xcc, 0x3e,
  0x5d, 0x24, 0xc7, 0x3f, 0x93, 0x02, 0x29, 0xbf, 0x05, 0x2a, 0xb4, 0x3d,
  0xaf, 0xed, 0x03, 0x3f, 0xc6, 0x80, 0x15, 0x3e, 0xef, 0x81, 0x18, 0x3f,
  0x73, 0xa5, 0x58, 0xc0, 0x74, 0x39, 0xbb, 0xbf, 0x6b, 0xd3, 0x3b, 0xc0,
  0xaa, 0x2c, 0xd6, 0xbc, 0x9e, 0x04, 0x02, 0x3d, 0x82, 0x17, 0x71, 0x3d,
  0x28, 0x53, 0xec, 0xbf, 0x3b, 0x0c, 0x3c, 0x3f, 0xb5, 0xcf, 0x52, 0xc0,
  0xbf, 0xaf, 0x86, 0xbe, 0x41, 0xae, 0x24, 0x3f, 0x72, 0xe7, 0xc1, 0x3c,
  0x7f, 0xd5, 0x3c, 0x40, 0xb5, 0x3a, 0x14, 0x40, 0x82, 0xbc, 0x01, 0x3f,
  0x7e, 0xa9, 0x34, 0x3e, 0xac, 0x2a, 0x30, 0xbe, 0x12, 0x96, 0x14, 0xbd,
  0xdb, 0xf3, 0x41, 0x40, 0x04, 0x23, 0xa0, 0x3f, 0x78, 0x8e, 0x97, 0x3f,
  0x9a, 0x7b, 0xf8, 0xbd, 0x52, 0x65, 0xec, 0x3a, 0x7b, 0x10, 0x47, 0xbe,
  0x1b, 0xfa, 0x4f, 0x3f, 0x97, 0xd5, 0x65, 0xbf, 0x0e, 0xf4, 0xc0, 0xbb,
  0x08, 0x2d, 0xbc, 0x3e, 0x42, 0x9d, 0x41, 0xbd, 0x90, 0xb1, 0xeb, 0xbc,
  0xdc, 0xd4, 0x37, 0x3f, 0x51, 0xb7, 0x4d, 0xbf, 0xd9, 0x85, 0x9a, 0xbf,
  0xe0, 0x96, 0xe9, 0xbd, 0x6c, 0x67, 0x65, 0xbe, 0xe6, 0xe3, 0xcd, 0x3d,
  0x08, 0xf2, 0x06, 0x3f, 0xd3, 0xdc, 0x31, 0xbf, 0xc9, 0xef, 0x8e, 0xbc,
  0x07, 0xef, 0x2e, 0x3e, 0x0f, 0x5e, 0xe5, 0xbe, 0x98, 0x54, 0x88, 0xbd,
  0xb2, 0x14, 0x86, 0xbf, 0x17, 0xc6, 0xb5, 0xbf, 0xb6, 0x11, 0xd0, 0x3e,
  0x86, 0x96, 0xa4, 0xbe, 0xa1, 0x45, 0x74, 0x3e, 0xb0, 0x8c, 0xf6, 0xbe,
  0xfe, 0x0b, 0xb3, 0xbf, 0x0a, 0xe1, 0x72, 0xbf, 0xc1, 0x22, 0xb4, 0x3e,
  0x56, 0xc8, 0x4a, 0x3d, 0xef, 0xf3, 0x77, 0xbe, 0x8d, 0xd9, 0xa5, 0xbe,
  0x01, 0x5b, 0x9f, 0xbf, 0x55, 0x86, 0x0e, 0xbf, 0x04, 0x73, 0x0c, 0x40,
  0xc5, 0x14, 0xcc, 0x3e, 0xf4, 0xba, 0x06, 0xbf, 0xe9, 0x5b, 0x6a, 0xbe,
  0xbb, 0x29, 0x02, 0xbf, 0x01, 0xdd, 0xab, 0x3f, 0x6e, 0xb0, 0x6d, 0x3e,
  0x43, 0x5b, 0x10, 0x3e, 0x45, 0x63, 0xc3, 0x3e, 0x9c, 0xd8, 0xb3, 0x3e,
  0x30, 0x16, 0x4f, 0x3f, 0x33, 0xa4, 0x06, 0x3e, 0x45, 0x37, 0x53, 0xbd,
  0xf6, 0xc5, 0x69, 0xbd, 0xca, 0x92, 0xd8, 0xbd, 0xab, 0x24, 0xb9, 0x3d,
  0x35, 0x7b, 0x60, 0x3f, 0x8c, 0x7a, 0x44, 0x3f, 0x9f, 0x89, 0x82, 0x3f,
  0x1e, 0x7d, 0x8d, 0xbe, 0x1f, 0x9d, 0x8f, 0xbe, 0x9b, 0xe0, 0x82, 0x3e,
  0x5e, 0x86, 0xcc, 0x3f, 0xb9, 0xe4, 0x1a, 0x3f, 0x63, 0xe9, 0xc4, 0x3e,
  0xff, 0x34, 0x22, 0x3d, 0x51, 0x8b, 0xc5, 0xbe, 0xc2, 0x8f, 0x33, 0x3c,
  0x30, 0x7a, 0x27, 0xbf, 0x2f, 0x6a, 0xd7, 0xbe, 0x5f, 0x64, 0x80, 0xbe,
  0x89, 0xe3, 0x68, 0x3f, 0x91, 0x32, 0x44, 0xbd, 0xa5, 0x3f, 0x1b, 0x3e,
  0x23, 0x53, 0x06, 0xbe, 0x6c, 0xd2, 0x2f, 0x3f, 0x04, 0x73, 0x6d, 0xbf,
  0xbf, 0x68, 0xbb, 0xbe, 0x35, 0x08, 0x55, 0xbd, 0x72, 0xee, 0x97, 0xbd,
  0xce, 0x6b, 0xcc, 0x3e, 0xb7, 0x3c, 0x99, 0xbe, 0x25, 0x30, 0x47, 0x3e,
  0x4d, 0x5f, 0xcc, 0xbe, 0xcc, 0x31, 0x65, 0xbe, 0x1d, 0xc3, 0xe7, 0xbe,
  0x41, 0xe3, 0x85, 0x3f, 0x60, 0x7d, 0x9f, 0xbf, 0xdb, 0x7b, 0x17, 0xbf,
  0xa2, 0x53, 0x1b, 0xbd, 0xaf, 0xe2, 0x29, 0xbe, 0xa7, 0x1c, 0x39, 0xbe,
  0x2d, 0x1b, 0x40, 0xbf, 0x80, 0xc9, 0x46, 0xbf, 0xfb, 0xae, 0xac, 0xbf,
  0xd1, 0xcb, 0x6b, 0xbe, 0xd9, 0x5f, 0x70, 0xbd, 0xba, 0x29, 0x52, 0xbe,
  0xec, 0x8b, 0x6e, 0xbf, 0x73, 0xe7, 0x5d, 0x3f, 0x7e, 0xe2, 0x84, 0xbe,
  0x8f, 0x92, 0x58, 0x3e, 0x7b, 0x61, 0xac, 0xbe, 0xb1, 0xd5, 0x13, 0x3e,
  0xc5, 0xe9, 0x43, 0x3e, 0x04, 0x50, 0x46, 0xbf, 0xda, 0x7d, 0x8c, 0xbf,
  0x5f, 0x37, 0x89, 0x3d, 0x64, 0x86, 0xc9, 0xbe, 0x6c, 0x72, 0x0e, 0xbf,
  0x85, 0x2e, 0xde, 0x3e, 0xdd, 0xc7, 0x57, 0x3f, 0x89, 0x71, 0x32, 0xbe,
  0xaf, 0x21, 0xdd, 0x3e, 0x19, 0x9b, 0x3d, 0x3e, 0x9c, 0xae, 0xeb, 0xbd,
  0x43, 0x43, 0x21, 0xbf, 0xd4, 0x6e, 0xd0, 0xbe, 0xfe, 0x30, 0x01, 0x3e,
  0xaa, 0x52, 0xce, 0xbe, 0xc4, 0xb7, 0x96, 0x3e, 0x83, 0xd8, 0xf9, 0xbe,
  0x6a, 0x42, 0x78, 0xbd, 0x25, 0x24, 0xcf, 0x3f, 0x73, 0xe5, 0x44, 0x3f,
  0x2b, 0x26, 0x00, 0xbf, 0x88, 0x92, 0xb8, 0xbe, 0x92, 0x1e, 0x36, 0xbe,
  0x01, 0x41, 0x07, 0xc0, 0xd2, 0x7b, 0xaa, 0xbe, 0x5f, 0x4f, 0x0b, 0x40,
  0x24, 0xcc, 0x16, 0x3e, 0x9d, 0x83, 0xb4, 0xbd, 0xf2, 0x5b, 0x62, 0xbd,
  0x92, 0xc5, 0x44, 0x3f, 0xe2, 0x6e, 0xb6, 0xbe, 0x36, 0x60, 0x0b, 0xc0,
  0xd9, 0x4c, 0x8b, 0xbe, 0xf2, 0x3f, 0x6a, 0xbe, 0xd2, 0xd8, 0xab, 0xbe,
  0x8a, 0xc4, 0x06, 0x3d, 0xc4, 0x6c, 0xfd, 0x3f, 0xce, 0x38, 0x4e, 0x3f,
  0x25, 0x5d, 0xa1, 0x3e, 0xe8, 0xee, 0x5a, 0x3d, 0x37, 0x93, 0xbe, 0x3d,
  0xd8, 0x41, 0xc9, 0xbe, 0xac, 0x3d, 0x7a, 0x3e, 0x68, 0xea, 0x97, 0xbe,
  0x8b, 0x01, 0x88, 0x3e, 0xe5, 0x73, 0xfd, 0xbd, 0x60, 0x0d, 0x9c, 0x3e,
  0x62, 0x15, 0xa6, 0xbe, 0x9f, 0x70, 0x55, 0x3f, 0x5e, 0x43, 0xce, 0x3f,
  0xb1, 0x18, 0xe5, 0xbe, 0xbb, 0xd0, 0x8d, 0xbe, 0x3f, 0xc1, 0xd1, 0x3d,
  0xcf, 0xf1, 0x68, 0x3f, 0xea, 0xc5, 0x07, 0xc0, 0xa7, 0xb8, 0x69, 0xbf,
  0x6a, 0x71, 0xc0, 0xbd, 0x84, 0x5f, 0x9d, 0xbe, 0xac, 0x33, 0x83, 0x3e,
  0xc9, 0x92, 0xad, 0xbe, 0x75, 0x9c, 0x7a, 0x3c, 0x93, 0xed, 0xd4, 0x3e,
  0xcf, 0x68, 0x41, 0x3e, 0xeb, 0x65, 0x05, 0xbe, 0xad, 0xc6, 0x7f, 0x3e,
  0xd6, 0x28, 0x64, 0xc0, 0xb2, 0x32, 0x75, 0x3e, 0xfb, 0x23, 0x0e, 0x40,
  0x21, 0x85, 0xa0, 0x3d, 0xa4, 0xad, 0x14, 0x3e, 0x73, 0xbc, 0x58, 0x3e,
  0x33, 0x92, 0xba, 0x3f, 0x3d, 0x5c, 0x55, 0x3c, 0x10, 0x88, 0x2d, 0xbf,
  0x64, 0x30, 0x8f, 0x3e, 0x5a, 0xa7, 0x8f, 0x3e, 0xfc, 0xcd, 0xbe, 0xbe,
  0xe1, 0x80, 0xd6, 0xbe, 0x15, 0x33, 0x7e, 0xbf, 0xce, 0x45, 0xa6, 0x3f,
  0x1e, 0x4a, 0x8c, 0xbe, 0x15, 0x1b, 0x16, 0x3e, 0xa6, 0x0c, 0x99, 0xbe,
  0x3f, 0xea, 0x9d, 0x3c, 0x46, 0x54, 0x42, 0xbd, 0x64, 0x0f, 0xcb, 0x3d,
  0x76, 0x6b, 0xac, 0xbd, 0x98, 0xd3, 0x4d, 0xbd, 0xec, 0x42, 0x2e, 0xbb,
  0xd7, 0x4e, 0x38, 0xbf, 0xe9, 0x69, 0xbe, 0xbe, 0xab, 0x83, 0xa5, 0x3e,
  0x76, 0xd0, 0x5a, 0x3e, 0x43, 0x93, 0x81, 0x3c, 0xee, 0xbd, 0x24, 0xbf,
  0xf1, 0x0f, 0xfc, 0xbe, 0xc9, 0x63, 0x78, 0x3d, 0xb0, 0x98, 0xbc, 0xbe,
  0xfe, 0xdf, 0x7e, 0xbe, 0xd2, 0xad, 0x1a, 0x3e, 0x71, 0x62, 0x1a, 0x3f,
  0xae, 0xf0, 0xff, 0xff, 0x04, 0x00, 0x00, 0x00, 0xc8, 0x00, 0x00, 0x00,
  0xc9, 0xe5, 0x36, 0x40, 0x1d, 0x37, 0x6b, 0xbe, 0x9b, 0xfa, 0xb1, 0xbf,
  0x03, 0x18, 0xe9, 0xbf, 0xc9, 0x3b, 0x4c, 0xbf, 0x0c, 0x5b, 0x48, 0x3f,
  0xa1, 0x74, 0x6a, 0xbf, 0xd7, 0xf4, 0xbf, 0x3f, 0xdc, 0xd3, 0xb7, 0xbf,
  0xff, 0x14, 0xe0, 0xbf, 0xbf, 0x03, 0x02, 0x3e, 0x3d, 0x32, 0xd9, 0x3f,
  0xc6, 0xf1, 0xc4, 0x3c, 0x99, 0x54, 0x80, 0xbd, 0x58, 0x78, 0xd6, 0xbe,
  0xfd, 0xb8, 0xe8, 0x3e, 0x68, 0xd1, 0xa9, 0x3e, 0x0b, 0x55, 0xb8, 0x3f,
  0x75, 0x77, 0x35, 0x3f, 0x8a, 0xe6, 0x12, 0x3c, 0x1e, 0x2f, 0xad, 0xbf,
  0x63, 0xe5, 0x95, 0x3f, 0x94, 0x5a, 0xba, 0x3e, 0x1f, 0x43, 0x63, 0x3d,
  0x1f, 0xa3, 0x1e, 0x3e, 0x37, 0x0b, 0x95, 0x3e, 0xf9, 0xd5, 0xeb, 0xbf,
  0x62, 0xec, 0x53, 0x3f, 0x03, 0xa7, 0xd4, 0x3f, 0x57, 0x0e, 0x01, 0x3f,
  0x44, 0x8c, 0xea, 0x3f, 0xc3, 0x11, 0x5a, 0x3f, 0xb4, 0x33, 0x83, 0x3e,
  0x95, 0x3a, 0xc6, 0xbf, 0x87, 0x3d, 0xec, 0x3e, 0x07, 0x57, 0xd3, 0xbf,
  0x0a, 0x86, 0xa4, 0xbf, 0x63, 0x68, 0x39, 0xc0, 0xa4, 0xaf, 0xbb, 0x3f,
  0x49, 0xc1, 0xb6, 0x3f, 0x92, 0xd3, 0x40, 0x3f, 0xfc, 0xc5, 0x86, 0x3f,
  0xcc, 0x5e, 0x5a, 0x3f, 0xf9, 0xfa, 0xdc, 0xbf, 0x34, 0x23, 0xa2, 0x3e,
  0xb1, 0x77, 0xfd, 0xbe, 0x99, 0x1c, 0xa5, 0x3e, 0x35, 0x58, 0x5c, 0xbf,
  0xb3, 0x9f, 0x13, 0x3e, 0xde, 0x7c, 0x7f, 0xbf, 0x82, 0xf1, 0xff, 0xff,
  0x04, 0x00, 0x00, 0x00, 0x3c, 0x00, 0x00, 0x00, 0x35, 0x11, 0x04, 0xc0,
  0x7c, 0xa0, 0x52, 0xbf, 0x66, 0xa8, 0xe3, 0x3e, 0xc1, 0xb6, 0x6a, 0x3f,
  0x8d, 0x7b, 0xa6, 0x3d, 0x54, 0x20, 0x81, 0xbf, 0x41, 0x80, 0x91, 0x3f,
  0x0e, 0xdf, 0xb1, 0x3f, 0x2c, 0x3e, 0x44, 0x3f, 0xb4, 0x74, 0x36, 0xbd,
  0x5f, 0x7c, 0xc0, 0xbf, 0x9d, 0x8d, 0xc9, 0x3f, 0xfc, 0xde, 0x8c, 0xbe,
  0xcf, 0xd8, 0x59, 0xbf, 0x8a, 0xaa, 0xa4, 0x3d, 0xca, 0xf1, 0xff, 0xff,
  0x04, 0x00, 0x00, 0x00, 0x04, 0x00, 0x00, 0x00, 0x01, 0x00, 0x00, 0x00,
  0xda, 0xf1, 0xff, 0xff, 0x04, 0x00, 0x00, 0x00, 0x1c, 0x00, 0x00, 0x00,
  0x67, 0x31, 0xc5, 0xbc, 0x55, 0xad, 0x48, 0xbf, 0x41, 0x1c, 0xbf, 0xbf,
  0x98, 0xd3, 0xdd, 0x3c, 0x5d, 0x6e, 0x29, 0xbf, 0xf0, 0x9f, 0xb3, 0x3f,
  0x55, 0x63, 0x6a, 0x3e, 0x02, 0xf2, 0xff, 0xff, 0x04, 0x00, 0x00, 0x00,
  0xa4, 0x01, 0x00, 0x00, 0xc5, 0x31, 0x37, 0x3d, 0x42, 0x17, 0xd5, 0x3e,
  0xe4, 0x46, 0xcb, 0xbe, 0xb2, 0x09, 0x81, 0x3e, 0x22, 0x2d, 0x2d, 0x3f,
  0x90, 0x32, 0x36, 0x3f, 0x54, 0x65, 0xd6, 0xbd, 0x85, 0xb6, 0xa5, 0xbf,
  0x5f, 0x4b, 0x83, 0xbd, 0xc1, 0x65, 0xfc, 0xbe, 0xa0, 0x16, 0x53, 0xbf,
  0x8c, 0xe5, 0x2f, 0xbf, 0xea, 0x1a, 0x6d, 0x3e, 0xb4, 0xaf, 0x6e, 0x3f,
  0x25, 0x77, 0x0d, 0x3f, 0x98, 0x5a, 0x8e, 0x3e, 0x18, 0x8d, 0xa4, 0x3e,
  0x79, 0xa1, 0xf2, 0xbe, 0x7d, 0x2d, 0xbf, 0xbf, 0xf0, 0xd3, 0xf4, 0xbe,
  0xda, 0x1a, 0x9a, 0x3f, 0x8e, 0x8b, 0x80, 0x3e, 0xce, 0x06, 0x7e, 0xbf,
  0x35, 0x8c, 0x31, 0xbf, 0x17, 0x4d, 0x2b, 0x3f, 0x8b, 0x33, 0x38, 0x3f,
  0x9c, 0x12, 0xd1, 0x3f, 0x54, 0xd2, 0x3a, 0xbf, 0x46, 0x79, 0x1f, 0x3f,
  0xde, 0xb0, 0x08, 0xbf, 0x99, 0xa9, 0xcc, 0xbf, 0xd6, 0x69, 0xf1, 0x3d,
  0x89, 0xe6, 0xa1, 0xbe, 0xc8, 0x31, 0xd7, 0x3e, 0xee, 0x65, 0x1a, 0x3f,
  0x31, 0x56, 0xeb, 0xbd, 0xe2, 0x42, 0xad, 0x3d, 0x3f, 0xe9, 0x92, 0xbe,
  0x6a, 0x08, 0x8c, 0x3e, 0xb6, 0x68, 0x68, 0xbd, 0xcb, 0x90, 0xa6, 0x3e,
  0xb7, 0xb2, 0x66, 0xbf, 0x73, 0x2e, 0x5b, 0x3f, 0x60, 0xa9, 0x35, 0x3e,
  0x8c, 0x20, 0xc8, 0xbe, 0xe4, 0xf2, 0x34, 0x3f, 0xff, 0xe9, 0xf2, 0xbe,
  0xaa, 0x75, 0x85, 0x3f, 0xd8, 0x07, 0x23, 0x3f, 0xf0, 0xfe, 0x4a, 0x3f,
  0xc9, 0xc2, 0xae, 0x3e, 0x02, 0x5c, 0x21, 0x3e, 0xb2, 0xdb, 0x21, 0x40,
  0x43, 0x09, 0x94, 0xbf, 0x6e, 0x5e, 0x10, 0xbf, 0x9c, 0xf8, 0xaf, 0xbe,
  0xcf, 0x8c, 0x16, 0xbf, 0xbb, 0xc6, 0xd9, 0x3d, 0xc6, 0x10, 0x2a, 0x3f,
  0x30, 0x96, 0x3b, 0xbf, 0x3e, 0xa8, 0x9b, 0x3f, 0x2e, 0x28, 0xab, 0x3e,
  0xe3, 0x79, 0xf4, 0xbe, 0x24, 0x36, 0xe5, 0xbf, 0x8a, 0xe6, 0xa0, 0xbe,
  0x24, 0x9b, 0xd8, 0xbe, 0xef, 0x7d, 0xa8, 0xbe, 0x83, 0xa5, 0x1f, 0x3f,
  0xda, 0x60, 0xbf, 0x3e, 0x7d, 0x54, 0x93, 0x3e, 0x68, 0x6b, 0x41, 0x3f,
  0x43, 0x56, 0x82, 0xbb, 0x7d, 0x89, 0x85, 0x3f, 0x69, 0xb5, 0x37, 0xbf,
  0xdc, 0x2a, 0x75, 0x3d, 0xf4, 0x4a, 0x6a, 0xbf, 0x98, 0xea, 0x43, 0xc0,
  0x3f, 0x6e, 0x91, 0xbd, 0xcb, 0x64, 0x8d, 0x3f, 0x48, 0x67, 0x50, 0x3f,
  0xe8, 0x2a, 0x73, 0xc0, 0x57, 0x83, 0x9d, 0x3f, 0x30, 0x79, 0x97, 0xbf,
  0x9d, 0x8c, 0xb5, 0x3f, 0xd8, 0x20, 0x21, 0x3e, 0xa1, 0x39, 0x7a, 0xbf,
  0xd0, 0x18, 0x34, 0x3f, 0x5f, 0x38, 0x6b, 0xc0, 0xe0, 0xec, 0xb3, 0xbf,
  0x37, 0x57, 0x6e, 0x3e, 0x32, 0x9c, 0xd3, 0x3d, 0xd1, 0x1f, 0x5e, 0x3e,
  0x98, 0x95, 0xa9, 0x3e, 0xe4, 0xe4, 0xa0, 0x3f, 0x00, 0xff, 0x7e, 0xbf,
  0xee, 0x19, 0xea, 0xbf, 0x3d, 0xf7, 0x29, 0x3f, 0xe3, 0xc0, 0xa3, 0xbf,
  0x18, 0xc8, 0x9f, 0xbf, 0xfd, 0x99, 0x54, 0x3f, 0x4c, 0x8c, 0xb8, 0xbf,
  0x69, 0xc2, 0x93, 0xbf, 0x37, 0x57, 0xae, 0xbe, 0xa4, 0xf1, 0x69, 0xbf,
  0x5a, 0xd7, 0x52, 0x3f, 0xb2, 0xf3, 0xff, 0xff, 0x04, 0x00, 0x00, 0x00,
  0xb8, 0x0b, 0x00, 0x00, 0xaa, 0xfd, 0xdf, 0xbe, 0xe7, 0xd7, 0x2b, 0xbe,
  0xc6, 0x57, 0x43, 0xbf, 0x0f, 0x07, 0xe5, 0x3c, 0x3b, 0x66, 0x8b, 0x3e,
  0x23, 0x92, 0x46, 0x3e, 0x65, 0x0a, 0x85, 0x3d, 0x18, 0xa2, 0xcd, 0xbe,
  0x9b, 0x49, 0x67, 0x3d, 0x63, 0x56, 0xe3, 0x3e, 0x16, 0x7f, 0x40, 0xbe,
  0xe9, 0x6a, 0xe7, 0x3e, 0x49, 0x8b, 0xa8, 0xbd, 0xb8, 0x82, 0x46, 0xbf,
  0xe8, 0xab, 0xae, 0xbf, 0x2a, 0x80, 0xf7, 0xbe, 0x18, 0x20, 0x2b, 0xbf,
  0x52, 0x1f, 0xd4, 0xbe, 0x45, 0x6f, 0x9d, 0xbe, 0xe4, 0x38, 0xe7, 0x3e,
  0x9d, 0xbf, 0x75, 0x3d, 0x11, 0x70, 0x54, 0x3e, 0x0b, 0xd7, 0xd5, 0x3d,
  0x07, 0x13, 0xc4, 0x3e, 0x20, 0x9a, 0x83, 0x3e, 0xac, 0x74, 0xca, 0x3d,
  0x04, 0x4d, 0x5b, 0x3e, 0x3e, 0xdc, 0x5c, 0x3e, 0xa6, 0x15, 0x20, 0xbe,
  0x79, 0xaf, 0x1d, 0x3e, 0xdc, 0x1c, 0x91, 0xbe, 0xff, 0x77, 0xb1, 0xbd,
  0x60, 0x81, 0x18, 0x3e, 0x40, 0x2f, 0x03, 0x3f, 0x48, 0x15, 0x12, 0xbe,
  0x6e, 0xae, 0xde, 0x3d, 0xc2, 0xb6, 0x84, 0x3e, 0xb2, 0x16, 0x56, 0x3f,
  0xaf, 0x38, 0xdd, 0xbe, 0x4a, 0x2b, 0xba, 0xbe, 0x46, 0xd0, 0x8d, 0x3e,
  0x8c, 0xf6, 0x16, 0xbd, 0x2f, 0xbb, 0x4a, 0xbe, 0xc4, 0x8c, 0xb8, 0x3e,
  0x36, 0xfe, 0x0b, 0x3f, 0x14, 0x82, 0x36, 0x3e, 0x1a, 0x5f, 0x6b, 0x3e,
  0x02, 0x55, 0x80, 0x3e, 0xe4, 0x49, 0x9b, 0xbd, 0xae, 0x42, 0xa6, 0x3e,
  0xdd, 0x51, 0x86, 0x3e, 0x40, 0x3e, 0x05, 0x3f, 0xd2, 0x32, 0x61, 0x3d,
  0xcb, 0xa4, 0x86, 0xbf, 0x96, 0x3c, 0x5e, 0x3e, 0xf8, 0xf4, 0x45, 0xbf,
  0xec, 0x83, 0x75, 0x3d, 0x6e, 0x13, 0x66, 0x3e, 0x65, 0xc6, 0x67, 0x3f,
  0x2b, 0x43, 0x44, 0x3e, 0x0e, 0xd0, 0x20, 0x3f, 0x45, 0xf4, 0x3e, 0x3e,
  0xb7, 0xec, 0x4a, 0xbf, 0xe1, 0xb7, 0x42, 0xbe, 0xea, 0x71, 0x50, 0x3e,
  0x8f, 0xd7, 0x80, 0x3f, 0xc3, 0x71, 0xc8, 0xbe, 0x7d, 0x8b, 0xd5, 0xbe,
  0x54, 0xc6, 0x3b, 0xbe, 0xa1, 0x28, 0xb6, 0x3d, 0xb0, 0xaa, 0xfb, 0xbd,
  0x06, 0xc0, 0x51, 0xbf, 0x20, 0xa0, 0x44, 0xbf, 0x32, 0xbc, 0xac, 0xbd,
  0x43, 0x97, 0x72, 0xbd, 0x6a, 0x1f, 0x9d, 0x3e, 0x17, 0x69, 0x90, 0x3e,
  0x4a, 0x21, 0x25, 0xbf, 0x07, 0x5f, 0xb9, 0xbe, 0x62, 0x9e, 0x1e, 0xbf,
  0xdc, 0xef, 0x85, 0xbe, 0x3c, 0xa7, 0x83, 0xbe, 0x02, 0x64, 0x97, 0x3e,
  0x13, 0x8c, 0x92, 0xbd, 0x9f, 0x61, 0xeb, 0x3e, 0xba, 0x4a, 0xa6, 0xbc,
  0xff, 0x6d, 0x8f, 0x3e, 0x33, 0xfc, 0x06, 0xbf, 0x86, 0x22, 0xc7, 0x3e,
  0x75, 0x04, 0x99, 0x3f, 0xd6, 0x13, 0xe4, 0xbb, 0x8f, 0x54, 0x82, 0x3c,
  0x8a, 0x77, 0xdc, 0x3d, 0x8c, 0x53, 0x85, 0x3e, 0x88, 0x08, 0x48, 0x3f,
  0xc8, 0x04, 0xe3, 0xbe, 0x42, 0x92, 0x0b, 0x3f, 0xb1, 0x4a, 0x4d, 0x3d,
  0x2d, 0xac, 0x6c, 0x3f, 0x02, 0x17, 0x2a, 0x3e, 0xa3, 0x0e, 0xcf, 0xbe,
  0xdd, 0xa7, 0x02, 0xbf, 0x7b, 0x2f, 0xaf, 0xbe, 0xa1, 0xe9, 0xf2, 0xbd,
  0x22, 0xca, 0x08, 0x3f, 0x1c, 0x1e, 0xc1, 0x3e, 0x47, 0xcf, 0xf2, 0x3e,
  0x3c, 0xa9, 0xb4, 0xbe, 0x8f, 0xc4, 0xa8, 0xbe, 0xc7, 0x73, 0x1e, 0x3e,
  0x21, 0xe8, 0x41, 0x3e, 0x43, 0x7f, 0x81, 0x3e, 0xb6, 0xf9, 0x6e, 0xbe,
  0x45, 0x55, 0x38, 0x3f, 0xad, 0x2c, 0x54, 0xbd, 0x83, 0x54, 0x91, 0x3f,
  0x0f, 0x12, 0xd8, 0x3e, 0xd0, 0x25, 0x1b, 0xbe, 0x8a, 0xc5, 0x8e, 0x3d,
  0xf2, 0xf9, 0xdd, 0xbd, 0x6e, 0x5a, 0x59, 0xbe, 0x05, 0x29, 0x74, 0x3d,
  0x5d, 0x3c, 0x65, 0x3d, 0x04, 0x8b, 0x12, 0xbf, 0xc4, 0x18, 0x8b, 0x3e,
  0x26, 0x46, 0xf8, 0x3e, 0xe6, 0xf1, 0x38, 0xbe, 0xb9, 0xce, 0xa9, 0x3d,
  0xe4, 0x3b, 0xaf, 0x3d, 0xee, 0xa5, 0xbe, 0x3e, 0x49, 0x80, 0xab, 0x3e,
  0x1c, 0x76, 0xe8, 0x3d, 0x7c, 0x9d, 0x86, 0xbe, 0x40, 0x2f, 0x0f, 0x3d,
  0x6f, 0x7c, 0xa4, 0xbe, 0xc2, 0xf2, 0x43, 0x3e, 0x13, 0x98, 0x06, 0xbf,
  0x3e, 0x9b, 0x6b, 0xbd, 0xec, 0x9d, 0x69, 0x3e, 0x8c, 0x5c, 0x5b, 0x3e,
  0xa5, 0x0c, 0xc5, 0xbe, 0x3a, 0xb2, 0x83, 0x3e, 0x9a, 0x45, 0x2c, 0x3d,
  0x02, 0xec, 0x96, 0xbe, 0x47, 0xee, 0x61, 0xbf, 0x7e, 0x6a, 0x8b, 0xbe,
  0x3a, 0xc1, 0xc3, 0xbc, 0x18, 0xf0, 0xf1, 0xbb, 0xc3, 0xaa, 0x05, 0x3e,
  0x3f, 0xc4, 0x8e, 0x3d, 0xc8, 0x7d, 0x8c, 0xbe, 0x8a, 0x5d, 0x95, 0xbf,
  0x33, 0x48, 0x83, 0xbe, 0xb4, 0x09, 0x9a, 0xbe, 0xb5, 0xd5, 0x43, 0xbf,
  0x7e, 0x19, 0xbc, 0x3e, 0xab, 0xc0, 0xc8, 0x3e, 0x28, 0xca, 0x0b, 0xbf,
  0x14, 0xbf, 0x17, 0xbd, 0x71, 0x52, 0xab, 0xbe, 0x65, 0x51, 0x26, 0xbe,
  0x3c, 0x0c, 0xa6, 0x3e, 0x70, 0x3f, 0xd5, 0x3e, 0x9f, 0xd2, 0xae, 0xbf,
  0x79, 0x71, 0x08, 0xbe, 0x3a, 0xda, 0x32, 0x3f, 0xa3, 0x7c, 0x55, 0x3f,
  0xd3, 0x65, 0x2d, 0x3e, 0x60, 0xc4, 0x14, 0xbf, 0xd6, 0xb7, 0x89, 0xbe,
  0x45, 0x1d, 0xb9, 0xbe, 0x2e, 0x6f, 0xec, 0xbd, 0x2d, 0xcc, 0x6c, 0x3e,
  0xf6, 0xe9, 0xdc, 0xbd, 0x24, 0xee, 0xe3, 0xbd, 0xac, 0xbd, 0x77, 0x3e,
  0x59, 0x1a, 0x93, 0xbe, 0xa7, 0x80, 0xc6, 0xbd, 0xf7, 0x08, 0x98, 0x3e,
  0x00, 0x7f, 0x1d, 0x3f, 0x5d, 0x0f, 0xa2, 0x3d, 0xe8, 0x72, 0xb1, 0xbe,
  0x9c, 0xdd, 0x25, 0xbe, 0xd8, 0xc4, 0x38, 0xbe, 0xb3, 0x75, 0xcb, 0x3e,
  0x81, 0x48, 0xe8, 0xbe, 0xd4, 0xba, 0xbe, 0xbe, 0xdc, 0x90, 0xcd, 0xbd,
  0xc6, 0xb6, 0x7c, 0xbe, 0xa4, 0x7c, 0x14, 0x3f, 0xef, 0x2a, 0xa8, 0xbd,
  0x50, 0x3b, 0x4d, 0x3e, 0x8f, 0xd2, 0x06, 0xbf, 0x11, 0x71, 0x48, 0xbf,
  0xdb, 0xe8, 0xcb, 0xbe, 0xb3, 0x4c, 0x02, 0xbe, 0xee, 0x5c, 0x3f, 0x3e,
  0x58, 0x6f, 0xb1, 0xbe, 0x1a, 0xf9, 0x41, 0x3d, 0x7d, 0x9b, 0x9e, 0x3e,
  0x7d, 0x5c, 0x57, 0xbf, 0xc6, 0xca, 0x1a, 0x3d, 0x91, 0xf7, 0xde, 0x3e,
  0x04, 0x5c, 0x89, 0x3e, 0x42, 0x8c, 0xfb, 0x3e, 0x43, 0x96, 0x76, 0xbf,
  0xa5, 0xf8, 0x80, 0x3e, 0xe4, 0x81, 0x97, 0x3e, 0x76, 0x62, 0x31, 0xbe,
  0x42, 0xc8, 0x95, 0xbe, 0x23, 0xde, 0xbc, 0x3b, 0x89, 0x2e, 0x8f, 0x3d,
  0x9a, 0xb0, 0xb3, 0x3e, 0x10, 0xcc, 0xb9, 0xbe, 0x8d, 0x49, 0x86, 0x3e,
  0x97, 0x94, 0xc7, 0xbe, 0x51, 0x90, 0x4e, 0x3f, 0xf3, 0x98, 0x26, 0xbf,
  0xd5, 0x61, 0x36, 0xbd, 0xb2, 0x7b, 0xd8, 0x3d, 0xec, 0xd5, 0x16, 0xbf,
  0x6a, 0x18, 0x6e, 0x3e, 0xc3, 0x17, 0x91, 0x3e, 0xce, 0x05, 0x82, 0xbe,
  0x94, 0xde, 0x57, 0xbe, 0x4b, 0x5b, 0x83, 0x3e, 0x80, 0xa8, 0x6e, 0xbe,
  0x49, 0x35, 0x54, 0xbe, 0x1e, 0x84, 0x27, 0xbe, 0xda, 0x2a, 0x21, 0x3e,
  0xac, 0x2c, 0x37, 0x3d, 0x55, 0xbd, 0x92, 0xbe, 0xe2, 0x9c, 0x9c, 0xbe,
  0x28, 0xe6, 0xc7, 0x3e, 0x07, 0xc4, 0x2f, 0x3f, 0xe6, 0x46, 0xbb, 0xbd,
  0x70, 0xa0, 0xec, 0x3d, 0x84, 0x5f, 0x37, 0x3f, 0x9c, 0xeb, 0x80, 0xbd,
  0xc4, 0xba, 0xdd, 0xbe, 0xf3, 0x02, 0xa4, 0xbe, 0x87, 0xbe, 0x8e, 0x3e,
  0x17, 0x0e, 0xef, 0x3d, 0x06, 0xee, 0x62, 0x3e, 0x47, 0xa2, 0x6e, 0x3e,
  0x2b, 0x94, 0xd8, 0x3e, 0xec, 0x22, 0x44, 0xbf, 0x0a, 0xe0, 0x72, 0x3e,
  0xd9, 0x29, 0xa7, 0xbe, 0x18, 0x10, 0xda, 0x3c, 0x9c, 0x31, 0x21, 0x3f,
  0xcd, 0xa0, 0x5c, 0xbe, 0x2b, 0xc5, 0xb1, 0x3e, 0x9c, 0x2f, 0x8b, 0xbe,
  0x4c, 0x5d, 0xcc, 0xbe, 0x92, 0x11, 0x53, 0x3f, 0x19, 0x16, 0x53, 0x3e,
  0xd9, 0x8b, 0xc7, 0xbe, 0x77, 0x3d, 0x8c, 0xbe, 0xe0, 0xf7, 0x8a, 0x3e,
  0xef, 0x1d, 0x2a, 0xbf, 0xe0, 0x7b, 0x4a, 0xbf, 0x4c, 0x63, 0xd4, 0x3e,
  0x6c, 0xc0, 0xcc, 0x3d, 0x0a, 0xfd, 0x17, 0x3f, 0xea, 0xb1, 0x7d, 0xbe,
  0x51, 0xbf, 0x04, 0xbe, 0x4d, 0xd4, 0xcd, 0x3d, 0xb4, 0xaf, 0xee, 0x3c,
  0xae, 0x76, 0x1f, 0x3f, 0xb2, 0xe2, 0x38, 0xbf, 0xfc, 0xc2, 0x5d, 0xbf,
  0xae, 0x15, 0x4e, 0x3e, 0x12, 0x8c, 0x9b, 0x3e, 0x94, 0xe0, 0x20, 0xbb,
  0xfb, 0x24, 0x55, 0xbe, 0xd0, 0x4d, 0x33, 0x3f, 0x46, 0x33, 0x7f, 0xbf,
  0xe4, 0xc6, 0x21, 0xbe, 0x53, 0x67, 0x02, 0xbe, 0xce, 0x25, 0x81, 0x3f,
  0x3a, 0xdc, 0xd4, 0x3e, 0x35, 0xdf, 0x36, 0xbe, 0x21, 0x6b, 0x7d, 0xbf,
  0x4e, 0x05, 0x51, 0x3e, 0x95, 0xde, 0x58, 0xbf, 0x15, 0x12, 0xe1, 0x3e,
  0x9d, 0xaf, 0xf4, 0xbe, 0xff, 0xc1, 0x41, 0x3f, 0x7a, 0x30, 0x15, 0xbf,
  0x3b, 0x67, 0x29, 0xbe, 0xa7, 0x9d, 0xcd, 0xbe, 0x67, 0x08, 0x96, 0x3e,
  0x34, 0x4a, 0xba, 0x3e, 0xc1, 0x29, 0x54, 0xbf, 0xc9, 0x63, 0x7a, 0x3f,
  0xa6, 0x6b, 0x82, 0xbe, 0x73, 0x35, 0x83, 0x3e, 0xb7, 0xb2, 0x33, 0x3f,
  0x48, 0x0a, 0xea, 0x3e, 0xf3, 0x12, 0xaf, 0x3e, 0x34, 0x2b, 0x15, 0x3e,
  0x0b, 0x74, 0x99, 0xbd, 0x85, 0xde, 0xfe, 0xbd, 0x0a, 0x01, 0x1b, 0xbf,
  0x2f, 0x1a, 0x4a, 0x3f, 0x1a, 0x4e, 0x59, 0xbe, 0x9f, 0xb6, 0xc5, 0x3e,
  0x92, 0x01, 0x8a, 0x3d, 0xc6, 0x71, 0x68, 0x3e, 0x70, 0x35, 0xfa, 0xbe,
  0x33, 0x96, 0x06, 0x3f, 0x05, 0x91, 0x49, 0x3e, 0xdd, 0x4d, 0x11, 0xbf,
  0x30, 0x76, 0x26, 0xbe, 0x0f, 0xb5, 0x40, 0x3f, 0x8e, 0x7f, 0x81, 0x3f,
  0xcd, 0x38, 0xc8, 0x3e, 0x1a, 0xaf, 0x1d, 0x3e, 0x27, 0x2d, 0x2a, 0xbe,
  0x25, 0x31, 0xf0, 0xbc, 0x47, 0xe7, 0x07, 0x3d, 0x63, 0x22, 0xd1, 0x3e,
  0xb1, 0x13, 0x84, 0x3f, 0x7a, 0x29, 0x93, 0x3e, 0x36, 0x29, 0xac, 0x3e,
  0x61, 0x56, 0xbb, 0xbd, 0x8b, 0xd1, 0x09, 0x3f, 0xc7, 0x82, 0xa3, 0xbe,
  0xea, 0xd6, 0x44, 0x3e, 0xdd, 0x07, 0x8e, 0xbb, 0x92, 0x7f, 0x3d, 0xbf,
  0x33, 0x0e, 0x79, 0x3e, 0x71, 0x4a, 0x64, 0x3e, 0xbf, 0x03, 0xab, 0x3e,
  0x28, 0x97, 0xdb, 0x3e, 0x27, 0x9e, 0x2c, 0x3e, 0x26, 0x23, 0xfa, 0xbe,
  0xca, 0xc6, 0xf6, 0xbd, 0x94, 0x4d, 0xcb, 0x3e, 0x87, 0x83, 0xac, 0x3e,
  0x4c, 0x3f, 0x52, 0x3d, 0x32, 0x9a, 0xa3, 0xbd, 0x8c, 0x07, 0xcf, 0xbd,
  0xd5, 0xca, 0x8b, 0xbe, 0xc7, 0x45, 0xa6, 0xbe, 0x8c, 0xcc, 0xf4, 0x3e,
  0x6b, 0xf2, 0x24, 0xbe, 0xe4, 0x54, 0x0b, 0xbf, 0x9b, 0x1a, 0x7a, 0xbe,
  0x31, 0x79, 0x45, 0x3f, 0x92, 0x5d, 0xd0, 0x3e, 0x13, 0xc5, 0x0b, 0xbe,
  0x3e, 0xc3, 0x6a, 0xbf, 0xd7, 0x0f, 0x27, 0xc0, 0xd8, 0x1c, 0xba, 0xbe,
  0x9a, 0x26, 0x28, 0x3f, 0x7e, 0xee, 0x6d, 0x3e, 0xfe, 0xca, 0x84, 0xbf,
  0x5c, 0x96, 0xec, 0xbc, 0x5a, 0x41, 0x34, 0x3e, 0xfc, 0x4e, 0xc1, 0xbe,
  0x0d, 0x54, 0x8f, 0xbe, 0x2a, 0x24, 0x03, 0x3f, 0x25, 0x59, 0x29, 0xbe,
  0x5f, 0x26, 0xb7, 0x3e, 0x1e, 0x0a, 0x2a, 0x3f, 0xc5, 0x8d, 0xcb, 0x3d,
  0xc9, 0x30, 0x78, 0xbe, 0xcc, 0xe7, 0x9d, 0x3d, 0x0c, 0xc0, 0x70, 0x3e,
  0xe7, 0xe9, 0xfd, 0x3e, 0x89, 0x6d, 0x3c, 0x3f, 0x43, 0x25, 0x25, 0x3d,
  0xdc, 0x7f, 0x84, 0x3e, 0x9d, 0xec, 0x1c, 0x3f, 0xbb, 0xbd, 0x7d, 0xbf,
  0xbd, 0x23, 0x98, 0xbe, 0x6c, 0xec, 0x38, 0x3d, 0x63, 0x2c, 0xdb, 0x3d,
  0x07, 0x86, 0x2d, 0x3e, 0x81, 0x50, 0x5f, 0x3e, 0x96, 0x73, 0x52, 0x3f,
  0x03, 0x99, 0x4a, 0xbf, 0xa4, 0x44, 0xc6, 0xbd, 0x41, 0x40, 0x5b, 0x3e,
  0x16, 0xa4, 0x9b, 0xbf, 0xd9, 0x7f, 0x13, 0x3f, 0xfa, 0xa5, 0x77, 0xbe,
  0x40, 0xd0, 0xa3, 0x3d, 0x5e, 0xd3, 0xcf, 0x3c, 0x2b, 0x41, 0x56, 0xbf,
  0x3c, 0xf6, 0xb3, 0xbe, 0x0b, 0x51, 0x29, 0xbe, 0xd3, 0xe6, 0x3e, 0xbd,
  0xc6, 0x7a, 0xb1, 0xbd, 0x53, 0xd1, 0x79, 0x3e, 0xad, 0x3e, 0x8e, 0xbd,
  0x6c, 0xac, 0x0f, 0x3e, 0x58, 0x2b, 0x84, 0xbc, 0x9e, 0xcb, 0xd4, 0x3e,
  0xf4, 0x23, 0xa6, 0x3e, 0xec, 0xbe, 0x4b, 0xbe, 0x47, 0xcb, 0xb8, 0x3d,
  0x17, 0x35, 0x6f, 0x3f, 0xb5, 0x68, 0x55, 0x3e, 0xfd, 0x19, 0xf9, 0xbe,
  0x96, 0xaa, 0x1a, 0xbf, 0x0f, 0x8f, 0x02, 0x3f, 0x2b, 0xa0, 0x8d, 0xbf,
  0xac, 0x89, 0x87, 0x3e, 0x58, 0x28, 0x17, 0x3f, 0x93, 0x82, 0xb1, 0x3e,
  0x07, 0x23, 0x10, 0xbf, 0x27, 0x0f, 0x8d, 0x3e, 0xbe, 0xc2, 0x92, 0x3e,
  0xe2, 0x03, 0x86, 0xbe, 0x10, 0x06, 0x69, 0xbe, 0xfa, 0xb3, 0xf9, 0x3e,
  0xb1, 0x89, 0x24, 0xbe, 0xad, 0x92, 0x86, 0x3d, 0x13, 0x5f, 0x1a, 0xbe,
  0x4a, 0xaa, 0x53, 0xbf, 0xd5, 0xad, 0x48, 0xbf, 0x52, 0x2c, 0x91, 0x3e,
  0xca, 0x4c, 0xd6, 0xbe, 0xa3, 0x2f, 0x15, 0x3f, 0x27, 0x4a, 0x5a, 0x3f,
  0x5d, 0xa6, 0x22, 0x3f, 0x12, 0x5e, 0xb8, 0x3d, 0x19, 0x57, 0xdc, 0xbe,
  0x06, 0xab, 0xf4, 0x3e, 0x9b, 0x8f, 0xb3, 0xbc, 0xba, 0xe3, 0x22, 0x3e,
  0x64, 0x50, 0x0e, 0x3e, 0x35, 0x1b, 0x86, 0x3d, 0x29, 0x72, 0x88, 0x3e,
  0x08, 0x13, 0x04, 0x3d, 0x3a, 0x1a, 0xc4, 0x3e, 0x98, 0x6c, 0x2c, 0x3d,
  0xfe, 0x36, 0x72, 0x3e, 0x22, 0xe6, 0xe9, 0xbd, 0xb6, 0x6a, 0x84, 0xbb,
  0x9c, 0x32, 0x35, 0xbe, 0xa4, 0x3c, 0xb9, 0xbe, 0x00, 0x05, 0xdd, 0xbe,
  0x0b, 0x8e, 0x69, 0x3e, 0xe2, 0xaf, 0x7c, 0x3e, 0xfa, 0x3a, 0x0f, 0xbf,
  0xda, 0x61, 0xd3, 0x3d, 0xdd, 0x14, 0x95, 0x3d, 0x37, 0x04, 0x94, 0x3e,
  0x25, 0x3c, 0x5c, 0xbe, 0x18, 0xd1, 0xea, 0xbe, 0xda, 0xf7, 0x8b, 0xbe,
  0x4f, 0xab, 0x82, 0x3e, 0x71, 0xc5, 0x33, 0xbe, 0xf1, 0xcc, 0x87, 0xbe,
  0x9f, 0x67, 0x3e, 0x3e, 0x86, 0x25, 0x33, 0x3e, 0x6c, 0xb1, 0xc7, 0x3e,
  0xbf, 0xdb, 0xc3, 0x3e, 0xd6, 0x27, 0x43, 0xbe, 0xc3, 0xb3, 0x67, 0x3f,
  0x0a, 0x29, 0xc8, 0x3e, 0x46, 0xbe, 0x1d, 0xbf, 0x04, 0x44, 0x74, 0xbe,
  0x7d, 0x99, 0xda, 0xbd, 0x81, 0xf6, 0x51, 0x3e, 0x9b, 0xdc, 0x9f, 0xbc,
  0xf7, 0xa9, 0xda, 0xbd, 0x72, 0x4b, 0x85, 0xbe, 0x9d, 0x95, 0xb8, 0xbe,
  0xd8, 0x50, 0x0f, 0x3f, 0x54, 0x00, 0xce, 0x3d, 0xcb, 0x7b, 0xdb, 0xbb,
  0xe3, 0x7e, 0x55, 0xbe, 0xd2, 0xcd, 0xd8, 0xbc, 0x16, 0xa6, 0xc6, 0x3d,
  0xa5, 0xc8, 0xf8, 0x3e, 0x04, 0x49, 0x7b, 0x3e, 0x70, 0xcb, 0xf0, 0x3d,
  0x7e, 0x20, 0xed, 0x3d, 0xaf, 0xac, 0xf9, 0x3e, 0x33, 0x34, 0xe3, 0xbe,
  0x2a, 0xe8, 0xfc, 0x3c, 0xd5, 0x16, 0xa0, 0xbd, 0xd0, 0xa6, 0x5a, 0xbf,
  0xb7, 0xbb, 0x09, 0x3f, 0x43, 0xa2, 0xbe, 0xbe, 0xaa, 0x30, 0xbe, 0xbd,
  0x29, 0xff, 0x8a, 0xbe, 0xef, 0x1f, 0xde, 0xbd, 0x97, 0x58, 0xdb, 0x3c,
  0x8f, 0x76, 0xb5, 0x3e, 0x88, 0x20, 0x79, 0x3d, 0x65, 0xfc, 0xef, 0x3d,
  0xd9, 0x36, 0x60, 0xbe, 0xc1, 0x80, 0xd9, 0x3d, 0x0e, 0x9a, 0xd5, 0x3d,
  0x42, 0xb0, 0x55, 0xbd, 0x03, 0x0d, 0xd4, 0x3e, 0x62, 0xd5, 0xa1, 0x3e,
  0xfd, 0xcb, 0xe3, 0x3e, 0x1c, 0xea, 0xaf, 0xbf, 0xfe, 0x03, 0xba, 0xbd,
  0xbf, 0x12, 0x06, 0x3f, 0xa4, 0xc2, 0x72, 0xba, 0xd8, 0x91, 0xd5, 0x3e,
  0x7f, 0xc5, 0x43, 0xbe, 0xd8, 0x17, 0x11, 0x3e, 0xf4, 0x54, 0xc7, 0xbe,
  0x8b, 0x83, 0xbd, 0x3e, 0x34, 0x8c, 0xe2, 0xbf, 0x40, 0x3f, 0xcd, 0xbe,
  0x2e, 0x73, 0x75, 0xbe, 0x51, 0x86, 0x0f, 0xbc, 0xa6, 0x1d, 0x65, 0xbe,
  0x5b, 0x32, 0xa0, 0x3e, 0xf0, 0x98, 0x97, 0xbe, 0x05, 0x65, 0x07, 0x3f,
  0x80, 0x47, 0x8b, 0xbe, 0xca, 0x25, 0x71, 0xbd, 0xb2, 0x4b, 0x85, 0x3e,
  0x25, 0x13, 0x49, 0x3e, 0x89, 0x6e, 0x09, 0xbf, 0x56, 0x0d, 0xb9, 0x3e,
  0x79, 0xff, 0xbd, 0x3e, 0x0e, 0x00, 0x2c, 0xbf, 0xa4, 0xa8, 0x35, 0x3e,
  0xb5, 0x6e, 0xa4, 0xbe, 0xbc, 0xd1, 0x66, 0xbe, 0xbd, 0xe0, 0x7f, 0x3e,
  0x1a, 0xed, 0xbd, 0xbe, 0xfb, 0xaa, 0xcd, 0x3c, 0xb8, 0x01, 0xd2, 0x3d,
  0x3a, 0x10, 0xad, 0x3e, 0xb6, 0x2d, 0xf4, 0x3e, 0x67, 0xd1, 0x82, 0xbe,
  0x86, 0xe8, 0xac, 0x3a, 0xa4, 0x4b, 0xb7, 0x3c, 0x4e, 0x2a, 0x08, 0xbf,
  0x8c, 0x3d, 0x56, 0x3d, 0x91, 0x1c, 0x3f, 0xbe, 0x08, 0x1a, 0x64, 0xbf,
  0x93, 0x7e, 0x9e, 0x3d, 0x64, 0x22, 0x09, 0x3e, 0xaa, 0x2e, 0xd3, 0xbe,
  0x2a, 0x4d, 0xf7, 0x3d, 0x6b, 0x7e, 0x16, 0xbf, 0xe7, 0x33, 0x7e, 0x3f,
  0x72, 0xba, 0xa1, 0xbe, 0x2d, 0xcc, 0xd3, 0xbc, 0x89, 0x97, 0x2f, 0xbe,
  0x2d, 0xec, 0x0d, 0x3d, 0x8f, 0xe2, 0x2d, 0xbc, 0x5f, 0x3e, 0x7e, 0xbe,
  0x49, 0x10, 0xba, 0xbb, 0x7b, 0x07, 0x9a, 0x3a, 0x62, 0x6f, 0x78, 0xbe,
  0xc5, 0xcc, 0xce, 0xbe, 0x62, 0xd8, 0x28, 0x3f, 0x7e, 0xc4, 0x1f, 0xbf,
  0x06, 0xc5, 0x0f, 0xc0, 0xe0, 0x06, 0x15, 0xbf, 0x0f, 0x32, 0xc9, 0xbe,
  0xd8, 0x19, 0x02, 0xbf, 0x84, 0xb1, 0xa0, 0x3e, 0x39, 0xe6, 0x2e, 0x3d,
  0xe0, 0xa0, 0xbb, 0x3c, 0x1a, 0x2a, 0x9b, 0x3e, 0x08, 0x71, 0x7e, 0xbe,
  0xc4, 0xc4, 0xb9, 0xbd, 0x82, 0xb0, 0x29, 0x3f, 0x92, 0x19, 0x06, 0x3e,
  0x23, 0xd7, 0x0c, 0x3d, 0xa6, 0x5a, 0x7e, 0x3e, 0x60, 0xc3, 0x25, 0x3e,
  0xd8, 0xfb, 0x18, 0x3f, 0xa2, 0x7e, 0x7f, 0x3e, 0xb4, 0x75, 0x59, 0x3e,
  0xce, 0x02, 0x6f, 0xbd, 0x8b, 0x54, 0x47, 0x3e, 0xd6, 0xf0, 0x98, 0x3e,
  0x6a, 0xa5, 0x9f, 0x3d, 0x43, 0xee, 0x42, 0xbe, 0xd2, 0x55, 0x16, 0xbe,
  0xc9, 0xb3, 0x86, 0x3e, 0x47, 0x32, 0xbc, 0x3d, 0x49, 0xcc, 0xe7, 0x3e,
  0x99, 0xca, 0xc2, 0xbc, 0xf8, 0x80, 0xb6, 0x3e, 0x38, 0xd4, 0x85, 0x3e,
  0x37, 0x47, 0xb0, 0x3c, 0x06, 0xe5, 0x31, 0xbf, 0xa8, 0x51, 0xd8, 0xbd,
  0x18, 0x8c, 0x02, 0x3d, 0x93, 0xcb, 0x63, 0x3e, 0x6b, 0x10, 0x1c, 0x3e,
  0x54, 0xc6, 0xa9, 0xbe, 0xd0, 0x8c, 0x8e, 0xbe, 0xab, 0xd8, 0xa8, 0xbe,
  0x07, 0xa0, 0xbb, 0x3d, 0xa3, 0x54, 0x37, 0xbc, 0xc4, 0x4b, 0xa3, 0x3e,
  0x73, 0x51, 0x87, 0xbe, 0xcb, 0x4f, 0xcb, 0x3d, 0xab, 0x6a, 0xbb, 0xbe,
  0xd0, 0xa9, 0xd6, 0x3e, 0xa4, 0x25, 0xa7, 0x3d, 0x2d, 0xf6, 0x24, 0xbe,
  0xa0, 0x05, 0xa8, 0x3d, 0x47, 0x06, 0x11, 0xbe, 0x90, 0xda, 0x28, 0x3f,
  0xcb, 0xfc, 0xbc, 0x3e, 0xc3, 0x67, 0xfc, 0x3e, 0x04, 0xd3, 0xbe, 0x3d,
  0x45, 0x9a, 0xaf, 0xbe, 0x94, 0xcf, 0x37, 0xbe, 0x3a, 0x50, 0x08, 0xbd,
  0xdd, 0x24, 0x55, 0xbf, 0xbd, 0xe0, 0xcd, 0x3e, 0xee, 0x97, 0xee, 0x3e,
  0x0f, 0xb9, 0x28, 0x3d, 0x34, 0x2c, 0xae, 0x3d, 0xc4, 0x21, 0x22, 0x3e,
  0x8a, 0x42, 0x01, 0x3e, 0xbc, 0x0f, 0xaf, 0xbc, 0x95, 0x59, 0x53, 0x3f,
  0xaa, 0xdd, 0x0d, 0xbf, 0xb3, 0x88, 0x28, 0xbf, 0x58, 0x8e, 0x12, 0x3f,
  0xb8, 0xcc, 0xe7, 0x3e, 0x1d, 0x7f, 0x5a, 0xbf, 0x7c, 0x80, 0x37, 0x3f,
  0x6f, 0x01, 0x81, 0xbf, 0x86, 0x16, 0x97, 0xbe, 0x9b, 0x5f, 0xac, 0x3f,
  0xc0, 0x2d, 0x59, 0x3f, 0x9f, 0x65, 0x9e, 0x3e, 0x29, 0x8f, 0x17, 0xbf,
  0x8b, 0x5c, 0x90, 0xbf, 0xbb, 0x35, 0x9a, 0xbf, 0x5d, 0xbf, 0x33, 0x3f,
  0x39, 0xb6, 0x43, 0x3f, 0x51, 0x88, 0x76, 0x3e, 0xe4, 0x7f, 0x8f, 0xbd,
  0x0a, 0xa3, 0xfa, 0xbe, 0x08, 0x97, 0x03, 0x3f, 0x4d, 0x25, 0xda, 0xbd,
  0x54, 0xca, 0x83, 0x3d, 0x45, 0x8c, 0x95, 0x3e, 0x80, 0xdc, 0xbb, 0x3e,
  0x07, 0x1d, 0x0d, 0xbd, 0x4e, 0x0b, 0x04, 0xbf, 0x3d, 0x24, 0x88, 0xbe,
  0xef, 0xc1, 0x7e, 0x3e, 0xf3, 0x6d, 0xc4, 0x3e, 0xc1, 0x02, 0x41, 0x3c,
  0x16, 0x63, 0xfc, 0x3e, 0xcb, 0x6d, 0x9c, 0x3e, 0xb0, 0xf7, 0xa2, 0x3e,
  0x1d, 0x37, 0x5a, 0xbf, 0xa6, 0x04, 0x1b, 0xbe, 0xeb, 0xb5, 0x53, 0xbf,
  0x04, 0xcd, 0xf6, 0xbe, 0x56, 0x13, 0x4f, 0xbd, 0x2a, 0x2a, 0xba, 0x3e,
  0xa4, 0xba, 0x05, 0xbf, 0x14, 0xe9, 0xa2, 0xbe, 0xc1, 0xce, 0xce, 0x3e,
  0x0e, 0x6f, 0xb7, 0x3c, 0xb8, 0x26, 0xa3, 0x3e, 0xac, 0xa0, 0x09, 0x3d,
  0xa9, 0x1c, 0x2b, 0xbe, 0xfa, 0x98, 0xce, 0xbe, 0x65, 0x7a, 0xeb, 0xbe,
  0x3b, 0x6d, 0x1d, 0x3e, 0xe9, 0xc6, 0x50, 0x3e, 0xc0, 0xcd, 0xfb, 0xb8,
  0x09, 0xeb, 0xd3, 0x3d, 0xfb, 0xbe, 0xb5, 0xbe, 0xe7, 0xc5, 0xc3, 0x3e,
  0x36, 0x91, 0x14, 0x3e, 0x2e, 0xeb, 0x90, 0xbe, 0xb2, 0x18, 0xc2, 0x3e,
  0xef, 0xcb, 0xdb, 0x3e, 0x41, 0x4c, 0x44, 0x3f, 0xc3, 0x41, 0x89, 0xbe,
  0x56, 0x4e, 0x0c, 0xbe, 0x60, 0xe1, 0xa2, 0x3e, 0x4b, 0xf6, 0xf7, 0x3e,
  0x19, 0x75, 0x5b, 0xbf, 0x9a, 0x94, 0x0d, 0x3e, 0xae, 0x1b, 0xa2, 0x3f,
  0x6e, 0xfe, 0x62, 0xbe, 0xaa, 0x13, 0x18, 0x3e, 0x1c, 0xb5, 0x81, 0x3e,
  0xfb, 0x3a, 0xfb, 0x3c, 0xb8, 0x57, 0xb1, 0xbe, 0xfd, 0x91, 0xc3, 0x3e,
  0xe4, 0xc8, 0x13, 0x3d, 0xe7, 0xb1, 0x98, 0x3e, 0x52, 0x05, 0xcc, 0x3d,
  0x14, 0x38, 0xaf, 0x3f, 0xf7, 0xa2, 0xae, 0x3e, 0x97, 0x0d, 0xfc, 0xbe,
  0x40, 0x6e, 0x8b, 0x3d, 0x03, 0xfa, 0xa9, 0xbe, 0x38, 0x92, 0x6e, 0xbe,
  0x63, 0x96, 0xa8, 0xbe, 0xab, 0x59, 0x79, 0xbf, 0x72, 0xd3, 0xca, 0x3e,
  0xac, 0xf3, 0x02, 0x3f, 0x82, 0x75, 0x4e, 0x3f, 0xcf, 0x0d, 0x0a, 0x3f,
  0x34, 0x7d, 0x9b, 0x3e, 0x16, 0x38, 0xd3, 0x3c, 0x42, 0xfa, 0xae, 0x3e,
  0xe8, 0xd4, 0xcf, 0x3e, 0x11, 0xa5, 0x1a, 0x3c, 0x61, 0x0f, 0xc9, 0x3e,
  0x82, 0x3e, 0x01, 0x3d, 0x8f, 0x55, 0x0d, 0xbf, 0x85, 0x04, 0x2b, 0x3d,
  0xdf, 0x79, 0xe4, 0xbe, 0xf4, 0xb4, 0x5a, 0xbd, 0x81, 0xdd, 0x47, 0x3e,
  0xbd, 0x62, 0x83, 0xbf, 0x06, 0x2f, 0x78, 0x3d, 0x17, 0x2b, 0x9e, 0x3e,
  0x2e, 0x5a, 0x90, 0x3e, 0xd0, 0x0c, 0xf3, 0x3e, 0xf6, 0xeb, 0xf6, 0xbd,
  0xc9, 0xee, 0x9a, 0x3d, 0xc1, 0x71, 0xb8, 0x3e, 0x68, 0x3e, 0xf0, 0xbe,
  0xf4, 0x3a, 0xdc, 0xbe, 0x5d, 0x8b, 0x4f, 0x3e, 0xbb, 0x58, 0x9d, 0xbd,
  0x7b, 0xde, 0xbc, 0x3d, 0x16, 0xe0, 0xa0, 0xbe, 0x9a, 0xd2, 0x07, 0x3f,
  0x65, 0x85, 0x82, 0xbe, 0x0e, 0x1c, 0x20, 0x3d, 0xc7, 0x17, 0xe9, 0x3e,
  0x41, 0x11, 0xdc, 0xbe, 0x22, 0xee, 0x89, 0xbe, 0x92, 0x0a, 0x66, 0x3d,
  0x3f, 0x89, 0x7c, 0xbe, 0x24, 0xf9, 0xff, 0xff, 0x28, 0xf9, 0xff, 0xff,
  0x0f, 0x00, 0x00, 0x00, 0x4d, 0x4c, 0x49, 0x52, 0x20, 0x43, 0x6f, 0x6e,
  0x76, 0x65, 0x72, 0x74, 0x65, 0x64, 0x2e, 0x00, 0x01, 0x00, 0x00, 0x00,
  0x14, 0x00, 0x00, 0x00, 0x00, 0x00, 0x0e, 0x00, 0x18, 0x00, 0x14, 0x00,
  0x10, 0x00, 0x0c, 0x00, 0x08, 0x00, 0x04, 0x00, 0x0e, 0x00, 0x00, 0x00,
  0x14, 0x00, 0x00, 0x00, 0x1c, 0x00, 0x00, 0x00, 0x5c, 0x01, 0x00, 0x00,
  0x60, 0x01, 0x00, 0x00, 0x64, 0x01, 0x00, 0x00, 0x04, 0x00, 0x00, 0x00,
  0x6d, 0x61, 0x69, 0x6e, 0x00, 0x00, 0x00, 0x00, 0x05, 0x00, 0x00, 0x00,
  0x00, 0x01, 0x00, 0x00, 0xb8, 0x00, 0x00, 0x00, 0x84, 0x00, 0x00, 0x00,
  0x40, 0x00, 0x00, 0x00, 0x04, 0x00, 0x00, 0x00, 0x96, 0xff, 0xff, 0xff,
  0x1c, 0x00, 0x00, 0x00, 0x00, 0x00, 0x00, 0x09, 0x1c, 0x00, 0x00, 0x00,
  0x20, 0x00, 0x00, 0x00, 0x02, 0x00, 0x00, 0x00, 0x00, 0x00, 0x06, 0x00,
  0x08, 0x00, 0x04, 0x00, 0x06, 0x00, 0x00, 0x00, 0x00, 0x00, 0x80, 0x3f,
  0x01, 0x00, 0x00, 0x00, 0x0c, 0x00, 0x00, 0x00, 0x01, 0x00, 0x00, 0x00,
  0x0b, 0x00, 0x00, 0x00, 0x5a, 0xff, 0xff, 0xff, 0x10, 0x00, 0x00, 0x00,
  0x00, 0x00, 0x00, 0x08, 0x0c, 0x00, 0x00, 0x00, 0x10, 0x00, 0x00, 0x00,
  0xe0, 0xf9, 0xff, 0xff, 0x01, 0x00, 0x00, 0x00, 0x0b, 0x00, 0x00, 0x00,
  0x03, 0x00, 0x00, 0x00, 0x0a, 0x00, 0x00, 0x00, 0x02, 0x00, 0x00, 0x00,
  0x03, 0x00, 0x00, 0x00, 0x00, 0x00, 0x0e, 0x00, 0x18, 0x00, 0x14, 0x00,
  0x10, 0x00, 0x0c, 0x00, 0x0b, 0x00, 0x04, 0x00, 0x0e, 0x00, 0x00, 0x00,
  0x14, 0x00, 0x00, 0x00, 0x00, 0x00, 0x00, 0x1b, 0x10, 0x00, 0x00, 0x00,
  0x14, 0x00, 0x00, 0x00, 0x01, 0x00, 0x00, 0x00, 0x24, 0xfa, 0xff, 0xff,
  0x01, 0x00, 0x00, 0x00, 0x0a, 0x00, 0x00, 0x00, 0x02, 0x00, 0x00, 0x00,
  0x09, 0x00, 0x00, 0x00, 0x04, 0x00, 0x00, 0x00, 0xca, 0xff, 0xff, 0xff,
  0x10, 0x00, 0x00, 0x00, 0x00, 0x00, 0x00, 0x08, 0x10, 0x00, 0x00, 0x00,
  0x14, 0x00, 0x00, 0x00, 0xba, 0xff, 0xff, 0xff, 0x00, 0x00, 0x01, 0x01,
  0x01, 0x00, 0x00, 0x00, 0x09, 0x00, 0x00, 0x00, 0x03, 0x00, 0x00, 0x00,
  0x08, 0x00, 0x00, 0x00, 0x01, 0x00, 0x00, 0x00, 0x05, 0x00, 0x00, 0x00,
  0x00, 0x00, 0x0e, 0x00, 0x16, 0x00, 0x00, 0x00, 0x10, 0x00, 0x0c, 0x00,
  0x0b, 0x00, 0x04, 0x00, 0x0e, 0x00, 0x00, 0x00, 0x1c, 0x00, 0x00, 0x00,
  0x00, 0x00, 0x00, 0x08, 0x1c, 0x00, 0x00, 0x00, 0x20, 0x00, 0x00, 0x00,
  0x00, 0x00, 0x0a, 0x00, 0x08, 0x00, 0x07, 0x00, 0x00, 0x00, 0x06, 0x00,
  0x0a, 0x00, 0x00, 0x00, 0x00, 0x00, 0x01, 0x01, 0x01, 0x00, 0x00, 0x00,
  0x08, 0x00, 0x00, 0x00, 0x03, 0x00, 0x00, 0x00, 0x00, 0x00, 0x00, 0x00,
  0x07, 0x00, 0x00, 0x00, 0x06, 0x00, 0x00, 0x00, 0x01, 0x00, 0x00, 0x00,
  0x0c, 0x00, 0x00, 0x00, 0x01, 0x00, 0x00, 0x00, 0x00, 0x00, 0x00, 0x00,
  0x0d, 0x00, 0x00, 0x00, 0x00, 0x05, 0x00, 0x00, 0xa8, 0x04, 0x00, 0x00,
  0x50, 0x04, 0x00, 0x00, 0x14, 0x04, 0x00, 0x00, 0xa8, 0x03, 0x00, 0x00,
  0x34, 0x03, 0x00, 0x00, 0xdc, 0x02, 0x00, 0x00, 0x90, 0x02, 0x00, 0x00,
  0xf4, 0x01, 0x00, 0x00, 0x50, 0x01, 0x00, 0x00, 0xe0, 0x00, 0x00, 0x00,
  0x60, 0x00, 0x00, 0x00, 0x04, 0x00, 0x00, 0x00, 0x4a, 0xfb, 0xff, 0xff,
  0x00, 0x00, 0x00, 0x01, 0x14, 0x00, 0x00, 0x00, 0x1c, 0x00, 0x00, 0x00,
  0x1c, 0x00, 0x00, 0x00, 0x0d, 0x00, 0x00, 0x00, 0x34, 0x00, 0x00, 0x00,
  0x02, 0x00, 0x00, 0x00, 0xff, 0xff, 0xff, 0xff, 0x07, 0x00, 0x00, 0x00,
  0x30, 0xfb, 0xff, 0xff, 0x1b, 0x00, 0x00, 0x00, 0x53, 0x74, 0x61, 0x74,
  0x65, 0x66, 0x75, 0x6c, 0x50, 0x61, 0x72, 0x74, 0x69, 0x74, 0x69, 0x6f,
  0x6e, 0x65, 0x64, 0x43, 0x61, 0x6c, 0x6c, 0x5f, 0x31, 0x3a, 0x30, 0x00,
  0x02, 0x00, 0x00, 0x00, 0x01, 0x00, 0x00, 0x00, 0x07, 0x00, 0x00, 0x00,
  0xa2, 0xfb, 0xff, 0xff, 0x00, 0x00, 0x00, 0x01, 0x14, 0x00, 0x00, 0x00,
  0x1c, 0x00, 0x00, 0x00, 0x1c, 0x00, 0x00, 0x00, 0x0c, 0x00, 0x00, 0x00,
  0x58, 0x00, 0x00, 0x00, 0x02, 0x00, 0x00, 0x00, 0xff, 0xff, 0xff, 0xff,
  0x07, 0x00, 0x00, 0x00, 0x88, 0xfb, 0xff, 0xff, 0x3c, 0x00, 0x00, 0x00,
  0x73, 0x65, 0x71, 0x75, 0x65, 0x6e, 0x74, 0x69, 0x61, 0x6c, 0x5f, 0x31,
  0x2f, 0x64, 0x65, 0x6e, 0x73, 0x65, 0x5f, 0x32, 0x5f, 0x31, 0x2f, 0x4d,
  0x61, 0x74, 0x4d, 0x75, 0x6c, 0x3b, 0x73, 0x65, 0x71, 0x75, 0x65, 0x6e,
  0x74, 0x69, 0x61, 0x6c, 0x5f, 0x31, 0x2f, 0x64, 0x65, 0x6e, 0x73, 0x65,
  0x5f, 0x32, 0x5f, 0x31, 0x2f, 0x42, 0x69, 0x61, 0x73, 0x41, 0x64, 0x64,
  0x00, 0x00, 0x00, 0x00, 0x02, 0x00, 0x00, 0x00, 0x01, 0x00, 0x00, 0x00,
  0x07, 0x00, 0x00, 0x00, 0x1e, 0xfc, 0xff, 0xff, 0x00, 0x00, 0x00, 0x01,
  0x14, 0x00, 0x00, 0x00, 0x1c, 0x00, 0x00, 0x00, 0x1c, 0x00, 0x00, 0x00,
  0x0b, 0x00, 0x00, 0x00, 0x48, 0x00, 0x00, 0x00, 0x02, 0x00, 0x00, 0x00,
  0xff, 0xff, 0xff, 0xff, 0x0f, 0x00, 0x00, 0x00, 0x04, 0xfc, 0xff, 0xff,
  0x2c, 0x00, 0x00, 0x00, 0x73, 0x65, 0x71, 0x75, 0x65, 0x6e, 0x74, 0x69,
  0x61, 0x6c, 0x5f, 0x31, 0x2f, 0x67, 0x6c, 0x6f, 0x62, 0x61, 0x6c, 0x5f,
  0x61, 0x76, 0x65, 0x72, 0x61, 0x67, 0x65, 0x5f, 0x70, 0x6f, 0x6f, 0x6c,
  0x69, 0x6e, 0x67, 0x31, 0x64, 0x5f, 0x31, 0x2f, 0x4d, 0x65, 0x61, 0x6e,
  0x00, 0x00, 0x00, 0x00, 0x02, 0x00, 0x00, 0x00, 0x01, 0x00, 0x00, 0x00,
  0x0f, 0x00, 0x00, 0x00, 0x8a, 0xfc, 0xff, 0xff, 0x00, 0x00, 0x00, 0x01,
  0x14, 0x00, 0x00, 0x00, 0x20, 0x00, 0x00, 0x00, 0x20, 0x00, 0x00, 0x00,
  0x0a, 0x00, 0x00, 0x00, 0x78, 0x00, 0x00, 0x00, 0x03, 0x00, 0x00, 0x00,
  0xff, 0xff, 0xff, 0xff, 0x7d, 0x00, 0x00, 0x00, 0x0f, 0x00, 0x00, 0x00,
  0x74, 0xfc, 0xff, 0xff, 0x58, 0x00, 0x00, 0x00, 0x73, 0x65, 0x71, 0x75,
  0x65, 0x6e, 0x74, 0x69, 0x61, 0x6c, 0x5f, 0x31, 0x2f, 0x64, 0x65, 0x6e,
  0x73, 0x65, 0x5f, 0x31, 0x5f, 0x32, 0x2f, 0x4d, 0x61, 0x74, 0x4d, 0x75,
  0x6c, 0x3b, 0x73, 0x65, 0x71, 0x75, 0x65, 0x6e, 0x74, 0x69, 0x61, 0x6c,
  0x5f, 0x31, 0x2f, 0x64, 0x65, 0x6e, 0x73, 0x65, 0x5f, 0x31, 0x5f, 0x32,
  0x2f, 0x52, 0x65, 0x6c, 0x75, 0x3b, 0x73, 0x65, 0x71, 0x75, 0x65, 0x6e,
  0x74, 0x69, 0x61, 0x6c, 0x5f, 0x31, 0x2f, 0x64, 0x65, 0x6e, 0x73, 0x65,
  0x5f, 0x31, 0x5f, 0x32, 0x2f, 0x42, 0x69, 0x61, 0x73, 0x41, 0x64, 0x64,
  0x00, 0x00, 0x00, 0x00, 0x03, 0x00, 0x00, 0x00, 0x01, 0x00, 0x00, 0x00,
  0x7d, 0x00, 0x00, 0x00, 0x0f, 0x00, 0x00, 0x00, 0x2a, 0xfd, 0xff, 0xff,
  0x00, 0x00, 0x00, 0x01, 0x14, 0x00, 0x00, 0x00, 0x20, 0x00, 0x00, 0x00,
  0x20, 0x00, 0x00, 0x00, 0x09, 0x00, 0x00, 0x00, 0x70, 0x00, 0x00, 0x00,
  0x03, 0x00, 0x00, 0x00, 0xff, 0xff, 0xff, 0xff, 0x7d, 0x00, 0x00, 0x00,
  0x32, 0x00, 0x00, 0x00, 0x14, 0xfd, 0xff, 0xff, 0x52, 0x00, 0x00, 0x00,
  0x73, 0x65, 0x71, 0x75, 0x65, 0x6e, 0x74, 0x69, 0x61, 0x6c, 0x5f, 0x31,
  0x2f, 0x64, 0x65, 0x6e, 0x73, 0x65, 0x5f, 0x31, 0x2f, 0x4d, 0x61, 0x74,
  0x4d, 0x75, 0x6c, 0x3b, 0x73, 0x65, 0x71, 0x75, 0x65, 0x6e, 0x74, 0x69,
  0x61, 0x6c, 0x5f, 0x31, 0x2f, 0x64, 0x65, 0x6e, 0x73, 0x65, 0x5f, 0x31,
  0x2f, 0x52, 0x65, 0x6c, 0x75, 0x3b, 0x73, 0x65, 0x71, 0x75, 0x65, 0x6e,
  0x74, 0x69, 0x61, 0x6c, 0x5f, 0x31, 0x2f, 0x64, 0x65, 0x6e, 0x73, 0x65,
  0x5f, 0x31, 0x2f, 0x42, 0x69, 0x61, 0x73, 0x41, 0x64, 0x64, 0x00, 0x00,
  0x03, 0x00, 0x00, 0x00, 0x01, 0x00, 0x00, 0x00, 0x7d, 0x00, 0x00, 0x00,
  0x32, 0x00, 0x00, 0x00, 0x16, 0xfe, 0xff, 0xff, 0x00, 0x00, 0x00, 0x01,
  0x10, 0x00, 0x00, 0x00, 0x10, 0x00, 0x00, 0x00, 0x08, 0x00, 0x00, 0x00,
  0x28, 0x00, 0x00, 0x00, 0x98, 0xfd, 0xff, 0xff, 0x1b, 0x00, 0x00, 0x00,
  0x73, 0x65, 0x71, 0x75, 0x65, 0x6e, 0x74, 0x69, 0x61, 0x6c, 0x5f, 0x31,
  0x2f, 0x64, 0x65, 0x6e, 0x73, 0x65, 0x5f, 0x31, 0x2f, 0x4d, 0x61, 0x74,
  0x4d, 0x75, 0x6c, 0x00, 0x02, 0x00, 0x00, 0x00, 0x32, 0x00, 0x00, 0x00,
  0x06, 0x00, 0x00, 0x00, 0x5e, 0xfe, 0xff, 0xff, 0x00, 0x00, 0x00, 0x01,
  0x10, 0x00, 0x00, 0x00, 0x10, 0x00, 0x00, 0x00, 0x07, 0x00, 0x00, 0x00,
  0x38, 0x00, 0x00, 0x00, 0xe0, 0xfd, 0xff, 0xff, 0x2b, 0x00, 0x00, 0x00,
  0x73, 0x65, 0x71, 0x75, 0x65, 0x6e, 0x74, 0x69, 0x61, 0x6c, 0x5f, 0x31,
  0x2f, 0x64, 0x65, 0x6e, 0x73, 0x65, 0x5f, 0x31, 0x2f, 0x42, 0x69, 0x61,
  0x73, 0x41, 0x64, 0x64, 0x2f, 0x52, 0x65, 0x61, 0x64, 0x56, 0x61, 0x72,
  0x69, 0x61, 0x62, 0x6c, 0x65, 0x4f, 0x70, 0x00, 0x01, 0x00, 0x00, 0x00,
  0x32, 0x00, 0x00, 0x00, 0xb2, 0xfe, 0xff, 0xff, 0x00, 0x00, 0x00, 0x01,
  0x10, 0x00, 0x00, 0x00, 0x10, 0x00, 0x00, 0x00, 0x06, 0x00, 0x00, 0x00,
  0x3c, 0x00, 0x00, 0x00, 0x34, 0xfe, 0xff, 0xff, 0x2d, 0x00, 0x00, 0x00,
  0x73, 0x65, 0x71, 0x75, 0x65, 0x6e, 0x74, 0x69, 0x61, 0x6c, 0x5f, 0x31,
  0x2f, 0x64, 0x65, 0x6e, 0x73, 0x65, 0x5f, 0x31, 0x5f, 0x32, 0x2f, 0x42,
  0x69, 0x61, 0x73, 0x41, 0x64, 0x64, 0x2f, 0x52, 0x65, 0x61, 0x64, 0x56,
  0x61, 0x72, 0x69, 0x61, 0x62, 0x6c, 0x65, 0x4f, 0x70, 0x00, 0x00, 0x00,
  0x01, 0x00, 0x00, 0x00, 0x0f, 0x00, 0x00, 0x00, 0x00, 0x00, 0x16, 0x00,
  0x1c, 0x00, 0x18, 0x00, 0x17, 0x00, 0x10, 0x00, 0x0c, 0x00, 0x08, 0x00,
  0x00, 0x00, 0x00, 0x00, 0x00, 0x00, 0x07, 0x00, 0x16, 0x00, 0x00, 0x00,
  0x00, 0x00, 0x00, 0x01, 0x14, 0x00, 0x00, 0x00, 0x14, 0x00, 0x00, 0x00,
  0x05, 0x00, 0x00, 0x00, 0x00, 0x00, 0x00, 0x02, 0x4c, 0x00, 0x00, 0x00,
  0xa8, 0xfe, 0xff, 0xff, 0x3e, 0x00, 0x00, 0x00, 0x73, 0x65, 0x71, 0x75,
  0x65, 0x6e, 0x74, 0x69, 0x61, 0x6c, 0x5f, 0x31, 0x2f, 0x67, 0x6c, 0x6f,
  0x62, 0x61, 0x6c, 0x5f, 0x61, 0x76, 0x65, 0x72, 0x61, 0x67, 0x65, 0x5f,
  0x70, 0x6f, 0x6f, 0x6c, 0x69, 0x6e, 0x67, 0x31, 0x64, 0x5f, 0x31, 0x2f,
  0x4d, 0x65, 0x61, 0x6e, 0x2f, 0x72, 0x65, 0x64, 0x75, 0x63, 0x74, 0x69,
  0x6f, 0x6e, 0x5f, 0x69, 0x6e, 0x64, 0x69, 0x63, 0x65, 0x73, 0x00, 0x00,
  0x00, 0x00, 0x00, 0x00, 0x8a, 0xff, 0xff, 0xff, 0x00, 0x00, 0x00, 0x01,
  0x10, 0x00, 0x00, 0x00, 0x10, 0x00, 0x00, 0x00, 0x04, 0x00, 0x00, 0x00,
  0x1c, 0x00, 0x00, 0x00, 0x0c, 0xff, 0xff, 0xff, 0x0f, 0x00, 0x00, 0x00,
  0x61, 0x72, 0x69, 0x74, 0x68, 0x2e, 0x63, 0x6f, 0x6e, 0x73, 0x74, 0x61,
  0x6e, 0x74, 0x32, 0x00, 0x01, 0x00, 0x00, 0x00, 0x07, 0x00, 0x00, 0x00,
  0xc2, 0xff, 0xff, 0xff, 0x00, 0x00, 0x00, 0x01, 0x10, 0x00, 0x00, 0x00,
  0x10, 0x00, 0x00, 0x00, 0x03, 0x00, 0x00, 0x00, 0x1c, 0x00, 0x00, 0x00,
  0x44, 0xff, 0xff, 0xff, 0x0f, 0x00, 0x00, 0x00, 0x61, 0x72, 0x69, 0x74,
  0x68, 0x2e, 0x63, 0x6f, 0x6e, 0x73, 0x74, 0x61, 0x6e, 0x74, 0x31, 0x00,
  0x02, 0x00, 0x00, 0x00, 0x07, 0x00, 0x00, 0x00, 0x0f, 0x00, 0x00, 0x00,
  0x00, 0x00, 0x16, 0x00, 0x18, 0x00, 0x14, 0x00, 0x00, 0x00, 0x10, 0x00,
  0x0c, 0x00, 0x08, 0x00, 0x00, 0x00, 0x00, 0x00, 0x00, 0x00, 0x07, 0x00,
  0x16, 0x00, 0x00, 0x00, 0x00, 0x00, 0x00, 0x01, 0x10, 0x00, 0x00, 0x00,
  0x10, 0x00, 0x00, 0x00, 0x02, 0x00, 0x00, 0x00, 0x1c, 0x00, 0x00, 0x00,
  0x98, 0xff, 0xff, 0xff, 0x0e, 0x00, 0x00, 0x00, 0x61, 0x72, 0x69, 0x74,
  0x68, 0x2e, 0x63, 0x6f, 0x6e, 0x73, 0x74, 0x61, 0x6e, 0x74, 0x00, 0x00,
  0x02, 0x00, 0x00, 0x00, 0x0f, 0x00, 0x00, 0x00, 0x32, 0x00, 0x00, 0x00,
  0x00, 0x00, 0x16, 0x00, 0x1c, 0x00, 0x18, 0x00, 0x00, 0x00, 0x14, 0x00,
  0x10, 0x00, 0x0c, 0x00, 0x00, 0x00, 0x00, 0x00, 0x08, 0x00, 0x07, 0x00,
  0x16, 0x00, 0x00, 0x00, 0x00, 0x00, 0x00, 0x01, 0x14, 0x00, 0x00, 0x00,
  0x24, 0x00, 0x00, 0x00, 0x24, 0x00, 0x00, 0x00, 0x01, 0x00, 0x00, 0x00,
  0x40, 0x00, 0x00, 0x00, 0x03, 0x00, 0x00, 0x00, 0xff, 0xff, 0xff, 0xff,
  0x7d, 0x00, 0x00, 0x00, 0x06, 0x00, 0x00, 0x00, 0x04, 0x00, 0x04, 0x00,
  0x04, 0x00, 0x00, 0x00, 0x1e, 0x00, 0x00, 0x00, 0x73, 0x65, 0x72, 0x76,
  0x69, 0x6e, 0x67, 0x5f, 0x64, 0x65, 0x66, 0x61, 0x75, 0x6c, 0x74, 0x5f,
  0x6b, 0x65, 0x72, 0x61, 0x73, 0x5f, 0x74, 0x65, 0x6e, 0x73, 0x6f, 0x72,
  0x3a, 0x30, 0x00, 0x00, 0x03, 0x00, 0x00, 0x00, 0x01, 0x00, 0x00, 0x00,
  0x7d, 0x00, 0x00, 0x00, 0x06, 0x00, 0x00, 0x00, 0x03, 0x00, 0x00, 0x00,
  0x3c, 0x00, 0x00, 0x00, 0x20, 0x00, 0x00, 0x00, 0x04, 0x00, 0x00, 0x00,
  0xf4, 0xff, 0xff, 0xff, 0x19, 0x00, 0x00, 0x00, 0x00, 0x00, 0x00, 0x19,
  0x0c, 0x00, 0x0c, 0x00, 0x0b, 0x00, 0x00, 0x00, 0x00, 0x00, 0x04, 0x00,
  0x0c, 0x00, 0x00, 0x00, 0x28, 0x00, 0x00, 0x00, 0x00, 0x00, 0x00, 0x28,
  0x0c, 0x00, 0x10, 0x00, 0x0f, 0x00, 0x00, 0x00, 0x08, 0x00, 0x04, 0x00,
  0x0c, 0x00, 0x00, 0x00, 0x09, 0x00, 0x00, 0x00, 0x05, 0x00, 0x00, 0x00,
  0x00, 0x00, 0x00, 0x09
};
unsigned int Handshake_0603_2253_tflite_len = 7396;
